#version: 0.2
e r
o n
e t
i n
) ;
a t
e s
e n
a l
Ġ {
Ġ }
i on
Ġ =
t r
o r
l e
g et
s t
Ġ r
( )
a r
u r
Ġ n
Ġ (
Ġ i
a n
Ġ <
Ġ c
in g
c e
Ġ t
Ġ p
c t
r o
en t
i t
d e
s e
a m
u l
i c
Ġ f
u t
S tr
Ġi f
p t
r e
e w
a s
Str ing
at e
i s
Ġ s
Ġt h
e x
a d
Ġr et
ur n
Ġret urn
e d
e l
( );
u b
I n
i l
E x
ul l
c h
pt ion
Ġ b
Ġ< /
p e
r i
u e
Ġn ew
a p
Ġ in
am e
C on
l ic
i st
a g
Ġ "
at ion
q u
i d
l o
Ġ m
es s
( "
e ct
a b
Ġn ull
o l
ex t
R e
o m
Ġ v
u n
Ġ /
ub lic
ce ption
y pe
Ġp ublic
Ex ception
Ġ +
es t
m ent
Ġ/ /
as s
o de
v er
o t
in al
Ġ String
i g
c k
N ame
al ue
t er
e m
Ġ d
ab le
l ass
p er
ul t
i m
L ist
T ype
s et
ro w
S t
j ect
i le
t h
o d
Ġ o
() .
ag e
Ġ w
en d
() )
qu est
i z
R es
ad d
Ġth row
Ġ= =
P ro
an d
a y
Ġ st
u m
Ġr e
t ext
Ġf inal
Ġ S
Ġ @
e y
p ut
E n
Ġ C
b ject
tr y
Ġ l
I d
Ġ get
u p
in t
il d
Ġ !
a ct
) )
a se
Ġc on
() );
Ġ e
" ,
Ġ 0
Ġf or
at a
" );
Ġr es
o id
al l
p l
Ġin t
O bject
D e
o ur
Ġv oid
at ch
Ġ! =
er s
Ġ el
p on
c on
t o
t e
Ġel se
P ar
o o
A r
f f
Ġth e
Ġp ro
Ġ I
O ver
v e
st an
V alue
o un
Ġth is
ri de
M ap
T o
Ġt o
u s
Over ride
u ild
) );
at h
our ce
L o
Ġ h
i f
f ig
() ,
Ġ a
v i
iz e
Ġ T
Re quest
i b
ct ion
it y
a ck
C lass
r it
el d
im e
ar t
de x
p r
i eld
ap p
or t
per t
Ġ :
le ment
M et
o s
E R
it ion
r ay
at or
Ġ -
en g
s er
a in
or y
le an
Ġ ex
O N
stan ce
Ġ &
Con text
Ġ A
y te
Ġst at
) .
Ġ lo
S er
re ate
C h
I N
eng th
e c
pon se
F ile
K ey
s h
or m
oo lean
uild er
C om
a ce
Ġ 1
h od
o w
[ ]
Ġ tr
e am
i r
or d
n ew
c ess
ur e
Ġthrow s
Ġi s
l i
ess age
ut e
Ġp ri
vi ce
p ar
ess ion
s tr
Ġ B
D ata
Ġstat ic
v ate
Ġ M
Ġ& &
S et
Ġc h
Ġ .
- -
Ġ j
Ġ de
Ar ray
g er
Con fig
k ey
in e
a ch
it h
r or
ad er
Ġpri vate
ur r
N ode
c ri
Ġ try
Ġc ase
al s
on g
or e
A t
app end
f o
l er
tr ib
i es
c lass
v ent
Ġres ult
Ġ D
Ġp ar
in d
an g
Ġ P
Ġc om
Par am
r es
e qu
T r
k en
an s
i al
Pro pert
Ġ )
o ut
en er
Ġc atch
oun t
A n
u ff
E lement
U n
urr ent
Ġ List
Ġv alue
o p
u ment
ro m
Ġ g
a k
Ġb oolean
t il
Res ult
al se
Str eam
Ġ L
A T
a v
R E
F ield
ar sh
De f
St ate
li ent
Ġ In
H and
B uilder
e ck
Ġ |
o c
U til
i p
l ength
P ath
Ġ Object
C ol
i re
er y
ro up
a x
equ als
a st
arsh all
v al
c al
n ot
rit e
t em
u g
uff er
y n
Ġ *
Ġ ar
Ġ O
en ce
f inal
re ad
h t
Ġ J
th is
p ort
S T
Ġ >
Res ponse
A s
Ġs et
u le
Ġ F
s on
n ame
T ime
In dex
Ġre quest
i ve
c om
t ain
Ġb e
ter n
v alue
f orm
c l
Ġf alse
n ect
o ub
o f
Ġ H
Met hod
oub le
M essage
E N
p ro
Hand ler
t p
ode l
a c
Ġ R
a ult
c ol
In fo
um n
ar get
trib ute
Ġtr ue
es cri
Ġ en
+ +
B y
Propert y
A d
b er
et er
Q u
I m
0 0
act ory
as k
t ent
Ġ| |
ur ation
u st
if i
Ser vice
a il
Ġlo g
Ġin stance
Ġ( !
) ,
E vent
I D
O f
S e
P o
Ġ _
Ġ '
Ġn ot
l et
re ak
Ġ add
l y
d ate
y st
St at
Ġo ut
oun d
b yte
yst em
Ġ se
f er
il ter
A l
Ġ V
A L
O Exception
le ction
U R
ec ut
ach e
Ġb reak
En try
In stance
Ġw h
Ġ N
Ġ ?
ig n
pt y
Ġt ype
Res ource
pr ession
an ag
le ct
Ġcon text
s ion
as h
o b
s ize
L E
Ġ on
E r
pon ent
rit er
i ew
Ġ key
< ?
r ess
O R
Ġm et
Ġc reate
p o
To ken
A R
Ġn ame
T h
g ument
M E
u es
F actory
Er ror
G roup
Lo g
c cess
t tp
S ize
av a
Ġ( (
Ġinstance of
le g
o ve
p os
d er
u se
> >
m s
E m
ig ht
. .
H e
C lient
i x
c ode
am es
Ġo f
I ON
nect ion
ect ed
V al
anag er
act ion
c reate
lo ck
ang e
Ġs tr
N ull
not ation
Util s
Ġpar am
or k
N ot
Ġ );
O r
er ror
te ger
to String
t ected
-- --
get Name
Ġ G
i v
O ut
Ġ at
ut h
y p
m l
Ġpro tected
I tem
able d
an n
C ode
W ith
put Stream
a w
Ġv al
get S
um ber
Qu ery
Ġ Array
ar i
c es
Ġs er
" )
ar y
o st
b ug
per ation
ing s
ĠI OException
] ;
yn c
Ġl ist
n ull
lo w
Ġ Map
r ap
At tribute
Ġl ong
A p
ff set
Ex pression
M anager
in ition
Ġ an
h er
Ad d
ers ion
D E
Em pty
B e
con text
Ġd ata
C ount
S E
Ġres ponse
t s
w rite
fer ence
T ext
O ption
t es
( (
Ġ or
A N
b e
pr int
c ord
Ġ 2
D escri
ate d
t ype
m and
in k
r ic
er t
O G
re d
Param eter
F or
g s
Ġde f
C E
il l
c o
Ġ W
u ct
u per
n ext
pe c
Config uration
En abled
U ser
de d
t ime
Ar gument
Ġc ol
arshall er
p le
> ();
V iew
Ġ File
" ;
, (
leg al
tern al
L e
Ġ x
Ġw e
B uffer
U p
Ġ and
b ack
Ex ecut
yp es
Tr ans
I T
to col
lo se
ir st
Stat us
Def inition
l legal
ic ation
v el
un ction
iz ed
M odel
Ġi d
lo g
F orm
n er
++ )
" ))
F rom
ĠC lass
En t
v id
o ot
Ġi t
us er
Ġf ield
Ġd ouble
Ġf ile
IN G
Al l
pt or
Ġcon fig
Ġc urrent
Ġ un
O n
Ġmet hod
Com ponent
ire ct
s ub
Ġwh ile
h as
S S
c urrent
qu ery
T able
st art
Ġst art
re f
C T
Ġ up
get C
ar d
Ġch eck
= =
ann el
g e
ch em
p ace
Ġ al
C all
Ġ ext
f ile
ĠArray List
Ent ity
Ġt arget
D ate
Ġin dex
In ter
R O
ĠS ystem
ab el
r on
Ġ E
Con tent
Re g
tain er
Ġs h
Lo cal
P os
Col umn
oc ument
Ġn ode
in dex
trib ut
er m
vid er
on e
op y
U T
et ers
ĠI llegal
at ure
a z
an ce
Ġf rom
List ener
Ġc lass
S h
ar n
c ation
ent ity
m ove
Im pl
An d
Ġb yte
In t
o k
N ames
tain s
en c
St art
u f
e p
ow n
ifi er
Ġpro pert
u d
val id
Ġp ath
ĠC ol
Con nection
S ource
L ine
En d
Ġ- >
A ccess
Ġ as
an t
A ME
end s
re e
EN T
ĠT h
it er
ad ata
is Empty
> (
Ġ Re
un d
Ġw ith
r y
c c
ck et
un time
en sion
se d
Add ress
lo ad
()) );
Ġs b
V ersion
Propert ies
f t
P E
F ilter
T ask
<? >
Ġd o
Ġs uper
get Value
Ġc l
ar ch
Ġre ad
* *
F I
de bug
Ġdef ault
ter ator
M od
Con stan
ec ute
C ache
lic ation
ĠC om
C O
Form at
T ag
Ġst ate
ol d
at tern
S ub
lo at
An notation
\ "
re quest
Met ric
T Y
q l
Pro cess
chem a
a ve
Def ault
ĠL OG
m it
Ġ Exception
Ġlog ger
Ġ k
D is
A ction
ial iz
id th
d ata
ari able
g n
ul d
l n
O peration
ut ure
m ap
Ġ end
J son
Ġc all
Ġm ap
N umber
ur l
od y
ack age
up port
re g
con tains
v let
w ord
r l
Ġin put
qu ire
Ġr em
o uld
Ch ar
C ON
M arshaller
N ext
c od
P l
str ing
Ġ+ =
L ength
Ġb uilder
tr ol
m er
Ch ild
Ġen try
tribut es
ch eck
/ /
Execut ion
Re ference
L ong
L A
e e
Ap p
In teger
et e
UR L
pl ate
Ġe lement
Ġ y
Ġh and
m et
Ġm essage
Ġw rite
tr ue
Ġh e
Pro vider
is it
U rl
s ing
U E
print ln
T ypes
N AME
form at
p ath
po int
if ication
S ession
ate g
Be an
Ġs ub
S ON
ĠS et
r c
Ġj ava
N on
E D
ist er
ver t
m in
s um
re move
C ase
By tes
Ġres ource
Argument Exception
U N
As ync
ag es
W riter
ile d
U L
oo k
pt h
()) )
en try
e b
pl ace
Ġo bject
Ġ} );
res ult
a int
Ġm ax
A D
pe ct
Ġ query
Ġext ends
l es
Up date
G E
Ġtr ans
G et
Ser ver
M A
con d
in fo
Ġ %
Tr ace
par se
C H
S pec
A uth
Le vel
ot her
ĠIn teger
He ader
ĠS er
ĠC h
Ġp os
B yte
Ġb y
o g
m p
Ġp re
m arshall
Ġ X
g ment
Re cord
Ġ le
Ġs ize
Ġc an
pos it
Ġ user
Constan ts
Ġs ource
p s
a iled
Un it
ref ix
Ġto ken
ay out
em plate
e ature
ĠCol lection
M L
ar k
Ġ Con
H ttp
Ġin it
I f
a use
f ield
atch er
ol der
at ab
Po int
D el
b j
l ist
Ġpro tocol
.. .
L O
B ase
A ct
R ule
Par t
get P
---- ----
Val ues
Ġ{ }
g le
Ġb uffer
b uild
Ġe vent
par am
Par ent
rap h
atab ase
ord er
pl y
Ġf ind
G ener
ĠIllegal ArgumentException
u al
Ġn ext
ifi ed
Ġ error
get Class
ĠH ash
our ces
par e
S c
L I
end er
Re f
Ġup date
Met adata
ĠString Builder
Ġth at
il es
in ter
R ow
De p
De pth
ic ate
im ple
In put
Re ader
el per
enc y
Ġpro cess
T E
a pt
irect ory
UR I
r aw
Lo ader
w it
F unction
ot e
M em
get Message
mer ce
Ġre g
i a
s cri
. ");
P age
Ġch ar
ĠH ttp
y le
ce pt
T arget
er e
l ine
J ob
Ġ> =
ĠT r
s Request
O ffset
pl it
Descri ptor
y m
lect or
Ġh as
Com mand
St ore
ue ue
ust er
State ment
Ġfinal ly
h e
t in
Con tainer
co pe
Ġ 3
r et
St ack
T R
F uture
Ġ ass
let e
Metric s
wit ch
Col lection
" .
< >();
a ir
s g
Val id
ption s
B lock
o le
Ch eck
P ri
cl ar
es c
con fig
s s
f ace
x y
M ode
Ġ Type
Ġt ime
Ġc lient
r am
AT ION
t x
Ex t
K E
Ġout put
ak e
az z
Ġcol umn
Lo cation
R el
oo gle
Ġch ild
Q L
Ġpropert y
] .
Ġar gs
As s
Option s
Ġfor m
Ġ all
F A
M P
Pos ition
Param eters
Con str
TY PE
if y
D ir
o x
Ġl ast
at ive
c lose
Ġpar ent
ad ers
ch ar
od es
Par ser
v ok
D ocument
ser t
o cket
Ġpar se
c le
yn ch
S up
n ode
Ġw riter
C l
ib le
ach ed
S I
a f
Ġ Pro
to ken
Ġser vice
iz ation
Ġi tem
Ġ( "
L abel
Im age
Or der
pr ess
O T
us h
par ator
get Type
ynch ron
H elper
f ore
Param s
T ree
Ġl ength
A P
t ings
Ġi m
el l
Re ad
at es
Ch annel
act or
Ġval ues
V AL
M atch
p ing
ri d
" ));
Ġlo cal
C reate
R et
v ed
AT E
Out put
sub string
p en
A b
get Id
im it
gn ore
g oogle
Ġs ession
P ackage
tin ue
V ariable
Ġar e
Met a
ur ity
G ER
Ġprotocol Marshaller
Ġval id
s p
Ġ use
lic y
Th read
S ystem
) {
ent ifier
B oolean
Ġex ecut
f or
w ith
Ġr ow
( '
g in
Ġf irst
_ _
am p
Ġs witch
le d
ch ed
get Key
Ġt able
get M
f rom
t c
Con trol
' t
in put
In putStream
En um
untime Exception
Ġcon tent
Ġ< =
H ash
und le
Ġn e
Reg is
ug in
Ġc ount
" ).
r ame
IN D
lo y
Ser vlet
w ork
ut t
is h
P re
Ġp o
str eam
Ġ act
Ġf ilter
Ġd is
Ġ/ *
upport ed
L ink
W arn
a pe
iv ity
Ġ* /
S u
d ition
Ġl ine
Ġ q
Ġcon tinue
Ġ url
Ġ U
lo b
pro pert
ot al
T A
] );
r en
T H
o in
m ax
()) .
Ġs c
ializ er
is sion
Descri ption
row able
de f
it s
ic s
Ġ ad
is ion
pect ed
D ouble
pl et
Lo ck
cl u
Ġm atch
oun ter
utt on
ic al
E L
T ER
posit ory
E d
I OException
O P
cri pt
Ġp art
ĠJ son
Ġg ener
0 1
i o
ust om
l l
Ġ z
em pty
ut il
ial ize
vok e
it e
get F
Ġo ffset
Col or
get Instance
ect or
quire d
Ġt ask
W ork
ab les
L ayout
il ity
ption al
ynchron ized
At tributes
f alse
in ation
Ġr ule
l ang
Ġr un
ap i
Ġg roup
it or
W idth
R oot
D et
O D
e lement
Ġ 4
ass word
ut able
P an
st ate
ess ages
ur i
ĠB yte
met hod
l ast
KE Y
Ġ other
c ount
l ag
UL T
P er
++ ;
rap per
Ġparam s
Ġex ecute
ac es
ic es
F F
N o
F ound
Ġor ig
Trans action
m ary
p re
L ast
i e
Ġj son
Ġm in
Ġ app
value Of
V ER
c opy
I terator
P RO
T emplate
apt er
ĠB oolean
ic k
ation s
Ġs ynchronized
Field s
Out putStream
at er
am ple
H ost
d k
Ġ entity
De c
Ġin ter
Ġb uild
i de
l ong
o us
m on
j ava
cc ount
Ġrem ove
Ġcon nection
f ind
Ġt ext
res ource
or age
b ser
Ġc ache
str act
i ff
In ner
V ar
g roup
pl ay
Warn ings
B LE
In ternal
s or
Ġar ray
Ġo bj
ym b
R un
b uilder
ĠA t
Ġm od
Handler Context
R ange
r int
Ġp l
Call back
em p
Ġform at
< >(
ĠL ong
P ort
r u
b ase
ĠJ SON
E X
P attern
st at
T im
Res ol
S ER
tr act
Sup press
1 1
w er
Ġn um
Ap i
ist s
om ain
Un m
De clar
Ġstr eam
ri g
Ġc ode
Ġf loat
uct or
De bug
Ġf ound
D irectory
App lication
Ġr oot
B ody
Ġ} ;
Pro ject
ĠHash Map
it em
ind ow
N um
a it
s c
Ġt ag
Ġt c
Ġ [
Ġ Node
ver ter
B ound
Suppress Warnings
at ri
ar e
ap ply
ind ing
p an
Ġex ception
ult i
ĠA n
Se gment
atri x
O L
it le
Ġh ave
Ġm odel
In it
t arget
ĠM ath
Ġn o
Ġparam eter
ht tp
Ġ old
D B
Ġd est
Ġhand le
ymb ol
h and
Ġser ver
N ew
e vent
Ext ension
i er
k ip
ĠR untimeException
m essage
col umn
equ ence
1 0
S ec
Ġd escri
Po ol
tr ans
ill is
A g
r ag
Un s
Ġpropert ies
Ġm arshall
cal e
\ \
d b
iter ator
Ġ Log
ĠC ms
end ar
erm ission
Id s
un k
ĠI m
Ġb ase
Unm arshaller
St yle
ĠD ate
Ġm sg
ĠO ptional
T I
U M
. _
w arn
red icate
g r
it ies
S chema
Ġb uf
: :
VAL UE
A C
Ġstr ing
s ource
W eb
get D
cod ing
)) );
Ġs o
u id
t est
Ġc tx
Key s
m atch
Ġm ust
f ilter
p c
Ġar gument
has Next
sum er
tr ies
if act
s With
Q ueue
Po licy
Ġlo ad
Ass ign
p h
S C
Ġ Data
g ress
Ġs pec
b uffer
ĠI f
An y
act er
in it
up date
In valid
est amp
Ġc opy
al endar
Ġv ersion
Re m
u cket
ac ing
I L
re place
** **
f ter
per ator
B ack
> ()
Map ping
Ex p
clu de
in c
ol ve
Ġw ork
Ġcom mand
Ġ action
ur es
Ġa uth
I S
val ues
b uf
res ent
lect ed
U ri
B IND
C ms
loy ment
Ch ange
Ġ Request
Ġj ob
Not Null
el ine
check ed
Ġat tribute
c lient
Ġh ttp
Regis try
Inter face
i ent
P air
Null able
ver sion
Set tings
S ign
ent ication
res ponse
BIND ING
{ }
Ġparam eters
Ġcon vert
I gnore
ateg y
P ER
F ailed
M ax
ial og
pro cess
R I
en u
et work
j son
FA ULT
f l
cod er
in ary
im al
Ġ K
1 2
Ġw ill
sRequest Metrics
ut o
To p
on t
Ġo ptions
M illis
6 4
W rapper
ail able
E CT
form ation
. ",
== ==
t ach
Ġorig inal
Ġ St
ay er
res h
] ,
Ġsh ould
lo ud
i se
al y
Ġl en
o bject
get String
00 0
val u
He ight
vi ron
Ġde p
P O
Ġ Method
om et
getC urrent
Ġc lose
viron ment
Mod ule
ing le
ru pt
get Property
L OG
S ocket
' )
Constr aint
ul es
S H
( _
State Exception
Ġre cord
Ġ" ,
S equence
n own
m d
Ġby tes
ar ray
Ġcom ponent
m utable
Ġb lock
P AR
ers ist
ip eline
g reg
up le
Execut or
G raph
c er
ateg ory
EN D
f low
d uct
> )
Ġde lete
ĠA p
T O
par ent
AN CE
B utton
F eature
o ord
ed ia
ail s
N O
Par se
ĠLOG GER
Ġv iew
( @
sh ot
Time out
in ed
P refix
S cope
Ġw as
t able
ex ecute
ur sor
ĠIn ternal
Ġar g
Pan el
Ġs rc
and om
Ġcl azz
et ch
Ġconfig uration
propert y
pos ition
v oc
ay load
ment s
P A
Ġan notation
Com p
Element s
ter able
R A
ert ex
read y
x ml
Ġon e
3 2
Ġp age
n ap
Ġstat us
Ġre f
pl ete
I s
J SON
Ġre ader
ser vice
start sWith
or g
C an
get R
Id entifier
Ġ" .
qu al
Ret urn
is Debug
Ġm em
Ġ order
ail ure
U P
Ġass ert
Ġne ed
e at
Ġ{} ",
End point
Ġv isit
En g
Ġo p
m od
ames pace
Del ete
ĠSer vice
Ġr el
Ad apter
W rite
I C
Local e
lo c
co ver
get B
add All
next Token
d is
reg ister
Se arch
ub l
Ġhe ader
Tr acing
' );
t ml
lob al
red ent
at as
Ġon ly
at ing
q ue
en ces
vi ous
nap shot
con tent
T erm
om e
Ġc ached
Ġ Response
Eng ine
Ġ< <
St ep
ER R
A X
Ġtarget Depth
A ccount
isDebug Enabled
cle ar
He aders
ched ule
F irst
en ame
ĠIllegal StateException
Map per
ĠCollection s
ĠD ouble
Client Exception
Ġn umber
bser v
Not Found
J ava
ync Handler
ri ver
e as
n um
an k
Ġ us
Pro xy
Ġexecut ion
(" \
mit ive
B ox
c all
voc ation
ang ed
Non null
un checked
Ġ 8
Ġo peration
Hand le
H T
Ġbe fore
Ġ Field
ast er
Log ger
b ers
m odel
is sing
ent er
Ġ Property
Ignore Case
oc i
Ġin fo
-------- --------
er n
scri ption
Con dition
V I
m t
Ġlist ener
Ġbe an
Ġ" );
v ision
as on
Non Null
s ession
tr im
de lete
contains Key
Ġ 5
Ġ" /
F iles
Ġr ight
is Any
ut ion
s rc
ch ild
Tracing Enabled
leg ate
M on
Part ition
er r
Lo ad
= "
end ing
s ol
Ġ Resource
Ġc al
P resent
vi ew
Str uct
t ag
isAny TracingEnabled
Ġor g
' s
stan t
le m
Ġcon str
es er
Process or
Dec imal
ro und
H older
d ouble
ĠI N
ob j
rag ment
Ġreg ister
Th rowable
s plit
s ure
ist ory
S QL
< /
d u
Ġle ft
Ġb ut
Ġ ed
ĠL ink
Gener ator
Ġ uri
()) ,
M in
d own
Un able
u age
Ġch annel
b y
I G
ĠI terator
im ension
Ġ ag
) ");
V E
RE S
put e
Ġex p
ser ver
Ġpro ject
i ce
M ENT
ed Exception
Act ivity
A M
ĠTr ans
Ġh ost
Ġp er
end ency
ĠP ath
ain ing
o ffset
ial ized
ĠA s
Ġa c
N odes
s l
ch ange
Meta Data
en ers
ĠM odel
Le ft
X ML
char At
Ġd b
ĠG et
d escri
Ġpos ition
Ġ Query
T est
Pro tocol
iz er
Ar t
: //
Pl ugin
Ġ append
In d
Ġhand ler
Con nect
ar gs
D oc
iter al
entry Set
Con verter
in ish
NotFound Exception
ol l
v ailable
Th e
Ġcom p
D atabase
stat us
all y
le ase
Ġ URL
V is
MA X
e ar
ifi ers
C urrent
d a
IN E
a uth
Trace Component
Service Response
w e
at al
Mem ber
ist ing
ĠA d
Ġdo es
t ing
Ġd ate
Q U
ig h
ĠT ime
Cl uster
index Of
p art
M essages
Ġp ort
equals IgnoreCase
P ermission
Re pository
Ġs ql
orm al
Class es
Stack Trace
ĠS dk
az on
omet ry
ce ptor
X ml
U ID
N ON
O p
t ask
ERR OR
Su ccess
Stat s
i od
ĠCh ar
v isit
Resol ver
Z E
Uns upported
D esc
lic k
At om
m ar
o ver
Qu al
Ġ" '
Ġt emp
out put
ĠSdk ClientException
lag s
Ġde l
Ar gs
lo cal
UT F
Class Name
v ices
ĠS QL
Ġ Element
Ġt im
Ġan y
Ġim age
Reg ion
Res ources
I R
or ity
def ault
C lose
ĠP o
Ġp ut
get A
ĠS e
O bj
in es
ert if
Ġat tr
00 00
w ner
" ),
and id
c re
F rame
Ġt mp
v m
Ġ' "
w sRequestMetrics
R ole
l d
S um
Ġth read
ct x
On ly
U S
Ġl abel
DE FAULT
a de
ance l
t a
] [
P RE
Ġt otal
i ct
o ute
d f
Ġ 6
U s
ĠN o
bserv able
or s
com p
tr ace
ab ility
l v
d o
g ing
Ġal ready
Ex pr
Ġcall back
Ġo ver
Ġs end
Ġb ack
Sec urity
log y
ĠTh read
Ġre quired
c ur
B atch
f irst
IN ST
ĠM essage
pr es
st ore
M arshall
' :
stan ces
V ari
Ġpo int
IN T
IT Y
1 6
r an
Ġcon tainer
ic h
com pare
F actor
Ġ em
J ECT
Ġp attern
r un
Ġ u
A GE
test Expression
W indow
g ener
D S
am b
Ġp rint
Str ategy
af e
get Attribute
M an
LA SS
Ġlo ck
i que
O B
un marshall
ul ate
If c
S cript
S p
Ġ ab
l ers
D O
est ination
ĠLink ed
as ic
g ed
# #
W ord
B undle
CT ION
Ġ Default
in stance
ĠB ase
Ġm ake
s ql
c ache
e an
Ġvalid ate
Ġx ml
il ename
ro ll
Ġwh en
Ġcan not
get T
Ġadd ress
Rel ation
Re port
ST R
Ġ Key
ort ed
Ġ+ +
Ġmet ric
Art ifact
E S
or ed
code d
P AT
am ed
AT A
Ġ Un
b o
L en
St orage
Pro file
8 0
C ap
Ġpar ser
Ġt est
ro ot
id get
OD O
Po inter
Ser ializer
ang uage
Ġto p
ĠIn putStream
Ġse arch
tr ation
ang es
UL L
n ing
ĠA b
Ġi ter
ĠB uffer
2 01
p ri
Result s
)) )
urr ency
Ġf unction
SI ZE
eas ure
M atrix
log ger
Ġs u
i ver
Ch ain
ĠTh e
ult ip
Control ler
Ġf actory
P T
ook ie
(" /
sol ute
Ġd ocument
i ed
un c
inc ip
OR T
k nown
m ark
TI ME
Ġcom merce
ertif icate
e ometry
Ġp refix
ay s
Ġat tributes
De vice
Ġ" +
Lo wer
Ġex pression
SE T
ĠX ML
M ark
ĠIm mutable
ar ed
B it
! =
i als
Ġin d
C ounter
Ġh ash
po se
Ġs chema
ect ion
re ader
Ġ" \
Ġd oc
ĠHash Set
Ġ1 0
Po st
Ġ Ex
fer ences
H as
tr a
I P
r a
H E
En coding
N OT
Item s
pl ier
Ġ empty
Ġkey s
Not ification
ar g
w ard
form er
Z one
oord in
C ell
ir t
B l
Child ren
2 0
ex it
y cle
Pl an
ms g
S ql
C P
L S
ist ance
INST ANCE
D A
)) .
T P
Ġst ore
i ction
low ed
Ġgener ate
ĠP re
c ast
app ed
Ġmet adata
is Entry
V ertex
or re
l ation
En vironment
get O
Bound s
isEntry Enabled
+ "
b ody
Group Name
Ġd st
Ġc p
L imit
Names pace
A S
cond s
AR T
Ġfield s
ig Decimal
Ġre q
Ġ( _
V ector
Ġlo cation
riter ia
Ġresult s
D omain
lo t
Ġb ody
In s
C K
Ġa fter
ram mar
at tribute
Mem ory
Declar ation
amb da
M enu
ind er
( !
le ft
F O
et a
Col lector
con current
S ymbol
anag ed
Ġs ign
B uild
ce d
Dep loyment
D I
Ġre port
ib ility
M S
atal og
n able
b oolean
CO L
: "
ĠArray s
g or
op en
Sh ort
Con f
ac ity
ition s
m em
sh ip
F low
ĠS h
app ing
ĠTh is
and ard
Method s
A li
E ach
Det ails
M O
gor ith
E l
F OR
ack et
h ost
w idth
V isit
atas et
Annotation s
] )
in voke
av ax
a o
g round
EL D
B inding
Ġ ()
ol low
Ab stract
2 5
Ġth ere
ĠS imple
ĠF unction
n s
ret urn
Ġ RE
Ġa ccess
ist ics
ĠAb stract
Ġas yncHandler
B ar
or ization
ĠO bservable
incip al
Ġa wsRequestMetrics
P assword
Ġre place
ul ar
b ed
Class Loader
HandlerContext Key
t ed
add HandlerContext
Ġ Value
yn am
Ġn on
C alendar
cl azz
O pen
l en
re en
ĠC reate
Re p
ializ ation
x a
2 4
Parent Element
re m
Dis play
p ed
Ġtrans action
GE T
ĠV iew
Constr uctor
Column s
Ġth en
Con sumer
D own
Ġ apply
S ION
er ge
get Path
Ġt emplate
ix ed
ĠIn ter
il er
an notation
> ");
P h
Ġ Stream
Servlet Request
1 8
C ategory
imple Name
ol y
Ġ' \
U B
LO W
Ġw idth
String Utils
Constan t
Ed ge
Ġm ay
ĠD E
Time Millis
ac cept
by tes
redent ials
Ġst ack
At tach
In formation
im um
A BLE
o ved
rupt edException
Ġn ow
get Resource
ur ed
Ġj j
D ialog
W S
e ed
c s
B uf
ĠW eb
Ġ" ";
con nect
Ġcon f
Ġo pen
ĠBuffer ed
Ġst op
R ender
Inter val
i k
n ow
CH E
Group s
li p
Ġv ar
Ġ URI
tem pt
C ustom
Argument s
F ailure
ject ion
he ader
Ġcom pare
get Data
O UT
Id entity
qu ence
re c
ex pected
gorith m
ĠW e
t y
TA G
ran ch
W h
pro to
Ġt x
get Parent
f s
iv ed
FI X
Ġm ain
Tim estamp
ann er
Ġin voke
L iteral
ire ction
Com merce
c p
N etwork
ĠT ODO
Ġs kip
R ed
F loat
ĠS ib
irt ual
Com parator
ex ists
st all
j o
rig ht
ver se
to Array
C lick
Ġpro p
en ded
ĠAt tribute
h ash
O perator
[] )
eat ures
Su ch
TE X
c an
Ġd atabase
Se lect
Ġre ference
Ġ qu
s pace
Ġi terator
ry pt
ro p
Ġ ;
d ir
Ġ Token
Rem ote
s end
At tr
um e
' ,
ĠSib Tr
Ġwh ich
j ob
ut down
Pro gress
ĠTh rowable
andid ate
Ġ Result
C A
Ġchild ren
Ġse gment
con nection
En tries
print StackTrace
ri e
Se lector
ynam ic
Ġexecut or
1 5
as sed
Ġl ink
cl us
w s
be an
w w
Ar g
O UR
G r
// //
ver s
at tr
M sg
C LASS
Tr ack
++ ]
i as
tr ee
D b
M ulti
S pace
posit e
ch annel
Ġcl uster
t en
Ġt ypes
lo cation
H istory
O F
Date Time
n o
Ġ Z
B Y
propert ies
ex ception
ched ul
in ce
aw s
Ġf eature
e k
c r
l at
con vert
Act ive
m atcher
Char acter
S upport
Ab solute
ex p
Q UE
ĠV al
D ig
d s
am azon
F older
de p
Ġres olve
Hash Map
Pro duct
Se lected
o v
p age
To ol
Ġuse d
o ck
= \"
l abel
C opy
uff ix
Ġres ol
Ch anged
c urity
Ġs plit
I B
Re ce
Tag s
Auth entication
u ction
Ġ User
Ġf iles
Ġmod ule
D ATA
ĠAd d
Ġhe ight
Assign able
en s
Ġf ailed
Ġact ual
Ġex pected
h s
valid ate
new Instance
code String
Ġpre vious
her e
col lect
By Id
Ġb ec
LI C
ĠString Utils
b ound
key Set
Ġclass Name
r incipal
D iff
Ġl imit
1 3
com ponent
> ,
get As
current TimeMillis
Pri mitive
P I
ĠO ut
On e
ign ed
U I
s is
c loud
com mand
F ull
oo p
Ġpro vider
a ded
c at
AL L
Can not
M IN
tr o
as List
Access or
Ġv er
b lock
an ization
re cord
get Default
S napshot
f aces
ĠSQL Exception
" :
ĠCh eck
n amespace
Parse Exception
I con
ug h
s uper
Ag greg
amazon aws
Ġd et
o ice
ib r
Ġapp lication
add ing
Ġcon nect
Ġr ange
Ġr aw
h a
OR D
Ġtime out
Ġp assed
Ġo ff
U uid
param eter
Im port
Lower Case
Valid ation
In stances
TEX T
D raw
Ġcon trol
c ard
(" ,
Top ic
Ġext ension
Ġle vel
C re
get E
Com plet
I ter
Id x
1 4
con tainer
Array List
proto buf
Ġpro ps
Ġstate ment
ĠN ot
**** ****
id x
f loat
Ġd iff
Ġb atch
r s
db c
get Text
let on
Ġbe en
Ġb ound
th e
yn t
Ġr est
le ar
L ambda
B U
AT TR
er o
get Last
R untime
9 9
st op
Ġelement s
OB JECT
5 0
M ath
Im p
Ġi gnore
parse Int
l ink
Ġ Config
AN D
in ternal
Ġs p
R est
Ġ ,
aly sis
getS impleName
param s
cover y
l ing
N S
b ox
form ed
at ew
2 2
U se
yp ed
ĠD escri
I F
Ġch ange
Stat ic
I llegal
Descri be
Dep endency
get Request
c ent
ĠAn notation
or ig
or ter
Ag ent
word s
ä ¸
ĠD ocument
Ġpart ition
hand le
ubl ish
Ġi mp
Ġoriginal Depth
D irect
Ġn ames
M issing
Ġh ere
po logy
ĠI D
ign ment
R ight
Ġlo ok
age ment
C ould
Ġcached Ser
Ġin ternal
Ġexecution Context
Ġs ame
Ġv ariable
<? >>
S imple
i ate
Ġwe b
Ġs cope
V oid
Constraint s
S ingle
M AT
Ġbec ause
P redicate
ud it
B inary
ĠG ener
l f
Object s
A c
s ible
FI G
o ptions
Re quired
Ġpro xy
Ġr ed
Ġ> >>
ĠVal id
is Assignable
re q
Ġhe aders
ĠN umber
Sum mary
ĠAp p
Ġp ost
e g
Ġex tract
Lo c
Ġd irectory
to p
Gener ic
ĠPro tocol
PRO PER
UN D
for Each
Ġ Expression
ends With
um p
chem e
In vocation
Ch unk
Ġt erm
Ġb ind
Ġ Context
en code
pro ject
ĠO peration
K ind
List eners
ĠByte Buffer
id d
P ersist
not ated
Mod ified
M atcher
A x
Ġst ep
get Local
get L
Ġm ark
Ġtr ee
am pl
I VE
get Context
res olve
T itle
ad i
ition al
T uple
==== ====
i ag
Pro p
Vis ible
ang le
PAT H
to LowerCase
U UID
Ġ \"
get G
add ress
d oc
match es
ĠI terable
Ġid x
ĠJ ava
En c
e ep
m b
Ġ Error
Ġq ueue
Data Type
Operation Exception
Ġdescri ption
act ive
AC K
m a
ĠIn valid
if ic
5 5
or ies
atew ay
Ġc ur
SE CON
get X
m ed
Ġth an
c as
se arch
Visit or
Ġs um
Ali as
A re
A uto
ĠByte Array
av ed
ĠS T
y s
(" <
F ragment
Ex ternal
Re ason
Ar ch
isAssignable From
art ifact
com merce
* /
o z
s b
VI CE
Ġmet a
ers on
Option al
0 2
s ent
Client Execution
t om
ĠT ree
v ar
Re move
Ġw ord
ay ment
ynt ax
Sub scription
M M
M edia
S plit
t ypes
o u
est ed
able Future
Ġ Event
Ġex isting
get Parameter
get User
chedul er
RA Y
R oute
n t
Ġin sert
B ucket
EN G
FI LE
Ġcol lection
CON FIG
lic it
Se lection
en se
config uration
A fter
D river
a un
Ġd ir
(( (
[] {
u x
i an
s ist
enc ies
f ailed
se lect
St op
Us age
li ce
Ġ> >
im age
UT E
co gn
Ġinit ial
s ort
W e
Ġ Entity
W rit
s To
Ġi o
Vari ables
j oin
B E
Ġen code
Com mon
AT OR
Ġreg is
pro p
ĠSer ver
= '
Regis tration
ĠA uth
get Node
Ġp assword
n et
D ATE
And Set
Ġb it
Ġres ources
get Field
con f
e o
ĠT ask
ĠPo int
. <
get Time
Ġcl s
Ġcon n
Ġm on
Byte Array
set Name
s w
Ġ" )
Ġdest ination
get Status
Bl ank
N ULL
Ġr ender
ĠModel Node
D C
ĠString Buffer
FI ELD
tr ack
is her
Ġf ull
Row s
resh old
w o
U RE
ĠCom plet
I FI
An im
Ġn odes
Ġs ystem
W idget
ha vi
ot tom
Byte Buffer
N LS
on ical
Ġun it
Ġsh ort
Ġse lect
Ġj ust
CO DE
Ġf rame
Up per
T x
if t
Ġm ore
S dk
ĠSer vlet
Ġitem s
A m
( ...
Ġj avax
ĠC ache
ĠJSON Object
ol ution
IN TER
get Bytes
il y
VER SION
ag ing
Ġse cond
Com plete
ĠS ub
Ġrem ote
ĠT ext
MP TY
OUR CE
Ġint o
File Name
ĠM od
Valid ator
Ġ 7
set Text
Ġ1 6
Ġ Enum
set Value
ph a
3 3
ac et
Ġ Configuration
Ġ" ]
H tml
Com mit
Ġc ustom
p refix
CE SS
Ġpl ugin
Ġf uture
Ġ Properties
Sign ature
CON T
M easure
Ġcal c
Ġv ari
ĠD el
N E
Ġlocal e
Unsupported OperationException
str uction
oz u
s chema
I terable
Ass oci
Ġm y
w rap
if c
r ule
Pan e
Factor ies
set Property
ĠR un
C ertificate
Ġd on
ix el
Inter ceptor
tribut ion
ubl isher
aun ch
ĠD is
J oin
Ġw ait
Error s
Ġ// $
Stat istics
n umber
it ive
in ner
ĠTime Unit
ex pression
Ġ} ,
ad s
Ġdefault Value
O K
m y
ĠIn dex
j ust
D uration
t im
Ġre ce
-- ;
Ġp ush
L ayer
Ġ Parameter
e et
ee ded
Ġe ach
b l
Ġus ing
ire d
D ao
get Absolute
th er
STR ING
Ġs ort
ST AT
Ġargument s
par ed
lement ation
Be fore
cre ment
it u
ĠCom mand
s ystem
J vm
ic ator
Json Unmarshaller
Execution Context
Ġget S
Ġo ption
F IN
V er
Ġp ackage
o ff
OP ER
a ug
Ġd own
To String
w riter
ent ation
Marshall ing
N ING
Struct ure
RE AD
Ġr s
(... )");
Ġac cept
ces sed
IT E
Ġde c
Ġpre v
Ġcon dition
el p
D ay
LI ST
Ġact ive
Ġconstr uctor
In f
ee k
LOG GER
ĠJ ob
B O
Ġ Update
Event s
Token s
Ġs ave
Ġ Local
l ush
B ag
f eature
S L
st yle
Ser vices
cl s
ifi able
on d
Ġm ode
RE N
ĠC all
m ake
Ġc ause
ĠC lient
I O
Ġmethod Name
get Method
ĠP age
Ġen c
Qual ified
end encies
Pro ps
Pri ce
Reg ister
rig ger
Q Name
orre ct
Path s
descri ption
eng ine
m ise
Ġmem ber
Ġwh ere
set s
ĠO r
Ġend point
R ect
Par sed
Mon itor
al an
Servlet Response
j j
Id ent
per and
s u
qu als
r apped
Ġm atcher
Declar ed
o use
AR RAY
Ġm an
w are
b ind
Ad min
CO MP
h ing
Format ter
o peration
it es
ro id
ir es
Con cept
adi us
P ayload
v ance
Ġa vailable
E Class
get Content
Ġ(! (
class Name
ĠA ction
Ġsu ccess
ĠAp i
Ġm v
ĠB igDecimal
I p
t act
ig ger
Ġde legate
d raw
set S
ultip le
Per iod
SER VICE
1 9
e ch
er ation
! ");
get Column
Gener ated
in s
en e
ul ator
om ic
tr actor
ibr ary
Ġmetric s
cond itions
Ġdescri be
) ",
E Object
lo sing
Sh ape
O W
al th
Un known
Ġres p
Ġ Connection
res et
Ġen tries
fer red
aly z
R ate
QUE ST
Are a
PRE FIX
is Present
" +
D eser
B ind
ĠS ec
Ġbe gin
compare To
Ġa v
l s
Ġinit ialize
ion s
ex ecut
Ġb ucket
MA P
Th is
f ul
ĠP l
T ri
ĠT able
Sc ore
e er
E LE
x b
D estination
ax is
u ce
f unction
Com ment
i pe
clu ded
get Unmarshaller
g es
ĠIm age
Ġc ell
Ġ api
O ff
Ġp op
l imit
Ġb undle
Det ail
app lication
ĠN ull
Ġc ursor
sh ow
up lic
he ight
P ublic
get Int
Type Name
am ily
ST ART
PROPER TY
po st
ab s
chedule d
ol es
A vailable
ĠInternal X
s Result
Ġg raph
f ull
2 3
Ġcon tains
Ġde clar
SS AGE
getF irst
Pro to
Ġc ounter
esc ape
Def ined
Ġn amespace
w eb
de code
ff ect
R ules
es tro
SS ION
b eta
getM ax
Ġch ain
Ġspec ified
Ġin clude
Spec ification
Data Source
ht ml
L INE
Ġfield Name
Ins n
Attach ment
get Annotation
estro y
I ss
Ed it
ĠB ean
Ġen coding
St age
ip her
getAbsolute Path
T emp
Ġse quence
ĠC ode
D to
L anguage
Ġm apping
get In
x FF
Ġc lear
is on
oot str
ĠAs sert
set Attribute
C RE
OPER ATION
Ġj oin
du cer
Ġcolumn s
Ġs upported
Ġmap per
valu ate
gener ate
Ġ State
com pute
Execution Exception
A CT
Ġlo op
sum e
Re vision
b ar
A SE
ON E
v as
Ġst yle
T ick
Assign ment
Ġ" \"
Mem bers
G lobal
Ġf etch
D K
ĠV ector
Ġmethod s
Tim er
1 7
Ġch unk
V irtual
Ex ists
itu de
P ORT
he ad
is Not
ĠO n
ootstr ap
re port
G RO
C S
As String
Ġ Y
Ġs cript
Ġpo ol
Point s
list ener
F OL
(" .
Ġh tml
R untimeException
loc ator
Re al
OR Y
Ex ecute
av en
le vel
Un ique
Ġres et
Array s
st ack
ĠA ct
if est
Access Exception
cl ud
Ġre al
Ġ Process
AD D
Ġo pt
ĠD B
o om
Ġc f
redent ial
n d
SECON DS
Em ail
t mp
ampl es
W R
Ġin ner
Ġre p
oordin ate
S A
Sup plier
| |
Ġm erge
Response Handler
if ec
ĠDescri be
t itle
t n
G ateway
Ġtoken s
de l
Ġd ig
get Child
G rid
CH AR
Sdk Internal
s ole
Type Reference
V ol
S K
oun try
H int
res ources
ifec ycle
ĠNo Such
M ore
Trans form
Ġc ast
fl ush
ĠF ilter
p atcher
C ursor
F ont
re quire
Ġc lean
be gin
3 0
Ġcreate d
Ġp ipeline
En coder
Ġser vlet
Ġp h
p atch
ENG TH
Ġcom pute
C L
id er
Ġ De
g ram
PAR AM
O ri
<? ,
met ric
con str
Ġtrans form
Table Name
array copy
par ison
pro tocol
J ar
Ġre c
Ġ" :
in sert
Ġl ayout
(" %
add Parameter
Ġdef inition
S Y
c ore
ation Exception
scri be
Cap acity
Ġen v
Ġex pr
at form
Ġa ccount
ĠPre conditions
Ġim port
C R
Se parator
ĠCol or
havi or
O wner
Ġsh ow
Ġst orage
AP I
S pan
get N
ĠF orm
Ġfile Name
t otal
Ed itor
iv en
Se q
Ġset tings
tem p
Ġp ayload
ap ache
Ġen sure
p attern
Ġex ist
M I
Ġ END
hand lers
im iter
Or g
Al gorithm
AP P
B its
al le
R aw
ed is
L ENGTH
P UT
_ .
2 1
Mod ifier
Ġ 9
P ipeline
o pe
ig r
not Null
V AR
ater ial
Sc an
f iles
s es
S ection
L ook
ĠP attern
S U
Connect or
Ġs w
az y
inish ed
HE AD
Ġs ince
cc um
getCurrent Depth
Ġs upport
Ġ. ..
ĠF loat
Definition s
u ch
p n
Ġre quire
sh ort
sub mit
Ġ- -
Ġresponse Handler
---------------- ----------------
http s
j b
ro ugh
Ġde code
r t
Task s
Ġ artifact
E qual
ĠLinked List
Code c
ac cess
el y
RE QUEST
} ;
Format Exception
M B
Ġdescri ptor
Relation ship
Ġpro b
Ġg rid
Ġn ormal
ializ able
ĠCh annel
c m
We ight
Ġ[ "
D F
g on
Ġcon tain
Ġat om
Ġclass es
De cl
ATTR IB
El se
Ġg o
ist ic
Ġex ists
EX T
Ġc md
RE D
Par sing
ach ine
PO ST
ol s
Return Type
VAL ID
O pt
p ush
Ġed ge
Ġd esc
ĠT ag
Ġo wner
oly gon
ĠDel ete
U SER
ME SSAGE
is Null
BY TE
Ġlo c
r est
x ff
Ġs cale
get Object
Ġcase Ifc
A UT
pres sed
bser ver
rie ve
Y ear
param eters
Ġde vice
Re c
Collector s
ern al
E T
ĠDE FAULT
D imension
ĠTrans action
T otal
er ic
I M
F lag
Ġ/ **
Ġg r
ON G
Ġdis play
Ġdep loyment
O M
er ms
T ab
en ant
Ġo s
String s
Ġ Content
ĠCom ponent
Ġsc an
(" [
ced ure
vi de
iv es
S uper
E valu
s ign
Ġup d
Auth orization
Ġrow s
Arch ive
t l
int Value
Process ing
M ask
Trans port
ĠA l
F INE
cc ur
Ext ended
Ġs ocket
arsh al
ĠF I
Ġre pository
ĠCol umn
Ġal t
A v
Ġth em
CO UN
2 7
Json Object
Back ground
for Name
gn ored
get File
Up load
Mon th
new Line
PT ION
ĠC alendar
ĠDate Time
Ġrel ation
Async Handler
alle l
A V
Request Metrics
ir ror
tem plate
ur al
Ġw indow
p op
s pec
2 8
Ġpro gress
Ġerror s
Ġse lected
ĠR et
of t
Ġ- =
Ġt itle
start Event
an el
( -
D Array
idd en
G eometry
Ġ" ).
Ġstr ategy
getS ource
a j
T rigger
WS RequestMetrics
J S
C ore
d ocument
Ġc s
getS h
L at
Ġver ify
b it
ject or
W N
P rint
F lags
E MPTY
Ġd raw
key s
l ate
aw sRequestMetrics
Ġbefore ClientExecution
I AL
S cale
Request Marshall
RequestMarshall Time
al t
par ser
Ġd omain
In v
Ġal low
Ġd s
ig Integer
Ġs ingle
alan cer
ĠS ession
w ays
HT TP
By Name
## ##
Sc roll
m ain
ELE MENT
AX B
Ġc re
o pt
Ġget Value
replace All
get Length
q ueue
Ġ"/ "
C redentials
)) ,
to List
f ill
W ait
<?> )
Ġcol or
at tributes
Se cond
Ġin st
Ġe v
av ig
s ave
Ġi ts
ern el
Ġw rit
Ġdel ta
He ad
W AR
call back
Ġ| =
Loc ator
] ",
Ġj ar
ĠH T
FOL LOW
Del et
trans form
M s
U LE
B us
as yncHandler
final Request
ĠL A
Ġ' %
ĠComplet ableFuture
Ġ Entry
o jo
Ġ Util
G en
d l
od ing
ug g
Ġm anager
ik e
Ġc ould
LE TE
C AL
SI G
Ġp air
hand ler
get Start
Ġpro file
Se conds
s kip
D ataset
ĠInter ruptedException
ĠB it
or es
Ġp ermission
P rincipal
g o
ServiceResponse Async
Ex port
Ġtr ace
is Set
S cal
use d
P ut
Ġb r
RE G
IT ION
Pl ace
ib m
be fore
getS ub
col or
Ġcom mit
ĠCon str
Ġd irect
ĠD atabase
Ġcon sumer
ST ATE
Trans former
we en
L Y
AR Y
Close d
At tempt
I ST
ac y
u c
bed ded
s List
Ġd one
get Width
Call able
Ġr ole
() ];
ew ork
Ġin valid
Ġin pos
[] []
Ġad ded
or iz
ĠRun nable
; ");
Ġ" ");
Ġregis try
track ing
et ween
S ite
Del ay
b r
6 6
cl uster
ram ework
De legate
ot h
w ise
Ġ Constants
Ġs ome
Ġb l
ĠP ri
inc re
Inter ruptedException
C ause
Ġ? >
ĠT im
iction ary
Ġf ail
ĠOut putStream
row s
() [
En v
cogn ition
uff ers
r ange
get Next
I Z
m anager
Ġs ure
Ġp ersist
com mit
Index Of
N UM
De coder
s m
g en
scri ber
w ait
loc ate
ĠRe f
D D
vi ded
Ġcom plet
F ixed
act ers
Ġconstr aint
ĠRe ference
is s
ĠF or
S ample
orig inal
mem ber
Ġper form
Ġo ur
y y
M anaged
le ep
ĠP rint
Ġst mt
Ġ( );
C ur
l uster
w h
Ġact ivity
ar m
stant i
In tent
e le
P ack
Ġ" _
at ype
C ookie
Ġp redicate
Ġuser name
CONT ENT
w n
Run ner
ext ension
Ġconfig ure
m ission
ial ect
ĠChar acter
DE X
c ustom
ĠB lock
IT H
get H
Cl ause
clud es
ple x
en ch
PO S
eser ialize
am ing
Ġtim estamp
Ġpart s
a im
Ġf ilename
RE F
mod ule
ĠV ariable
Ret ry
Ġdiff er
get Service
ï ¼
ĠT ypes
With ServiceResponseAsync
Dep rec
ar gument
i vate
Ġ am
Bag Constraints
Ġs m
Ġrem oved
Set ting
E C
J B
Ġen vironment
Ġ" <
lo sure
TR AN
3 5
Ġs ent
Ġse curity
IN FO
ĠCom merce
Ġtable Name
ol t
St andard
Mod ifiers
ĠImmutable List
ic on
To pology
ild card
ĠH e
Vis ibility
el se
ĠX ml
op ied
Ġ" -
Deprec ated
cl one
get Version
get Host
Org anization
Ġ ).
i om
get Index
S yntax
se gment
TA BLE
Ax is
l as
back tracking
ag er
field Name
ĠRe m
. "
8 8
Group Id
Trans ition
get All
201 80
4 0
L L
2 6
Ġresource GroupName
Ġl at
Create d
vel ope
ĠIn t
ok e
Ġmatch es
est ion
Ġad apter
> \
Ġ1 000
Extension s
> <
ver y
clus ive
il ities
im pl
Ġid entifier
get Component
id s
TH OD
d et
R andom
ĠO p
S ort
Qualified Name
UM N
ic ates
AT ED
Ġb est
(" -
(" \\
D at
k er
re ference
ĠF unc
N ECT
ww w
Ġget C
ĠR andom
ĠL e
ĠB uild
Ex pected
B order
S ur
Pro b
Re ferences
com e
Re place
Al lowed
GRO UP
A G
[] >
V O
ur ing
st it
Ġtag s
Man agement
ul k
p m
im ate
ĠM on
we ight
am l
U ST
Ġis s
MA GE
get Y
O S
Ġm essages
Comp at
L oop
Request Marshaller
t d
Ġcom pose
Ġstat s
Ġc ap
Ġal ias
bo ard
ul ation
get Long
MO DE
ĠSec urity
E quals
as es
Track er
ri ft
or Else
get Element
uplic ate
Work er
} );
Ġ $
ol ation
met adata
ĠS chema
ĠV AL
D ynamic
Ġ engine
Mark er
rammar Access
Ġm ulti
P RI
D istance
NON E
cognition Exception
se ction
time out
F inal
Ġlook up
se curity
C al
met a
IL LI
ATTRIB UTE
Ġ qual
w t
ud io
ut om
ĠG raph
C riteria
ing leton
TER N
Ġtr ack
l ess
re l
ĠAt omic
g able
ar gin
TR UE
Ġch anged
Ġf ire
Log in
ĠSe arch
Upper Case
ĠLog ger
d atabase
LO CK
get Target
COUN T
RO OT
In sert
SQL Exception
Ġcon verter
Up d
W E
l ayout
i i
ĠIf c
er ies
et Address
com plete
Ġh app
Ġm e
Ġlo ader
ĠM AP
current Thread
S P
Ġnot ify
S ync
Log ging
D irection
incre ment
C ost
ĠC ON
M ult
ĠApp lication
Ġproperty Name
ad words
(" _
Ġk eep
Label s
Ġb utton
cur s
Ġen um
get Entity
pro vider
en v
se parator
ĠB asic
iag n
ĠClass Loader
Ġ UnsupportedOperationException
Accessor Table
S ent
Look up
Ġ Name
Sc reen
Ġ ans
Ġal lowed
resource GroupName
ut ation
ith er
Be gin
>> ()
//// ////
en sor
Iss ue
y c
id entifier
Ġsub ject
m e
get Height
con trol
D ER
Con version
St ax
S end
( ()
Ġsign ature
part ition
z ip
ide o
Ġtr igger
Ġgener ator
P adding
Instance State
descri be
pro xy
Ġs up
lo ok
Operation s
HEAD ER
Ġcom plete
er ved
Dis tribution
ĠI O
F S
Ġ". "
Ġ(( (
Ġ Locale
v ile
Result Set
get Root
ĠW ork
Pointer Exception
6 0
Back up
f actory
og ram
Ġg lobal
ier arch
1 00
Ġ err
S l
Ġobject s
Ġtop ic
Ġw ant
F eatures
LE D
Draw able
b inding
th read
Stax Unmarshaller
Ġlist eners
Ġpre pare
ĠByteArray OutputStream
ĠOr der
Work flow
Im mutable
Ġop Lambda
en um
Ġser ialize
Pri mary
Ġstr uct
row ser
Var s
F ollow
r v
sc an
c f
ĠN O
EN CE
Bit map
Ġs ymbol
Filter s
ad ow
ist ogram
pared Statement
Ġp anel
Ġv ertex
)) {
Ġm ask
set C
ĠM atcher
Ġex change
Uns igned
Par ts
, "
3 4
N ative
ĠO pen
ĠProtocol Marshaller
Ġinter face
SC RI
L ines
Ġupdate d
LIC ATION
P erson
Get ter
Ġag greg
Com posite
Associ ation
ad ient
ĠU I
F etch
Ġf low
Ġret ry
b s
Ġcontrol ler
Ġ1 00
()) {
Ġresol ved
p ack
s cope
Ġc urr
ĠM ulti
ĠRe ad
Record s
m i
mer ge
P LA
ĠR ule
ith ra
View ById
sing leton
Ġchar acter
ĠIn put
Th reshold
Ġ Status
] ));
lo ader
p assword
u i
p ackage
token s
m ode
Ġif c
ong o
set Type
Run ning
Stat es
D o
get Declared
H ex
Or d
Ġm issing
g raph
last IndexOf
ĠInternalX base
et ter
Ġhe ad
Http Request
ĠI S
ic ip
j s
FOR MAT
Ġ En
Ġb inding
get Config
Ġde bug
A CTION
res ol
PE C
H ER
av ailable
Ġpos sible
Char s
Ġchar set
RES OURCE
ĠBuffered Reader
Ġp ass
get Response
Ġauth entication
med iate
ir ation
C UR
Ġg en
ĠVAL UE
Ġ ap
r ender
ĠT uple
ser vlet
ro ss
E M
LE T
m ine
b atch
Ġn etwork
O FF
un it
By Comparator
c ap
AN T
N amed
Ġcalc ulate
R out
Field Name
Action s
Ġs sl
AUT H
ent ial
Ġreg ion
Ġr andom
Instance Id
Ġwe ight
Block ing
Ġc ancel
2 9
Ġg iven
ry ption
un lock
P aint
re qu
BU G
3 7
T ile
Ġf ill
Ġnew Value
Ġ ParseException
pl ugin
Ġ ^
Sh ow
ã ģ
E V
Ġc or
Ġd uration
getS ession
Inf os
Ġdep endency
in ess
B ASE
ab ilities
")) );
field s
G L
igh b
l ap
ĠM atrix
Ġdef ined
Ġp s
Ġr untime
ĠA ccess
trans action
pon ses
pre v
Protocol Marshaller
S UB
t f
aces Context
ĠA PI
able Concept
Sub ject
Ġm ove
Or Empty
Persist ence
Ġse lf
PA CE
getLast Parsed
Ġs pace
Ġar r
clus ion
vance d
j ar
Content Type
sh ould
Ġl ayer
getLastParsed ParentElement
IN DEX
C tx
f rame
Ġs l
Ġde let
Ġi p
Hash Set
ĠM AX
ĠRe pository
Ġprotocol Factory
B ranch
Ġ" "
all back
Ġ( @
Ġm s
Ġind ent
F amily
v is
ex pr
CON NECT
Http ServletRequest
REN T
Th row
ĠM em
new Builder
S afe
Ġpro duct
iagn ost
Ġcheck NotNull
Render er
d iv
o ption
F T
Ġc andidate
ĠCom mon
M irror
Ġid s
Permission s
eter mine
COL UMN
ĠR el
V ert
Ġz ip
Ġf lags
Ex tra
n ames
vers ation
Ġ Utils
pre pare
fl at
on Error
re lease
S upported
NO DE
j sp
child ren
F l
ench mark
S kip
Ġvalid ation
As sert
B ER
n on
Re quire
Ġw rapper
Ġ" ;
en ari
an onical
Query Builder
Set s
iv ation
Ġ Res
comp ile
end point
Ġa uto
Ġat tach
ĠC P
ĠB ind
M ain
a ptor
is Log
SS L
Ex tractor
M aster
B alancer
ç ļ
k g
get End
scri pt
C ancel
ime Type
ĠV oid
çļ Ħ
ĠP redicate
Ġre ason
em pl
Input s
Ex change
>> >
getM in
s ide
Ġ[ {}
ites pace
getC ause
STAT US
ro ad
S o
Ch art
d omain
} ,
Init ial
Ġw rap
Ġ ent
lo cale
S uffix
M ILLI
_ );
Dep endencies
Ġdoes n
W ID
Ġexecutor Service
il li
C atalog
s d
ĠS AX
ĠL ine
SER VER
Ġse ction
ce l
S ol
element s
Ex ample
is Trace
Ġsc ore
Sh ip
Ġset up
ick er
Ġpri mary
QU AL
empty List
s o
Map p
d ap
Click Listener
ail ability
Ġpar sed
Cre ator
ĠP air
å Ī
Config s
im port
Ġattr s
M IT
c d
ĠJson Object
Com parison
ĠS I
Sec ret
B asic
Ġin putStream
c ase
Ac cept
ENT ER
DA Y
V i
) (
Ġcal led
Ġre lease
Update d
d st
Ġget Class
Ġp resent
C odes
ized Type
Ġq Name
ĠL abel
He alth
ĠRe cord
Ġl ines
ĠCon dition
rig inal
ch or
3 9
n ess
f pl
Hand lers
Ab sent
Ġen coded
Ġs napshot
ĠIN DArray
P ixel
quest ion
ĠFile InputStream
vid ers
c ision
Ġmem ory
OP T
Date Format
Ġrun ning
U BLE
Ġtim er
se c
an os
Tr a
get Location
ĠHttp ServletResponse
Component s
O ps
Ġpri mitive
Be havior
fpl ib
h older
an o
Ġse c
Ġass oci
Ent ities
pan y
M OD
ĠI tem
Ġ) ,
ĠM ojo
Mapp ings
Ġinter val
Ġn s
is k
Qu ot
l if
Ġ} )
In struction
Ġannotation s
m arshal
ĠLinked HashMap
Ġo perator
Writ able
A udit
S orted
f inish
AL SE
ĠS cript
get Result
Ġd ay
pres entation
pr ing
Ġret val
Ġlo wer
Ġadd itional
Base d
Ġi gnored
Ġimp lement
Ġun ique
get State
Ġse e
v ariable
String Util
ov y
Ġ Q
E W
8 6
Ġf lush
Sign ing
C o
c ancel
Check er
F acet
ME THOD
Ġt wo
ec ess
rem ote
c md
D IS
her it
f ound
Ġm atrix
he aders
8 4
Ġnot ification
se quence
ic ated
Ġd ialog
Ġformat ter
IG HT
An alysis
DA O
em e
po ol
ĠRem ote
pre vious
put All
Ġth rough
Ġgroup Id
Ġex port
Pri vate
Ġprocess ing
st ep
Init ialized
Ġs aved
ad min
******** ********
Ġpoint s
h ip
ĠF F
ro ovy
Ġex tra
is Directory
å ı
CO MM
Stream ing
user name
Ġd istance
UN K
E sc
H O
Ġs ample
M achine
Key word
(" </
Ġb its
E lem
d estination
get Error
O bserver
Ġd river
ac er
Ori gin
getClass Loader
P op
m an
Ġat tempt
o ad
C opied
O ther
es e
EN ER
In clude
lip se
getC anonical
double Value
Anim ation
H IR
Ġcom ment
b ook
AR G
gr pc
aw t
isLog gable
ator s
In jection
getP ri
Ch anges
Ġrem aining
Ġcol lect
5 6
oll back
S k
SE LE
Dis patcher
Ġp c
oc us
at io
act ual
O ld
Ġser ializer
write Int
tribut ed
aug e
R M
se cond
Ġb inary
ot ion
Ġf ollow
A B
ĠNull PointerException
Ġpo licy
> "
K EN
Y PE
d r
A ST
G u
pe at
C ard
M Bean
f in
Ġh igh
De ep
No Such
act ivity
ĠR untime
P acket
ĠHttp ServletRequest
d d
T ables
Ġ Statement
3 6
ĠP RO
Method Name
oordin ates
ĠJ AXB
50 9
Ġcom b
V M
F eat
Ġl anguage
k a
TR A
PAR ATOR
Auth or
And Get
ĠU UID
Dig est
s ocket
Expression s
RE SS
now led
in clude
O RE
rid ge
Ġget All
stat ic
Ġbound s
ĠA g
b ucket
Ġc orrect
Ġn eeded
oriz ont
Ġp ending
po licy
ist or
CA CHE
O perand
Ġpl ace
Match es
Complet ion
C loud
im ap
()) ));
to UpperCase
fplib Package
H ook
ter m
Del ta
r action
pro file
Ġvari ables
item s
Ġe le
q Name
F E
S ave
Illegal ArgumentException
Start ed
getP ort
Ġup per
C or
Segment s
ecess ary
Con tain
Ġ Group
get Header
Ġt ab
Ġp red
I V
An notated
Ġgener ic
u ally
F ail
R G
se mb
C oord
ĠST ART
Ġse lector
CON TEXT
ĠA N
er ged
DE BUG
P ass
th row
ver ity
Ġal ways
ĠN OT
C urrency
sh utdown
i et
ic ro
m ozu
Ġext ernal
' ;
Char set
U sed
M D
ĠF HIR
C LO
CH AN
se lf
pe ek
C ast
ĠB undle
ro le
ENT ITY
W eek
d est
W ITH
TO KEN
er a
U SE
Ġf ailure
inal ity
als o
Ġhapp en
de clar
Con tact
ir c
ĠP ersist
Ġy ou
C ATION
at om
ĠJson Token
par able
ing Class
um b
If Absent
Ġc o
Ġb b
ĠV ersion
ĠR est
Inter faces
Ad ded
cond ition
g t
er ay
Ġchar s
a N
Ġd imension
enari o
3 1
p a
Ġsh ape
yc ler
LO AD
8 9
Ġ2 4
al formed
ĠXML Stream
Aggreg ation
ot o
Ġen abled
Ġf s
Ġclose d
Sh ould
R oles
Run nable
ĠPro ject
c ursor
Rel ative
al low
ĠS ql
Ġget Log
get Description
Ġd ist
op es
P ayment
/ {
C enter
Ġin formation
ĠGener ic
Ġv is
Ar r
RO M
ĠE X
set A
Sh ared
andid ates
Ġt ile
WID TH
Ġpro vided
e ad
Ġst age
B ACK
Dis count
Token izer
road cast
Ġ Parser
Ġw arn
P tr
DE LETE
sp an
from String
S lot
end ent
Pro ducer
ultip art
orizont al
Ġl v
to ByteArray
Pri ority
ex tract
ar r
Ġf eatures
Ġf actor
Ġd im
Ġ To
Ġc ookie
ee per
Ġs uffix
ler t
Ġm enu
ĠCom p
Socket Address
Imp lementation
(" :
Number Of
Ġth ey
Us ers
require NonNull
ĠE d
Ġrequest ed
rem aining
Ġs imple
D ist
Ġevent s
Be Copied
M ove
t ached
Ref resh
S PACE
F ALSE
n ormal
Ġthrow able
P C
i um
Ġm d
Reg ex
BeCopied AndSet
P UB
ĠG rid
Option Value
an ts
look up
ĠS SL
n i
Ġc riteria
F inder
Ġ \
A ware
Ġrel ative
get Client
copy Of
edia Type
Column Name
Z ero
get Tag
get Boolean
(" \"
Ġne ver
ess aging
ĠHT TP
Ġregister ed
Util ities
Ġex ec
ri es
Re ply
s v
Ġclass Loader
Resol ved
set tings
Access ible
o ol
ent ion
Ġ also
Ġag ain
Ġc b
Le af
l ay
al ance
! !
SE PARATOR
AME TER
is Valid
has More
Ġi con
ĠP ort
ĠFile OutputStream
L ifecycle
P S
get Connection
With out
lif eray
et s
get Application
se conds
ĠS ource
DE D
Ġ' {}
state ment
APP LICATION
Sur face
tract s
W ORD
JSON Object
As set
Ġc alendar
Ġass ign
L aunch
8 7
Ind icator
File Path
ak er
z one
cod es
B igDecimal
IN VALID
Ġwith out
Word s
is m
Desc r
r ase
re al
ĠM utable
ĠFF DC
P R
ce ll
Rece ived
P red
ed ge
Man y
Ġ2 0
a us
Complet ed
Ġpl an
re ce
Ġr oute
Thread s
Ġch anges
Dec or
M erge
get Task
UR N
d ig
v ari
S ame
tr iction
} ",
} ");
Ġgroup s
L ONG
Per cent
u il
ut es
Ġmon itor
def ined
ĠObject s
Ġun der
f lags
Dis k
AR L
Address es
L ex
ĠC O
init ial
al f
Ġ Parse
|| (
r untime
Ġt uple
Ġorig in
Ġi v
b b
Ġf ix
In voke
col lection
N ormal
get Num
St mt
S PEC
ow ner
Index es
s cale
Dec ision
Vol ume
ï¼ Į
======== ========
P ending
(" ");
ord inal
empl ates
et ty
Re q
Ġf ragment
Unit s
get Children
Execut able
ver age
ĠAs ync
T erms
get Attributes
2 00
Event Listener
rupt ed
SELE CT
S cheduler
c urr
con n
r ong
HT ML
ĠSh ort
Dep loy
= %
or ing
Ġget Property
set Status
Am ount
ĠT erm
Ġio e
Ġsh utdown
get Code
gr ade
Ġvisit or
Set ter
Ġcl one
Pl atform
Delet ed
d esc
G IN
Ġc ategory
p ublic
SdkInternal List
Ġ Start
Ġar ch
su ccess
5 4
ateg ories
u uid
H A
Config ur
ĠF uture
ĠSt andard
Ġ) {
Ġd uring
ff ic
Ġp w
FA CT
Ġz ero
c ached
Rep lication
Ġnot hing
Ġo b
Ġ' /
Ġun marshall
Rem aining
Ġf older
Ġdiffer ent
m x
O cc
Ġref resh
com mon
y les
o ugh
Ġ" ",
set Id
alyz er
UM ENT
Request s
CON ST
al ias
Ġ1 2
ĠIn stance
set F
Ġgener ated
> ());
Ġs pan
Ser ies
String Builder
Ġo ccur
Http Client
H ome
ut ures
file Name
g rid
Tr ue
ĠAuth entication
P K
get Configuration
f e
Cur ve
> </
igr ation
Ġans wer
riter ion
over age
ierarch y
L ibrary
pl ied
Ġs orted
Ġ #
pro ps
sub ject
ABLE D
ffect ive
O LE
p ipeline
Ġse lection
D one
Ġpath s
sing le
M AN
For ward
curs ive
j avax
If N
' ",
Ġ []
Ġp r
ĠR ect
C LI
Ġr ules
Ġun known
Add r
App end
Ġc c
isNull OrEmpty
com ing
OPT ION
F ind
orre lation
or ld
get J
de vice
read Line
ĠC loud
get Properties
Con vert
Ġp ack
de c
li ct
RES ULT
Z ip
St ub
Am azon
le x
ĠT emplate
Ġy et
f ilename
p ayload
ĠM E
f ire
en sure
ĠR ow
Ġreturn ed
p oll
ad ing
Ġex it
Ġcontent Type
last ic
B reak
full y
Act ual
ant ity
E st
ro t
Ġo k
D T
Ġ escape
Ġe lem
IN IT
sh ape
Ġb ranch
Ġupd ater
Ġb ox
ant ic
Ġw ould
Ġservice Name
re ater
Ġmatch ing
Ġper iod
() {
Menu Item
i val
c urrency
r andom
ĠValid ation
C C
nowled ge
d m
Ġdel ay
ĠB igInteger
Tree Node
on Success
) :
ĠA fplibPackage
warn ing
N eg
l ight
ill ing
m un
read Int
con sume
FI L
Ġf lag
Trans fer
add Child
Block s
l ib
S rc
dis play
' re
ro ols
S ARL
20180 9
P L
s leep
for ce
c ms
ac count
ĠJ S
as String
pro duct
S chedule
en able
in valid
Al ignment
avig ation
M aterial
qu ires
M gr
M argin
ĠEnum eration
() ]);
al Exception
per sist
Ġa x
Tr ust
sw ing
c ause
g lobal
F ilename
Ġs ync
Th an
4 4
qu are
En coded
con cat
ĠB inary
Generated Message
Sc anner
g rammarAccess
ro ker
Definition Id
ĠS p
ĠList s
rypt ed
Ġcom mon
Ġ) ?
ĠClass NotFoundException
Qual ifier
Ġc enter
Link s
Ġresol ver
m ulti
Comp iler
ĠServlet Exception
Ġ ExecutionContext
po ch
GeneratedMessage V
ID s
Col s
Down load
S ources
get Parameters
po sed
Red irect
on ym
Ġh older
Ġin vocation
Rece iver
flat Map
Un expected
Ġse parator
S ink
ĠM essages
icip ant
Media Type
e ger
Ġ ann
Cl azz
Ġ! (
or ary
User Segment
Term inal
W OR
( {
Ġget Name
Ġrest ore
ĠC lose
Ġmon th
Ġin stall
es ign
Ġne g
ul ated
EV ENT
Ġ" :"
h ir
Ġav oid
Str oke
Ġfor ce
T ax
property Name
se lected
Auth ent
Ġ3 2
C andidate
Ġs ite
de legate
Ġlog in
T URN
Ġc ms
Ġpri ority
Connection s
Not e
execut ion
Ġret rieve
th ing
ĠChar Sequence
ĠZ ip
D rop
at ic
tim estamp
Ġ Id
getS uper
5 7
p red
St amp
Collection s
] ))
u ed
Buffer ed
get Size
ss l
our s
Ġ" &
get Query
PAR AMETER
P ush
PRO P
pl an
Ġlabel s
getS chema
B r
el f
Ġwork er
get Item
Ġt oo
Ġin v
Ġe qual
ron o
set String
Ġdig est
en tr
get Model
str ument
Ġtrans port
Value Pair
Ġdata Source
a i
In stall
Ġd eserialize
tr os
th en
Ax iom
S cheme
get Base
NO WN
Match ing
re quired
Trans l
re p
Ġd id
il ation
part s
Ġget String
Ġde pth
ĠF iles
N aN
Ġmod ified
R adius
Layout Params
ce ed
Ġex ample
vert ex
Error Code
5 9
Ġp ublish
S DK
id ent
ĠM an
G HT
URL Connection
ST EM
Ġconvert To
set On
ĠO ption
reg is
L ib
D M
ĠS c
REG ION
c ounter
AV A
v ation
E AR
P r
ozu Client
ip ient
M ON
getR aw
ass oci
Field AccessorTable
Ġu uid
ap ed
ir m
Ġsub scription
FO UND
ĠResult Set
av ing
Ġw s
ĠC luster
write String
Ġint ent
Number FormatException
I t
apt ure
ad oop
id ual
Vari ant
Con st
os s
Dig it
Ġinst ead
PAT TERN
Ġm ultiple
b undle
(" $
Ġj s
ex isting
Ġconfig ured
N AL
P ublish
ccum ulator
Http Response
iagnost ic
is Blank
NUM BER
S w
Ġd etermine
Wh itespace
Rem oved
P eer
Sh ard
ĠS ocket
Ġv ert
isNot Empty
Ġcan vas
D im
al led
Ph ase
Be ans
g b
mod ifiable
Ġn ested
bo se
ĠSt orage
Ġen coder
Ġt s
Link ed
write Attribute
ject ed
Ġnumber Of
F IND
a os
W A
d ay
Out Of
ĠIn it
Ġid entity
at ial
ĠRet urn
Ġre cover
Ġe valuate
Ġrule Jvm
Ġy ear
TIME OUT
Re lease
Request Context
O k
n a
ch unk
C lean
sh ake
ust ers
Ġ' .
C CESS
o urn
Ġh elper
ORD ER
U sing
ĠG eometry
Ġad vanced
at tach
(' .
ĠB atch
f etch
vile ged
Ġbe ing
aug ht
ular ity
resol ved
ser ialize
long Value
ER Y
Ġsh ared
LO AT
vers al
ac ro
Ġ Executor
An s
ĠW rite
Ġ Metric
get InputStream
Pre ferences
Pre ference
get Table
Q Names
get Project
p redicate
u it
lic ies
(" ",
ĠLe vel
Ġ KEY
Ġmem bers
ron t
Encoding Exception
new ArrayList
ook ies
Ġb etween
set Max
Ġ' ,
F ix
B ottom
S O
SE SSION
in ate
Ġg u
getP ackage
ĠFI ELD
0 4
U ml
Event Type
Ġret Val
Ġo ptional
con tracts
tin u
R AN
Ser ializable
Data Set
S olution
Par allel
S CHE
Ġas ync
Work space
Ġup load
method Name
Bind ings
S ide
d c
ĠIn vocation
Ġr out
Ġh istory
cal c
Ġcached Deser
ĠcachedSer Factories
Ġg e
ĠcachedDeser Factories
i ment
ĠcachedSer Classes
ĠcachedSer QNames
ĠB ack
ĠH tml
Ġstart ed
Ġal pha
ens itive
add Attribute
W atch
d irectory
m ask
ĠInputStream Reader
25 6
Load Balancer
Ġed it
V pc
get Token
Ġout pos
LI MIT
k dir
Ġv ector
ĠR ange
Syntax Exception
Mod ification
old ers
Ġl ike
Ġag ent
* (
Ġm ight
WAR NING
Ġed itor
B inder
R pc
ĠS ingle
Ġin crement
m apping
Ġn amed
n odes
ot ype
add r
Ġget Type
UNK NOWN
_ ;
Ġget ter
stit ution
init ialize
o se
Ġ Execution
å Ĳ
enc oding
IF C
C redential
cr ete
s n
Ġle ast
group Id
get Server
AD V
Ġimp lementation
Ġ) *
LA G
sub scribe
Ġw ay
en tries
ĠValid ate
on ed
result s
Target Exception
j ax
Ġstart Time
Ġf ont
Ser ialization
D ot
Ġ Deployment
ign ore
ANCE D
Ġ Handler
not ify
in stall
stant iate
FF ER
DO UBLE
isNot Blank
a e
hash Code
s chedule
Ġtask s
Ġt ick
Ġk ind
Configuration Exception
af ter
/ "
Ex it
ĠForm at
Count s
Ġdelet ed
reg ion
ycler View
et SocketAddress
S M
Ġ Str
Ġcon s
(' \
B ook
sist ency
w here
Ġen able
Ġem it
ĠPrint Writer
Failed Exception
p air
Byte String
Ġneed s
ĠMojo ExecutionException
SH A
ret ty
getA ws
istor ic
ĠC LASS
be ans
S OURCE
QU ERY
Ġb us
c enter
U CT
c est
F ault
x x
qu ival
Ġd at
Ind ices
get Logger
N anos
s ib
s afe
Ġ UN
D TO
Or Create
Ġoperation s
set Enabled
m essages
Ġf ree
An gle
p aces
B lob
S ING
dep loyment
c a
write Object
b in
Ġ" (
pos al
Change Listener
H igh
top ic
MS G
C ountry
Ġ Store
Function s
Init ializer
TE MP
ĠFHIR Exception
f ix
ĠA uto
Ed ges
ĠPo inter
Ġd rop
NE W
Ġst ill
Ġg eometry
ĠI MAGE
be at
Del iver
Ġid ent
Ġ\" "
Ġs im
co ord
inter val
ĠBuffered Image
Spec ific
valid ator
ĠS ign
IG N
SIG NING
ist ant
in ct
Ġfind er
p end
ot ation
p i
Ġ question
Ġc t
Enc ryption
Ġam ount
ath er
ĠIn tent
Ġse q
ĠN ote
Ġservice Callback
ĠT est
Ġuser Id
print f
F eed
OFF SET
Ġupdater es
ADV ANCED
Em bedded
process or
Content s
Ġcolumn Name
Rep lic
d i
raw types
t ab
S lice
Model Impl
B ond
ing Box
get Line
Le g
get Output
Execute Time
SdkInternal Api
iz es
Ġget Signing
ĠAdd ress
f sp
vent ory
Ġother lv
end Event
ĠF low
Resol ution
Load ing
Ġcomponent s
d im
Ġfor ward
Ġcom parator
on ly
KE T
Ġto String
i tr
or al
MAT CH
Ġb oth
ĠJSON Array
Cre ation
Ġpush Follow
J s
Ġan im
Ġrece ived
get Bean
0000 00
ĠConstr uctor
ass ert
S D
v en
am era
Ġl on
ĠF eature
Ġc as
check NotNull
id entity
Num eric
Ġem ail
Ġcol lector
() +"
ol er
ĠCon st
Port let
Ġc atalog
Page Link
Ġprocess or
k s
Ġd ataset
Ġun til
SY STEM
r ames
class es
table Name
Ġorder ByComparator
Ġcreate ExecutionContext
getClass Name
CRE ATE
ĠA WSRequestMetrics
ĠMod ule
getA wsRequestMetrics
Pro du
P ull
P ublisher
ĠBind s
Descriptor s
WOR K
h l
ĠApi Exception
Ġiss ue
Char Sequence
C ENTER
<?> []
getAws Response
setA WSRequestMetrics
æ ľ
Ġs afe
ST ORE
ĠRe move
p ol
Client ExecuteTime
Ġcomp ile
M X
Ġcp Definition
Ġend ClientExecution
Valid ate
ar ge
am el
before Marshalling
P M
ash board
Ġb el
Method Exception
ĠC an
CHE CK
P atch
ĠS E
getP re
Ġadvanced Config
b us
Api Exception
S witch
Ġm aster
Code d
nd i
H elp
ĠgetSigning Region
Ġtype Name
ĠT ry
C ached
ĠCms Resource
Register ed
descri ptor
Pro gram
Ġget M
Ġlo w
ĠF ast
E le
R T
Ġab out
= (
Code ableConcept
Error Exception
A MP
is In
art beat
argument s
get Process
Ġc ore
ĠI t
... ");
n eg
other lv
Ġauth orization
Ġreplace ment
Ans wer
ĠM atch
Class NotFoundException
Ġinter ceptor
B uffers
d iff
AR D
get I
Ġfinal Request
D iv
ĠB y
Ġrecord s
User name
Component Exception
B ad
Qu estion
Av ailability
ĠService Future
data Type
Ġcast To
Ġan other
at ient
Ġwh at
Ġ2 55
G rammar
re pository
Diff er
Ġt ail
Ġrule X
ĠN ULL
column s
execut or
b utton
File System
ic le
ĠInternal SARL
F lush
s q
get W
S cheduled
st orage
Ġg ot
ĠA ss
lang uage
Ġk now
n e
ĠT YPE
Ap ply
Ġd er
X Y
ĠHttp Response
ĠNot ification
ĠCon tainer
Warn ing
ly ing
G R
get Modifiers
Un der
MA SK
Ġin stances
w ay
T yped
get Document
Ġs chedule
ex ec
m m
Job s
Dig its
Should BeCopiedAndSet
Dis covery
S ip
a is
OR M
Ġtr im
Ġad just
ĠChar set
D ictionary
Ġc redentials
l a
up plier
get Log
tag s
P ON
en abled
Ġre vision
Check ed
CLO SE
ĠI R
Al tern
s ync
LO CAL
pan ded
AR K
Hint s
g l
Ġ[ %
Ġlo aded
Success Response
re lation
With Annotations
Ġm ean
UP DATE
c ategory
lo aded
C md
Ġout er
ĠP er
] ");
an y
Ġe very
Ġstruct ure
sub scription
B enchmark
RE MO
Ġad min
p ublisher
Ġs ip
te gr
BYTE S
M utable
ã Ĥ
ĠOut put
Ġ ().
Ġs ink
ĠJ C
Start Element
Sh utdown
V ideo
Ġf inish
Unsupported EncodingException
Version s
ator y
n etwork
Ġr hs
ĠS equence
Al t
Ġme ans
Ġm p
Mod ules
B ug
Ġz one
im p
MILLI SECONDS
ĠIllegal AccessException
getAs JsonObject
get Row
ac c
d at
Ġw ere
Ġp erm
Ex isting
Ġout putStream
M ail
Ġtrans former
è ¯
ĠAct ivity
Ġmax imum
Field Value
Price List
requ ency
Parsing ComponentException
ĠJAXB Element
3 8
w indow
Ġal gorithm
Ġp e
al k
Ġ et
un modifiable
Ġset State
ĠRef lection
Ġs cal
Ġb ug
check Argument
6 7
En able
Ġ"' ");
Ġfilter s
Ġc urrency
Ġpro cessed
ĠD o
Rep orter
cas Type
Ġsegment s
Ġgrid BagConstraints
Con sum
RE CT
d river
Type Info
G UI
9 0
Ġto pology
F inished
oo led
Pattern s
B and
Ġm erged
v als
As Stream
FA IL
ĠByteArray InputStream
ĠSAX Exception
ĠR ender
al locate
Sh ift
ay be
Ġde coder
add Property
Error Message
ĠPro xy
Ġlocal Name
Ġex pect
Ġpop ulate
Id le
Tick et
getLocal Name
Ġd ue
F ree
ĠByte Buf
g ers
Ġp acket
uil t
Al pha
W T
tr as
ĠM anaged
e ded
comp iler
Ġdown load
n g
get Url
is match
ĠC ount
Re presentation
Ġget Resource
Ġfollow ing
In st
Ġdet ails
G eo
I LED
Ġ Argument
", "
D R
Ġtr a
S V
Ġe ither
Ġred irect
C F
ir cle
Ġp rincipal
LE FT
Ġsc reen
Require ment
OLE AN
getId entifier
auth or
Ġcf g
G ENER
In crement
Ġw rapped
pany Id
ent s
Ġb ottom
o int
ĠD O
e valuate
is Array
Ġ' \\
Ġe valu
ac le
ĠS o
Pre vious
DB C
ĠC H
getCanonical Name
ce eded
Ġan notated
C ert
ĠCon trol
VI EW
c lean
Ġs lot
ew rite
Res et
go ing
se ct
Ġcontent s
Ġb ar
Ġ" [
To uch
Ġin c
Ġse conds
Al ready
4 7
ĠO perator
CO M
Model s
ul a
-- )
Ġreturn Type
ed it
vok er
ĠJson Node
Ġus age
Connect ed
FOR M
L atch
v ing
Ġ3 0
Ġr ect
Command s
ano Time
get ReturnType
Web Socket
k ind
ĠRe cognitionException
- >
s ite
ch ain
Ġwork space
En velope
fl ater
getCurrent Token
get Address
add Element
ON LY
D N
low er
Ġp adding
Ġcompare Deep
Gr ant
Ġconnect or
P P
str uct
T enant
ĠG r
INTER NAL
In to
read Object
Ġadd r
eter min
#### ####
com plet
Ġd iv
Ser ialized
m kdir
HER E
Ġch art
Servlet Context
ĠP h
>> ();
P olygon
} )
em on
Pro cedure
ĠString Writer
IT S
at ible
Ship ping
com ment
Ġfilter ed
in putStream
Ġl ib
d uration
x f
Ġp aint
Ġget Context
singleton List
Type Enum
Ġr c
Ġf n
Real m
a uto
Ġcomplet ed
IFI ER
Ġover ride
ad manager
ĠS ymbol
Ġcheck Argument
Ġhas Next
Ġauth or
IT ER
Response Body
Time Zone
et her
ON T
Char Array
D er
k ernel
getB undle
R UN
V EL
ĠCom parator
ADD RESS
s ample
ĠCon nect
Ġchar acters
Ġ est
Ġset ter
Ġpo inter
d ialog
map per
9 7
Ġ1 5
ĠU se
xml Event
Entity Manager
Ġmay be
Read Only
getParameter Types
Ġsm all
Ġ å
get Job
and ra
pon d
8 5
Ġe val
per mission
ĠW riter
idd le
Ġd ot
Ġresult Set
Ġpar sing
PUB LIC
create d
le et
ĠS pec
Ġcall er
pect or
Tim es
ĠV olt
Ġfind By
set Default
Ġset ting
ic ode
FA CE
Ġattribute Name
ĠE l
atas ource
EN ABLED
Ġdeclar ed
ĠAt las
Qu iet
WR ITE
ĠImmutable Map
get Namespace
f a
C ycle
ass andra
ir y
es h
Condition al
f ail
ar ing
getC ache
ugg est
Resource Definition
= ");
T wo
t as
Ġb s
constr aint
Ġget Default
E P
an e
Set up
ag ed
Tr y
one Number
DE FIN
ER ENCE
")) )
Ġc n
pe ction
ĠHe ader
d ist
ur able
stat s
ĠCall able
Ali ve
point s
ĠAn alysis
parse Long
ĠCon sumer
In jector
LA Y
Ġ Lock
Ġsub mit
Resol ve
ĠInternalXbase WithAnnotations
Con sole
Ġ Metadata
Position s
close d
s upport
Ġother wise
ä »
ourn al
Lo aded
os u
RO W
0 3
m o
ys ical
Ġser vices
Ġr ound
Ġport let
Evalu ator
PO INT
b its
get Display
RI GHT
Tool s
W ildcard
Ġp t
Ġs ources
Ġrelation ship
P res
E QUAL
H idden
Ġ enter
Group Request
set Description
get Left
Man ifest
aj or
Text Field
act ivate
S m
ĠD uration
ail ing
Ġ" %
Mult imap
Ġcode c
MON TH
Pro viders
Deser ializer
Ġc r
Scal ing
ĠAg greg
A lert
Ġn ative
Ġclass path
W rap
Ġm edia
Ġp eer
d p
ĠP O
SE VER
s ymbol
Service Name
Al low
Com plex
CLI ENT
OutOf Bounds
Graph ics
oll ing
s f
Ġr adius
Coded OutputStream
Ġs ender
oo ser
Det ector
B ootstrap
S em
ĠW S
res p
C AP
pl i
oc ity
UR ATION
RES PON
ĠXMLStream Exception
Pro mise
IN K
isTrace Enabled
F ast
ic ense
CE PTION
Ġth ese
Lo w
Ġb asic
ov ing
ex port
Met er
af ka
Ġent ities
Ġt ake
C ss
ĠRel ation
getF ull
AN G
X X
Operation Metadata
C oordinate
Ġpackage Name
Ġsc anner
(" {
Trans lation
Ġc a
oun ded
s For
Ġsh ift
Ġcomp iler
ens ity
D IR
T OP
Ġi i
Ġp ref
If Not
S im
B ud
p us
Ġim pl
Ġk nown
S CO
F LAG
Ġpro du
Ġvalid ator
feature ID
} /
Ġ( ;
Trans formation
Ġmod ify
Ġdep endencies
Ġl hs
ĠS TR
Ġwork flow
ap sed
Ġapp ro
o perator
b inary
Ġv ol
ix in
getS ystem
column Name
Ġspec ific
R atio
Ġs ig
Com pare
T S
Ġdis patch
(", ");
get Group
f c
Ġ Constant
and roid
Ġreg ex
W here
Ġd ump
Ġconstr uct
è ¿
; )
P ure
op ed
H y
get Label
Ġsc roll
L ATE
Ġm c
Rel ated
ĠSimple DateFormat
O riginal
RE TURN
Enum eration
Back end
Ex ist
oot er
Url s
Ġconvert ed
ing Type
S ingleton
Ind ent
es ired
Ġmark er
M ultiple
ĠN AME
MA IN
get Re
OutOfBounds Exception
ar ded
get Expression
F ocus
f ine
get Elements
Ġbit map
TRAN S
get Transaction
Dis abled
equ al
Page Context
Ġspec ial
Ġrece iver
: ");
Ġread ing
Ġword s
get Java
Util ity
COL OR
ã ĥ
Ġexception s
number Of
ĠAN D
Ġbase d
Persist ent
S oft
Ġs olution
Imp lement
d t
Ġblock s
He ap
BU FFER
Ġarch ive
pr eter
Struct ural
rypt o
un ct
Option Call
Out er
S ender
ĠH as
Pack ages
Or Update
Part ial
J C
is Enabled
Ġd t
ĠC oordinate
Index ed
Ġd irection
Ġstr ings
Ġ Location
Ġdep loy
RESPON SE
def inition
getFirst Child
um my
SPEC IFI
B und
(); )
oler ance
ĠR edis
Ar n
Ġget Current
ind ent
Ġvari ant
D ump
Application Context
Ġm apped
OR IZ
mon itor
add Listener
par k
9 6
Ġ ]
he et
CP Definition
n n
Po licies
Quiet ly
A SS
Ġ" )");
{} ",
B EL
Sh eet
RE C
Sub scriber
ĠC ustom
ing er
RE ST
Ġ{} ,
Evalu ation
Request ed
F R
Ġl ater
pro gress
st mt
Thread Pool
control ler
Con n
D ING
m enu
æ ĸ
Ġim g
w d
f ree
Cap ability
ĠJ vm
lo or
ID E
H istogram
J dbc
Ġp m
ĠC ell
process Exception
] ).
Ġcon stant
Ġ6 0
L on
se lector
R ing
Ġ Artifact
G e
get Metadata
Pro t
Ġn c
Ġprob lem
Ġfind ViewById
ĠU ri
Ġexp licit
ĠJ oin
irc uit
ni tro
h ance
Ġorg anization
hasMore Elements
Esc ape
add Content
C losure
FIL TER
ass ign
error s
Ġmatch ed
pe ed
ĠL ayout
Rule Call
f uture
f ont
Ġb uff
next Int
Anim ator
set Header
Ġpermission s
v c
ĠB uilder
next Element
Act or
7 7
ĠP ackage
ĠO Auth
Im ages
Ġp kg
ĠO R
yn th
Ġin jection
Ġ* =
I ES
ĠSt op
un der
X A
Or Null
Ġsh ard
pl iterator
ĠI ter
omet hing
Cal c
4 3
N ow
Ġ Queue
ib ern
RE AM
ĠG it
N e
TE GER
D ays
ĠBit map
e val
Ġs lice
log in
n anoTime
Ġp erson
ĠA ll
c tr
set Content
Ġadd To
ĠData Type
y ear
Det ection
Ġauth ent
') ||(
p ow
ĠM ark
Add itional
ĠI P
M ed
f ragment
p u
Ġf lat
per iment
Ġtr ust
OP EN
s upported
Re cognitionException
Ġsu ch
Ġus ers
config ure
Ġinit ialized
getAs String
[] ,
Ġindex es
content Type
ibern ate
N C
End Element
in ated
Statement s
Ġd estroy
Th at
TA SK
Class path
SCRI PTION
T L
set Color
Read y
s aved
ĠIO Utils
Ġh ow
d y
get Declar
ĠW h
de v
f hir
AT CH
DE P
Y EAR
auth entication
Gr adient
1 000
get List
PA GE
cest or
Ġp ur
Qu antity
Ġre po
Process Instance
Ġs k
ap s
' ");
at t
get Body
pl us
get Offset
Ġexp and
H AND
get Event
Ġ es
CL U
T emplates
c ut
SH ORT
getP age
getSh ort
G o
it al
get Resources
FACT ORY
get Position
AC CESS
Ġon ce
Ġclient Id
Ġm anaged
In stanti
on es
ĠAn d
5 00
H ub
set Accessible
HE IGHT
4 8
ain ed
Ġold Value
set Request
ER O
of Nullable
JsonUnmarshaller Context
Ġregis tration
HO ST
Local Service
Wh en
ĠB son
I MP
Ġ Meta
ĠP ipeline
b c
Attribute Value
Ġdef ine
getStatus Code
A SC
l ayer
View s
As c
Bound ary
ĠF ind
M e
ĠRect angle
Ph rase
M ouse
Illegal AccessException
VO KE
Ġv m
get Map
oo se
Check sum
Condition s
T ODO
g re
S id
Hand ling
al e
Ġf ixed
ĠL O
A F
Ġo wn
Ġjson Object
() -
write Byte
C riterion
E lastic
P ages
Sh are
s i
Ġ"] ");
Ġin ject
Object Type
service Name
em ail
Ġat t
Ġev en
EN SION
Deliver y
app ings
Transaction al
PA SS
e v
So ap
ib ling
Ġs ol
En code
Ġcol l
constr uctor
Ord inal
S B
Res triction
getD atabase
ir d
Partition s
remove All
Manager Factory
find ViewById
c andidate
(" #
port al
Res erved
B AD
ĠHttp ResponseHandler
with Payload
Num bers
Ġb ad
' ).
j dbc
Configuration s
Ġcurrent ParentElement
getCurrent ParentElement
Ġ? ,
LE VEL
Form al
Th eme
Ġnew Instance
getR ight
ĠG eo
D estroy
ar ies
Object Name
iv ely
lo op
get Provider
Lock ed
I I
Bean Definition
Stack Size
Amazon Web
Ġth reshold
get Count
Ġc e
re ason
Ġget Instance
urr ence
ĠTr ace
Ġopt im
Auth ority
ĠE MPTY
Plugin s
Com bo
w rit
protocol Factory
Check point
TI ES
ad oc
new Value
Ġdata Type
Offset s
Class Info
O s
ay ers
T ier
con sumer
ORM AL
ĠT I
current ParentElement
ach ing
gener ated
Ġvar s
FA ILED
ĠCom posite
F ore
Ġp ixel
w rapped
in ator
STAT IC
P oly
chem as
Dat atype
Ġinternal Get
tr eam
Prob lem
Mod ify
B ridge
R anges
n el
el lo
DO C
ĠProtocol RequestMarshaller
il led
add Statement
Sh adow
Ġass et
AmazonWeb ServiceResponse
create ProtocolMarshaller
start Marshalling
finish Marshalling
with Has
del ta
Ġresource Name
create ResponseHandler
CONNECT ION
Ġcheck State
d en
to CharArray
P icker
v h
Ġsession Id
ĠMon o
Act iv
ĠJson OperationMetadata
Opt im
is Annotation
Ġst ored
Streaming SuccessResponse
d irect
withPayload Json
withHas StreamingSuccessResponse
P erm
() :
a a
æ ķ
ĠE JB
D ialect
Ġinter faces
ĠInternalX text
Ġd ynamic
Ġl et
F ace
Upd ates
V ec
ĠP ut
Char sets
Buffer Size
L ive
ĠB ound
ĠCh ange
F LOAT
n c
Text View
inter rupt
Comp ound
ĠConstr aint
Ġis Valid
++ ,
Atom Container
m is
Ġc ipher
ST AMP
Red uce
(" &
B B
ĠS D
V R
SCHE MA
Attr s
e lem
Ġaction s
mkdir s
ĠB order
ĠRe ader
getLocal ized
d x
Con tract
Qu eries
ĠS orted
Ġre ply
ĠLinked HashSet
se q
ec lipse
ĠTrans former
M T
c ookie
Ġ EN
set Context
Pri vileged
A ck
ith ub
Ġre quires
char s
St m
SEVER E
g gle
get K
L ang
Read able
E E
[ (
getT otal
un g
Est imate
Ġint eger
Ġlocal Var
Ġentity Type
Qual ity
Ġtim es
9 5
Ġwith in
Pro vision
Ġex act
ĠPl ugin
Exception s
ĠE Object
O wn
get Reference
Ġstart ing
per iod
form ance
W L
Ident ifiable
en vironment
av adoc
com m
el ocity
Ġb order
ĠF rame
ru id
ĠM IN
associ ate
Ad apt
iv idual
aw ait
N et
l ines
] ]
(" @
An n
å Ń
Ġdis abled
Ġget B
Com put
LI SH
ĠSe gment
tr ict
Attach ments
URL Exception
Per formed
Ġt enant
get Record
to logy
ĠCon current
Ġad apt
Ġhttp s
getSuper class
Ġman ifest
Aggreg ator
W s
F n
Ġwork ing
Ġd to
Ġback up
pri mary
ĠP df
Ġg l
ĠMAP ParsingComponentException
Ġh ex
d estroy
at is
AT URE
Out come
Ġfile Path
cre en
p x
Re covery
Ġl ess
AT IVE
Del imiter
EX CEPTION
Ġb inder
ĠD b
Ġset Value
ĠN etwork
SECON D
Ġsaved InstanceState
Ġf inished
aint en
illi seconds
Ġ Param
Ġind ices
++) {
Key Value
Field Access
Tag Name
ainten ance
ag ent
has Text
h ouse
not e
ext ernal
ĠC opy
Ġget User
Char acters
Hex String
alformed URLException
d one
Def s
if Present
Stream s
ag greg
iter als
lo ts
RO L
ĠSer ializable
get Execution
getT itle
; \
l p
Ġl ang
M ARK
ĠF ROM
ĠFile Utils
get Date
Location s
FIND ER
Ġinput s
Http ServletResponse
get Input
Ġr oles
d istance
Http Method
par sed
Element Type
Ġ1 1
Ġhttp Client
H ierarchy
Ġv irtual
Ġc ard
c atch
Ġiss ues
en coded
AN NOT
LO B
group s
Entity Type
Re po
DO WN
Ġc oord
In tegr
Aggreg ate
ĠTim er
Pre v
Ġthread s
p p
ut f
Ġ ())
Ġon Create
ge ometry
Ġdel imiter
Ġe quals
Ġl iteral
pan el
De v
Ġtrans ition
Ġwait ing
5 2
p ublish
Ġrequest s
SU CCESS
S UP
getD imension
regis try
Ġp id
ĠT yped
i ation
ub e
scri ptions
Ġwh ether
Ġb ig
AR GET
sc ore
F leet
f it
Cl aim
Com ments
ĠImmutable Set
Ġ" </
Ġstart Index
Ġr v
ole c
pri ority
unk nown
type Name
get Variable
ser vices
Ġtrans l
q Path
ĠIn etAddress
Ġser ialized
ĠPro gress
sq rt
B L
ĠTree Map
ro ute
Dis tributed
default Value
Par cel
Ġtrans late
ĠI Type
Constr uct
Ġ' );
L F
Q ue
Action Listener
ux io
Exp and
B R
P in
Ġm at
ĠD imension
B igInteger
ang o
getC luster
N one
n eed
Ġget Object
ĠF l
tr igger
Ġs cheduler
put Int
oun ce
Th ing
Executor Service
Ġrequire NonNull
up les
Step s
get Ex
\" :
ff ff
w atch
Ġre verse
C nt
t le
is Primitive
Ġto ol
Writ ten
Ġ', '
Ġm ost
< >
QU I
OL D
Access Token
match ed
Atom ic
valid ation
and f
Ġass ignment
S ince
li de
ock er
Ġsent ence
get Remote
Ġin s
ĠI o
D est
Ġ1 4
U tf
Ġp ayment
Ġph ase
pm n
C SS
Ġl aunch
(' /
un ique
cast To
get Double
Un til
com pressed
user Id
oot h
App ender
ĠF irst
ex change
ĠHttp Request
O bservable
ag ate
df s
Ord ers
0 5
set Visible
")) .
h ook
getResource AsStream
! ",
Ġh ref
mun ication
ĠPro mise
ĠH ost
8 2
O bserv
is Info
In Bytes
00 5
ĠCall back
I MAGE
Res ponses
AR CH
N ested
get From
Qu ote
In c
ĠB Y
attr s
getE Class
S N
Ġp i
ĠM Bean
ĠTim estamp
Query Param
ĠAssert ion
iv ot
Ġneg ative
N ER
Out line
//////// ////////
å ħ
ĠLog ging
Ġattach ment
* ");
Start ing
Ġ Stack
re verse
ST REAM
Ġwrite To
at ives
get Selected
il ar
DE C
BE AN
CO DING
d rop
Se verity
set Data
ĠCon vert
I o
get Values
Service Exception
Ġmeta Data
F ill
ap is
Target s
Scal ar
ĠD at
get ID
get Format
ĠNode List
Ġ ~
EX EC
Ġr a
pl ain
M ULT
Ġextension s
Ġa udit
getAttribute Value
Element Exception
ret ry
Host s
Cap abilities
Ġc ss
F acesContext
Ġse en
Part icipant
style able
Ġn ecessary
Ġ' )
T ail
Channel s
ĠOpen Cms
char set
pres ent
List Item
ĠCom parable
code c
Ġext ended
Pl us
Ġcall ing
IN F
get Action
Project ion
Ġst d
Property Name
== '
Ġy our
s quare
F FIX
P ING
Ġt ables
Ġal tern
esc aped
Ġl ibrary
Pl ayer
sh ared
STR UCT
s napshot
Enc losing
z z
get Kind
fer r
TA IN
Ġtask Id
onym ous
be andf
Exp ired
beans f
Ġcom posite
getLocalized Message
Work ing
Ġab ove
Imp licit
Ġpart ial
Uns afe
are house
Ġclean up
Sub net
Ġnormal ize
Ġ'{} '
C ipher
ĠS upplier
ag raph
Ġon Click
Node Type
aly t
ACT IVE
isAnnotation Present
er ve
av or
Ġloc ator
Ġv i
Render ing
å ¤
Ġex clude
ow er
ref resh
LA BEL
pe ar
ĠA T
Ġun expected
annotation s
dig est
c ss
Ġin stantiate
ĠFile System
sign ature
B LOCK
Ġc ert
isInfo Enabled
end or
getE Package
PROPER TIES
Primary Key
Ġw idget
Ġed ges
DO M
DI RECT
get Color
h igh
List s
set User
parse Double
P H
Ġ" $
lo s
parse Boolean
session Id
ĠRepository Exception
as c
O Auth
PRO CESS
ĠD ynamic
Result JsonUnmarshaller
al pha
Ch ooser
Ġ ));
orig in
Ġsum mary
F ire
0 7
ing ularity
ht able
the EObject
set Parameter
ĠJ sp
Red is
p ending
add Method
Ġback ground
ĠJson Array
semb ly
N A
Ġh int
ĠM ult
in v
Ġf unc
ĠV irtual
compare AndSet
Type Element
inter face
Text ure
Ġs cheme
t ile
ĠB ox
getR untime
return Type
Ġsec ret
æ ĺ
Ġpro c
ĠT here
Ġcre ating
D esign
s cal
()) ))
R ULE
log p
D rag
Ġto Index
ation al
ST OP
4 5
M y
Ġc ar
tx t
S elf
P ur
ĠM ake
getS ec
ĠPersist ence
9 02
RE L
Field Type
ĠTree Set
M icro
not ification
Ġthrow n
æķ °
Pro files
ĠN on
c atalog
od o
f p
l ab
s imple
IS O
Ġvis ible
ĠO ptions
Ġcommerce Order
Ar c
ict ure
Ġ( %
ĠE Class
V ED
ĠP os
Over lay
ER S
Exp iration
Ġfield Type
Start Time
UN I
F ramework
g ithub
Ġv ia
R Y
ad apter
Ġin side
Ġget Next
get View
Ġj dbc
attribute Name
d ot
get Generic
Ġex tractor
get Style
Tr ade
Ġred uce
s orted
OW L
Vert ical
N aming
Ġ Struct
ĠString Tokenizer
Ġnot e
ĠIn etSocketAddress
() +
lic ense
Ġ Partition
get Uri
set Length
cre ase
metric s
Place ment
Session Id
Ġcurrent ly
Ġev t
L icense
Ġs ym
Ġ Extension
Ġqu ot
Ġs s
th rowable
Method Descriptor
IL D
ĠWeb Socket
L azy
Ġhttp Request
ĠOn ly
Ġc ertificate
Pos sible
SI BLE
ph ab
Connection Factory
Ġst ub
ĠN d
ĠMod ifier
Pair s
Ġb lob
ĠM ediaType
PA RENT
ĠDe v
h ome
Ġp atch
Ġm easure
Un ary
if e
Ġ' -
Store Exception
get TableName
Pro cessed
ac ade
Ġpage Size
c n
Ġt gt
loc ated
Ġoccur red
ĠCloud Exception
Ġs ide
Ġb aos
B i
Ġget Service
Hash Code
Z ERO
List Value
Ġc andidates
Map s
quival ent
Ġcon version
("/ "))
ech an
> =
dep endency
(" }");
Ex ec
Ġiter ation
Ġ[{} ]
H orizontal
em it
ĠC OL
Ġse ed
Ġwrite Line
St ation
Ref s
ĠSt age
Ġget J
g ree
com press
trans port
ĠData Source
å ®
and atory
ĠN ow
load Class
Ġwrit ten
de pth
Sec ure
Ġman y
v s
Ġcap acity
L ight
ĠBy tes
Ġi terable
SU FFIX
f ailure
Ġ= >
Ġ[{} ]",
is Instance
ĠClass Node
) ?
F act
e NS
PRO TO
boolean Value
ializ ers
B rowser
erm ark
Ġu i
UT ES
D om
Ass istant
local ctx
ra ft
k t
to Json
run ning
Ġne ighb
aus es
Occ up
is Static
Ġhand lers
Ġtrans fer
E JB
In ventory
set Parent
Def er
Em it
201 902
i or
Ġcom put
8 3
Cl one
B A
K eep
Ġ ());
Value Type
ad io
ĠS w
getDeclar ingClass
n amed
Ġ2 00
Ġax is
P df
Ġcommand s
C overage
V pn
get Locale
R C
c or
Ġr ollback
Parameter ized
B ulk
t t
Ġpro vide
Ġ Identity
ĠW indow
getParent File
Off er
all eng
N s
Ġf ast
av as
Ġal ert
B ool
8 1
Ġ UTF
H our
S equ
Ġf eed
Ġre ferences
ID ENT
Ġ' :
Ġle x
con verter
Resource Type
Ġ Provider
Ġf acet
D EN
ĠM ithra
ĠO ther
Ġa cc
Byte Buf
S sl
ĠC ounter
Ġ", "
sist ent
Ġrep lic
ĠJ s
d eserialize
il ing
set M
BO OLEAN
(" );
Pl ay
Ġ leg
ad apt
Ġserver Name
iag ram
ç Ķ
ST Y
data Source
z s
Cache Entry
d imension
Ġc d
Ġs n
Qu ick
ub y
ant ics
az el
get Channel
B UT
Ġst andard
ĠB i
Call er
dep loy
wh en
set Time
ry o
Ġreturn Value
ik i
Ġ} ).
ĠT arget
Ġr ate
Ġmod ules
Compat ible
ĠFFDC Filter
(" (
Measure Spec
Ġreturn s
In stant
Al locator
ĠRE ST
Ġser ial
ĠSer ializer
De code
K eeper
ĠS ip
Ġpro ducer
Un ion
read Value
WE B
phab et
Ġfinder Cache
b ranch
Ġc ases
cri min
Ġob tain
ĠC ore
ĠOp codes
Ad just
Ġpre vent
increment AndGet
-- -
C atch
list eners
ynchron ization
Pro posal
d om
Ġ{ @
In Millis
Ġstat istics
Order ed
PAR T
Ġqu ote
m aster
get Constructor
Ġ Url
Ġt yped
ag ger
Ġrece ive
m f
p ass
()) ).
O VER
Ġcon sume
find By
append Child
ATE G
OR ITY
B C
4 6
get Timestamp
Ġc at
Ġb ootstrap
ri end
ĠN ew
Ġmin imum
get Command
Algorithm Exception
Of Week
Ġem bedded
L INK
getEClass ifiers
h istory
m ail
ver ify
C lear
m atrix
Ġ Device
' ))
ĠD OM
Stat istic
ME TA
Json Array
Ġxml Event
W arehouse
Ġbel ow
UN CTION
_ (
List New
Ġact ually
d rools
get Artifact
IN PUT
C lock
F C
al ert
ol lo
M utation
Ġa utom
trans late
ĠE valu
ĠObject Mapper
String StaxUnmarshaller
add To
up per
t ail
ĠS ee
ĠN amed
Ġerror Message
Rest ore
. *
R S
From String
G ray
i qu
f g
å Ĭ
Ġb ond
ĠB e
rid es
V ault
Ġctx t
ĠMem ory
Ġcol s
Ġex c
> ";
Ġs ur
Ġthe ir
Draw er
b ottom
IfN eeded
A RE
Ġf allback
ĠD Matrix
le e
Ġis n
tim er
SCRI PT
& &
add Header
Symbol s
Ġuser Name
Ġare a
ĠString Util
to Blocking
ĠAt tributes
Rect angle
Ġvalue Type
pn g
STY LE
Parameter izedType
F unc
Ġget Attribute
Object Property
mem bers
f r
herit ed
set R
Ġan alysis
on s
ĠA st
x c
Ġ Environment
[] .
F aces
Request ProtocolMarshaller
Ġdec or
VAR I
REF ERENCE
avas cript
ĠSTR ING
H it
ĠD raw
Act ivation
>> (
Not ify
red irect
Ġbind ings
RM aj
Ġd x
Ġo cc
Request Exception
list Files
mod ifiers
atas tream
Ġn v
At t
Rece ive
Ġd i
Ġnode List
ĠSe lect
(" "))
s By
Ġ End
(" {}
get Activity
ig her
ak es
ri er
Ġpro per
Ġpersist ence
F inish
ĠPl an
s un
ĠSub scription
Price Entry
TR Y
Ġh elp
cap acity
Ġa is
RO LE
ex ample
ĠL ook
En ter
ĠG u
Con cat
ĠW rit
get Entry
PRO JECT
Ġc nt
Ġse m
CUR RENT
x e
Sub system
Public Key
Type Parameter
An alyzer
CE PT
Server s
ĠCon verter
an it
Ġso ap
Ġexp iration
S amples
Ġassoci ated
; }
P ager
Ġd r
AL LOW
Ġaggreg ate
SCO PE
K ie
v ol
PLA Y
le ms
Ġin cluded
A ff
\" ");
Sc opes
od er
an te
o ptional
ot ential
ĠJ ar
< <
IN ARY
qu ote
ab ly
PLA CE
FF FF
ĠSD Variable
TEMP LATE
Ġreport Error
SIG N
get Image
Ġ" ?
ĠV er
Security Exception
ĠV ertex
calc ulate
IN VOKE
Sub mit
is File
Ġm id
check State
rest ore
Ġcon sole
RE E
Model Node
Down Latch
er vation
un nel
Neg ative
azel cast
v ant
ĠRe port
M ock
h elp
ĠS ort
F raction
get Un
Al ign
Ġ{ \
c i
ĠS kip
Ġsh eet
Helper s
Return Value
im g
Processing Exception
SER T
ĠSt ep
ou ch
ri b
Ġw rong
Context s
ot ate
set Visibility
OUT PUT
Ġp res
Ap pro
LO CATION
Members hip
ynchron ous
ĠHT ML
ap es
get OutputStream
Com b
Tra versal
orrelation Id
alleng e
ĠE OF
iss ues
ĠT ri
In line
set Last
Ġpro mise
DE SC
B IG
ĠA ST
IT LE
get St
gener ic
t ick
(" '
mon th
Can vas
alyz ed
Ġversion s
Ġin jector
write To
package Name
L D
A udio
C KET
normal ize
A st
> ",
7 5
Map ped
a emon
as ync
Ġtry ing
nt k
inger print
ĠM easure
ĠC AP
in ite
Ġin struction
MOD ULE
L T
Ġ3 1
Ġs omething
Ġmem o
Ġdet ail
L java
gn oring
Br acket
m issing
Upd ater
A ge
X base
j p
Ġt erms
ĠHttp Client
RA CE
Iter ation
Bus iness
ĠF ont
G ap
d ataset
ar l
.. ..
Ġlat est
q n
E poch
Ref lection
D en
] +
Ġstring Builder
Tool bar
Sent ence
R B
ĠTh row
column Index
mem ory
Ġcompare To
complet ed
Ġcheck ed
Full y
atis f
Ġn orm
dis able
Failure Exception
Ġp retty
ann ing
Ġstate ments
ugg estion
ĠM aven
ip p
ä¸ į
0 6
put IfAbsent
Ġindex Of
ĠMan agement
Ġd y
Ġg reater
Hand shake
Level s
Ġconnection s
9 4
E val
L etter
S izes
ĠS cope
getS ymbol
Check Box
Ġsup plier
pro cessed
12 8
Term ination
Ġconnect ed
ag ination
ĠFI X
) /
all ery
Policy Request
Ġfrom Index
init ialized
Contain ers
Path Param
FAIL URE
Stream Reader
Dir s
ä º
Con versation
De leg
Ġde coding
FR AME
Ġd eser
ĠC ase
Ġbuffer ed
or er
set up
ach es
Time Unit
Replace ment
Ġ Dependency
Ġdis able
Pop up
L ER
Ġtr i
Inv oice
R aster
S ig
able Type
ializ ing
Defer red
K nown
Ġ" \\
Ġpro to
ast ic
C ALL
Ġm appings
reg or
LA ST
Ġservlet Context
Ex act
Con tains
ĠSign ature
Ġ1 3
t i
Ġ `
Z oom
ĠPre paredStatement
E DEFAULT
e INSTANCE
Ġget Parent
FO RE
Ġe jb
Node Id
I AS
W ish
Ġ10 24
getO wner
er os
Ġm ut
add Reference
Xml Element
Ori entation
se e
Ġget File
Decor ator
Ġc os
ro g
Ġpro gram
EN CODING
ck er
res pond
U Int
Ġstr ip
Ġper cent
bound s
b est
posit ories
vid ence
RO LL
ĠEd ge
ĠM ongo
Builder Factory
Ġ Load
Ġo perand
ĠG lobal
Z IP
Pre paredStatement
Ġs yn
Ġw atch
mod ified
A cl
b order
c os
Sl ash
es is
ĠL E
write Long
Ġab solute
ad es
Trans ient
Exp licit
C ategories
Ġm ult
ĠRemote Exception
ĠA ccount
anag ers
T ARGET
Ġb in
otion Event
Ġcheck sum
To Remove
Ch oice
ĠJ Panel
IT IVE
L ike
getNode Name
J OB
O id
reg ex
get NumberOf
Log s
R isk
co Occup
ance ll
Ġhand led
zs coOccup
zscoOccup ations
Ġmethod Builder
ĠAn zscoOccupations
J AVA
P ACK
' ll
ĠI s
get Fields
Ġs cheduled
del ay
: \
H OUR
Ġde li
Ġload ing
Ġdirect ly
M aven
Ġget OrCreate
Security Group
C W
ĠC aster
IN TEGER
Ġtime Unit
Import s
Ġ Endpoint
Tr aining
cogn ized
comp atible
Ġfor e
D iagnostic
Ġm b
ĠA m
ĠM edia
Ġf l
ud o
w as
ĠE C
Ġ4 0
ĠG L
M ut
Pre ferred
start Element
ĠS end
ĠC ertificate
Ġcomplet ion
ĠInvocation TargetException
er c
Pl ain
ĠLocal Date
S n
Ġc redential
Ġget Child
Primitive Name
s ip
vis or
ĠAssertion Error
at ermark
B etween
Ġp eek
com parator
sl t
ir ing
Sign al
CA SE
J AXB
Ġs f
Ġd en
add Component
ĠLine ar
vari ant
J sp
W H
set Title
ĠFile NotFoundException
Ġwarn ing
Ġg eo
ann ed
user Name
Ġc losing
f older
Feature Call
ĠInternal Exception
Ġc oordinates
ch ase
Ġget Config
ĠB ad
pre c
e q
Spec s
oordin ator
Ġqu eries
or a
ver sed
Ġreal m
SUP PORT
è ®
getS cope
f lag
ĠM ozuClient
AS K
Ġsw ap
M ultipart
Array Type
G it
alyz e
ĠO vh
ok http
ch anged
Ġo id
Class ification
END ING
U AL
per son
Ġtarget Class
[ %
ĠW HERE
Ġ æ
ro ut
ĠI gnore
ser ializer
pe ated
add itional
Ġag gs
Ġupdateres ource
Ġp olygon
av ity
Socket Factory
Vert ices
Ġ{ ");
Ġd ao
ĠT H
Ġse g
Rout ing
K it
f n
Class Type
Data store
Ġdimension s
Key Store
Gener ate
VI SIBLE
Ġpersist ent
update d
f w
on ds
roll back
Ġ1 9
convert To
Ġconstraint s
Ġcon sum
Com pression
Account Id
h row
ĠM enu
Ġpattern s
ad ded
Ġobject Mapper
AC C
FieldAccess ors
alyt ics
i ally
Ġh our
Configur ator
Ġd uplicate
ph an
pro b
ĠO P
getType Name
P ipe
u ages
Pos itive
task s
Ġexpression s
Ġe ar
<?> ,
pri vate
W as
D em
æĺ ¯
ertif icates
regor ian
Ġ} ));
ack son
SE D
ĠCol lector
Ġdefault Case
Ġhost name
( \"
c ert
ä¸ Ģ
Ġget Request
H S
se m
In clusive
Direct ories
C Y
F ER
t ure
get V
Command Line
ĠCommand Line
l ish
en k
Ġpar allel
ENT RY
Ġlast Comparison
EXT ENSION
6 5
V ID
Ġh it
ĠA L
Ġhand ling
ĠUI Component
C M
ĠO WL
ĠV isit
E OF
s in
et ime
ĠClose able
f lip
Ġ1 7
AR N
Ġtarget Type
Ġn b
C LE
et ic
ĠV ar
Ġtx n
Class ifier
PASS WORD
Class Node
Ġsub scribe
Ġspec ify
st age
Pool Size
N ORMAL
Ġ Style
Ġ 64
get Filter
Ġb uffers
ANNOT ATION
D uplicate
get Exception
oin s
square up
B roker
get Param
local Name
Ġ'. '
] ),
arn ing
Dir ty
INTER VAL
ç »
al ity
Assert ion
ĠinternalGet FieldAccessorTable
P ref
Ġm ail
Change Event
ĠM y
ĠL azy
field AccessorTable
ensure FieldAccessors
ensureFieldAccessors Initialized
Ġset Property
B IT
M ARY
get Internal
Ġrem ain
method s
F ROM
Interceptor s
S ibling
w all
In tern
Ġcre ation
u ent
ag ation
yles heet
Serialized Size
get Headers
last Modified
Ġlog ging
Ġchild Node
ĠTime out
Sol ver
h o
ĠP ost
read Long
SA CTION
m ut
J O
ĠE Package
getId entity
Ġparameter Types
4 2
ĠP AR
ĠO Record
Ġrel ated
o val
Ġ Identifier
Object Reference
UT C
f actor
get To
vi ction
ĠG roovy
Job Request
B ig
get MetaData
ex clude
Ġl azy
A U
f eatures
Spec ial
Ġcon versation
ĠS ample
pen s
getDefault Instance
c b
get Number
um an
Optional Parameter
C oordinates
Default s
TIME STAMP
(" --
us age
Ġcom ments
b asic
Ġf all
w rapper
start Index
connect ed
An chor
Cache Key
m ult
action s
prop Name
SING LE
Ġr ank
Ġqual ified
im ation
ĠCode ableConcept
Ġc loud
se lection
Ġs yntax
Ad aptor
getO riginal
E Enum
Ġin vok
Vi olation
ĠJSON Exception
Bound ingBox
rag ments
Request Builder
get Atom
() ");
Dep endent
Ġass ume
for ward
in ity
ig u
se ek
getComponent Type
b ig
et ype
us pend
Ġcolumn Index
ITE M
T ensor
Ġc m
ari ant
ax b
getM ain
j i
al one
Ġget Column
U i
r ules
get Partition
(' ,
Wh ite
get External
AT ER
R ollback
im server
ateg or
Ġcons ider
N EL
an ces
class Loader
format ter
dst u
get Actual
declar ed
n b
Ġf r
ĠC al
Option Rel
T X
Ġcon cat
Ġhttp Response
Alias es
f x
Of Month
ĠW idget
Ġpart itions
fl ate
Ver ification
rel ative
ĠEl k
pli ance
Ġend Index
k e
ord ers
e gr
At tached
Line ar
AC L
INIT IAL
P b
: %
get Block
ase d
pos sible
() ==
ĠC urrency
ĠN ative
Ġdeclar ation
get Order
ĠA udit
IN FIN
get Second
ĠD on
m edia
set Layout
to HexString
Ġpro cedure
ĠIn jection
SE ARCH
ĠWrit able
to w
ree ment
Dis able
isTrace On
Ġp d
ĠM ode
C oding
IM AL
Ġc ost
Ġand roid
ĠParameter izedType
Pro m
ĠG ET
Su ite
ĠPort alException
ĠJ MS
filter ed
re w
Ġget Field
Method Call
= >
in st
end Element
r as
ĠR ed
ĠCondition OptionCall
D P
z a
Ġdis k
. ";
ĠTI ME
(' :
Ġurl s
Init ialization
ĠPage Exception
ing Mode
sh eet
Ġde coded
R ank
Up grade
Min imum
B OT
T C
Ġservice Context
Produ ces
next PageLink
ĠX Path
c ar
Ġrep orter
Ġunder lying
T ITLE
Ġ actor
get Rule
PRI ORITY
Ġ Structure
Ex clusive
sh ift
Descri ptions
NAME SPACE
is NaN
Cl usters
p tr
on Create
Ġget Data
[ "
and alone
Ġtoken izer
( $
C ar
al lowed
Ġ angle
< =
M aintenance
L iterals
è ¡
Coord s
T mp
Configuration Request
Ġupd ates
j casType
Ġt m
ak ing
Conf lict
Ġlink s
Pr inter
=\" "
u er
Sp aces
get Descriptor
Ġget Key
getS ql
oins pection
F requency
d n
Ġf p
Service Interface
F lat
Ġget State
EX P
Transl ator
)) ));
Ġbe havior
Ret rie
Ġpl atform
Ġt a
Or Default
Gener al
up load
Ġpos itive
find First
org anization
po inter
Ġz oom
Ġstream Id
Ġ Decimal
pe ech
Ġo bserver
Ġrun ner
sc roll
ĠA v
ĠD oc
eas ured
Wh ile
Ġreference d
Sh ell
0 9
Ġnormal ized
s cheme
oc ab
StackTrace Element
c riteria
++ ];
G MENT
St ored
User Id
order ed
MESSAGE S
ITER AL
Part y
Type Id
Ġ- --------------------------------
At las
View Holder
Comp ile
CON TAIN
Ġsub scriber
Type Arguments
Ġc mp
ro l
annotation Type
Ġcheck point
ĠT AG
Build ers
vi ct
Ġk ernel
get New
Pre view
Ġ6 55
Ġpar as
get GroupId
AN Y
from Json
DOC UMENT
Ġ Handle
Ġmod ifiers
ĠData Set
ce ler
log ging
JSON Array
In Progress
Min ute
Ġdec imal
get Operation
Ġen ough
sc reen
Ġrest art
Ġcon tact
Access File
Sc ene
s uffix
AL IAS
util s
u cer
ag ic
ĠR oute
ffic ient
D st
char acter
Ġthem e
Ġ"- "
c ing
in ject
Ġr w
to ols
Com press
Message Size
ĠP ermission
op enc
object s
M igration
Out bound
v ector
Ġadd Child
Custom er
s k
Endpoint s
Ġ{ "
get Protocol
Artifact s
Ġhash Code
ĠRandom Variable
file Path
s witch
am ount
In ject
RE QUI
List Index
r pc
mod ify
task Id
Ġtemp orary
add Item
Admin is
g u
z ero
for cer
Ġvert ices
7 6
Ġget Message
ĠM in
Ġcondition s
LET ED
get URI
Ġj edis
ĠMap s
PE D
ĠUn known
ex tra
Ġget G
Ġstat es
ĠSer ialization
le vant
Ġ< %
201 8
Ġcan onical
Auto Create
Resource Exception
Ġcall s
E ffect
amp a
Ġformat ted
Ġdet ect
Sub scribe
ĠPro to
def ine
v acy
x d
pr et
ĠPri mitive
ĠComplet ion
out er
un marshal
Or Builder
Processor s
Ġtx t
Ne ighb
ampa ign
n one
Request Mapping
Ġjob Id
i ator
Differ ence
get Module
f d
f eat
TH READ
Ġmod ification
UserSegment Entry
getS ign
get Point
pr incipal
ĠD et
work er
Quot a
p id
Ġ{ //
ĠG ray
off er
get Uuid
Add On
f ixed
Ġqual ifier
Ġcl aim
Session s
ĠView Group
det ail
G RE
l in
per form
NoSuch MethodException
TRA CE
Ġre cursive
To Add
Ġl l
Ġh ome
Counter s
ĠB utton
Ġab stract
ĠF actory
Command Context
o per
ar ante
ĠBean Definition
work flow
pl ies
EX IST
N N
Ġ QName
æ Ĺ
op Lambda
ĠK ie
Authent icator
Ġi tr
Ġl b
G P
se udo
los est
M aker
Ġc x
Ex clude
ten ant
Ġenc losing
wait For
Ch rono
Channel HandlerContext
iz ard
Ġh alf
Attribute Name
visit Method
set Int
CHAN GE
ĠT emp
Ġsign al
ĠN UM
ĠSet tings
db Session
can not
By TagName
DE SCRIPTION
PRE SSION
m ac
Dimension s
ĠS H
File Entry
getPri mary
Ġcheck For
Ġsuccess fully
ĠC atalog
4 1
getC reate
Ġrun nable
saved InstanceState
Ġget Node
Package Name
M F
Ġf v
ed Value
getL anguage
A utom
Ġa ccumulator
Ġg son
6 1
Ġp k
ĠT ABLE
Ġun set
ĠCon sole
ward s
O C
pe er
process ing
=" +
olec ule
æ ŀ
Ġget Max
set ContentType
ed itor
neg ative
S ensitive
RE SH
ĠSt ax
Rout er
EXEC UT
Ex pect
Context Factory
Ġun ion
enk ins
I E
get Annotations
Ġbound ary
un used
ĠB ug
I gnored
ä ½
ans ion
EX TRA
set Is
Ġin cludes
UN IT
ĠPro file
unc ate
l hs
ad vance
Ġ& =
Ġbyte Buffer
Ġr ing
Ġm ed
Com parable
6 2
M at
om er
El k
ific ant
Dynamic Query
Ġaggs Lambda
S AX
In clusion
CH ED
Ret ries
ymb o
label s
Pixel s
get Container
Network Interface
Ġdig it
Ġ Debug
Ġget Method
0000 000
oned DateTime
getSec urity
F UNCTION
ĠC SS
z ure
Ġcreate Ifc
ĠI ss
F il
s lice
Ġrequest Id
ĠNoSuch ElementException
Er r
Search Result
ĠR oot
Ġadd ing
Ġproject ion
ä¸ º
Ġassoci ation
ĠS can
ĠHttp URLConnection
auth ent
echan ism
IT T
UST ER
Ġcomb ined
Ġr r
Ġp oll
ĠW ord
Ġfield Value
EN UM
Ġon Error
Ġaccess Token
Ġre ally
back ground
ĠOutputStream Writer
t uple
set Current
Ġinitial Value
G ED
Res p
ĠB inding
Th en
ĠX A
e ach
to ol
Ġ^ =
M ean
Ġa ccum
Th ere
Ġstr ict
Ġj sp
ĠJ Label
get Methods
Ġget Path
Ġp ad
Ġkey word
He artbeat
Ġbatch Size
ĠConnect or
to URI
un expected
Ġg it
cover ed
ol ations
write Value
Cache Model
Ġiter ate
ĠDB Constants
Ġk lass
Ġv ideo
Ġde ad
sub List
**************** ****************
H ive
Ġenc ounter
Ġget P
ĠH E
ĠH y
Var Name
add Column
ĠS creen
Ġorder By
Ġlon ger
Ġp in
Ġs v
Sc enario
B eta
set Resource
ĠF OR
Ġf act
Ġdis patcher
F LOW
H istoric
getRequest Context
N avigation
Node List
Action Event
ĠCount DownLatch
Gener ation
B in
Value Map
ĠMap ping
Ġget Content
=' \
L ab
n oinspection
bed d
s ym
V ATE
W rapped
it el
CT ED
Track ing
draw able
tr ust
Ġat tached
get Integer
get Ref
riend ly
M acro
} \
getS cheme
Ġit self
Ġsh adow
PACK AGE
J DBC
_ "
getP er
Ġany thing
ACT IV
Ġbe ans
ampl ing
se en
if orm
jsp x
al ker
As pect
wit ter
get Template
re v
Order Item
f loor
s up
Ġdb c
ĠCal c
Ġs ys
ĠA S
ĠL ex
Property Type
gre es
ic ient
IFI ED
Ġimplement ed
B alance
C ross
CON F
crimin ator
] *
set Output
ĠSet s
getContext ClassLoader
Card inality
Ġ" {
ge om
PO OL
Sql Type
Bucket s
Cast Exception
ĠOther wise
Ġconfig s
TYPE S
ĠB ootstrap
ĠD irectory
FI R
Comp ilation
F s
Ġ" ("
form ations
Of Type
Rec yclerView
periment al
= ").
am odel
(" *
ĠAuth orization
at ar
get Con
ient ation
Success ful
Ġ1 8
Ġle af
getF eature
ENG LISH
C DATA
Ġm illis
Ġa st
LA BLE
Ġobject Name
" })
Attempt s
uggest ions
Ġin validate
Ġw ell
Ġget D
Inter action
Ġbl ack
setOn ClickListener
Y ou
k it
Instance Request
ry Run
C ircle
get Commerce
Ġ Empty
Ġd atasource
Ġser ies
Ġin coming
Ġd ays
ĠO Document
l iteral
B roadcast
Ġdata Set
e f
Ġ Static
constr uct
CLU DE
D U
Json Property
struct ure
CODE S
Measure ment
- "
d ump
ch art
4 9
C N
++ );
V oice
get App
Ġd f
Ġwait For
ĠApi Response
Doc s
Ġ"_ "
Ġp ages
empty Map
Ġq ue
Plan Node
Ġn m
ĠMem ber
ymbo lic
. \
/ *
L dap
ag ram
ME DI
Gener ics
irt y
an notated
ĠS ER
pro t
Ġmemo ized
P ub
å ¼
get Api
ĠS V
an ode
RES OL
Ġcommand Context
C ANCE
Ġa ck
e es
Ġd c
Ġget List
ĠE L
Ġevent Type
DB Cluster
T ip
th rift
Reg ular
Var Insn
c us
li er
strument ation
Ġc i
set Source
ĠS pan
Ġhe ap
ĠGener al
ĠTo ast
Rec ipient
Ġms gs
Combo Box
B INARY
ĠG rammar
getP assword
uff icient
c ceeded
get Stream
Ġcom pressed
umb n
get Bounds
Ser ial
Ġvisit ed
Bud get
S UM
or r
ĠString Type
vid es
ĠU P
n Os
ad aptor
Ġb etter
Ġex cluded
Ġg c
M Q
ĠD ATA
Access Control
X Path
ĠAss oci
A GER
G roovy
red uce
Se p
m apped
get QualifiedName
Ġget Parameter
UST OM
Task Id
Ġcheck ing
Ġread y
MI SSION
in o
ter min
Window s
En forcer
Al arm
M anagers
ĠHttp Method
Ġres erved
Dis patch
ud y
event s
Can onical
ĠIndex OutOfBoundsException
Ġg rammarAccess
Ġrel oad
Ġpair s
DEFIN ED
= {}
ob ot
ob ser
Test ing
G B
est ing
Ġ Ar
de let
add Last
Ġre v
Ġim mediate
en ing
Al location
down load
Ġcounter s
Asc ii
ĠInter val
CONT ROL
e ver
ly ph
close Quietly
Ident ifiers
bit map
Declar ations
dis pose
i ence
ĠGener ator
register ed
ĠSh ared
f ramework
Default Value
Ret ention
R ound
Ġget Ifc
ĠD iff
By Type
Conf irm
Ġr m
Ġc are
Ġl ab
Ġspec ification
Gr pc
ARG UMENT
openc ms
s pring
w idget
QUE UE
TRAN SACTION
O AD
is S
col s
Ġgr adient
Ġ (),
Chunk s
c y
set Key
ĠRet ry
Q NAME
s ers
ĠC riteria
FE ATURE
remove Result
25 5
Leaf Node
() ]
Ġf os
W IND
Ġn et
get Com
ĠB O
ĠOperation FailedException
Ġfull y
Ġ ERROR
Ġs q
set Width
Ġquery Params
ipp et
set Message
Ġred is
ĠString s
connect or
POS ITION
Clean up
subscription Id
INFIN ITY
Ġh old
Act Code
PROTO COL
Ġpre cision
("/ ");
r ank
Ġr anges
ĠCP Definition
R otation
Ex tras
ĠJ dbc
Ġrender er
M ER
o ices
re vision
to pology
tr l
ur er
Ġorder ed
P id
r ate
Ġt z
re po
ĠC ipher
us ing
cc p
ret rieve
ĠDis play
ri gin
Health Check
Percent age
ĠCH AR
Ġm imeType
ĠT HE
h ex
A mp
im ated
m ean
Request Listener
TR IC
Ġac quire
Ġfeature ID
Http Headers
Rel oad
clud ing
Ġdeployment Unit
Formal Parameter
Ġ ))
get Extension
get Active
Ġt f
is Event
Ġe ffective
Ġresol ution
+ =
get Init
vi rt
ĠP lat
NO RE
prepare Statement
Ġproject Id
mark er
çĶ ¨
prec ated
A cc
C t
Ġb rowser
Ġse par
Ġact ivate
From S
ĠPath Address
scan pos
C li
getS c
ĠType Reference
Cre ating
' ve
av ac
GE X
ĠPlat form
Ġs ingleton
Ġtarget s
Close able
ock s
l on
ĠS cheduler
Json Node
qual ified
vel op
Ġdig its
Str ict
B illing
W atcher
getS ite
z e
Ġ Par
visit VarInsn
Ġ655 35
ĠS cheduled
field Type
DI ST
ĠAtomic Integer
Authent icated
ess ment
EX PRESSION
getChild Nodes
getUser name
Lex icon
Ġus es
Bl ack
ĠS ize
con tact
add ActionListener
ĠValid ator
or able
Ġa ux
Ġkey Store
Match ed
Ġt e
ĠV ER
Ab ort
Ġsc enario
F ULL
i pt
ĠIn stanti
ĠH ive
visit Insn
ĠAnalysis Exception
Ġc lip
11 11
IFI CATION
Ġassert That
ĠStax ResponseHandler
M R
num Cols
Ġs i
Min utes
tr action
ab sent
Trans it
Ġt tl
ĠC ached
s ig
get Byte
Ex tract
ass et
To File
ĠN aming
10 24
Ġab s
regorian Calendar
Ġmemoized Size
) *
F ooter
\ ",
Ġo per
Data Input
ĠList Unmarshaller
ynth etic
. %
Ġm aven
ĠG oogle
Class Path
Ġnode Id
LO Y
Ġs d
Ph one
Ġc w
ĠC ookie
Model Attribute
s ources
ĠDescri ption
AUT O
p rom
Pre pare
Color s
Ġd om
To Be
ĠEnum Set
GRO UND
MB ER
qu ot
rem oved
write Lock
Invocation TargetException
rece iver
F ront
Ġ art
Config ured
ollo ut
L U
get Options
trace f
Ġinter rupted
lic able
Ġget ting
AD ATA
sp aces
Cms Resource
Ġdatabase Name
ä¸ ª
Ġend Time
Ġstatus Code
Lex er
Fore ign
C at
ar ter
ĠO K
PA REN
ĠHas htable
L ITERAL
ĠOrder ByComparator
c ountry
ĠS m
ĠV ec
Assign ed
E ST
R oom
s ys
Ġ Extended
IC AL
Ġet c
E K
N eeded
or ation
re at
ĠD ialog
Port al
C apture
p acket
Ġh ook
Callback s
Graph ic
ĠService Callback
IDENT IFIER
m ay
Weight s
M ust
e js
De ad
ĠIm port
Ġanim ation
Ġl p
With in
dis patch
Ġpr inter
ĠS plit
Se en
hance d
C red
Con current
Ġ'/ '
O ccur
To Int
Relation al
N av
ĠN amespace
Ġass igned
ĠValue Enforcer
COMM AND
Ġs in
Info List
ĠG son
Sp atial
Feat Code
M alformedURLException
ME T
ĠCO MP
HAND LER
5 3
Ġproperty Value
Ġm iddle
Ġe p
ĠA R
Re cursive
Ġl arge
Ġde ep
raw ler
ĠO B
Fixed Rate
Ġc ountry
ing Exception
ĠS lice
Ġprop Name
getField Name
RG B
s lot
ã Ģ
RA INT
Ġupdateres ources
ĠBorder Layout
F allback
In etAddress
Ġm i
to Millis
ook eeper
api Version
Equal To
sec ret
ASC II
. ")
Re peat
Ġmin ute
Ġd esired
co uld
m v
IL ITY
ĠIN T
NE G
n ested
set Selected
AL OAD
ME M
Ins pector
In formations
Ġv ec
vi e
Ġcount s
Lat est
A ccumulator
C amera
m n
Ġs r
Ġchunk s
Ġgr ant
Ġres pon
Ġparent Node
Parser Exception
Ġback end
Ġw ildcard
9 3
ed Type
ĠN um
ndi Name
J ournal
R a
Ġposition s
D ates
Ġb and
set Background
to Set
Ġ' <
IfN ecessary
pol ator
Ġ Qu
s igned
Ġf acesContext
Ġw b
Ġdet ected
Ġr gb
Ġ) =>
curs ively
ver e
ance led
Ġ5 0
ĠPrint Stream
get Read
Ġp oly
Timeout Exception
Ġc ross
Ġt p
EN AME
De vices
ĠI Atom
MODE L
l t
back up
P ers
ĠS A
Style Name
Ship ment
T uples
ĠD A
ĠOp code
Ġcom pression
Property Info
h elper
Ġtrans formed
OD Y
SC A
Tri m
Ġchannel s
DB Object
Ġcon v
rid ing
ĠAt om
ĠDev Failed
s r
Ġ" #
Ġm ozuClient
ED IT
Ġ'{} '",
Ġre covery
ĠT O
Prefix es
p kg
el et
read Byte
SE CUR
er ator
al gorithm
Ġ" .");
00 1
ĠST ATE
m ust
n ers
get Attachment
('. ');
FIR ST
QU ENCE
SECUR ITY
Ġstep s
C andidates
F it
m at
Ġ Unit
Exception Handler
ig ation
Ġj p
ac quire
us ers
Ġadd All
Ġ" @
new State
Ġappend able
ĠBuffered Writer
getNode Value
set D
ĠEx ternal
M ist
Ġ ExecutionException
Ġpl ay
FINE ST
S ym
de li
Ġcom parison
Con tinue
Res ervation
add Option
execute Query
Ġ") ";
Ġann o
at able
Ġth ose
im ator
Ġindex ed
re ct
col lector
Ġoffset s
Project s
re ply
set State
ĠA c
uc tr
R ace
Ġget Local
ĠL ONG
IG H
ĠST AT
a h
get Stack
Ġin line
Log ical
from Response
VID ER
virt ual
r adius
} ")
Ġre peat
Ġcom plex
og raph
Ġgroup Name
b inder
get Writer
Ġpro m
ĠIss ue
C AT
Status Code
ĠAn y
Place holder
B est
ar c
ing Strategy
Ġset Content
Ġexecute Get
auth orization
BO UND
at ures
Ġl ambda
Line String
Ġvol ume
all et
cal endar
Ġ2 5
Le ader
Ġwrit ing
Quot es
tros pected
am ps
getI ts
T yp
Ġarray s
Ġget Id
not ate
cord ing
getString Value
pl atform
te in
Grid BagConstraints
able DynamicQuery
Ġparam Name
DE F
ĠMessage Digest
( %
F alse
ul ative
un wrap
ĠAt tach
un register
ĠType Token
Ġattr Name
node Name
Top Level
Ġweight s
F ar
Ġr ename
For ce
Ġdis tribution
Ġf c
Option Pane
C D
at ibility
Ġun its
Ġquery String
Database Exception
ĠH elper
:" +
attach ment
k eep
ĠD irect
I AN
Ġser ialization
request ed
Ġret rie
orr ent
9 8
ain ter
Ġnext PageLink
PRO XY
getD estination
ĠSh ape
FIN ER
L ess
Ġp ipe
ĠM ock
Ġparam Types
getR ole
Ġhost s
Ġover flow
cs v
WA Y
Ġm g
rog ate
0 8
s ender
In flater
d uplicate
ic ast
Ġa udio
IN SERT
Java Type
INTER FACE
tinu ation
get Function
Ġin f
Executable Element
add Line
con stant
TO M
Compat ibility
J MS
Ġinstance Value
log ical
Ġle ave
MAP PING
en ation
Ġr af
Ġget Connection
ĠB E
getD ialog
yy yy
Observ ation
C pu
Data Object
C r
Ġnode Name
Tim ed
SC AL
? ");
a ption
Key Spec
Event Handler
Ġne ar
T ING
con s
res ponses
Ġ_ _
Ġresponse Fields
ĠPo licy
Ġman agement
ĠFIX ME
æ ī
Ġl dap
L ANG
a udit
b alance
File NotFoundException
is Interface
Ġde leg
ĠR ole
C ut
er ts
ĠIn v
Direct ive
t ip
Ġtr aining
av es
Ġbuffer Size
MX Bean
Sub stitution
Ġthe EObject
Non ce
TH E
umbn ail
C ity
C fg
Query Result
Scroll Pane
Ġget Int
Ġder iv
Ġc losure
Request Body
ĠB l
Instanti ationException
ĠAT TR
ĠC F
Group Layout
MP LE
Ġd ictionary
Ġagain st
rece ive
VARI ABLE
c redentials
IN AL
T s
p ayment
Ġf utures
User Name
Spec ifier
get Columns
has Defined
Model Dao
arch ive
getL at
under a
n ative
r is
ĠObject Name
Ġcontext s
Ġskip ped
BE GIN
getN amed
m easure
Col l
Ġs amples
S W
get ter
get Params
ass ignment
Ġpri or
ĠGrid BagConstraints
support s
Ġv als
int ent
get Z
ar row
Type Variable
Ġexp ired
< >());
C amel
ĠRe p
Ġnum eric
ĠAm azon
Last Modified
cf g
SPECIFI C
p adding
(" ^
Ġconf lict
Bund ler
it lement
is Closed
ĠDescri ptor
CONFIG URATION
Pre cision
Ġaction Performed
================ ================
get Buffer
Ġp ull
Ġp ick
Ġs stop
Ġget View
Ġp ublisher
read Lock
ĠService Response
resolve ModelAttribute
multi ply
æľ ī
h ref
æ Ī
Hand les
Ġserver s
Exp iry
IS H
Ġ" "));
RE A
Ġat ts
Ġge om
Ġh ard
DIS PLAY
se g
Ġm arshal
Ġlist By
filter s
g p
ĠC l
Th rift
Document ation
read Unsigned
Property Value
getContent Type
ĠWork flow
B uff
(" )
yp her
Ġpl ain
ing Context
ĠCon version
Ġentity Manager
iagnost ics
MAN AGER
ĠruleX Expression
get Storage
ĠV is
G auge
Ġ escaped
In voker
set P
Data Store
Ġelement Name
) ((
ro ken
Present er
: ",
th at
Ġ' >
path s
ĠHttp Status
utt ing
ĠOn e
Der ived
K nowledge
Ġexecute Describe
client Id
gener ator
ev t
s cheduler
get Deployment
Ġt w
Se ed
Ġ' ;
ĠPersist ent
N ear
replace First
op s
ob ile
Ġan chor
Ġlocation s
st ub
Re view
Ġget Table
Request Id
SI ST
Work place
pri ate
or th
Ġw on
to Path
ĠV ert
Ġal locate
persist ence
str ide
ĠD omain
ĠSub ject
9 2
Ġr pc
Ġ/ =
add Value
Th rough
ĠEx ample
Ġpro viders
Replic a
Ġd iag
Ġnum bers
Cell s
PRI VATE
d irection
ĠField Item
open Stream
i sed
p ur
Ġs oft
Ġget Logger
Ġse p
Error Handler
MIN UTE
T ON
z k
or ph
COM MENT
V m
is True
um mary
Resource Bundle
faces Context
Ġm argin
Start Of
Cms Object
Ver ifier
itel ist
O TE
e valu
Ġd ialect
com b
Ġconstructor s
Ġsupport s
Ġtrack er
S parse
ĠT ile
Ġkeys pace
C B
Ġaddress es
CONST ANT
REC ORD
respond ing
id es
(" )");
tribut or
num Rows
Unique Id
C sv
pen ded
Ġad aptor
Ġprob ably
u et
Ġe e
str ix
ĠField Location
Atom s
b i
Ġv s
Ġcache Key
ĠGraph ics
Ġ ON
row se
ach able
Monitor ing
Vol t
I CON
k in
as is
ĠD T
Order By
Write Lock
Ġbus iness
LOB AL
velop ment
a utom
Ġ} .
Ġn av
Ġtr ain
getC l
Port s
Account Name
incip als
getClient Id
Mist yped
D n
S ys
Ġa ff
over ride
unmodifiable List
C OR
Ġc lock
For Testing
ultip lic
T T
As n
ĠCON T
({ "
D t
get Http
set Label
F rames
å ¯
Ġ uid
in vocation
get StackTrace
Add ing
Op codes
Ġab ort
Ġpro t
Ġj casType
ĠIn stant
Not ifier
FI LL
ĠJC GL
Ġb eta
ĠF ailed
pos able
pre cation
To One
Ver b
Author ized
S yn
ĠP RI
pro c
L EN
Ġ( '
set Image
Or acle
Ġbytes Read
Ġgo ing
imp lement
se qu
Ġget First
sh ard
Ġcom press
LE G
resource Name
ĠS mb
ĠIter ables
object Name
CS V
Scheduler Support
inter faces
Mistyped Parameter
A verage
F acade
Ġe c
Ġa verage
m iss
p d
get Thread
Ġl atch
Ġe ps
Ġhe alth
(": ");
ĠStandard Charsets
Ġc aught
Ġg rammar
By Key
Ġcall able
ĠSe lection
b on
set Size
Ġdata store
ĠType Desc
Ġ" ".
Sol r
HA SH
Transl ated
m arshaller
get Proxy
Set Request
ĠList ener
Ġb ulk
Con currency
ĠAct or
Ġunknown Fields
H its
create New
ENT IC
Ġpage Context
ĠXML Event
Notification Template
/ %
m aven
ĠM PS
XmlElement Decl
b oot
get Segment
get Op
Second ary
RAN GE
ing Key
trans ition
Ġwh ole
getB uild
stit ute
Ġcl ause
is End
Ġ+ "
are a
dep endent
Ġget Model
scri bed
uc ene
Parameter Types
empty Set
is Active
Ġ" ")
Ġresult List
Ġg s
Start Index
(' "
Ġdec ision
uplic ates
Ġ ud
LE MENT
Ġun marshal
Ġsub stitution
LIMIT ER
H ello
Con sistency
Document s
Composite Node
ĠlocalVar ReturnType
Sub scriptions
ĠZip Entry
DR L
get Member
ver bose
Ġre ached
Ġto k
ĠT rigger
Ġis Empty
Ġwe ek
Ġexp ire
IZ ED
vari ables
at on
Ġf raction
Com ma
Ġget Element
par ing
ĠNot Found
g ml
ĠT RACE
Com pute
QU OTE
Build ing
Ph oneNumber
r ession
And roid
D ns
p ref
IN S
getD omain
Ġenc rypted
oc ial
result Set
Ġlink ed
ĠCom pute
ĠU SER
B S
M ithra
R L
f inished
m c
get Level
to File
Ġun register
Mark up
ĠNoSuch MethodException
MI SS
Ġsl ash
P od
Column Names
Format s
Rel ations
REMO VE
r hs
Engine Configuration
Rest art
Sl ave
red is
getC urrency
TH AN
c x
Ġc ookies
Ġz k
Host Name
Top ics
u zz
z en
am ma
Ġtrans lation
Illegal StateException
CRE ATED
get Is
vent ion
read able
Ġx sp
h i
Ġd dl
ed By
Ġw orld
stream Id
Ġfunction s
WR AP
Ġcon t
Host name
Leg acy
Integr ation
m aybe
Ġs leep
um es
ĠJ OptionPane
SI P
Ġstream s
ĠPo ol
Ġchildren List
P OL
Ġdo Get
Ġjson Writer
Visible ForTesting
var s
CHAN NEL
Ġpack ages
UserSegment Rel
ĠAnd roid
Ġc li
Ġres ponses
entity Type
sql g
Associ ations
Ġ! "
RO P
Ġparameter Name
Java Script
F ed
Names paces
CONST RAINT
plan ation
); //
Ġdefault s
getP ayload
ĠDO UBLE
D OT
Ġb i
set Location
Form ula
Cancel led
WA IT
re cognized
Ġre use
Ġl ifecycle
entr oid
ur is
set Body
>> ,
ip el
Ġcheck s
ud a
oll up
ĠSh ould
jb oss
ID DEN
Ġprimary Key
L n
x id
ON ENT
start ed
Action Bar
get Out
an chor
Ġc lick
Ġs y
set Font
ad ix
Transaction s
et ched
st and
Stream Writer
getC ustom
Ġsub system
Ġbl k
N eed
N EXT
Ġf is
ind ices
o vie
Message Id
ME TRIC
Ġas c
Ġdraw able
ĠBit Set
Private Key
to Map
error Message
c lick
Virtual Machine
B ODY
get Endpoint
set T
ĠM issing
")) {
ĠPro cedure
Instances Request
Parameterized TypeReference
il ent
Ġb c
is Error
iz able
move To
Application Exception
PER MISSION
5 1
C ER
M imeType
Ġ Register
Ġint egr
ĠJ DBC
rid den
event Type
Ġsuccess ful
tinu ous
Value Set
Ġstack Size
Ġoff er
ĠControl ler
Ġb roadcast
oo Keeper
order By
6 3
get FileName
Ġr id
ĠP lease
Ġopt s
iss ue
Ġ Topic
Ġrequest Context
getG lobal
Equal ity
Altern atives
P e
Ġ able
user Agent
Ġsession s
Ind ividual
ĠWh en
DEC IMAL
G oogle
as y
Ġb ud
ĠRe c
Base Url
element Name
mar ies
CR Y
Ġd fs
ĠS napshot
Map Entry
ĠServlet Context
ĠScript able
N DI
t yped
Ġre present
ĠPath s
Ġ' [
ĠBuffered InputStream
ierarch ical
Web App
Ġ'" +
get Auth
Ġc oordinate
Ġd d
Ġget Text
Ġline Number
isEvent Enabled
N orm
Pro c
Ġh ad
Ġde cl
read String
Ġbyte Array
getD b
getData Type
Ġinst alled
Y N
Ġi e
In verse
Ġm ock
Declared Type
N G
co in
Ġtick et
ĠVisit or
d up
ot ing
pl orer
Tr an
ĠTime Zone
ĠS ET
Ġh istogram
Ġup grade
Job Execution
ĠPer iod
SUPPORT ED
n orm
Ġp b
ĠR O
Ġmin utes
H ORIZ
g c
String Literal
iz ing
create Query
MO VE
Ġt d
ĠP ayment
getF ont
Keys pace
Ġjob s
ĠApp end
ĠD river
ĠCms Exception
Tx n
Converter s
S lots
Ġ' {
---- --
Ġmodel s
ĠMessage Format
igu ous
uet ooth
C orrect
acc um
ĠL ayer
has Remaining
Ġz z
Ġres ize
RE GEX
Sp ans
float Value
Ġtra verse
GENER IC
) +
ĠC t
Le ast
AD MIN
ĠEx change
stack Size
Ġel apsed
sign al
e jb
l aunch
it ation
Se ek
ĠTrans port
Exists Exception
UNI QUE
s ame
is Attribute
ĠD ataset
ĠR ULE
Ġ2 8
ĠIndex ed
Tra ffic
na ire
Ġt olerance
Ġex panded
is Open
Ġaccess or
Ġevery thing
7 9
Ġ er
ĠString Reader
add Field
Ġ? >)
Ġsplit s
Adapt ers
Transit Gateway
MET ADATA
b le
ĠS P
Object Id
An no
Operation Context
Ġreplace d
Ph ysical
######## ########
Ġo ps
Batch Size
Relationship s
Ġget Source
G reater
é ĩ
tr ins
Ġget Entity
D ENT
st d
Ġr b
Ġi r
ĠC urrent
CON D
Row Index
Ġentity Class
Ġ'\ '
ĠDMatrix RMaj
x ies
set Start
Ġl a
Found ry
tl r
Ġaggreg ation
L ife
value Type
Thread Local
Ġf it
Not ation
Record ing
Cl s
Re verse
ĠEd it
de m
un its
ge o
Sk ill
Ġ Topology
Ġ ordinal
ĠM ed
>( _
sum mary
TA IL
H alf
Ġreturn ing
status Code
ĠKey Store
Ġdefinition s
F utures
at ural
get Arguments
ĠA PP
n z
ĠF etch
URI SyntaxException
Ġl s
Com pressed
] =
Function Type
b um
ĠI G
ĠH ollow
Ġcl usters
33 33
r gb
ĠS O
ĠC ursor
Ġon Success
201 6
Temp File
par allel
Ġprint ln
CA ST
ĠSec ret
ĠNO TE
F RA
s im
getNode Type
Ġm achine
To Use
æ ³
pri mitive
host name
IfNot Empty
7 0
ic ally
Un available
View er
Record Id
ere g
) [
re cover
Ġjj tn
Prot ection
Ex amples
Re pl
oo st
ĠF ramework
Attribute Names
compute MessageSize
e led
get Layout
set Target
Ġfor Each
Page Async
Ġcache Name
Ġt t
ro les
Ġsuper Class
B son
h ore
Ex tent
per cent
open Connection
a as
Ġk v
inter ceptor
ating System
sm all
er ce
get Access
Sql Dao
ĠSecurity Context
Ġse ek
ause d
Ġim ages
Sp ot
ĠToken s
Tri ple
Parsing Exception
Ġg p
Resource Group
Output s
G C
b reak
Ġm aterial
Ġoutput File
Ins ensitive
con tain
class path
As m
Model Element
ONT AL
get And
Ġroot Node
AUTH ORIZ
Ġcomb ine
Ġfore ign
ategor ical
w arded
Ġat omic
Ass essment
target Class
b ulk
æ İ
Ġproperty Type
IND Array
Sign ed
ĠConfiguration Exception
20180 5
g mt
å ľ
Sh aring
ĠDate Format
Ip Address
Ġ"\" ");
Ġfetch By
vis ible
Ġget Response
IN ode
ĠIn sert
Ġle ader
visit or
Full Name
x is
il i
Ġse qu
ĠCh art
getP refix
Ġin ference
id ence
To Index
Ġa cl
Ġcontain ing
il on
Ġ Tool
SE C
job Id
W ay
date Time
write UTF
CONTAIN ER
Ġ(! _
Ġexecut ed
Could n
Ġplugin s
V als
Ġ? >>
Ġcreate New
T st
() ]));
ul o
De gree
ĠD ig
base d
JSON Exception
eas ures
Ġsec ure
ĠBY TE
Ġbean Name
Notification s
Complet ableFuture
ĠOperation Context
, ?
Ġx path
Ġmax Size
Ġ( -
Local Date
component s
det ails
Ġcurrency Pair
Ġr ewrite
Ġ1 28
ĠP assword
Ġset s
On tology
Ġexecute List
do Privileged
Configur er
j unction
is or
Ġget Long
int eger
Ġch oose
Ġleg acy
e fficient
Ġs ct
getSh ape
enum df
enum sf
in validate
Assign ments
Ġimp licit
v olution
ĠL at
Ġterm inal
Ġdiffer ence
C LA
w ar
Ġre pl
Ġget Session
ĠF ull
Ġen velope
Ġout bound
ĠG o
current Pos
iter able
TE ST
R s
ĠI F
REMO TE
getDisplay Name
et te
ĠO UT
write Message
Ġapi Key
Ġcoord s
Ġm utation
Ġre cur
Order ing
resol ver
Sc oped
relation ship
REQUI RED
Ġb w
Not Supported
getC ell
getSub ject
Immutable List
Pure Xbase
es k
Validation Exception
custom er
get Collection
Ġb ook
set Version
Feat Missing
Ok Tst
Ġr tn
Ġp om
us pended
Ġstart s
throw FeatMissing
getElements ByTagName
Ġal ign
Http Info
Ġgo od
feat OkTst
v r
Ġcre ator
b ad
trans fer
get Tags
Over flow
Data Output
VALUE S
cl aim
åı ĸ
ĠS em
As sembly
Line Number
Ġdis covery
M illi
se ed
EN S
Start up
ĠPRO PER
CANCE L
Port alException
Ġlock ed
DEP LOY
Ġnv ae
c df
get Prop
Ġs ending
Response Exception
Bean Name
ĠAttribute Value
c am
d ynamic
ĠString Bundler
set Object
stan ts
getS equence
7 8
add Error
Ġget Last
SER IAL
Max imum
Button s
Ac ceptor
FIN AL
getRaw Type
getLine Number
str ategy
project Id
Vi able
) ];
Ġ Em
Ġm arshaller
Ġget Client
On ClickListener
MA IL
DEFIN ITION
å °
J ms
st andard
rom os
Ġpl us
Ġcomponent Type
ĠResponse Entity
ĠPos ition
M er
S ingularity
f iler
is ation
Ġe ffect
Ġ' _
Ġvis ibility
et es
Key Pair
Ġle ading
Base line
UND LE
ĠAggreg ation
In cluded
Ġtr ailing
And View
Ġmod ifier
trict ed
I CE
ĠC RE
ĠO ffset
Ġbucket s
Wait ing
C USTOM
J avadoc
V IS
Log ic
. ,
H EL
H ours
a ff
e el
Query Params
ĠCh rono
Read ing
Payment Method
im ize
group Name
Ġjar File
key word
Group Result
ĠE V
Single PageAsync
ĠAsync Callback
Ġf amily
Ġh idden
) _
Config Bean
create Element
Not Empty
comm end
To Long
http Request
Sequence Number
Conditional On
as per
Reg exp
ĠCh unk
Api Response
Java Class
jo int
Generic Type
Ġcs r
ĠSecurity Exception
CHAN GED
ĠF ragment
arch ar
æ į
Ġstop ped
irc ular
BUT TON
er al
ĠF A
create P
ert y
Ġperform ance
5 8
c g
l b
Ġ Unsupported
en o
In Seconds
NE T
Ġget Persistence
Rout es
> []
get Plugin
as l
em s
end ant
Ġcurrent Time
SS F
Record er
local host
WAR N
getS pec
DE ST
From File
Exp orter
Com pliance
Ġg auge
oc ialize
IF Y
igr ate
getSign ature
ap er
ĠA UT
Elastic search
G T
Item Id
7 2
M is
M ajor
v es
set Response
ĠS pring
PRO VIDER
Viable Alt
str ip
Ġpre ferred
Ġappro priate
Ġauthent icate
Ġc rc
ct or
it i
om ent
ib ase
o ji
ith met
AD I
en ableFuture
out putStream
Query String
Ġk s
Emit ter
Ġ Stats
al es
get Items
In bound
Or phan
getC P
Ġelement Type
Ġq Path
dis abled
pri vacy
vide o
S chemas
b and
FF DC
ĠD irection
As sets
OT HER
cer n
Edit able
Version Request
pri se
P ainter
lic es
Name ValuePair
Ġ. .
Ġcolumn Names
cp Definition
tim es
vi ation
ĠLog in
Cor ner
cache Name
Ġcs v
ĠBack end
Parcel able
S LA
in flate
Ġm ismatch
ĠC A
Ġlog ic
Enum Factory
c lipse
ur ator
Ġout come
ME MBER
Ġgener ation
M ixin
Request Param
Filter ed
S peed
o Exception
ĠP AT
ĠF aces
Inter preter
Ġcommand Line
getFormat ted
+ ",
it tle
urr ences
TERN AL
D ense
id r
ĠNo ViableAlt
AUTH ENTIC
!! !!
f ol
St ores
segment s
visitMethod Insn
D ict
å º
ext ends
Act ivate
CHAR SET
ithmet ic
C as
get U
ĠL dap
Local Name
tx n
Db Session
J VM
b t
Ġf d
Ġrep lication
åŃ Ĺ
Component Type
Exp IR
Pred icates
G ran
M essaging
Ġb os
ig ure
Ġget Target
Parent h
Ġblock Size
ĠUn der
ing ular
ĠM O
KEY S
Min us
can vas
parameter Index
extension s
is Auto
ĠN eed
Manager Exception
has Option
IF T
6 9
An cestor
min us
ĠSorted Set
ro s
Be havi
W atermark
v able
Ġto uch
Tr acer
weight TypeReference
ereg ister
Ġ om
Ġin flater
SE QUENCE
Ġsh are
Valid ID
Var args
Ex cluded
next Event
author ized
Ġf ld
Ġpro be
Data Service
Ġappend er
ging Station
Inter rupted
a ver
To List
If NotNull
Ġlast Modified
requ ires
getFull Name
Ġin stanti
Ġget Database
Ġlog ical
ĠNoSuch AlgorithmException
osu Class
; ",
ĠM otionEvent
Token Type
Ġsuper class
ĠType Element
Ġdocument s
Ġpop up
meta Data
Div ider
I LE
W rong
c nt
Ex panded
Ġhand shake
ĠSe lector
ĠInstanti ationException
Ġ ask
Ġp tr
0000 0000
I Atom
is Un
ĠAn notated
Ġview s
UI Component
ent ities
as Text
ĠL ight
ĠLocal DateTime
C ertificates
Ġout side
Ġprocess Instance
Root s
Ġexecute Delete
sib ly
B oot
D iagram
W orld
Ġr sp
ĠF rom
Zone Id
Temp orary
Provision ing
_ [
d to
f iling
Ġnew Node
set End
max imum
To Many
Ġac cording
Ġdate Time
WE EK
Ġexplicit ly
im en
Ġadd resource
Query Parameter
Ġwrite String
Ġpre pared
Work ers
exp and
Before Call
OPTION S
C IP
); }
oub les
Bit Set
Ġpref s
Index OutOfBoundsException
Upper Bound
ĠT EXT
he alth
N AN
Ġover write
PLA IN
ĠMojo FailureException
G iven
get Settings
il est
Ġadd Body
Ġapp Name
æĹ ¶
A ut
P t
ĠComp iler
Trans itions
Status es
Ġapp Id
getO rigin
Ġcallback s
COMP ONENT
del imiter
Ġ--------------------------------- --------------------------------
T eam
de precation
Ġm igration
ĠF S
AL IGN
ĠG VR
")) ,
Ġparent s
6 8
M ismatch
Ġd ummy
ans wer
Resource Id
Foundry Client
G ame
Ġ" ="
ĠA lert
Method Helper
ĠRE AD
b ud
get Repository
Sub set
data store
9 1
c ers
Ġp ivot
ĠI Node
ĠO pt
} ";
Ġ Expr
Local ization
ĠInter ceptor
Validate BeforeCall
T LS
th reshold
Ġsecond ary
Ġcor responding
Ġc red
at tempt
get Device
Ġf ocus
set Auto
St d
For Type
Configuration Keys
string Value
set ter
Ġget Index
Tr ail
Ġ2 56
getP ublic
ĠTrans fer
ĠC or
Ġtime zone
Ver bose
romos ome
Ġn one
is Tag
Po jo
Ġcontainer Id
compute IfAbsent
Ġsc opes
ĠNoViableAlt Exception
u ccess
is Defined
Ġm ouse
ext ended
Ġre fer
Ġar ound
ĠR pc
DB ID
Ġdb Session
Concat enation
å Ĩ
ĠL iteral
Display Name
Ġkeep StackSize
Ġemit ter
b idden
e ff
port let
write StartElement
Tick er
Ġre presentation
ĠD I
Process Definition
ĠType Mirror
Host Exception
COL LE
Ver ify
m anaged
get Environment
ATTRIB UTES
ĠFlow able
COM MA
G LOBAL
å Ľ
List ing
Pro tected
Ġfind All
Append able
Ġ license
Ġm ac
Client Config
Ġsecurity Context
ĠPort let
P ay
ç ½
uilt In
M ongo
Ġi llegal
Ġj axb
ĠP K
Ġ' ('
ark er
target Type
ĠP erson
Ġresource Registration
tc p
Edit Text
Async Result
Ġver b
Ġrestore StackSize
S aved
p ub
is C
qu et
ĠN et
Ġact ivation
Split s
ĠB U
ĠV ariant
ĠIN ST
ĠTrans form
R DD
r ink
ur ther
In Use
to Int
pro du
D i
Ġp p
Ġpartition Id
Ġ Metrics
get By
ess Config
ĠP RE
ç Ľ
is Done
Ġin verse
DE LIMITER
Ġindex Name
hand led
ctx t
High light
h idden
Ġp lot
is et
Ġin tern
ab lish
to URL
ĠR aw
Install ation
S R
b a
Met amodel
getP ersist
Ġrec ipient
ĠHE AD
() !=
ub ern
ĠS ol
Ġparam Type
ĠHttp Headers
ĠURI SyntaxException
Ġtransl ated
get Required
Ġr otation
Ġorder ing
WITH OUT
ĠME THOD
un ion
Col lap
Ġun wrap
MP P
Revision s
SK IP
Ġevalu ation
Con s
Ġa Class
Ag g
Ġag g
ubern etes
V ia
j vm
å ĩ
Ġcon cept
ĠA LL
ĠRe place
request Id
in f
get JSONObject
a cl
f ast
Re quires
ĠA V
ĠM ax
ĠO k
Check ing
CL USTER
Delet ion
wh ich
D ated
E quivalent
f oo
Ġcomp act
Ġdat atype
get Account
(" .");
Xml Content
ĠAccess Controller
to k
ĠGener ate
h n
Ġa i
VER Y
ĠExecutor Service
lo pe
Work Item
PA GIN
Ġr and
Ġt emplates
Ġre ject
AL OG
ĠPro duct
Stop ped
s Field
get Test
Call s
Protocol s
Ġcommerce Discount
Aggregation Builder
Hy per
g y
m ost
Ġm ediaType
Ġd ict
set Next
Field Exception
Ġ2 1
ĠException s
getO perator
Break er
Ġtrim med
S q
r ing
set Entity
V elocity
Ã ©
Com pose
NAME S
Web Element
æŀ ľ
get Begin
ĠS DK
Ġ(! "
Ġ4 8
get Servlet
() >
ĠS C
)) ))
ve c
start Time
ATION S
execute Update
Sp inner
Mark et
Ġprob lems
atisf ied
B tn
Y ES
ar es
ST RA
ld r
chedul ing
Que ues
I LABLE
Ġp n
Ġl ive
Event Definition
write End
ĠHtml Tree
ĠDeployment Unit
MISS ING
as Type
ex pect
od s
ĠT x
write EndElement
Ġinit ialization
IG NORE
Ġ" *
List View
set Input
AC KET
alyzed Token
Ġr en
content s
Ġstack Trace
Ġdesc r
line Separator
Bund les
é Ģ
Ġget Commerce
Ġkey store
Ġal arm
join ing
Ġbl ank
Ġget Root
ĠFile Writer
und les
Ġfactor ies
ĠReflection Utils
Ġt i
Ġp v
to Bytes
Property Of
MA C
param Name
Attributes Request
Managed ObjectReference
Wish List
h our
Ġ Region
Re v
Ġde v
Target ing
Ġparse Element
token izer
Ġf ront
id u
set Long
os en
omet ries
DO MAIN
) ";
Ġc ategories
Key Exception
Ġj vm
col l
Ġcontent Length
ĠKey Event
POS ITIVE
HORIZ ONTAL
SE S
CO RE
VAR CHAR
d ays
s yn
ĠD own
ĠF acesContext
Ġresource Id
Det ect
prop agate
Insn Node
S ending
Relative Path
Ġdid n
ĠOB JECT
K ernel
Ġget F
Exp ansion
Ġaccount Name
L ater
getC ap
getC all
m illis
ĠC ancel
Ġget R
ĠP ublic
End ian
99 99
Ġ': '
C over
W ar
To Live
Sign ificant
å Į
Ġcurrent Node
Prob ability
tr an
ĠA DD
getS ample
User Defined
send Error
Ġdist inct
Buffered Image
l azy
s ur
Ġext end
get ServletContext
Ġcheck Result
Ġdo cker
Cal led
N avig
O per
i ability
se vere
Log Manager
ĠResource Bundle
get Info
app Name
ĠW s
Ġref lection
ik ely
Ġatom s
(', ');
è¡ Į
C U
J wt
ĠS cal
ĠD ATE
Security Context
getDeclared Field
it ch
In cludes
Ġb md
Ġv ery
lo ser
AC CEPT
ĠInternal PureXbase
su er
x text
Ġget Item
ĠO ri
ED GE
Ġad j
Ġgroup By
an alysis
Ġc apture
Ġget Un
Inter section
SA FE
Gu ard
CLOSE D
G ML
P ID
ser ialized
File Size
h int
end a
Ġget Children
Ad j
Iter ate
ĠPh ase
ASS IGN
S qu
is StartElement
Data Buffer
Execution Step
("/ ")
Calc ulator
get Variables
Ġd etermin
ĠObject Node
ĠO S
Message Type
Inter polator
ren ame
item ap
sec ure
G ate
L ayers
et ary
Ġget Annotation
append Field
ĠP rincipal
iv ing
Ġal ignment
Long s
getD uration
Ġcell s
MILLI S
ĠTimeout Exception
delet ed
ĠP olygon
ĠTh rift
Ġstring Value
Ġloc ate
Ġscal ar
4 00
S pring
Ġm andatory
set Border
li as
Cms StringUtil
model s
ĠSc anner
ĠMAPParsingComponentException Reason
PAGIN ATION
u ced
An onymous
Ġg ap
ĠUn checked
ĠDraw able
Ġ Def
set Field
Cache Manager
Spec ified
qual ifier
S END
ĠB ucket
ĠL et
Ġtag Name
Comp act
Ġenc rypt
FOL DER
F aps
Str ip
set X
set Icon
Lo st
Ġpri ce
ĠO Database
ĠMethod Spec
attr Name
ibr aries
ĠRelation ship
Ġreg ular
ĠAct ive
With HttpInfo
Sc ores
Web Driver
ĠRequest Method
dl p
al Entity
ĠP op
uff le
Ġkey Type
Ġal g
getApplication Context
B alan
c mp
Ġ Encoding
String Value
Fetch er
Ġc ity
Ġt urn
Ġmax Value
imit ed
ie ce
Attachment FileEntry
ĠB us
Ġtrans formation
VI RT
Ġautom atic
m id
ĠB its
Type Map
Over rides
AL G
ĠB imserver
Ġalias es
ĠPO ST
or um
Node Name
track er
Soft ware
Ġproper ly
ĠM ASK
ref lect
ĠOr g
Const s
D ashboard
Ġc over
put String
ĠM ove
Le ading
Ġstart up
Lock s
Ġdate Format
doc s
in stances
ud nn
Ġcl z
ĠME SSAGE
get OrDefault
is Selected
ĠR x
ĠN EW
Ġid le
ĠE lastic
Variable Name
security Context
Ġap pear
Sorted Set
; //
p k
t ake
le le
Ġ( {}
if ies
S ORT
s oft
get If
ot ent
Ġis First
Ġch oice
Ġcurrent Value
url s
ex ist
Ġclient s
ç½ ®
get Factory
Ġc us
Ġm ade
set B
Ġtype Builder
met ry
Ġcap abilities
ĠJoin er
set Path
Parser RuleCall
U AGE
a ut
p lement
put Long
Match ers
Ġexecute Update
Ġartifact Id
Locator Utils
l ibrary
Ġin crease
Ġm ajor
Http Header
Ġexecut ing
Ġrow Index
err Handler
å ½
ĠB lob
Ġsh ell
And Port
ĠProperty Type
7 3
s id
Ġt v
ang ing
read UTF
A jax
C oordinator
(" =
LE SS
Control s
Ġhandle Exception
Cms Exception
LIC Y
MOD IFIED
h y
aggreg ate
N X
ĠS ection
ĠV ol
Associ ate
random UUID
Sem antic
(" ;
est amps
Ġget s
ynt act
Sw ap
permission s
J cr
Ġ Resources
Ġis NotNull
eb ook
SY N
Esc aped
Ġdigest er
ĠLogging Util
iqu ibase
f act
g a
(" +
client s
itr us
clean up
al loc
ĠN ormal
json Object
rece ived
J mx
u a
Ġnew State
Ġmap s
Engine Exception
ĠV AR
access Token
rel ated
should BeCopiedAndSet
Structural Feature
l r
In tros
Ġl etter
Ġmark ed
a ad
f acet
Ġr t
Ġe poch
Class Names
ĠIn stall
Ġ' ]
Ġ5 00
Ġ Registry
Ġ UnsupportedEncodingException
Ġcon current
ER IC
ĠA ff
Ġquery Builder
I STR
Ġ Parameters
Ġget V
Layout Manager
bl ue
VO ID
ĠAPI Trace
Ġm bean
Data Exception
field Value
getPackage Name
com posite
Ġpo jo
Exp ires
getColumn Name
get Form
Ġp ub
RE PORT
sc anner
Ġ-- >
Sol id
Ġr otate
String Size
ced ence
Shipping Fixed
g it
Ġr atio
Log Level
ĠJson Element
Pres sed
c ipher
Ġf m
Ġa ut
Ġcom panyId
byte Buffer
Ġblock ing
M ime
Z ones
Ġ StackTraceElement
Ġf mt
Ġm illiseconds
R PC
Ġc ut
Of Day
Require ments
at ile
it ted
is New
ĠJ Button
7 4
In ference
Info Impl
ĠG ZIP
Entity Id
ĠService Type
Print Writer
esk top
I AtomContainer
replace ment
J pa
Ġv c
Key words
Enc ounter
S ynchronization
æ ł
id ing
ĠC losure
ĠI mp
Ġtr ade
Ġde ferred
ĠF ound
write Boolean
Ġ2 3
Plugin Configuration
card inality
Ġimport s
Ġcontain ed
Ġencounter ed
Ġp otential
Ġm ess
ĠM essaging
Ġg ateway
Iss ues
ĠCode c
C ookies
set Stroke
ĠD rools
ĠAd min
trins ic
f amily
); ");
Ġdep endent
ĠAtomic Long
Skip ped
ĠNotFound Exception
B ITS
D L
Class Inclusion
Ġsource File
Ġerror Code
Ġqual ity
g auge
new HashMap
On Error
getDeclared Fields
p ad
ĠS ince
Ġ2 6
ĠW ait
Format ting
Per form
Is Set
Ġpred ict
ass igned
ip le
As Long
entity Class
Ġ"/ ";
record s
I gnoring
Ġc y
Ġget H
ĠF LOAT
Ġadd Error
FIN ISH
F riendly
G ot
o perand
ver b
Com munication
ĠP M
Path Variable
Job Result
af ely
PRO FILE
Socket Channel
Own ers
R en
Ġn r
Ent itlement
enc oder
ĠMAP Exception
A DE
A ccum
on om
Res ume
Ġnot Null
Consum ed
Ġget Sub
getChild Count
newLine IfNotEmpty
b re
ç ±
set H
pert ype
>> )
For Null
ĠFile Reader
getP attern
Sp acing
regis tration
ent ive
is pan
AN K
Op code
Question naire
P ower
Parameter Type
Ġp atient
Str ide
pt entive
add Class
AP H
we ep
e h
get Write
Ġm ime
Ġk w
Ġexecute Create
Primitive Type
f unc
j avascript
ad just
Re positories
Ġget Project
De que
Node Data
Col lect
TER MIN
sl ash
Lang uages
get env
Ġc ycle
de cess
File Object
? ?
P ol
ar ger
tag Name
ĠNumber FormatException
get Authentication
set L
Property Descriptor
Ġor ientation
ĠType Name
Ġwrit able
Ġsem antic
M esh
ĠA RG
ĠM tas
Exp ire
rec ycle
Ġcluster Name
C aught
Z ONE
is Success
ĠS sl
put Extra
Config File
SET TING
Ġj cas
ĠCh ain
Ġdis card
Direct or
Ġs rv
ed Entry
To ggle
Http Status
Ġinter section
PA Y
dis connect
Normal ized
F lex
R adi
is EndElement
Control Flow
Ġshould n
VIRT UAL
getM on
ĠJava Types
æĸ ĩ
Ġaltern ate
aad in
5 12
get Tree
Ġ" ()
Ġent ire
in ates
Param Name
Attribute Definition
node Id
VER S
Rece ipt
ĠXml Pull
PARAMETER S
SM ALL
ĠCan not
C ATEG
_ ,
Ġb tn
Collection Utils
find All
Ġver bose
Ġnames paces
[]{ "
RESH OLD
STRA CT
G EN
Ġs rs
ir th
Transaction Id
getTime Zone
In coming
ĠS ave
os p
Dis c
Ġapplication Context
AVA ILABLE
getNamespace URI
Ġm acro
Ġw ire
ĠC o
Ġrelative Path
C losing
f eed
n r
get URL
Ġf ails
getC ategory
Ġinter sect
Ġcomp atible
Enc rypted
get Real
Ġd os
ĠT R
RE P
DE TAIL
Policy Result
END IAN
Ġflat ten
ç± »
l an
an ity
ĠD ocker
Factory Impl
abel ing
Ġclass Node
ĠTr ust
Ġcomp atibility
( //
Ġb illing
Pro be
Ġres ume
Ġh aving
Ġread Object
Check s
getMethod Name
DIRECT ORY
get Top
Con t
Ġnc file
Constr uction
MARK ER
Ġo bs
Ġw ar
Ġh y
Ġun checked
ĠFl ux
com pose
Property Key
sol ution
Ġhost Name
Ġqu ick
ibr ation
man agement
Ġ'/ ')
g rammar
ur istic
ob server
pect ive
TI CAL
=\" ");
parameter Name
IMP ORT
D URATION
ĠC re
getActual TypeArguments
S peech
x ac
Ġl in
Ġh ierarchy
Ġh ours
key space
Application PropertyOf
Buffered Reader
D r
h adoop
ul i
Ġd ruid
um ulative
Ġe q
Ġbuild ing
HO ME
ĠMan ifest
Ġf rames
ĠIn fo
Parent s
enter ing
Ġct or
Ġd p
ĠS ync
Temp oral
Ġexact ly
getArtifact Id
Ġm utable
ip h
yntact ic
h ole
get OptionValue
check point
Ġresource Path
PER SIST
Ġ ut
()) ),
Ġgraph ics
Ġsymbol s
('. ',
get Json
Ġto Return
ĠM P
ĠM ail
DF S
ĠEvalu ation
b ond
Com position
Ġpl ayer
Ġjob Name
arg est
ä¸ Ń
ĠTree Node
Ġimplement s
ĠsetContent View
S ensor
T ID
h ide
Ġadd resources
Ġ{} .",
L AT
ĠRes et
get OrCreate
Ġprevious ly
Ġterm inate
ilar ity
C lip
N L
m ount
ro zen
te e
IN CLUDE
Ġkey Value
Ġattribute Value
dis k
Ġhapp ens
AF TER
D ocker
E OL
P lease
Id To
new HashSet
Resource Inner
OR S
lock ed
vel oper
Http Server
getUser Id
Dist inct
) "
v o
old Value
Ġapi Client
Vi ol
ĠSo y
Ġr slt
pos er
<?> ...
Ġrequire ment
B ot
j c
p in
t tl
is F
Ġa wait
ĠJ edis
Annotation Value
part ial
ET CH
ĠInput Source
P Y
b lob
get Region
Ġ2 2
Ġall uxio
ĠMethod Call
j cas
de crement
out come
Inter rupt
Ġexecut able
cache Key
operation Type
C art
c aught
Ġ Archive
Ġget Bean
Char ge
Ġrecord ing
ĠThrow ables
Ġdeli ver
a head
em ber
Ġe DataType
eng er
Ġlog s
hasMore Tokens
Ġgu ess
Maintenance Window
¦ Ĥ
Ġg ran
Ġon es
Meta Info
Ġgener al
Ġannotation Type
Ġendpoint s
fin est
Ġsol ver
ĠLE FT
Ġd up
COL ON
ĠMon itor
Activ ities
ĠSTAT US
on al
ĠC ouch
[] ;
... ",
exit ing
Ġsign ed
xa e
ĠEn velope
SPECIFI ED
SCAL E
B UNDLE
H IST
Ġstr ide
Sp i
getInit Parameter
Ġget Cache
ĠMod ify
al ette
Ġt odo
OR AGE
Auto Scaling
SUB SYSTEM
OptionValue Rel
d ict
ick et
Account s
Inst alled
D s
F und
Ġb roker
Ġh ide
Ġsh a
Task Request
he ap
ä» ¶
ĠLook up
è ¦
Ġd rag
rig gers
ĠAs n
B id
Ġvariable Name
Ġdec rypt
getRoot Path
p ixel
Type Exception
set Error
Ġo bser
ĠC ap
Ġget Resources
DE V
Ġdata Size
state Set
getAs JsonArray
ĠText View
Ġcontain ers
Ġc v
pe g
ter ms
Tr ailing
Ġclass ifier
X Expression
Re cent
Resource Path
Ġclass loader
press ure
R adio
Add Param
Ġresource Type
ĠHttp Session
Ġap plied
q p
Error Reason
uf act
Ġbase Url
Ġprogress Listener
Dat um
Fail ures
er as
get Interfaces
Pro vided
AN TI
call er
Ins ide
Common Tree
Lat itude
Ġdirect ories
ac am
Ġbuffer Index
Ġact iv
plet s
Ġimmediate ly
C ENT
er se
get Structure
Ġ" ").
ĠI con
Ch em
RE PLACE
offset s
block s
p oly
p olation
ĠObject InputStream
Ġmin or
Term inated
semb le
PR OG
H IGH
t w
is Whitespace
un able
set Result
type Parameters
Det ected
Ġover lap
Display Locale
getText Content
link s
SCA PE
in herit
ĠRef lect
C od
[ #
Ġnew Name
Ġto Array
Ġvalue Of
Ġan alyze
Test s
get Types
Ġd m
Ġsc ores
ĠProperty Descriptor
getDefault Value
Ġgeneric Type
Launch er
dec or
bedd able
E ffective
om b
Ġinit ializer
Ġcommerce PriceList
ircuit Breaker
am ent
Ġd ashboard
ĠS n
Lo aders
ĠM aybe
Ġrow Key
Ġaccount Id
Shipping Method
Pers ister
data Set
omet ric
Ġnon ce
f old
k b
k lass
Ġf ramework
re peat
Ġb p
Ġd irty
Ġproject s
then Apply
T cp
Ġret Value
work ing
can onical
ĠFI LE
R ewrite
s ink
ĠC R
ĠP aged
Resource Request
OR IG
getS ort
line To
Ġ(; ;)
B ATCH
tr ain
Format ted
Pre pared
Ġvar Name
ĠSI ZE
O bser
u ck
ĠS afe
---- -
Status Request
Ġjson Array
LOG IN
Do es
is StartOf
Un iform
Ġon Failure
write Short
M ix
e Class
p atient
orElse Throw
Ele ctr
F ly
In ts
Type Declaration
ĠC SV
Size InBytes
ĠMap ped
Ġm ongo
Ġas pect
Row Count
Ġtext Field
Qual ifiers
Sum maries
Adminis tration
åľ ¨
v oid
In etSocketAddress
Ġm t
Data List
ĠM erge
Ġcom ma
ĠCon f
ĠTrans ition
ĠSSL Context
Ġd n
ĠCms UUID
component Type
ĠError s
RUN NING
ĠPROPER TY
ĠparseElement Properties
Ġd es
iz ers
loy ee
resh ape
99 9
Ġcard inality
ĠAttach ment
ĠUnder tow
Field Seq
Invocation Context
Ġ\" %
M ost
get Link
ct et
Ġass um
COMP LETE
C rypto
ĠO Command
ĠH O
Json Parser
ĠAs set
Ġb oot
im Server
De ps
Ġmax Length
parse Float
Ġexp iry
Ip v
Ġget Padding
Specification Option
Occ urrence
Ġhint s
2018 11
tr ations
getS ummary
Ġdst Index
getG eometry
rot ate
Ġrout ing
MULT I
Ġr p
us ion
Metric Name
operation s
normal ized
sub tract
pens ation
ĠINST ANCE
ing Rule
Ġp ast
Ġtr an
IL L
Ġm is
Version UID
ĠData OutputStream
Ident ification
isStartOf Document
Ġnew CompositeNode
Par agraph
sent ence
("$ {
PM N
A head
Text Utils
Ġweb Socket
Section s
ĠMult imap
ĠP anel
work space
Bl ue
Ġjj tree
BO X
H C
m aterial
al tern
get Enclosing
Ġun pack
Ġstart Pos
ĠEn sure
A O
Y Y
ab ort
per ature
to JSON
From Cache
copy From
mis es
isEnd Document
isTag Primitive
ĠD estination
SH IFT
Registered Service
Ġinvok ed
[ ");
o auth
Ġf urther
RE CTION
ĠObject OutputStream
Ġy y
Check ReturnValue
exp iration
ADD R
F P
ization s
Image View
app Id
final ly
Source File
None Match
PART ITION
' .
ĠD ense
op le
Min or
sw ap
Ch at
Ġartifact s
ĠruleJvm FormalParameter
NEG ATIVE
() &&
ĠB ig
Index er
cl es
Ġfrom String
pre cision
Ġversion Id
END POINT
unc ated
Stop ping
IM UM
B s
P OP
de cl
ĠCom ment
getP h
Init ialize
Ġcomp iled
Currency Pair
diff er
Ġan alyzer
ĠSec ure
newState Cnt
l ated
get Selection
Ġr oom
Ġm er
Exception ally
ann o
SO CKET
b ootstrap
get Array
Ġf ar
ex c
ĠS cale
sh a
Http URLConnection
\\ .
ipel ines
get Args
Ser ialize
Ġde precated
cri ption
Ġcreate OrUpdate
Ġcurrent State
Lat ency
StaxUnmarshaller Context
Ġsepar ate
C urr
r d
im ages
ĠC ould
Ġget Server
ĠModel AndView
Ġcustom er
Ġlex er
WIND OW
Ġl if
Ġline ar
ick y
Ġsim ply
Ġc opied
Ġs impl
To Read
Ad vice
Ġadd Column
Reference d
Ġschema Name
T CP
ĠHttp Server
ph ase
Mark ed
ĠIS O
b rid
with Name
stat istics
setF ill
coord s
Ġ" --
Ġget Properties
ĠB EL
index es
ĠCms List
Ġimport ed
rep lic
Adjust ment
B AR
R x
t m
å Ģ
ch anges
up on
Lo ss
Element Name
ip es
Ġ' }
Format Error
Ġ{} :
Ġlevel s
Opt s
Ġcorrect ly
on y
Ġr ew
ser ies
Not es
ĠData Buffer
Snapshot Request
R ON
W ire
on ts
ST ER
ĠATTR IB
get Search
il legal
Ġpre paredStatement
ĠAg ent
jax b
' ));
b uff
ĠM ain
Sub mission
getPri ority
j cr
get Web
Ġb ridge
Ġget By
Ġinstance Id
Ġsub set
Ġparameter ized
Ġinterceptor s
= {}",
SE GMENT
write Bytes
Ġdis connect
arr ative
P oll
Ġm ultipart
set Project
CONT IN
Pred iction
sem antics
P HA
Ġw r
ĠS UB
Ar row
Resource Registration
Parameter Value
ãģ ®
Ġsl ave
ĠInit ialize
Vpc Endpoint
rew ind
A A
Ġd ns
Ġwrite Object
Ġobject Output
Ġdb Client
n io
Con cern
Hand led
ob tain
SC RE
; "
Ġget Boolean
To Null
Col on
Message Format
enc er
Ġlook ing
ĠConcurrent HashMap
T un
In Memory
ĠF ire
config ured
PO LICY
xa a
Final ly
need s
K afka
W HERE
set Use
Ġexp ires
Ġget Configuration
De grees
orre ction
Generic ApplicationPropertyOf
H adoop
ar er
ĠEx pected
getRequest URI
ĠBimserver DatabaseException
V ocab
f tp
ol on
Ġcontext Path
commit ted
so ap
Ġn fe
ĠAd apter
in er
Ġp g
ed ges
Check out
Ab out
Ġtim ed
ĠEntity Manager
PRI MARY
G ONE
in jection
Ġcon crete
read Only
(': ');
ĠH istory
ĠService Exception
Ġbucket Name
M illiseconds
c lock
x ab
Ġwh itespace
Tax FixedRate
ĠStr uctr
om inator
Ġg lob
Ġ"' ",
Region s
Ġsup plied
NotSupported Exception
m ath
ed ora
set Date
De velopment
PE G
Ġad vance
real m
erse y
= ?
L imiter
d ialect
Ġs aw
ĠS sh
ĠC LI
exp ire
Ġremain der
ilest one
Ġget Output
getC atalog
Ġobject Type
Deser ialization
Der iv
N r
O Document
V OL
t ables
An alytics
ST EP
Graph QL
Iter ations
LIST ENER
Iss uer
Jar File
writ ten
T TL
Ġf ooter
ĠA C
Http s
SI C
RA W
Db l
MEM ORY
t end
Ġs a
ĠN ONE
Ġan cestor
Ġparameter Index
Associ ated
dec imal
ĠDecimal Format
(// )",
pro jection
Service Impl
Option Category
ĠPro jection
exception s
lat est
MB OL
Ġplace holder
Availability Estimate
Request Handler
Ġal location
\" >");
Change Log
Ġtest s
declar e
S F
x ad
Ġr isk
is Public
De com
Ġtr acer
Ap plied
SH OW
any Match
Ġprodu ce
iph ers
. "));
P ress
T oo
U ris
Con sume
Client Vpn
Ġread Only
EL DS
mod ules
Ġind icator
Ġbegin ning
LET ON
x af
et o
Ġl ikely
ĠM alformedURLException
CH ILD
Unm od
Ġjj stateSet
jj newStateCnt
Quot ed
COMM IT
ĠBO OLEAN
S pliterator
get Lock
ĠS im
ĠL anguage
Group ing
Sk etch
1 01
Ġ util
in ing
ĠM ozu
OT AL
buffer Size
l and
is ode
Ġcon tract
To Map
ĠQuery Util
ĠZ onedDateTime
Prop agation
vol ume
ĠVert ical
h an
p aint
qu eries
AT T
Log Entry
Ġcol ors
UN DEFINED
ma j
Ġstyle Class
Que ued
h it
error Code
Version ed
Plan e
Ġmodule Name
WAR D
ctr l
Ġcomput ed
Sequ ences
b rowser
Ġ Parsed
Ġb ool
(" ?
Config Issue
ĠD C
Un set
Ġhe artbeat
Ġnext Token
Ret rieve
Ġparser Context
=' "
Sm all
Comput er
j unct
ĠTr a
M N
ä ¹
Ġp a
up d
Resource Name
Or Path
System Exception
Ġappend To
ĠDocument BuilderFactory
pop ulate
ĠSw ing
Ġs z
Application Session
Ġraw Type
ĠInit ial
C aches
] -
ĠS parse
Se par
(' )
ĠRequest Context
Ġop code
elet on
o ard
es pan
In vok
Pro position
ĠS ingularity
Ġex ponent
Ġlist s
man ifest
Ġret ries
Ġh t
Add on
p om
Ġr x
ce il
put Short
create Statement
Ext end
Ġoutput s
Ġallow s
66 66
O SECONDS
a iter
Ġ Processor
Ġj wt
Qu ant
Ġclass Info
Schema Name
valu ed
Ġcp u
BE FORE
ancell ation
= {
x path
ĠC ity
Ġget Parameters
/ ");
s cheduled
z oom
get Option
Ġo os
ĠP aint
res ume
scri bers
Constant Operand
ĠParse Utils
Pur chase
å¯ ¹
get Enum
ĠC L
Ġel astic
Ġis o
atab ases
ĠPro b
Ġneed le
Ġax iom
ALLOW ED
M alformed
get Members
est ore
Service Ref
ĠClass Name
mer ged
Lower Bound
Inf inite
Ġwarn ings
k v
it an
Ġs alt
im a
Connection Manager
Ġextract ed
oth ers
Ġpur ge
D IG
p ipe
t z
get Builder
Ġ< ?
ĠA xis
Ġclean ed
Background Color
Leg end
Ġsol r
Ġf il
ĠList enableFuture
RE CE
DE VICE
Ġk ryo
ynchron ize
Ġinter preter
Ġremove All
Ġover lay
Pred ict
di vide
File Info
Ġun used
CT ree
Ġcl oned
pri ce
Ġenc ryption
aus s
. )
E s
L ng
M ention
To Check
Ġ' *
OR G
Mem o
L arge
Y aml
Ġ od
get Unique
Ġf ace
St ar
ĠC HE
ĠTr ack
ov es
ampl er
ĠOrg anization
To Set
Ġj gen
Ġspace Id
ĠMozu Url
c li
Ġi x
Ġget Provider
ĠL ifecycle
ĠN ext
ĠParser Exception
m ob
get Unit
Ġ" >
ĠR a
Return s
Product Id
dig it
ital ize
åŃ ĺ
O ID
u y
æ Ŀ
Reg ression
az ard
debug f
Ġk ill
Http MethodName
Queue Entry
Ac celer
compute StringSize
[ ^
é Ĺ
Ġget Param
raw l
C I
o gs
at omic
Ġh i
Ġclass Path
api Key
ĠJMS Exception
ConditionalOn Missing
E Q
p ay
get Window
St yles
Ġa a
TH RESHOLD
Ġhttp Method
ĠValid ationException
Safe Varargs
variable Name
readable Bytes
V s
al ready
Ġc odes
getCanonical Path
Parallel ism
Med ium
('/ ');
å® ļ
s ince
Ġp y
pl es
ĠA CC
read Resource
OR TH
(' \\
PRE FER
U SH
set Height
ĠF ixed
Pl ans
getB ucket
Ġbean Manager
W alker
getC ms
Ġdel eter
ĠBuffered OutputStream
get Limit
ĠF utures
Ġlong itude
" },
Z eros
ĥ ½
get Network
se p
om cat
end ants
Ġget As
Ġref lect
ĠruleJvm TypeReference
uzz y
H old
(" ;");
Im g
ĠE Faps
ĠQuery Result
writeValue AsString
getPer iod
R obot
ĠC overage
Call Context
getR ender
Band s
Ġ Email
RE AL
ĠCh ild
Standard Charsets
DIS ABLED
D UP
} ?
Ġm uch
Ġout going
ĠG e
getShort Name
Keep Alive
è¦ ģ
b itr
ation Time
Ġget Time
Property Definition
Bean Factory
Ġentity Id
Wait Time
Ġcar ry
un ix
Ġdo ing
ĠBi Function
D ROP
get Profile
Ġadd Attribute
mit ives
Ġcomp ound
Gr ad
channel s
ĠFormat ter
O Identifiable
e DataType
get Mode
re a
qual ity
Ġ'< '
ĠCHE CK
ConditionalOnMissing Bean
H ard
Out going
__ __
Ġ"/ ");
over riding
Tri b
CHAR ACT
ĠPAR AM
B el
Ġif NoneMatch
Map View
File Status
ĠB IG
Ġlog ged
Ġk ie
Execution Id
Constructor s
getError Code
common s
getFormatted Message
Ġb d
Ġl arger
Set Name
Ġ' ?
Ġpre ferences
Ġbean Class
encode All
r b
in line
ĠI Bond
ĠD rop
ĠP ublisher
Stream Id
Sh ader
mar gin
Tx Id
Ġssl Context
com mer
ĠH adoop
code Point
Configuration Builder
Local DateTime
Block Size
Ġbase Dir
Cost s
LANG UAGE
[ _
x sd
ĠS U
ec ast
ĠP rest
Ġparam Value
() ",
con sistency
Ġh ive
ĠB ut
ĠR ound
getHost Address
Cor pus
P k
as ing
as Int
Ġres triction
Api Key
STATE MENT
uil tin
LD AP
ĠJ VM
Ġrule Op
Ġmin Value
Ġauthorization s
Differ ent
an za
Re action
Ġex amples
Ġrem oving
Condition OptionCall
H ollow
s upplier
com put
Work Unit
ä¸ ĭ
Specification OptionValue
Ġpred iction
Ġrout er
commend ation
Ġs izes
ĠM ust
SL T
USE D
B onds
F olders
st amp
ST AND
Method Type
pro ceed
getF loat
getStatus Line
Ġattempt s
Ġvert ical
ne ighb
Ġth rift
Tr ades
ĠF ace
Ġclass Type
gr ant
container Id
Altern ate
ĠVer ify
k y
ĠC LO
Ġget Header
Ġex cludes
IN ATION
Log Record
Ġattach ments
L B
S uggestion
a Class
n av
In active
rit ical
Ġg ive
Method Info
---------------- --------
Security Manager
Ġprop agate
ĠCache Entry
p ic
Ġs anit
(" //
ab stract
ph one
ĠK NX
Mon ey
expression s
RESOURCE S
åĪ °
persist ent
Feed back
Sim ulation
JO IN
COND ITION
Ġ Embedded
ĠM sg
Ġx y
Profile Request
Post al
ĠEx tract
ĠWeb Driver
EQUAL S
7 1
ĠD ap
Ġentry Set
ĠLe ft
Ġcor pus
non Null
ĠRender ing
Ġevalu ator
å ¾
Ġget X
Node Scope
ak Reference
Ġun supported
getP ipeline
Ġlock s
getUser Name
Ġdown stream
Benchmark Result
Grant ed
E valuate
w l
ab solute
Ġget Component
ser ial
cl z
40 4
pear ance
dem ort
get Constant
Ġget Base
Value Expression
Ġun less
Ġnum Bytes
Ag reement
ĠIN DEX
ĠHe alth
con sole
To Attach
getS ingle
Long itude
Ġpre ference
QU ARE
ĠWeb App
AB STRACT
BACK GROUND
s ax
ad ial
As Int
READ Y
setS cale
Print Stream
quival ence
Ġ Unable
ro fit
Ġre connect
On ce
Ġind ividual
Subscription Entry
Fl uent
ĠVER SION
Unavailable Exception
C aching
T W
pt ime
Context Impl
Ch allenge
ĠJ ust
ĠR DF
Ġ8 0
maj or
or ded
ar ound
as Boolean
Ġend Date
Ġcache Entry
Ġauth ority
ĠAR RAY
a udio
get Parser
Ġb uilt
Ġ' +
Null s
ill a
Column Index
copyOf Range
setRequest Property
autom l
G ING
ri ve
ĠC redentials
PE CT
G H
O b
de ep
Ġth ird
Tim ing
DB IDs
ĠDatabase Exception
ĠPri vileged
ĠDat atype
onom y
Ġin herited
index Name
ĠPri ority
Ġfail ures
istor ical
Ġdeli very
ĠScreen Constants
fol io
D atas
get Definition
ĠO Type
Prot otype
Ġ Upload
set Variable
Ġw alk
Ġget W
Ġcon d
Ġpro j
ĠD ictionary
View Group
Commerce Order
ugg ested
istant Factory
Ġest imate
Relational Database
trospected Table
Type Mirror
ĠM ultiple
Or Whitespace
Ġun safe
ĠAtomic Reference
ĠCompletion Stage
p w
Ġr ot
TA B
ĠDE LETE
bl ack
Ġr ather
Path Element
EN DED
R q
ç Ĳ
ĠG rib
Ġtext ure
match ing
Ġsp aces
ĠServer Exception
h alf
); \
get Graph
Ġm ixin
add Argument
oo f
ac ility
ry ptor
Ġprocess Definition
Web hook
Off line
Injection Point
ferr al
Ġqualified Name
I Q
Ġnew Array
Re ject
ec es
Data Map
As List
Ġnode Type
Sec s
ï¼ ļ
ĠStage Exception
li ke
Not ebook
Ġstart Date
getProperty Name
ĠChannel Future
complete Exceptionally
Ġgu arante
D UCT
ar b
ip ple
Ġmessage Id
Meta Class
I ts
K am
R SA
ER T
getS ocket
sub scriber
Altern ative
SCRE EN
T riggers
i j
Ġp ol
Valid ity
Ġcopy To
Ġhttp ServletRequest
clus ions
term inal
F X
ç ¬
able Unit
read Boolean
Byte Order
iver s
uplic ated
Tier PriceEntry
sequ ent
F ONT
get Control
Ġn d
Path Address
Configuration Set
86 01
stand ing
F ETCH
u tr
Ġn avigation
servlet Context
M C
w g
ch o
Ġd esign
thread s
RUN TIME
ĠIP v
' "
ĠB ranch
res erved
op code
ĠF ailure
pro gram
Im mediate
ĠG en
ĠCom plex
C op
~ ~
ĠC DK
Object List
To Type
RE TRY
Ġaccept ed
P ing
set Port
Key Name
ĠP Type
Channel Request
ie f
grid y
ĠDown load
Ġdeleter es
H IT
Res ize
Workflow Instance
getDeclared Method
NoSuch AlgorithmException
E q
g i
le aved
Ġm ol
Ġget Job
Ġ! ((
DE L
init Cause
ĠAuthentication Exception
Ġsmall er
Ġreplic a
Ġb t
per m
Extended StreamReader
MULT IP
) ")
Ġ( {
Ġget Query
Ġset Attribute
Of Year
Snapshot s
ĠEntity Type
Delay ed
Inc orrect
e ffective
Ġl i
ure ka
last Comparison
Ġtransaction s
getSession Id
æį ®
çĲ Ĩ
) ]
er on
re es
ĠT S
input s
TA S
ĠAt tr
Ġweb App
Commit ted
Ġident ify
Fore ground
d atal
set Y
ĠS yntax
Ġto Json
Class Expression
ric es
Pool s
cer untime
getContext Path
Ġhigh est
constraint s
commer ceruntime
Ġcon st
By Uuid
Ġx a
H olders
r and
Ġ QualifiedName
is Enum
ĠI so
Ġj ournal
Un checked
Ġg ather
If Null
Cell Value
accept Language
Ġ esc
getB it
Product s
ĠComplet able
H ave
N T
v server
Con crete
ĠJ cr
ĠW ildcard
Ġpart icipant
voc ations
M erged
Ġ ];
ĠL IST
Ġ3 6
ret ain
press Route
COLLE CTION
[ ++
w eek
em ma
sList Index
Ġinv oice
ĠMeasure Spec
Ġnew LeafNode
Ġpro files
Ġh orizontal
RE Q
getP rincipal
raw Type
ĠHttp Entity
Is olation
Arg NotNull
Skip ping
Ġpresent er
ĠExecutor s
WH ITE
is NotNull
ĠC lick
Ġget Status
Ġjson Generator
IZ ATION
Trust ed
S ms
c lip
get Update
de coded
Ġ" ));
Ġget Min
con st
ĠI on
By Query
Client Factory
getF acet
Transaction Manager
Ġparameter Type
exp licit
Ġserial VersionUID
Ġconsum ed
Ġcase A
== -
Selector s
Route Table
Peer ing
¦Ĥ æŀľ
is Use
ot es
())) {
ĠCon tract
Follow Sets
SING LETON
ĠcastTo Reference
: "))
D AP
h olders
Ġs peed
da o
Custom izer
Ġder ived
Ġ Resolved
Type Definition
Ġcheck er
Page Size
:// "
ĠCan vas
% %
J CR
Ġ" *");
Ġde al
Namespace d
Ġprogress RequestListener
RESULT S
when Complete
Ġs id
Ġm ithra
Ġst m
con c
new Document
Tr ait
write Start
min imum
Ġwork s
run nable
K V
y es
Ġb enchmark
ĠH C
Local es
OL OG
åĪ Ĩ
Ġf eat
format Message
Byte Channel
Ġsystem Id
åĬ ł
ĠFramework Exception
E qu
S ome
get Organization
Ġex cept
). ",
error On
Sub class
Ġfull Name
Ġl ayers
ĠL oop
Log File
Client s
ĠW R
ĠJson Generator
attribute Value
ene fit
ĠY aml
P ad
ä ¼
ĠHttp Post
El apsed
Ġav g
DD RM
getCreate d
V endor
get Range
ul ary
em bedded
LE X
Execution s
UND ER
Ġlat itude
G allery
b tn
b uffers
w orld
get Transport
Ex ceeded
File Filter
Ġim mutable
Remote Exception
ĠAct iv
deli ver
D Matrix
P ause
Response Inner
Th rows
getL ayer
Ġcancel led
ĠCalc ulate
> ").
Or Enum
Ġsh ip
Ġrule ValidID
Vector s
Day OfWeek
SY MBOL
getRow Count
q tt
set Url
set Password
Ser ializers
ĠH ow
Se g
>> >()
Le ase
Ġun lock
Ġas List
Read ings
Chrono logy
c redential
e arch
y ler
Ġp od
Ġinter cept
Invalid ation
getO id
Class CastException
ang ular
Ġcol lap
Execution Entity
Match Set
ĠRuntime Fault
grid x
is Abstract
od ay
Ġget Raw
Ġ1 27
Ġ2 7
ĠRe ce
from Index
count Down
Ġref s
dist inct
ĠMed ication
L ite
get Timeout
Null PointerException
Local Variable
do Filter
LOW ER
s rv
w in
Ġget Document
ang les
ĠO Distributed
getS cale
LO C
Read Lock
ru ption
F ERENCE
c ity
query String
ĠValidation Result
J edis
tr i
Ġ( ++
set HttpMethod
Ġis Set
Ġconfig File
register Type
Ġ9 0
getHost Name
ĠSp atial
getExternal Context
overriding ErrorMessage
I RI
get Nodes
get Memory
get Reason
ĠD eser
ra ken
Click ed
Ġph oto
MI ME
A ML
q m
Ġp ing
Ġif ace
ver ts
ĠS WT
ST ORAGE
com es
Or m
ĠCol lect
Ġgener ics
SER V
bean Name
Configuration Result
Ġas Of
ĠDefault Request
Float ing
a ech
get Handler
Ġj ms
Ġas nOs
Ġ{} .
ĠData InputStream
Rem oval
Interface Name
Ġthread Pool
AndSet Parameter
Ġcor ner
U D
in jector
is Running
Ġm T
ĠRe al
gener al
IV ED
coord inates
TOP IC
M TAS
m imeType
t al
is er
Ġm f
set To
Ġtr eat
Result Inner
>> >>
CO PY
Ġjava Type
! [
Ġpro ceed
ĠT ango
ĠA udio
Ġis In
getM sg
Domain s
Ġcommit ted
ĠComp ound
L IT
r atch
ĠD IS
ĠO LogManager
ĠN EXT
End Of
ĠCom pare
ĠOperator Call
F ax
P aging
ĠC redential
Ġex clusive
Ġg row
ĠG regorianCalendar
Ġsb b
Ġcompare Values
N DArray
a que
u cle
get Char
Ġget Image
Config Request
fo cus
Ġkey words
End Point
Ġend Of
Launch Template
ĠSorted Map
==' \
Ġ Stat
tr uct
(" =");
Ġget New
ĠF lat
User Request
On line
al ign
Ġn anos
Service Reference
("\" ");
N F
get EventType
Ġc losest
ĠC OM
Ad vanced
User Info
Ġany way
So y
ĠAss ignment
è §
set Total
ĠS Y
read Fully
parse AndSetParameter
Parser OrEnum
ĠJsp Exception
ĠRO OT
ParserOrEnum RuleCall
S b
U id
ct ype
Ġget Descriptor
Ġa fp
Ġprocess ors
ĠToken Type
getService Name
TRAN SL
Poly line
E vidence
ĠT ab
ĠP ush
ĠP ending
Sub type
ell ig
base Url
Ġqu ant
block ing
commerce Order
ĠStorage Exception
get Metric
Ġt l
set Tag
Ġget Result
Ġwh y
Warn Enabled
p olygon
is o
Pro vides
ĠO ff
Ġrel ations
getData Source
Ġcondition al
DEPLOY MENT
ag n
act iv
To Delete
par ity
ĠB ody
Method Invocation
Reference Code
Back ward
Ġproject Name
Ġafter ParserOrEnumRuleCall
REN DER
jj te
row Index
th rows
Class File
ĠA zure
ec ause
fo ot
Un icode
ĠMap per
SE CTION
Writ ing
alEntity US
Trib alEntityUS
p oration
è ½
am eter
Ġf ault
set Duration
Ġprivate Key
ID S
ĠG RO
Ġform ula
TH IS
resource Id
Art icle
DS L
Post Construct
ic ents
con sistent
getR ed
Ġdescriptor s
E ar
Ġnull able
Column Definition
Ġread able
Ab s
return Value
ĠRE TURN
ĠWork er
CATEG ORY
A ux
I SS
T rie
Ġ" ))
Ġpro vision
ĠIn voke
ten sor
ĠTrace Component
Ġneighb or
ĠRec yclerView
s amples
st orm
Ġget SerializedSize
LE S
Ġinput Type
Char At
getF low
Ġformat s
Ġac ceptor
Left Tuple
Commerce Discount
æİ ¥
et ric
Ġt b
Ġg bc
ĠR IGHT
Ġdoc s
h azelcast
ĠF ix
FI ELDS
UN T
connection s
sw ig
getColumn Count
Instruction s
Ġp ause
il iation
ĠC ategory
Ġcon clusion
Ġrequest Builder
query Param
ud ience
base Dir
Ġzip File
Pdf Name
Ġautomatic ally
OrWhitespace Only
Ġ Parallel
get SerializedSize
Ġc amera
Event Subscription
Al phabet
Ġ2 9
Dis associate
Ġident ifiers
FromS Object
< ='\
> ='\
L oo
r m
Ġ ends
Ġp lease
ĠS oft
To Double
Ġh ql
getType Parameters
Struct ured
//////////////// ////////////////
prob lem
T en
h ibernate
app ro
key Store
return s
accept s
SD Variable
G O
se l
set Model
Dis position
Ġannotation Class
Standard Types
ĠSI MP
dialog flow
Viol ationException
m ouse
Ġnew Data
str ings
ĠJ Component
ST ACK
SI VE
(' =
TA CH
http Client
ld ap
dep endencies
Ġrequest Body
fl d
ĠIO Util
Ġscal ed
ĠEFaps Exception
get Icon
Attribute Type
Ġinter mediate
EX TERNAL
A IN
am er
is WarnEnabled
str oke
Ġg t
pro ducer
Input Format
getF ailure
Progress Bar
Enc rypt
ĠFHIR FormatError
ĠTemp oral
in el
in tern
Ġnew Child
Re jected
Ġpre view
DB Instance
AUTHENTIC ATION
B LA
P icture
_ )
b aos
in struction
pl eter
ain der
ĠQuery Builder
Vari ance
C aption
apt ured
ĠType Variable
getA vailable
P atient
ed Object
Data Size
ĠD om
Ġkey Set
ph rase
Decl IR
Measurement Unit
J ump
on Next
Ġs ensor
Ġnew Size
ĠS ys
ĠIn sets
AL F
Part icip
Ġiter ations
R ew
is Connected
ĠS core
En cod
Task Field
Ġind icates
MB ED
JS Type
semb ler
ĠLO CAL
n l
is Absolute
set Position
next Double
Local ized
Ġatom Container
ĠXMLStream Constants
ĠJS Type
ĠCOL UMN
R DF
S PI
Ġp ower
ub ic
set Properties
ID LE
OL DER
Gr avity
Ġdet ector
Ġpop ulation
S bb
W izard
å ī
Job Status
Consum es
PREFER RED
F ingerprint
get Controller
Ġc class
em perature
ĠM anager
IP v
ĠSV G
n il
is EqualTo
add View
con sum
us ic
ĠP atch
Model Builder
Sh a
ĠCms Object
Change Set
ĠInv oice
YN AM
Ġ Engine
get Hash
ĠM ime
Column Type
ubl as
Term inate
ĠEx port
Extended Data
AG ENT
getDeclared Methods
ĠIter ate
ATEG Y
K S
â Ģ
in cludes
Ġth ing
im es
ir estore
ĠService Name
setContext ClassLoader
datal abeling
get Pointer
set Style
Ġget Date
ateg ies
Ġmark et
Ms gs
p f
Ġst ores
ĠM ULT
ĠP ER
Group sRequest
Inter vals
ĠCom mit
ĠField Type
do AutoCreate
ĠBeanDefinition Builder
ĠPrivileged Action
errorOn AutoCreate
T abs
er ical
get Pos
String Buffer
set Base
ĠB ulk
\" "
remove Attribute
Comp iled
getB ind
D RI
c red
g ot
s a
get Q
get Email
Ġp ager
as Map
im ag
Manager Impl
order ing
sList Value
Author ities
ĠTerm inal
Ġ Over
add Modifiers
Ġh its
Ġal locator
Ext ends
USER NAME
getSh ared
Ġbr acket
ho od
b alancer
d ue
act ition
pro tected
NUM ERIC
ĠCmsResource Filter
ĠMPS String
n m
ĠO bj
Ġuser Agent
Ġaction Request
getO perand
getResource Type
Writ es
Jar s
Ġsubmit ted
Ġtool bar
åĩ º
ĠT RAN
Event Data
SI B
Pre mise
ĠUser Exception
Percent ile
Provision ed
1 80
I OD
O US
i ated
le af
Ġget Height
Param Type
create TempFile
Column Family
ĠRe vision
Ġdim s
Dem o
ĠOri ent
actition er
de coder
el come
place ment
ps im
sc ape
Ġcommand Executor
trim med
Ġdruid G
P om
is Type
Ġd a
Ġse ems
Ġal located
ĠAtomic Boolean
Ġaggreg ator
BR ACKET
M echanism
Ġv pn
Res pon
ĠError Code
Ġcalc ulated
Decor ation
de cision
Ġm oved
Ġcon stants
Ġj mx
Tr ain
Client Id
Executor s
So Far
Ġl m
Object Mapper
Class Def
An tlr
ĠF eed
OR ITH
ret hrow
io e
Ġtrack ing
vile ge
Ġassoci ate
auss ian
F Q
G RA
s yntax
And Type
Ġstring Buffer
Ġprefix es
Ġcp Instance
super Class
Modified Date
ĠPl ain
database Name
Annotated Type
Field Info
tem pl
ber os
Ġclass ification
Variable Declaration
Ġconf irm
Sl ider
ĠHy strix
p ooled
Ġc overage
Ġf i
Key store
ĠJ ms
Ġcol on
Ġ4 00
AC COUNT
PO INTER
make Text
nb sp
ä ¿
get Year
Ex ponent
ĠB ar
Dis card
Ġsub class
ĠSQL ite
æ Ģ
Ġ Ident
Ġ Env
Ġsc ene
jj tn
Ġrec yclerView
PL U
getDocument Element
NAN OSECONDS
H H
n v
is Re
vi al
DE LAY
And F
vert ices
det ach
Deploy ed
unmodifiable Map
PROG RESS
S uggestions
te am
ast e
ĠO Identifiable
Ġquery Result
Ġbase Name
Ġcomp ilation
product admin
cest ors
LAY OUT
OLOG Y
Ġn l
pro vision
Or Throw
For Loop
Operation Type
ĠPersistence Exception
Friendly URL
> ...
L d
N I
Ġl st
Key Id
ĠM ultipart
ĠL ast
Parameter Name
View port
Ġun icode
Execution Plan
property Value
Limit s
Progress Listener
p b
Ġth ough
Ġin fer
Ġo auth
Ġget Map
ib ly
ĠL imit
Groups Result
Identity Provider
Ġapplication Name
Ġsection s
ĠDA Y
M igr
Ġr aster
re covery
ass istantFactory
set G
set Param
com pression
Ġobject Input
10 2
Ġth eta
Ġcon sistency
Class Definition
Key Type
Ġle aving
element At
Ġpixel s
ing Service
Con d
Ġd ates
set File
ĠC li
Sign er
page Size
b igDecimal
Ġ" |
id ue
Ġg uid
AL T
Shard s
Comb ined
tick et
tool bar
Greater Than
K ill
Ġr d
Ġi de
it o
Com panyId
num eric
Ġtemp oral
Tool Tip
jj t
getN ative
Ġdisplay Name
l ue
l ator
l ambda
t orrent
Par a
ĠT E
ĠA SC
ĠM UST
Ġal phabet
Ġdeclar e
COUN TER
ĠUtil ity
Country Id
ĠLight weightTypeReference
P ooled
Ġget Description
Request Data
der r
DE CL
Ġal ter
Http Message
ĠKey Value
gorith ms
Character Encoding
Ġbel ong
ĠSol r
D atastream
re load
ĠS cheme
Object Node
ĠD er
EN ABLE
Item Count
ĠArray Utils
Ġmethod Info
Web Service
Dim s
en al
ore ign
ĠIn tern
Property Keys
Ġtype Info
BU ILD
ĠFor ward
Ġhigh light
G round
M Y
getC ss
Connection Exception
SPEC IAL
Sw ing
E ager
H ot
im bus
ĠC sv
Key Constants
ĠJ pa
ĠK afka
Ġdeser ializer
it les
set Preferred
Ġe quivalent
entr al
Radi ans
set Action
ĠH ibernate
Code Example
ĠRe ason
Non negative
Byte code
Ġtime Zone
Ġaltern ative
Scene Object
Repl acer
. __
C g
Ġ others
Ġw m
bserv ation
cp u
ĠBuild Exception
Ġtra versal
M aybe
l ifecycle
Ġb undles
Ġm ix
Ġv ault
Stream Exception
ĠJ enkins
Action ableDynamicQuery
VER TICAL
Ġobj s
Ġ5 6
ynam o
Ġtenant Id
ServiceInterface Port
ellig ence
L C
S QUARE
c ross
k w
Ġb a
th eme
Attribute Info
Execution Result
from Type
buffer ed
process Instance
getG rammar
c ertificate
al Unit
ap oint
ĠP acket
getS creen
Execut ed
If Empty
... }?
ĠIN VALID
ĠCO MM
CRY PT
S quare
S itemap
Ġ Regex
Ġc aching
Re ached
Ġh istoric
At trib
ĠF IND
ĠDateTime Type
ĠSpec ial
Deleg ation
tenant Id
ultiplic ity
set Index
ĠI AtomContainer
Ġ' #
URL s
MA STER
du it
STRUCT OR
Ġ'- '
Prom pt
get Initial
In sets
ter eo
Ġget Task
Ġget Application
Com m
Property Names
Ġport s
ha ust
Ġjoin ed
ccur acy
Ġbl ue
rot tle
I X
Ġj Panel
Ġper formed
OW NER
Find ings
Ġcas FeatCode
completed Future
P lot
a con
u o
el en
En hanced
Ġex ceed
Execut ing
Description Constants
SH OT
Ġupd ating
bucket Name
String To
set Min
out h
Ġnode Engine
send Message
ä¸Ģ ä¸ª
getCl azz
YNAM IC
I am
Ġth ings
Ġd l
State Change
As Map
Api Operation
ĠCurrency Pair
G lob
Ġtr uncate
ĠM S
Config Constants
Dis criminator
Json Element
Per formance
comp act
ĠThread Local
Absolute Path
Already ExistsException
Ġoptim ize
Ġnew Map
ig gers
Ġget Version
ĠR Future
ek t
Ġcf w
GRE ATER
ACTIV ITY
n ed
get ByName
Ġpublic Key
Node Map
ĠBack up
BOT TOM
ĠNaming Exception
Ġprom pt
G S
Ġm irror
Ġget Template
ĠIn struction
Check ForNull
ĠCON NECT
set Display
DE LETED
Ġcolumn Family
Det ach
Report s
START ED
Accept ed
Claim s
Less Than
P X
] ++;
g wt
Ġ Results
Ġin bound
om p
Ġst uff
ĠC assandra
Ġget Selected
Request Info
art z
State Changed
Al g
Ġdis pose
ĠData Store
ĠOR DER
B IDDEN
Ġt ier
Ġin voker
add Dependency
ĠS uper
Ġto Type
Time Series
ĠCom pression
Ġload Balancer
Member FeatureCall
getA lias
Has Cause
WE ST
ĠHEAD ER
D etermin
Ġnew Builder
ĠString Concatenation
Item List
Ġread String
ĠServlet Response
ĠVolt DB
authent icate
a ken
get Errors
set ting
Value Exception
Ġh igher
Host ed
Interface Type
Ġassert ion
Ġremote Address
rest art
AG ING
Contain ing
Restriction s
W id
x F
get Listener
get Queue
add Type
Ġq r
Red ucer
ĠEvent Type
ELE CT
ĠBlock ing
arb age
Ġn or
(" |
po jo
Ġstart Position
Ġcache Manager
Ġdel im
Chain ed
bed Pane
draw er
partition Id
Tax Method
Ġquot ed
æ Ń
Ġn i
ot ification
Ġre levant
ĠF E
und ant
io us
PAR SE
ĠIN TEGER
Super class
SAX Exception
HIST ORY
E ither
ation AccountName
For Class
\" ",
Child Node
MAP PER
ĠAl gorithm
Ġinc orrect
T tl
j a
m ultiple
v n
Ġp Entity
ic olon
(" ]]
Object Input
Ġerror Msg
Open ed
getPre vious
Tenant Context
Implement or
st ored
Ġf t
ag g
Type IR
Par ms
Ġex tras
ĠJ MX
Action Performed
Mode HasCause
KEY WORD
CS Node
EXIST S
acam ole
at ter
Ġjson Obj
Test Script
command s
Icon s
ĠDis tribution
W AS
k ill
Ġo is
add Node
add Annotation
ĠC lear
ĠP red
Ġset Default
Ġup stream
Tim eline
ĠApplication Context
rot t
ĠNUM BER
æ³ ķ
C assandra
m ediaType
tr ator
Ġin strument
(" ")
ĠO PTION
Resource Field
Ġx id
user Defined
Ġcurrent Index
ref s
Ġmax Width
getD raw
can Read
Attr Name
pol ate
Ġ'> '
ufact urer
ĠD ay
com plex
User Group
Ġq ry
IL DC
ĠRE QUEST
SU CH
spec ific
Rendering Hints
ĠBug Instance
ORITH M
M andatory
l ings
To Array
Field Data
Field Names
ĠO Index
Ġse l
Al ways
ĠClass Utils
getP ermission
ph oneNumber
Render ed
ĠInvalid RequestException
FILE S
Ġdeclar ingClass
CHAR S
20180 8
Fail over
Bug s
ĠRendering Hints
C idr
J AR
Ġi Record
St udy
VER TEX
property Type
DATA BASE
ymbolic Name
SLA SH
getS cript
Ġun compressed
format ted
Ġlast Index
ĠAs m
Mark ers
Multi Value
SA ML
Ġexpiration Date
P B
T ele
s impleName
Ġ1 0000
not Empty
ĠR out
Ġadd Field
ME D
Dir Path
getM illis
opt String
Author izer
4 32
M ake
l c
m ock
ex cluded
ag en
List Type
set Schema
add AndGet
LI GHT
element Type
Ġarg Types
Sorted Map
get Encoded
ĠS witch
Ġget Input
Version sRequest
Ġy aml
SCHE ME
Consum ers
Appro val
A ES
get Services
as nOs
Ġm m
pr etty
ari ance
End Time
mem o
Random AccessFile
Sur rogate
White Space
P ts
f raction
n aming
Ġto Int
Cache Size
resource Type
Ġbase Path
T ED
W ater
Ġm eter
EN CY
byte Array
UT ION
Ġas m
Ġmax Results
Ġroot Path
getD ay
dis tribution
fin ispan
Ġvi olation
Ġm akes
Ap pearance
Next SinglePageAsync
Reference Type
Ġtemp File
Ġsend Message
ĠAPP LICATION
E Attribute
P ENDING
y th
is Visible
Ġm o
ĠS IB
art ment
sh are
CH UNK
comb ine
c ade
get Work
Ġm essaging
Ġget Width
con t
Ġ' $
vert ed
Vis ual
Loc als
ĠSI ResourceException
Ġassign ments
ros st
ver ser
con tinue
Class ic
red ds
Attributes Result
12 7
PRE C
Short cut
Ġoff line
Certificate Request
ĠAggreg ate
b ounded
get Constraint
Ġe Get
Ġse verity
ĠFile Status
Read Write
ĠJson Parser
Web flow
do cker
Does Not
ĠATTRIB UTE
is Digit
Con vention
ĠF ilename
Ġresponse Code
For Object
ard inality
Ġconfiguration s
Try ing
j mx
al ed
Data Model
ĠD etermine
Ġwrite Int
http Response
{} ]
Ġind icate
ĠEx ecute
Ġph ysical
ĠContent Type
M otion
Ġ ER
is String
Ġtransaction Id
ĠUser name
uce e
Month s
R o
T unnel
Ġs df
In compatible
set EL
getS ingleton
getC re
ĠURL Encoder
decode All
separator Char
E DataType
m ore
Ġ Unsafe
Ġt yp
ĠM ILLI
Event Listeners
Ġwh o
Connection Pool
Per f
Factor s
ĠDateTime Formatter
Neg ot
Ġinstruction s
- +
/ (
M ater
h ib
get Results
Ġp df
ul ner
ap ro
add Rule
token Type
getMax imum
Configur able
b p
Ġre peated
ĠC UR
Ġget Bytes
Ġcheck Valid
Invalid ate
ĠThread Pool
88 59
Ġanim ator
readUnsigned Short
(" "
Un recognized
Success fully
Ġexpected Type
access or
spec ial
('" ');
HEL P
Node Info
Ġcreate ModelElement
Ġrow Count
Num s
Ġport al
header Name
lat itude
fin ex
D AT
V dm
Ġin stant
Ġm agic
(" ]
Data Access
Property List
Expression Access
Ġinter pret
Ġopen Array
ĠJava Class
ĠNum eric
\ ")
tr aining
Ġp agination
Ġf in
String Helper
ol ved
set Local
add Group
con v
State ful
Up stream
Ġclose Array
output File
Tool tip
var Name
>< ![
ĠTransformer Exception
H AS
g reen
x s
æ Į
() });
Ġin herit
Ġv e
set Level
Ġj cr
oc used
Time Stamp
Ġ' ='
getResponse Code
NEW LINE
unct or
ĠXA Exception
FriendlyURL Entry
D IT
s pliterator
é Ļ
Ġ RESOURCE
ro k
Un defined
ID ENTITY
Ġskip ping
Instances Result
BOT H
Ġstr oke
Read s
Connect Timeout
Public ation
Disc ret
PLU GIN
C MD
Ex plorer
Ġb alance
mp p
Port folio
Wrapper s
getB atch
Ġdirect ive
Sequ ential
Beta Api
ILDC ARD
d on
Ġ Arch
(" ]");
ĠResponse Writer
Ġterm inated
GROUP S
Ġ"? ";
get Topic
Ġr adix
ĠC lean
ID X
ĠG auge
CO OK
Rule Request
Ġprocess InstanceId
Ġsig ma
REL ATION
Behavi ors
F ragments
è ĥ½
get Platform
St ale
Ġget Double
Object InputStream
Ġa Value
ĠA CTION
File Reader
Block ed
ĠU sing
Schema Table
RI BUT
Ġorder Id
getNext Token
ĠEd itor
D urable
es ized
Ġm Adapter
Ġm Current
ĠH istogram
Service Provider
line Number
Ġdis count
Ind entation
Av ro
Ġque ued
? )
P ick
s ms
set Constraint
end Object
Ġclass name
ĠHttp Get
ĠU s
Ġaccess ible
Ac quire
non ce
C ql
m essaging
Ġ Deferred
(" >
Inter mediate
Ġinter rupt
DB Constants
STR ATEGY
ĠUn icode
ven ance
Ġadjust ed
MEDI A
get History
Ġn aming
Ex perimental
St orm
ĠA fter
ĠA CCESS
As Double
Item Selected
Text Color
Ġsub string
Ġtc p
Profile Def
d rag
v d
Ġm ath
Ġd ryRun
ĠJ R
Ġcol lected
Server Exception
pred ict
SV G
ĠParam Util
Dem and
EXECUT ION
å ŀ
Ġt y
Type Ref
Ġpath To
Sub Type
(' -
position s
El t
ĠRandom AccessFile
V K
g est
set Timestamp
ĠG ateway
Ġstart Offset
If Exists
aders hip
ĠPro p
Double Matrix
trans lation
Ind irect
getO ther
Click Event
COMP AR
Loop Group
1 0000
E jb
S ENT
W iki
in coming
Ġn ls
add Member
ir a
As Of
ĠService Loader
Ġver ification
BU IL
Ġinsert ed
IST ER
R otate
Ġ utf
ol lowed
add Key
Ġget Group
act ivation
Item Stream
ĠDouble Matrix
ĠInter face
parameter Types
SP AN
J oint
get Rows
an ent
Ġc ircle
Ġp aging
id le
us able
op eng
Start Tag
gn l
list Iterator
Ġsc oped
Ġgroup ing
NO TE
ĠField Info
ĠSe verity
Ġsp ans
cas FeatCode
ĠPri vate
tal ent
b one
m icro
Ġ ur
project s
BE T
MBean Server
DT D
Replic as
M ac
t wo
x iom
read File
Dis joint
Ġover ridden
plugin s
Under lying
ĠEN otification
ĠENotification Impl
P retty
r anges
ess ian
Ġg oto
UN C
bo ol
parameter Type
ĠSign al
Intern et
Cred it
C ircuit
Ġ UNKNOWN
in i
it ect
File Type
Text Area
Ġfield Names
Per Page
SER VED
AC ITY
server Name
Constructor Call
ORDER ED
J PA
o a
ed Event
ĠObject Type
ĠJ DK
Annotation Element
Application s
ĠWeb ApplicationException
bind ings
ĠKEY S
ĠGray F
E List
G uid
Ġde vices
Ġx html
rest Client
Compilation Unit
K NO
Ġs g
lo ss
Map Type
ĠIn dy
Pl ural
ĠgetS rv
getFile System
FACT OR
Ġauthent icated
ounce ment
CW SIP
åĢ ¼
R U
Str ength
Re cover
Ġcon sistent
Com bin
fo i
oc curr
getC ounter
IND ENT
ens es
ĠMark er
Initialization Exception
ĠSH ORT
c orrect
lo ur
Ġd raft
Un initialized
ĠW atch
Inter ior
Ġworkspace Mgr
$ ",
: {}
b roadcast
p ages
get Condition
(" (");
Inter est
ca ption
S SES
get Directory
Ġget EntityManager
Job sRequest
Prefix Length
server s
SY NC
Ġzone Id
Ġ"[ "
bigDecimal Value
J MX
Ġnew List
ĠS M
com panyId
Ġkey Name
check style
min ute
UP PER
ĠSimple Feature
Loc ated
ĠLocal Time
olt ip
avor ite
Cod on
ç Ĥ
Ġreturn Val
Data Point
EN C
ĠService Context
åŀ ĭ
R id
R ID
é Ķ
Con ference
ĠObject Helper
Log ged
Input Split
getSchema Name
BIG INT
getAnd Increment
MBED DED
N D
f are
as Widget
ĠI Common
ĠT CP
DE LI
index ed
ret val
PRO TE
getT emp
Ġvi olations
H OLDER
m eter
Ġf old
Re cursively
ĠM aster
read Bytes
ĠF IL
enc losing
getA v
ĠFunction s
application Context
Offer ing
CONTIN UE
ĠR T
ĠN etty
Text Node
Operation Result
Ġhand les
Ġassert NotNull
getPri vate
re aded
is Show
Ġre cent
to Unsigned
Over view
ĠB ASE
ĠJ PA
Table Model
enc rypted
Del imited
link ed
åī į
' >
/ ",
Ł ¥
To Write
of a
getR andom
getT ile
Chain s
ĠApplication Exception
getPre ferred
Med ication
('/ ',
aech e
openg is
i os
ĠJ B
Model Type
(". "))
- %
T OTAL
Ġ Groups
Ġ orders
set N
ĠM aterial
PRO DUCT
Ġhandle Error
getD river
version s
+" '");
Ġtransaction al
VALID ATION
then Compose
Z K
b ench
Ġget Size
Un marshall
Log out
Ġ2 01
ĠK ind
ĠVal ues
Uuid s
ufficient Statistics
M ount
Ġp ooled
Ġen force
Api Param
active Seq
Ġrout es
Ġ({ ...}?
E MAIL
x ied
et ition
get Post
Ġresult Type
Th umb
ME AS
Ġlist Of
rec ipient
Ġta ken
Ġcus parse
F req
Re use
Ġch allenge
ĠV I
Ġal loc
ĠE ither
Ġdo Filter
Ġpos sibly
call y
FOR BIDDEN
SETTING S
P i
Ġ Decision
ul ating
Ġf e
Ar ns
ĠL ang
Service Context
Ġadd On
CP Instance
ĠDis tributed
Ġnotification s
big table
={} ,
æĪ Ĳ
DEST INATION
ĠPaged List
E p
E viction
L if
lo p
Ġst yles
ĠC ast
RE T
Definition Inner
cond itional
Ġapp Context
ĠK eep
ĠDB Object
INVOKE VIRTUAL
3 00
M d
Ġp run
Ġs lots
In strument
Ġh ack
User List
Ġnext Char
getM an
Root Path
SC AN
doc let
Ġimport ant
getStart Time
complet ion
Ge om
ĠJar File
g g
Ġo c
um per
Ġtr g
ĠP ack
Th ird
Ġuser Info
process InstanceId
MAN AGE
templ ates
h ind
Ġp Out
ĠB reak
ĠD iagnostic
An not
ST RO
context Path
User Agent
Content Spec
HEADER S
åı ¯
SO AP
J NDI
ç ©
get Adapter
Ġn n
ĠS ite
Factory Bean
yp h
sub system
Ori ent
æ Ķ
get Term
get Exchange
is Same
getS ip
ee Name
Ġobject Id
AP SHOT
find er
Ġqu antity
AB ILITY
account Id
f i
ĠT witter
Ġread Int
Ġinput File
param Types
Doc Info
ĠSh ow
Ġtemplate Name
Pop ulation
> ("
R ename
get AndSet
File Writer
Status Result
Back off
Persist ed
isError Enabled
C DK
h ave
å į
get Store
Ġp ic
Ġs ax
Pro xies
)) ).
Ġevent Name
inter sect
sp i
DD L
getTask Id
ĠPrest oException
8 00
f ollow
j ms
or ough
get Delegate
To Object
Set Type
Server Config
KE EP
base Package
Connect Gateway
Window Id
External Form
REG ISTR
vis ibility
Mutable TreeNode
ĠMenu Item
ĠUP DATE
ĠCA CHE
H ref
K ER
get Ch
set Read
Lo b
ĠB psim
pro be
Process InstanceId
Ġback ward
Ġcommerce Account
super class
Split ter
neg ate
("]] ></
. "))
Ġv elocity
set Handler
Ġre build
Th umbnail
With Headers
bug s
resource Path
execute Request
visit ed
Commerce PriceList
Ġclaim s
çĤ ¹
C trl
H igher
X SD
m ol
x if
Ġm icro
Ġto Map
ĠP AGE
ĠIn jector
Min Max
NOT IFICATION
V DM
get Handle
Ġt akes
end Time
Ġset Name
ĠW rapper
Mod es
If Present
Cl auses
11 2
Ġrespon der
) +"
L ed
c lo
h m
Ġtr ait
SS O
current Node
Check box
ĠClient Response
19 2
Ġdomain s
åĲ į
Ġeps ilon
H dr
r mi
set Code
Ġget Async
str ict
ĠR ewrite
Ġ' |
Entry Point
Pri me
Ġparent Id
ĠRequest Builder
Partition er
Ġback ing
ĠProcess Instance
cluster Name
getJava Type
undera Metadata
ap hore
ĠS chedule
ĠL ib
SS H
ĠE List
trans former
ĠDe que
opt s
S y
f rames
get her
el n
el astic
un safe
pro cedure
To Bytes
ĠM ouse
ine Transform
det ect
getPrimary Key
ucle ot
a u
Ġc orrelation
Over lap
Ġto ggle
Config Builder
ak y
Field Descriptor
Ġon line
ĠCon cept
Function al
getO ld
Proto s
batch Size
monitor ing
ri ven
append Inner
Ġstr Value
ĠTh ese
UN ITS
ĠCon tact
param Type
Ġstream ing
Ġtag Type
Multi plier
executor Service
æĸ ¹
sqlg Graph
] :
Con v
ot os
Ġe qu
Node Instance
Code Point
Job Id
Ġ"' ,
Has Transition
Stm IR
I ENT
T EN
Ġ ul
[] >>
Ġresult ing
Wrapper Factory
Activity Instance
Throw n
H ide
S leep
ĠC as
Key Set
Su ites
Is o
mod ifier
Ġ"' "
Head ing
Upd ating
ĠScript Runtime
ffff ff
appendInner Content
I ZE
Ġre view
ser ts
Ġcom bo
Ġset Current
associ ation
asc ade
ĠDig est
Ġafp Chain
D aemon
Ġf atal
Ġget Values
av el
Ġmethod Names
Ġk am
Endpoint Request
pack ages
Ġpred icates
Ġprodu ction
ALG ORITHM
rosst ab
W ill
Ġ Zone
is Final
Ġs dk
im mutable
Ġa Element
File Utils
key words
ĠL aunch
MP S
gr adient
child Node
Ġdoc Id
ARG S
Ġsyn pred
ĠVisitor State
ĠHow ever
T ap
ap ing
ig en
ric h
Column Value
Zip File
ĠSem antic
ĠCRE ATE
decess or
C lob
I tr
U DF
get Statement
Ġc amel
Ġ" }
yn r
Ġar c
Al ter
ĠE Change
** *
Ġblock ed
Character istics
initial Value
addProperty Value
Squ ared
enal ty
8 55
T ango
é ħ
get On
Ġc orrelationId
Ġe vict
Data InputStream
Ġadd Property
Thread Factory
Convert ed
Ġauthor ized
Aff ected
C ampaign
n x
p df
Ġp x
Ġf lip
Ġin cluding
Ġ4 04
session s
getT enant
OPER ATOR
IZ ER
ĠAtomic Allocator
PUB LISH
Life Cycle
Discret ization
xif expression
C rawler
S ound
W ave
m ul
p g
Ġp u
Ġp ers
Ġf requency
Ġsh ut
Sh apes
End Index
Ġload Class
part itions
weight s
render er
getQuery String
Ġpres erve
b ut
at tached
Re cogn
ĠD ao
getS rv
Start Date
Ġsuper Type
request Context
GE ST
Ġoutput Dir
Sign atures
Ġbean Definition
reference d
Ġcompose String
getLong itude
ĠVALUE S
Fil ler
c ost
Ġcreate Request
---- ---
inc r
SH IP
Ġtop Level
ĠcaseIfc Object
ĠGit Lab
æķ° æį®
Neighb or
Insensitive String
M ass
i FieldSeq
Ġt ip
Ġf ragments
Ġb f
set Adapter
Ġto Add
Ref Type
Ġmetric Name
exp ires
ech n
Ġlow est
Ġc assandra
SI S
java ee
US AGE
Us es
host s
FIX ED
ĠSub scriber
Ġchunk Size
st able
ĠP oly
Ġuri Info
ĠKey word
JAXB Element
ĠPAT H
+ ")
Ġc u
Ġt ax
it able
ic ular
un e
oin base
pre ferred
GR ANT
ĠJ mx
pro ve
Trans late
ĠE core
Ġmax Y
EX PORT
lick r
Ġterm ination
ĠZip File
ferr er
SIGN ED
(') ');
H EX
S Object
i able
Ġf f
Ġs pring
Ġin jected
Ġm ass
add StyleName
Ġcom e
PAR TI
Ġph one
Ġupper Bound
AU GE
Ġaff ected
T rees
er beros
lo gs
Ġm ount
set Show
Ġis suer
CON CURRENT
Ġsub scriptions
Back pressure
12 5
Ġ<< =
IB ond
ĠCON FIG
declar ation
Sn ippet
ãĢ Ĥ
ANTI ALIAS
C AN
T ls
b id
t ls
tr ar
Ġn a
Ġn t
Ġt eam
el ix
ol led
to Uri
if actor
Ġresponse Body
For Name
Ġx s
Ġfile Id
Tag ged
Rem oving
Ġfunction Name
Ph oto
getTag Name
Ð ¾
in stantiate
Object Factory
Ġ1 80
Protocol Version
ĠValue Type
F B
AL PHA
Ġclient Config
ĠK nowledge
Ġ"] ",
Release d
éħ į
se verity
el apsed
Ġto Remove
Index ing
Ref lect
Ġsc m
atew ays
åĲ Ī
ĠAc cept
Ġinf os
ag on
Res Id
Ġget Page
Ġto List
Ġa f
ĠW rapped
10 7
ĠAp ply
Ġdiv isor
2 000
get Argument
ĠS ELECT
ĠE S
ĠX text
ph em
PER IOD
ĠURL Connection
ĠNot ify
singleton Map
BA SIC
ENS ITIVE
ĠUnchecked IOException
G ene
T olerance
Str ipe
Ġret hrow
ed Name
set Instance
add On
Ġlog out
For Parent
PE CTED
ĠAction Listener
STRUCT URE
C ube
s In
get Revision
Access ibility
Base Exception
do Final
Ġgr ab
DAY S
Ġplan e
Ġsequ ences
ĠGRO UP
W W
h r
p v
Ġlo st
ĠM ore
load ing
Character istic
Authentication Provider
doc Id
Pur ge
ctrl Word
Ħ çĲĨ
get Reader
Ġret ain
IN CIP
write Number
Rule Set
Ġwork Item
ĠSe q
schema Name
ç© º
f u
s ome
w ant
ĠS l
res ize
ĠL eg
ĠV ideo
\" >
run ner
COMM ITT
Mouse Event
Fleet Request
S lide
g cp
o e
th ere
Key Metadata
ĠL DAP
ĠF inal
Tree Item
long itude
12 3
Expr s
ĠParameter ized
ĠRedis son
W alk
en ess
Ġs olve
Re commendation
Ġget Cms
Object Output
Parameter Map
User Pool
ĠClass Util
Ġread Bytes
ĠType Information
Ġwork ers
Ġdisplay Date
Ġ ONE
get Visibility
Ġp ay
Ġ- (
ĠP I
Service Instance
TR ACT
OT O
DB Exception
process Definition
getB inding
FOR WARD
command Line
ĠVersion ed
äº Ĩ
ĠAssoci ation
Q S
c orrelationId
w k
y aml
Con tinuous
Ġget Location
con cept
sh ell
with out
(! (
Certificate Authority
Ġman ually
ĠFilter Chain
Retrie ver
unix Timestamp
M p
j uli
in ux
Class Doc
ĠB LOCK
ĠIn d
start ing
Function Definition
Ass ist
Ġparent Path
visit End
Ġnear est
tr od
or i
Ġth ree
ĠN DArray
Ġon tology
With Default
Ġ3 3
play er
Cluster Name
Ġover rides
Notification QueueEntry
Ġgr ad
aj as
S ST
Ġw atcher
add Service
ĠP L
ĠIn ner
ĠJ MenuItem
Message Header
Sc m
getAttribute Count
D ONE
Ġt ot
Ex cludes
ol ver
Ġget Activity
Ġpar agraph
Ġcreate Instance
Ġdocument ation
getDimension Pixel
ĠVirtual Machine
P RES
n f
t b
on Complete
get Meta
set Cache
set Selection
Object Request
Ġis Null
Ġtop ics
POS IT
ing Policy
ot ope
set Initial
Dis connect
ĠIN IT
Ġimage Type
Notification Required
FIL ENAME
LAY ER
ograph y
A mb
M ojo
f allback
Ġh adoop
ĠM D
Config ure
rom e
inter rupted
Comp action
PAT CH
Ġinternal Request
ĠGener ics
Ġqual ifiers
LOCAL E
ĠBson Document
ĠEOF Exception
ĠSerialization Exception
DIST RIBUT
Ġgs Class
Ġ RESULT
Ġ utils
at ur
Ġs uspend
Ġb alancer
ĠS HA
Ġl r
Ġnot ifier
Ġfile System
Ġerror Handler
Mapping Exception
part icipant
Writ ers
ãĢ ģ
getDraw able
J ax
p ull
ĠH A
Ġtext View
group By
Ġreport ed
å¼ ı
REA K
Type Argument
Ġre ach
AL Y
Ġfrom Value
und a
artifact Id
Ġpublish ed
Clean er
CONSTANT S
Al go
UN SET
UL D
New Line
Style d
ĠAb ort
full Name
Ġpersist ed
rep lication
bus iness
åĽ ŀ
f ront
n avigation
Ġ// }
Type Literal
add Post
Ġch osen
ĠH sql
Date JsonUnmarshaller
iter ate
Ġ3 60
Body Part
dis covery
CRE DENT
Gu ess
Occ urrences
Modification s
BB P
STAND ARD
INCIP AL
CREDENT IAL
a ux
e NotificationRequired
Ġ Executable
is Default
Ġa way
Imp orter
Conversion Exception
ĠGeo Package
NET WORK
F ork
Ġ Declaration
ist ers
config File
Ġdis cover
ph oto
visit Label
ĠNot hing
MIT IVE
DEP END
E Package
V fs
Ġs sh
em o
to Instance
aw r
check sum
ified Data
Search er
Fix ture
DRI VER
DateJsonUnmarshaller Factory
A E
C p
Ġc riterion
li est
fo x
ĠP eer
ĠJ O
ĠClass CastException
start Date
Next WithServiceResponseAsync
UN SPECIFIED
ĠX XX
cur Char
Ġcommerce Warehouse
CP Rule
FLAG S
Fire wall
C are
D ensity
G wt
el ab
Ex planation
Name To
Ġget Entry
ĠA ccum
File Chooser
class Node
And Add
Ġtrans ient
Row Key
getError Message
ĠEvalu ator
c ookies
Ġ Resolve
And Flush
Ġ[ "+
( ++
R ollout
a G
t v
t odo
w alk
Ġi gnoring
ab an
Un lock
Property Data
Ġwh ite
dis patcher
root Node
page Context
MIN UTES
Validation Error
Ġsort By
D sl
P olling
r ad
in x
or row
Ex cel
Ġb id
ib lings
And Return
Ġmin us
Change Handler
Ġinsert ion
<?, ?
writeString Field
itect ure
b etween
g z
Ġn f
ĠT enant
Message Handler
getS napshot
request s
mer ic
ĠType System
Tim ex
Ġgu ard
imp lementation
Ġdi vide
Ġsoap Model
Compress or
Pub Sub
> (),
In herited
Ġst ation
Ġget From
Par m
Message Impl
On Exit
Ġread From
LI B
sc enario
Mon omer
DM R
dimension s
ĠBi Consumer
) \
Ð °
get Comment
Ġget Url
AT TACH
Ġlog Message
ĠTh en
Ġbean Factory
over flow
ĠCAP ParsingComponentException
jp g
c ceed
In herit
to ExternalForm
ail y
Ġcurrent Pos
sp ot
VI M
ĠUn ique
Symbol Table
PARAM S
ĠInt Stream
orElse Get
Destroy ed
Ġphase Context
Ġcsr Sorted
W PEC
g res
Ġt bl
En ded
Ġl c
Al lele
Instance Of
Output Format
Ġattr Value
getLast Modified
Ġbit Pos
under lying
ĠTH IS
orough fare
/ _
D fa
è İ
Ġ Parsing
get Entries
set First
Ġl da
ĠM OD
key Type
ĠJ BBP
Not Closed
Ġun defined
Page Exception
dis card
Mon o
CP tr
IB M
Aggreg ated
Ġpipeline Name
Ġaggreg ated
Blocking Queue
Ġm Last
ĠC rypto
Ġget L
ĠA rea
RE SSION
Ġk afka
Hash es
api Context
Ġmin Y
Wh itelist
conf irm
Ġsort ing
stit ut
Aff inity
implement s
G MT
G regorianCalendar
et y
Ġp at
un gs
est ure
Ġa e
Method Node
Error Response
Ġend ing
Ġwas n
ORD INAL
Ġmembers hip
Produ ction
è¯ į
inst alled
valued Map
(); ");
Ġw or
Ġg zip
ST RI
ĠE OL
Visit ed
Linked List
Ġneighb ors
.... ....
ĠOP EN
CHARACT ER
ivers al
, :
A I
M ech
R olling
get Encoding
Ġnew Entry
per mit
Ġget Active
Ġres pond
Data Provider
he el
Ġear ly
) -
A WS
W I
Ġ Fields
get Stats
ĠR FC
Http Session
shutdown Now
åĲ İ
I on
R PT
g ap
q r
at ility
re ferences
ĠS ome
to uch
To Return
Tags For
Ġdir s
ĠY ou
ĠFl uent
ĠBpsim Package
H ALF
f mt
m ing
get Topology
add Filter
oo g
File Descriptor
ĠD MN
inter section
EL Context
Analysis Exception
Annotated With
Pull Request
Expect ation
han cer
d ro
Ġ} \
set Active
ĠA CT
ind up
Ġcurrent Bean
End Tag
Ġsource Type
Ġq name
Ġconnection Factory
pres enter
Bit mask
draw Image
ĠRet rieve
ValuePair s
G VR
Ġs ense
Ġj o
create Date
Ġan not
remove Child
sql Manager
wait ing
Ġretrie ved
R ack
i edException
ĠT OP
ER CE
sh adow
list ed
ĠType Literal
Thread Context
Ġarg v
Sp here
CP U
Changed Event
Vol umes
WAY S
VIS ION
h orizontal
Type Code
set Exception
ast ore
Task Result
Ġevent Data
Match Phrase
Ġwrit eln
ĠComp ilation
decrement AndGet
Ġs impleName
ĠS pliterator
read Short
list s
uto ff
Ġ", ");
ĠMod ifiable
Ġconsider ed
ĠUs age
E Reference
S orter
get Mapping
ip v
EN V
next Tag
Ġclient Response
EX ACT
QU OT
host Name
Av atar
spec ified
ĠHe aders
ĠVolt Table
Mer ger
T REE
el og
Ġg ui
Ġset Text
Message Dialog
Ġcurrent Position
Sub tree
ĠCollection Utils
Ġinter vals
Security Groups
bl igation
extension Container
Ġauthent icator
AddOn s
getNamed Item
E SCAPE
R ATE
S sh
s Map
st em
Re fer
Ġo u
key store
Log Event
ĠW IM
Target Api
Max Size
Ġview Holder
Timeout Millis
Join er
Ġsymbol Table
Ġplace ment
X id
j ules
en us
Ġf ew
el m
Ġre play
Ġget Metadata
ff ort
Ġpar cel
Ġbe havi
Ġresponse Headers
ĠFile Channel
ĠSystem Exception
ends On
marshall As
Cluster Request
Ġ6 3
PI PE
xFF FF
Shutdown Hook
Ġrecur se
COOK IE
N d
R ich
b roker
b imserver
d iction
Ġp ane
Ġs ibling
ol id
SS AGING
Task Status
Ġsub type
Ġcolumn Count
Ġdis tributed
pre pend
instance Id
ĠDB ID
Touch Event
getLat itude
AndF eel
juli elab
D H
Ġ Statistics
Ġt ex
Ġs low
Data Types
class ifier
Builder Impl
Group By
create From
enc ounter
Ġmax X
Sc rol
EX PI
Uri Request
Flow able
FOR CE
qualified Name
BLA CK
èİ ·
is First
set Filter
ĠI Portlet
Ġse ver
Ġx stream
Table Handle
Ġk session
from Bytes
Ġ"\" "
Super Type
CONNECT ED
D up
R W
re write
Ġin fin
set Rendering
Ġre jected
Ġre versed
Com pany
col lap
IT ES
ĠCh ai
Record Set
Template Request
DI ALOG
Ġerr Msg
Foreign Key
B PMN
D uplicates
S OL
get Report
Ġf our
Ġs x
Ġget Attributes
ign ored
Code System
getS QL
(' ;
Load Balan
Ġman age
Super Class
SCO RE
ĠAll uxio
Confirm ation
Ġi c
Ġf ollowed
is Infinite
Ġh s
Ġ1 000000
ĠJ ackson
ill s
Ġtotal Size
ĠMessage Task
24 8
cas Feat
Validator s
draw Line
uc umber
ĠCommerce Order
D NS
F old
d eser
è ¾
Ġc le
Ġp seudo
Ġnew Values
set Column
Object Map
To Empty
Ġcreate Resource
Ġrem ember
SI MPLE
Bl ur
getO pt
Ġprop Value
Ġmeta Model
getTag Class
Activ ator
Ġtransl ator
Ġ'- ')
g roovy
j d
get Col
In List
ĠS N
ĠP ooled
ĠW x
Ġleft Tuple
Rep air
setS ample
ĠDe leg
dat apro
ĠFIL TER
l ater
x imate
ing Plan
Ġo bservable
Ġget Command
Data flow
key Value
ĠClass Info
getC enter
getCurrent Instance
Ġthere fore
Ġjj Move
JS P
ĠRead Only
display Name
Digit al
Ġvector s
ino logy
ynamo DB
a DisplayLocale
f is
ed Resource
set From
IT AL
posit ive
SI ENT
Qual ification
getColumn Index
Decor ated
ä» ¥
Den iedException
Prom otion
W ILDCARD
s Count
Ġt ell
Con formance
set Config
Al located
getValue Type
TER M
ĠAp ptentive
Ins ight
Vi olations
Instanti ator
datapro c
M olecule
r df
get Var
In Scope
Id Map
to Boolean
ĠH ex
Cache Config
view s
Ac id
Ġcast ToString
currency Pair
Ġcore Type
Wish ListItem
ITT LE
h d
Ġi ae
Ġs chemas
Ġto Be
IN NER
Data Value
Al igned
getP adding
Work book
INST ALL
Ġxml Writer
Ġtest ing
Ġsu cc
DI RECTION
Ġdeclar ations
SP LIT
ĠFast Math
ĠVolt Type
Ġtw ice
f atal
in cluded
Ġl bl
Ġget Schema
to Double
Ġ' &
Ġcreate Table
Write Command
Multi Surface
Ġsoap Models
m atic
} ));
Ġm r
add Call
Ġfilter Chain
Ġwork Unit
Return ed
Iter ables
Cost Sharing
Asn Exception
B io
B ORDER
G att
N ano
Ġb ag
ĠIn st
Ġtype Element
Ġun able
Ġtarget File
Pri or
Ġroot s
Ġ... ");
Ġexit Code
BL ANK
quot ed
H uman
L P
Ġd iagnostic
Ġget InputStream
Ġh ot
State List
Ġcreate Default
SE P
Ġchild Count
Ġapp licable
Ġest ablish
Comput ation
Ġear lier
å ¸
get Vertex
ĠM DC
yp ass
current Time
Ġrun s
ĠResource Exception
Ġdelet ion
+ ".
B ank
Ġ Encoder
in stant
able Map
St andalone
Ġl ight
type Arguments
Trans coder
enc ing
Ġwrite Lock
Run s
Operator s
Ġmark up
agn itude
('= ');
Re play
ĠI Base
Ġon Next
getS core
Sub Class
\" >\
Ġle d
target s
Open Cms
Fact Handle
setRendering Hint
] [];
m Context
am en
re ject
is Root
Con tributor
new line
AN GE
ĠW AR
Version Result
db Name
ĠMethod Node
Ġ"\ ",
Ġwindow s
ĠDatabase Session
b ank
Ġb box
Or Expression
IT CH
Ġend Point
CON STRUCTOR
SC ROLL
Ġconverter s
getIf Available
M IL
get Async
get Arg
Ġm u
new A
ĠR ate
Info Map
Ġ' ).
") [
Parser Factory
Ġlocal Address
assert NotNull
S CHED
f irestore
Ġlo ss
Ġg ene
ĠG WT
Ġresponse Type
Ġjava Class
xml ns
invoke Later
short Value
ĠBound ingBox
B pmn
C ypher
D ummy
F N
get Step
Ġp ts
ub ble
Ex clusion
ull et
Ġb roken
Ġm Input
Ġget Remote
der iv
Input Type
content Length
Post fix
Multipart Upload
getInternal Name
AUTHORIZ ED
getPersist ence
F qn
w ill
am il
il ine
set Required
con versation
Ġa SB
Un used
ĠN E
Ġclient Message
char acters
UP D
', '
Ġtopology Id
EXECUT OR
writeEnd Object
Ġ Part
Ġn z
ul us
ĠS K
Ġget Event
oun tries
if actory
Ġpar ity
Be ing
Rel iability
Ġdis c
ĠLayout Params
B LOB
tr on
ĠE LEMENT
copy right
call able
Virtual OrderItem
DM N
MEAS URE
U ME
b rowse
v ault
get Workspace
Ġnew Key
res pon
ĠJ ax
(' }
message Id
Ġbundle Context
ĠCON ST
ĠCDK Exception
O rig
s able
é ľ
es os
set Bounds
ĠV M
UL AR
getF rame
Storage Exception
Ġmulti ply
R ollup
R ADI
get Jvm
urr ing
log Error
getC alendar
ĠException Util
ĠIN TO
<?>> ();
Sk u
rot ation
Ġsecret Key
] ];
Ġf igure
ap ler
ment o
LE AD
Token Stream
log out
Ġnum Rows
Ġprob ability
ĠARG V
: ")
J P
J ust
in sets
get Inner
Ġt iles
Ġs lee
ĠC ss
Array Value
ĠP erm
SI Exception
Cms Report
do es
ĠID s
net ty
ĠDe coder
åĪ Ļ
aggreg ation
Gray F
FFDC Ignore
k ie
set Reference
Ġl argest
ĠD ialect
ĠList Iterator
Ad visor
ob bl
ĠG osu
Ġprocess Id
Ġentity Name
Is Null
Css Value
Ge ometric
ĠActiv iti
obbl in
at ts
Ġm Bean
up grade
ĠI T
AR TI
Local Time
LO OK
CP DefinitionId
DI V
cloud FoundryClient
D ed
} .
en velope
ĠH istoric
Em p
ĠCon versation
Sup plement
Ġview Name
Cell Renderer
ĠNumber Format
step s
ifiedData Serializable
M id
N io
a verage
d av
r isk
w ildcard
set E
set Query
Ġ(( !
Changed Listener
ls o
Gu ide
G U
I ME
c w
Ġ Elements
Ġm View
ĠA lso
ĠB pmn
Group Rel
has Child
Ġcheck If
ĠCom ms
Ġmax Idle
Ġ3 5
Parser Rule
getA uto
Ġrender ed
ĠBasic DBObject
Screen shot
dat atype
PaymentMethod GroupRel
> .",
F inding
S arl
Ġ Ext
al g
get Groups
In Range
Ġan onymous
Ġstart Element
ĠSet up
copy Builder
Return Code
16 18
Cell Style
åı Ĥ
Ele ms
ANG LE
-+ -+
R ating
g edException
get Stage
an cy
ĠP A
ĠJ Api
ĠJ CR
Ġadd on
getS p
Le arning
Ġread Data
Session Factory
MA G
Ġgroup ed
getB inary
Ġdraw er
è¡ ¨
ĠAv ro
G reen
T ex
u ces
Ġf w
List Size
Key board
ĠL ibrary
Ġkey Area
cod ers
Ġ{} ;
Simple field
Ġworkspace Name
ç¬ ¦
E B
get Interval
Ġs park
ess enger
St ages
Ġfinal ize
Status EnumFactory
Annotation Type
IC K
cur ve
Ġnamespace URI
Virtual Setting
Ġcas Feat
StringLiteral Dfa
ĠAppend able
ĠAff ineTransform
c andidates
d ers
d esired
g oto
p AddParam
Ġ ot
Ġf q
un cation
ĠM icro
ĠP refix
action Request
aint ain
method Builder
RA M
default s
Ġsu cceeded
Import ed
ĠAl low
incre ase
getPort let
atom s
FORM ATION
Ġrect angle
MPS Constants
in verse
is Local
Ġint s
Service Builder
ĠV elocity
LE ASE
Check N
ĠData store
ĠOr acle
(". ")
Av p
A fplibPackage
B ounded
C Q
tr ees
Ġget Proxy
ĠIn Memory
ME SSAGING
ĠArray Util
getM easured
11 7
getResource Id
Ġjj CheckN
ĠPl ace
SERV LET
ĠjjCheckN Add
it ness
Config Property
chem at
Collection Type
ater n
ĠWeb Element
enari os
Ġown ers
getRef Value
getStructure Id
,: [#
) ||
S UR
b ing
n u
Ġ Quick
get Retry
st ar
Ġd uplicates
St ory
od b
res olution
mand atory
ere f
XML Element
bound ary
ĠMod bus
me a
Pres ence
åħ ¥
ĠIdent ifiedDataSerializable
F atal
V Int
Ġ( ");
Ġp f
Ġ" =
able ActionableDynamicQuery
set Boolean
Ġget Support
Ġfor k
ind Map
00 01
For warded
ĠE asy
App licable
Server Name
we et
Op acity
ĠSh ard
Ġcriteria Builder
unmodifiable Set
writ able
Ġ----------------------------------------------------------------- ------
2 64
M obile
W SC
iter ation
ĠByte code
ĠTrans formation
setMax imum
phem eral
E very
E PL
R ob
V ote
set Do
ĠI Java
Post Processor
Optim ization
Bi Function
Ġoperand s
getMon th
STRO KE
m appings
s parse
Ġm aker
Ġget System
append ln
query Params
Inter cept
ĠNode Util
ĠData AccessException
Authentication Token
ĠJava Script
ĠAuth ent
Proto Utils
ĠLA ST
BASE LINE
Ġprot otype
éľ Ģ
M IC
T iles
w m
ch a
ack bar
oc om
ĠCol lation
ĠCom put
Action Type
vert ical
Ġlocal es
Ġstop ping
UserSegment Criterion
otent ially
æĸĩ ä»¶
g uid
ĠB IT
ĠR I
Part Of
Any field
Resolver s
getO wn
ByteArray OutputStream
CLU SIVE
ĠVer ification
Lab eled
Ġ< "
ĠT Exception
Def ines
pos es
Query Exception
Ġun resolved
Ġstart Activity
Variable Instance
Fl avor
Tenant Id
scal ar
uris diction
ĠTE MP
p y
Ġ Ð
im als
set Namespace
ĠC ert
Content Length
Ġrem oval
Ġreg ions
Job Builder
getF ilename
ĠAl ways
PR INCIPAL
Replic ated
FRA CTION
ĠRx Java
T aken
Ġb onds
Ġl t
Ġget Inner
[] {}
li ve
Attribute Request
Model DescriptionConstants
Process es
Ġ3 00
max Size
getInstance Id
reader Index
Shape Info
Unknown HostException
Av g
second ary
termin ate
A meric
N ORTH
j ni
p or
s Name
å ·
Ġc ron
qu antity
Ġget Short
ir med
ĠM utation
At Least
mon er
Ġcode Point
TI MER
root Path
Flow s
ĠImage IO
Ġsubstitution Head
chemat ron
G ui
e Get
Ġ ub
Ġnew Path
Ġis Trace
Out side
getP redicate
Create OrUpdate
Sp out
Flow Element
Arch ives
Ġaccept s
Ġstd out
tr iple
Ġt uples
re achable
Ġpublic ation
ĠP Exp
Ġset Up
back end
Pos Tag
15 0
convert ed
ĠTransaction al
Mult iset
ĠSI ErrorException
LEG AL
ĠOpt im
Q M
S ynchronized
d ashboard
Ġ Arg
String Array
res co
Of Administration
toString Utf
Base Path
getKey s
ĠIN DENT
SQL ite
Repository Exception
ĠConfig urable
erc ion
P ep
d og
get Pool
ent ence
Ġget Token
Ġget Options
To Node
Parameter Exception
ĠJson ParseException
ĠStream ing
Defined Class
vide oint
Ġsim ilar
Ġca ption
videoint elligence
) ==
r af
è ĩ
Ġ emp
en queue
est igation
set Line
EN CODE
ill able
Address String
Ġsub tract
list en
Contain ed
Ġoccur s
Ġcenter Y
Ġbug Reporter
W allet
get Static
get Upper
Ġn avig
Ġf aster
Type Names
ĠJ ScrollPane
Option sRequest
Ġxml Dump
COMP LETED
Ġ') '
Coll ision
n lp
ex tractor
Ġin complete
Ġd u
set TimeZone
St ylesheet
ĠP UT
Ġar row
byte Value
context s
write Characters
Ġbyte Buf
ĠRe quired
check Valid
Ġopen ing
Cre ative
PL AN
ĠPlan Node
KNO B
F TP
w p
Ġb as
Ġm igr
Ġe Notify
Ġch rono
Ġj pa
Message Builder
ĠType Serializer
Ac cessed
External izer
ĠNO DE
('. ')
ĠGu ice
m ongo
Ġf oo
ĠP ass
Ġar en
ĠF ree
Entity Name
Record Reader
space Id
BO UN
CR C
Inv itation
Ġcap ability
TOP OLOGY
Voice Connector
ORIG IN
COMPAR ATOR
amil ies
n ecessary
ç ¼
Ġl ittle
Col lab
ĠO ld
ĠH H
enc rypt
Header Value
sol ete
tra verse
namespace URI
Ġcn x
H ierarchical
get Metrics
Re cur
set Created
ĠW ill
Ġmodel Builder
ĠModel Type
Limit Order
bucket s
Ġ'/ ');
hir Context
addPost Param
p io
er ate
Data OutputStream
For Write
User Data
contains All
Ind ication
Ġcur ve
sTo Remove
Ġapi Version
etermin ate
Ġsur face
deli very
ĠDeser ialization
ucleot ide
F L
Ġn x
re ed
Ġin clusive
set Connection
ĠO FF
Service Configuration
Ġadd ition
aw k
Ġlong est
Argument TypeReference
column Names
Ġreport s
Open ing
getChild At
Trust Store
deployment Unit
è¿ Ļ
ROLL BACK
Ġf b
ĠC U
ep s
path Element
getD irect
Queue Size
Return ing
ĠCache Exception
ĠLogger Factory
en ames
Ġr o
Ġnew Capacity
set Feature
Ġl ets
Ġget FieldValue
ĠI Micro
Class Uml
ac cr
ĠR UN
Definition Request
Ġfile Size
Role Code
CRE MENT
ĠGraph QL
ĠJAXB Context
Ġdecor ator
ĠGu acamole
DECL AR
M iddle
v a
al arm
Ġr ack
Ġc op
Ġtr ees
Property Set
Al bum
Ġlist en
Ġsub sequent
URI s
object Type
Tick Mark
Ġp ow
Ġs ms
im etype
add First
Ġpar ms
ĠJ MF
UT IL
Ġfrom Json
Ġpl ural
ĠRequest Options
client Response
que ued
getA c
DI M
Chunk Size
Relationship Type
Faces Config
ĠScal ar
F ap
H INT
O CT
Ġs parse
Ġd h
set Create
and s
ĠC T
Ġpro posal
ĠCom munication
fore ign
comp iled
Edit Mode
wh ite
COMM ERCE
ĠTransformer Factory
ĠVis ibility
G I
Ġ" ;");
Ġd atastream
Ġde activate
Field List
ĠN e
current State
Ġclass Names
ĠMethod Visitor
sol r
Ġdb Name
Binary Operator
Ġquot es
Ġ'[ '
D YNAMIC
g row
å ¿
Ġc aches
Ġw in
Element Uml
Next Token
Ġcode String
Ġcommerce Address
Ġopen ed
COMP OS
setD aemon
ĠCONT ENT
Unmarshall ers
B ias
Z k
r w
in ical
or n
Ġc ql
(" }
ĠIn tegr
ĠX basePackage
ĠAn alyzer
Ġheader Value
Ġapplication s
Agent s
Ġav ail
Ġinterface Name
ĠBEL Script
COMMITT ED
. ;
P reset
b uilt
Ġf ine
th rough
read All
SE LF
ĠUn expected
Bar rier
bean Class
Ġweb app
Hook s
Ġscal ing
åĬ ¡
Expect ing
S impleName
al i
al ive
Ġc loser
Ġm esh
Ġset Type
ann able
getP eer
ĠServlet Request
Organization alUnit
ĠAss ign
W all
c assandra
s ampling
å §
et ing
get Conf
st one
un pack
ĠS park
ĠF LAG
And Value
Source Name
ĠPro gram
Ġcontent Id
Ġclose Quietly
job s
ĠParameter Exception
su ed
Core Exception
/ >");
7 43
r f
le ader
el t
En er
Ġun signed
remove First
Ġuser Data
copy To
base Name
Cluster ing
LIC IT
Ġpost Process
CRE T
Ġtrust Store
DEP TH
Retrie val
tensor flow
B oth
D ap
e al
p ause
v oice
or to
ig ible
Ġst ylesheet
Ġget Db
ĠM ac
Qu ad
Val ued
field Names
Ġexp orter
Direct ConnectGateway
address Pointer
STAT S
getW rapped
Ġlin eno
èİ· åıĸ
B T
M easured
V o
b as
Ġc rypto
Ġm echanism
Ġv endor
set Left
to Radians
te le
Ġde ps
Array Node
ĠP R
For ecast
Inter active
ĠCom b
CO VERY
Dec re
UM NS
Ġcopy Of
Generator s
Protocol Exception
Ġchain ed
getResponse Writer
Sw ipe
Ġparallel ism
swig CPtr
C ron
M b
f ly
Ġ Partial
rom a
gs m
min or
Ag enda
Ġcluster Id
99 8
Ġsp atial
ĠInvalid ArgumentException
wh ile
E MBEDDED
Ġ ing
Ġi Value
ĠS aver
Ġe ver
Value Holder
ĠA jax
Ġtr iggers
ĠN ORMAL
ĠE s
Mod ifiable
map To
Ġbean Type
Ġback wards
ĠUn ified
Route OfAdministration
Replace d
vile ges
Branch es
Orphan Messages
: /
p icker
s y
or ientation
us es
RE PE
ĠBoolean Type
cover age
Partition Id
Ġchannel Id
Connect ors
Prop Name
ech no
stack Trace
Ġsent ences
yc lic
Break point
Trust Manager
ĠGr avity
Neighb ors
ĠAssoci ate
isAuto Construct
h ive
Ġin ferred
ĠH elp
Ġal ong
Sup pressed
trans pose
auth ority
ĠMessage Type
ĠAl ignment
ĠRead able
b el
is No
Ġget Internal
Ġh dr
Ġj ax
Index Name
Ġon Complete
Ġat trib
AN ALY
log Level
current Value
load Local
amp ion
ĠBackend less
b ot
f il
{ "
get Run
th eta
Ġto Code
Input Factory
limit ed
getMax Results
Ġrequire ments
ĠCommon Ops
Ġcomb ination
Linked HashMap
ĠCertificate Exception
authent icated
1618 432
Ġ ExecutableElement
Ġf essConfig
is P
om es
St and
Sh allow
getValue AsString
Length s
min utes
Double Array
http Method
Ġcomponent Name
Box Item
Ġover all
BU CKET
Save InstanceState
ĠDat agram
( ?
Ġf rag
lo om
Re peated
end Index
Ġj ndiName
Ġg reen
ĠL IM
Group edEntry
Ġfrom Code
Ġle ase
Ġparameter izedType
Ġtest Class
Invocation Handler
BO SE
ĠProcess Builder
Vol atile
gu ard
Acceler ator
L ibraries
S ites
j edis
ent ers
ig ment
set Ref
row Key
Ġget Package
Ġget Num
Request Header
ore ground
Result Type
Ġbyte Count
ĠUn ary
project Name
pattern s
pop ulation
Through put
POSIT ORY
ATTACH MENT
1618432 855
on Failure
get Engine
Ġc ov
Ġc ublas
re cursive
and box
ĠCom parison
ĠNode Type
gr ad
src Code
Progress Monitor
pipeline Name
HAND LE
ĠCAP Exception
UserSegmentEntry Rel
ĠDiff er
Syn onym
AUTHORIZ ATION
ĠODatabase Document
Separ ated
B D
V aadin
s Inner
en Interval
Ġm olecule
To Send
ĠL INE
ob s
Get ting
from Value
Ġap plies
getJava Class
IMP LEMENT
Ġlaunch er
efficient s
ĠDeploymentUnit ProcessingException
B US
c ise
t int
Ġf un
Ġth us
ĠI Resource
ĠA SS
ĠO Class
Or Equal
Ġclass PK
ĠCon s
LI CT
TR ACK
sp here
Iterator Ex
Ġsu ite
location s
Inc ident
AccessControl Entry
S rv
se cs
ĠIn finispan
com ments
ob icents
Man ual
getParent Node
Ġcontrol s
Ġwindow Size
æĸ °
Formatting Data
MULTIP LE
ĠcreateModelElement ForParent
B roken
Ð ¸
get Login
getC oordinate
format ln
Ġhandle Request
Ġjj tc
WE IGHT
Deploy er
mm n
Ġdeploy ed
Ġmat ter
ilent ly
ĠMO DE
h ard
get Set
get Policy
de mo
Re connect
add Text
Of s
type Ref
App State
input File
ph i
Gr ace
ĠDocument Builder
ĠGener ated
ĠSO AP
CLA SSES
ĠStructr App
B g
L ITTLE
S X
l it
or ator
get Relation
get Additional
Ġt ook
set Operation
add Javadoc
put Value
ĠD ump
Query Node
LA xiom
CH OR
Facet s
ĠTri ple
Ġaccum ulate
ç±» åŀĭ
Ġxhtml CodeExample
f illed
g lob
on der
(); //
qu ant
ab out
set Horizontal
ĠA SN
Ġj ndi
Client Request
Ġun do
Declar ator
Init ializing
ĠField Descriptor
Media Types
TRAN SIENT
ĠGeneric Type
Bracket s
ĠProto buf
J id
g Graph
Ġb g
Name Space
Ġw id
Ġget Container
ĠF older
Service Request
create Instance
ple vel
Work spaces
Ġjson Reader
TI C
Ġattribute Map
ĠCheck point
FFFF FF
D ruid
g ie
Ġp olling
Ġnew File
om ial
At Index
Ġpar a
Ġdef s
AS Y
Concept Map
ĠjjMove StringLiteralDfa
D iagnostics
H IVE
g ateway
m ic
ç İ
De coding
Ġto ols
>> >>()
Form Field
find ById
getAttribute Name
Ġet ag
ĠCt Class
ĠIso Type
c ategories
get Edge
Ġget Json
ĠB ACK
Def ine
Ġar ity
ĠF lags
ĠException Utils
LO OP
Ġurl String
ru ise
ern ary
ĠValue Set
Tri angle
USER S
Ġkeep Alive
Ġpercent age
EXP IR
gingStation Id
Obser vers
aG lass
E clipse
H azard
K elp
Z oo
f v
get Non
Ġget Custom
our se
Key Event
ĠO M
Long Pointer
Ġbound ingBox
bl ank
ADD ING
metric Name
ĠAst Node
getDimensionPixel Size
P rc
in ance
get Algorithm
Ġc auses
urn ament
Ġget Row
Ġh ist
Ġg lyph
Service Factory
Resource Permission
Ġon to
char ge
Ġpart icular
Ġmin X
ĠAn imation
getB ranch
Present ation
Desc endant
Selector Config
ĠProtocol Exception
IO Utils
ĠOrder ing
T D
List ening
Value List
Ġj b
ĠP ub
val n
Column Def
CR LF
flat ten
ĠPer form
ãĤ ĭ
ĠFOR MAT
differ ence
Ġf name
pt s
is Initialized
Ġb ias
Ġnew Type
ĠL ml
For Key
Ġquery Page
ret rofit
11 1
PAR SER
Test Case
ĠDis patcher
Ġbutton s
ĠCO DE
ĠPM ML
G SS
t id
ag inated
Service Util
Size In
path Address
System Properties
Script s
getLocal Part
ĠState ful
Weight ed
graph ics
Ġattempt ing
Lib erty
Ra ft
ĠCap ability
P kg
S park
m ultipart
Ġi Context
Ġt abs
ic les
Ġout State
ĠN avig
Ġjson Node
group ing
XML StreamReader
ĠChar sets
getO pen
Chunk ed
ĠReturn s
Book mark
J AX
h istogram
ex amples
Ġget Process
Client Constants
Null Value
current Index
Level Encryption
over lay
cre ation
Ġevalu ated
ĠIo Buffer
: \\
M otionEvent
d ictionary
Ġ amb
am unda
set Service
Ġget Filter
ax Category
ĠH ierarchical
Ġtype Node
Ġtype Arguments
getB us
address es
Reserved Instances
Ġ!" ".
idu als
B REAK
d atasource
al og
Ġre cursively
Ġtr ail
append er
Ġpar sers
Tr x
Ġstr ipe
If Set
Socket Binding
ĠURL Decoder
Multi Point
Ġsup press
Implement ed
SIGN ATURE
Autom aton
ĠLIM IT
d iag
m aking
de ad
ild Fly
Ġto ByteArray
Ġis Not
As Bytes
ĠClass Writer
Order Book
ĠDate Utils
Ġput All
åĪ Ĺ
XA Resource
Volt DB
Game Session
newDocument Builder
å§ ĭ
C orrelation
P AN
T int
on ar
get Standard
de leg
Ġcheck Box
Ġdo Post
ĠAn imator
ĠIm pl
ĠPo jo
annotation Class
sb b
ENG INE
ĠClient Message
ĠNull ness
require ment
ĠWork space
Navig ator
+ ");
m irror
al ways
get Depth
Ġget And
To k
ĠA cl
ĠM alformed
An alyzedToken
Instance Name
Text Size
node Type
with Param
getF iles
Ġexecution Step
output Dir
Cap able
Html Tag
ugg able
QUAL IFIER
GR APH
L AR
R ot
è Ĭ
Ġget App
Ġh m
Data Item
Element Definition
time Zone
Ġcurrent User
End ing
with Description
(' [
local Address
Region Id
Ġsign er
ĠZ ooKeeper
ĠOp Types
dim en
PERSIST ENT
A round
O O
P F
in stanti
Ġ< >
Ġt id
ex act
Ġget In
Ġg oogle
Stream Request
ĠIn voker
Message Key
ac ent
Property Tag
co erce
raw ling
ĠPro ducer
find One
Ġstatus es
Attr Value
Ġshort Name
Workflow Execution
remote Address
Ġenter Rule
comm ended
ĠAUT H
ĠSwing Utilities
D yn
d ns
Ġs uggestion
To Process
ĠM at
ĠO tp
Index Map
Not ice
Ġread External
SON AR
Input Source
Width s
Ġconvert FromSObject
Vari ation
Display ed
getField Value
show MessageDialog
module Name
TRANS FER
STOP PED
è® ¾
ç §
add Action
par ms
Er a
CE LL
Operation Status
CON VER
remove Listener
Server Configuration
line ar
EX PECTED
getA mount
Man ip
Ġservlet Request
Asset Category
Material Config
ĠruleJvm TypeParameter
ĠAuto Value
SN APSHOT
S aml
b d
add New
Ġel t
Tr aces
ĠW ire
Ġend Pos
Ġind entation
Complet able
Transform ers
000000 01
D riven
Y es
Ġc entroid
Ġc udnn
Ġnew line
Ġst andalone
Ġget Sql
Class name
Ġmethod Call
Ġhas n
ĠCms Xml
SU PER
Ġdelet ing
RAN CH
Traffic Policy
' ||(
R AME
g zip
Ġst amp
EN U
ĠClass Path
place holder
(' ]
stream s
getT x
Ġ"] ";
AST ORE
Gu est
mun ization
/ >
J Label
P y
R P
j wt
m ithra
r p
to ggle
To Update
ĠT C
ĠM ET
Ġj ump
append To
AN CHOR
Child Element
getF eatures
Commerce Account
ĠPri mary
SELECT ED
åĲ ¦
Den ied
Oper atingSystem
S vc
T Base
St em
Ġ: :
Ġtype Parameters
UT DOWN
Ġread s
Provider Factory
parse String
Ġclose Session
ĠStream Source
è¿ ĩ
Ġsk etch
Integr ity
Comb ine
foot er
C y
g estion
tr opy
get Stop
Ġr ace
Name Token
end roid
IN V
Ġresult Map
Ġg amma
RE SERVED
ĠIn tros
ĠW ITH
Batch es
Namespace URI
ĠStream Result
binary Search
Comput ed
J WT
S ocialize
get Select
ic ating
is ReadOnly
Con tinuation
Ġd atas
ĠS up
ĠP OS
Ġout line
Client Builder
Ġser ve
Ġclass Context
pre ference
Us ages
Modified Since
Ġcollection s
Ġfull Path
NoSuch FieldException
cell s
Ġocc urrence
ex panded
ab ric
Ġst ale
ser ialization
Data Property
enc ryption
base Path
Cms UUID
') ||
eas y
## #
Ġvalidation Errors
CF G
GENER AL
ĠGit lab
ARE A
Ġdr ain
Translated Topic
Parenth esis
eh icle
M o
r apping
an imate
om inal
ĠS ING
De coded
app y
pert ise
Node Key
out bound
ĠByte String
Plan ar
ĠWe ight
sw ers
ĠCommand Args
identity HashCode
Seek Bar
ĠXmlPull Parser
. $
: {}",
é Ŀ
Ġr ollout
ig ibility
Ġget Settings
Ġde compress
Ġresult Handler
ĠO id
ĠE QUAL
Byte Code
Ġle ad
ĠCms StringUtil
AG G
Privileged Action
Ġcss Value
setPreferred Size
ĠRxJava Plugins
orto ise
P x
p at
in y
get Product
is Value
Ġre positories
ĠS ocial
Ġget N
AT ING
ĠJ wt
Ġen s
Null ness
Ġser ializable
getC ountry
file System
Ġread File
getProperty Type
Sp ent
ĠEx it
Wh ole
Track s
Ġgraph ic
ĠCommon Tree
Secret Key
Ġlower Bound
Req Vars
GENER ATED
TypeEnum EEnum
Ġenter Outer
ulner ability
ĠenterOuter Alt
D p
S cheduling
Ġ \\
Ġr f
Un handled
ĠF ST
ĠH orizontal
Ġout File
has Value
CT YPE
(' ('
max Value
Ġmatch ers
Ġdet ection
ĠEX T
ĠSER VER
SqlDao WrapperFactory
J ackson
M gmt
Ġc rs
Ġt ls
con version
Data AccessException
ĠD ruid
ĠR OLE
Resource Loader
event Name
Off ice
opt im
ĠTypes Package
("\\ .");
Ordinal s
erc ator
zk aban
P Definition
Ġp stmt
Ġm a
[] >();
Ġj c
ĠR PC
Ġx x
Ġvalid ated
ĠLog ical
IC S
16 0
bytes Read
(", "))
Tick s
Ġmodification s
LU SH
C e
an a
Ġb ldr
set Root
pl ine
uff man
Column Handle
sol id
H al
S ampling
st ates
Ġde crement
Or More
Ġun marshaller
Call Arguments
And Next
Ġsource Class
Image Request
Term Id
Account Rel
commerce Discount
Ġfail over
LET TER
ĠParser ConfigurationException
await Termination
åıĤ æķ°
èĬ Ĥ
W heel
l apping
é ¡
se lv
Ġf ingerprint
Ġf qn
In Context
Pro filer
ĠS upport
Ġcon ver
aw n
SE G
ĠCh oice
Application Request
Ġper f
Visit Result
=\" ").
getNext Sibling
å¤ ĦçĲĨ
Comb ination
relative Path
ĠOpcode Stack
O Record
} }
ç Ń
Ġm igrate
Com posed
ĠD OT
Field Path
Ġprocess es
getF ragment
Ġview er
("/ ",
Full MethodName
ĠPl ay
Trade History
ĠSK IP
éľĢ è¦ģ
p od
Ġc ds
Request Details
ĠF s
com paring
Ġtrans itions
ĠLine String
OPTION AL
PL US
C erts
i ak
Ġget Tag
ĠA P
An swers
Ġout Stream
ĠE val
Reg Exp
Ġpre pend
Ġfilter ing
Ġexception Unmarshallers
Ġso ck
Ġday OfMonth
getDisplay Text
private Key
ithmetic Exception
R IDE
n ear
set Provider
class name
Ġcreate Query
Not Perform
(' ?
IS ION
ĠMulti valuedMap
selv es
get Dependencies
Type Util
set Method
00 000
Ġnot es
Error Type
For Read
Ġcolumn Type
14 7
ĠSocket Address
D id
Z onedDateTime
e i
l arge
ext end
set Minimum
Stream Handler
Ġoutput Directory
ĠIN TER
pres ents
ced ures
DATE TIME
entr e
ĠruleJvm ParameterizedTypeReference
CAP ACITY
Ġoptim ization
ĠUnknown HostException
FRA GMENT
es ian
as p
Result StaxUnmarshaller
Time zone
Property Source
CO ST
Ġsource Name
ym ore
Det ached
OD atabase
EX IT
Ġqu ad
getNode Id
Ġip Address
TRANS PORT
ShippingFixed Option
C ircular
ed State
ed iation
Type Impl
Ġget Named
ĠM ON
Ġtype Id
min Value
Ġchild Nodes
Thread Count
trans formed
Ġconvert View
document ation
Ġselector s
Unmod ifiable
å İ
de activate
Ġw allet
Un do
ip s
Ġindex ing
Rule Name
Ġfind ing
]. ",
af ety
Ġsession Factory
Sp read
Vertex Label
Unique Index
Ġsmall est
getFull y
getExecution er
Ġtri angle
or Period
ĠC S
ĠD ns
ĠN avigation
Table Row
Control Has
visit Field
execut able
Email Address
Insert ion
getMin imum
getBean Definition
Where Clause
getGeneric Type
ĠSA ML
INS ENSITIVE
t ax
al located
Type Signature
Value Of
Ġlog Exception
ĠG C
getS imple
met h
Ġinter action
visit Type
Ġstore Name
ĠDis able
web container
Ġwrit es
MEDI UM
Rq Vs
t ier
Ġf ake
ex perimental
Ġb m
un supported
Operation Handler
Container Element
Su cceeded
getT ri
ĠPre pare
getTime InMillis
Delet ing
Expand able
S afely
r x
Ġc oordinator
ĠA D
str ong
Of T
IT IES
Cms List
ĠService Builder
clear Cache
Ġus ually
Vari ants
ĠEx tractor
Bl uetooth
Domain Name
Ġrec ycle
emon ic
Face let
Ġworking Memory
? ",
m iddle
ç º
an imation
pe able
(). _
av g
Ġwe ak
getC ase
java Type
ĠGet ter
Ġav ailability
Logging Event
ĠMBean Server
SCRIPT OR
G rib
get This
Id List
ĠV dm
Be en
Ġtrans cript
ĠCh ained
Rule Inner
Ids List
Style Class
getD oc
Ġempty List
ĠAnnotation Value
transaction Id
Ġcas cade
Transactional Object
Ġart icle
pur ge
createNew File
Consistency Level
Tun ing
DoesNot Exist
L it
Ġ Meter
Ġn ice
ent ions
ri ed
ĠC itrus
Ad vance
With draw
Order able
ĠCms XmlContent
US P
("/ {
Pr incipals
Ġque ues
Near est
P USH
T M
d etermine
Ġf resh
em pt
Type Def
ĠX Y
Ag ain
Ġaction ableDynamicQuery
Ġoperation Name
run s
Immutable Map
fin er
ĠComp act
ĠCO UNT
Vpc Peering
Try Catch
ĠGray U
Vm User
Vocab ulary
h ours
m ma
get Implementation
ĠI MP
To ast
AT AL
Util ization
Tag sRequest
getF inal
Port ion
ĠLog Manager
ĠRE C
ĠWe akReference
Ġdet ach
Ġscript s
ĠcaseIfc Root
success ful
Popup Menu
ĠCLI ENT
éĻ ¤
s park
ad j
ĠC ard
Ġget Re
Ġget Label
Ġget Available
ĠM ismatch
Ġg fx
Index able
With Code
getM OR
Ġjson Parser
ĠMath Util
Ġheader Name
Current Thread
Direct ed
Ġcause d
Ġcomb iner
dig its
modified Date
obser vable
ĠHelper s
M tas
S alt
g un
() *
Ġget Segment
Not hing
getS cal
Ġan ymore
Ġx sd
Ġun ary
Ġindex er
Ġread ers
Ġremove From
response Code
Constraint Violation
Commerce Warehouse
IF EST
ĠST OP
Ver ified
Ġlat ency
ĠAccess Control
Ġrelationship s
ĠTyped Value
J ndi
ch ors
Event Bus
Ġadd Value
Inter sect
Ġas sembly
Ġproperty Path
Ġpo licies
Export ed
Dat anode
ĠEn able
Ġoperator s
Ġå ¦Ĥæŀľ
ĠSm art
ĠDT M
haust ed
3 84
F REE
S low
Ġ older
is Name
set Client
set Host
Ġw ave
Com pleter
out f
Time Ms
Ġconfig urator
UN AUTHORIZED
Ġerror Buffer
Ġparse Int
ĠSt ub
Import Declaration
Prob lems
getDeclared Constructor
Ġequal ity
Ġ'. ')
Leg al
Ġlhs Type
castTo Reference
ĠManagement Factory
ĠLinear Layout
ĠUnable To
' ),
L ml
w iki
set Page
set Pass
ĠB enchmark
append Text
Ġvalue Map
Access Key
GE O
ĠCms Db
Mapper s
Cluster Id
Report ing
ĠInvalid KeyException
Ġ") "
23 4
Ġsw agger
ĠOrder ed
<< <<
ili ary
V P
s stop
Ġ legal
() /
is Object
em antic
create Resource
ĠFile VisitResult
Ġpath Info
We ak
setString Value
S ID
b pmn
c amel
Ġc er
Ġnew Line
ĠC oding
Ġde gree
Ġg vr
AL TER
Item Request
getC redentials
And Wait
Script able
Ġws dl
Ġ'\\ ')
Autom atic
ĠCl aim
onder Push
Ġ MetaData
Ġin Stream
ĠS EC
Ġl n
Ġget Total
ĠI IO
Set Id
ĠD ir
ip ed
Ġset Data
ĠN io
Resource Provider
Local ity
Read Exception
Lock ing
ĠURL ClassLoader
Short Name
Network Gateway
Rest Client
conf lict
REF RESH
Ġocc ured
PROTE CTED
b ill
s dk
v p
x base
Ġb is
Ġm Paint
Ġget Search
ĠI Q
Ġlo d
ĠF ail
Ġmet h
Client Message
Ap ns
Filter Chain
ĠK ernel
Ġcluster ing
Ġsp inner
setText Color
begin Transaction
PRI SE
ENTER PRISE
ĠSc roll
ĠIR Expression
pur pose
1 32
b m
get Optional
get Authorization
Ġc ube
lo ut
En hance
Ġex ceeded
Ġis New
Operation Definition
Ġregistered Service
getProject Id
ĠJB oss
F UL
v t
å ¹
Ġr adio
set Component
Ġkey Serializer
For User
param Value
getM anaged
Ġz eros
state ments
Ġroot Element
Credentials Provider
ĠMon ey
Backup Vault
Ġvert x
prot otype
POL Y
ShippingFixed OptionRel
K W
R oll
h ello
get Converter
Ġf sm
re versed
Id EObject
Ġe viction
File List
ĠN ested
ĠG RE
null able
type Element
Entity Exception
RO WS
Ġsh utting
ĠResource Type
Ġreplace ments
sd agen
Under Test
Ġmean ing
ĠNetwork Interface
HttpHeader Names
Ġdeleteres ource
apoint s
B AL
N m
T Z
Ġ age
Ġ( ,
an op
is c
Ġm Is
set New
Ġe as
ĠObject Utils
ĠJ AVA
Info Inner
Item Type
Ġdef Style
Up To
Input Value
ĠLocal Variable
ĠProcess ing
ĠCommon s
Observ es
T reat
ro om
Ġth rew
set Num
To Json
ĠT ensor
Context Menu
ĠO Result
next Line
Ġun wrapped
ĠE jb
ĠRe quire
CO MB
Non empty
Ġlength s
Ġgener ating
parent Node
Ġmulti plier
ĠRel ative
getStack Item
atern ion
W D
get Workflow
is Alive
set In
Ġfor ced
Ġto gether
us p
Class Descriptor
ip ment
ĠObject Id
ĠClass Helper
check For
Ġsub mission
getM essages
Back ing
process ors
getR est
Mark down
getPri mitive
ĠDO C
ĠTyped Array
Pref s
getAtom Count
Recipient s
ĠActor Ref
METRIC S
H ibernate
M IS
c rc
m utation
get Exp
ĠS aml
ĠC r
Ġpro d
ĠM igration
ĠArray Node
Ġup sert
CO LS
pre view
Ġ\" {}
Pr actitioner
Ġcas Properties
åĮ ĸ
Pep per
D rools
S RC
Ġex tr
Result Callback
Ġlist ening
ification s
Ġevent Bus
getM imeType
VER SE
ServiceResponse WithHeaders
MIN US
Ġco erce
Cop ier
elen ium
in ating
Ex cept
ot ypes
Ġa ws
sh uffle
let ter
ob ol
leg acy
SE CRET
Ġcurrent Line
Ġle mma
Ġ(" ".
VER BOSE
Account Inner
OB J
CLE AR
@ @
² ¡
å ±
get Get
get Executor
Ġr i
Type Desc
set Token
add Row
Query Request
For Node
has Property
Action Request
min o
Widget s
getPri ce
Typed Value
Prev AndNext
ĠShared Preferences
Pe ers
get Registry
ĠO rc
Component Inner
Ġdo Execute
mit ter
Ġsource Writer
fl u
Sent iment
Ġdelay ed
CAP ABILITY
Go od
C orrection
Q B
ro te
Ġv ocab
Type EClass
ĠS ur
ĠC ql
Request Type
ang elog
Ġfield Info
ĠE E
Provider Impl
getM arker
Feature Collection
ĠTrans lation
ĠAN Y
tr ade
ri val
add Source
ĠP ayload
Ġadd New
Ġcp Rule
Ġinvoke Method
record ing
Ġjar s
Ġour Log
Ġ$ .
Fl ight
aring Bitmap
ĠLayout Inflater
ĠBe fore
exist ent
Ex traction
od a
Ġw f
ann a
getS rc
ĠRe lease
ĠX SD
Ġservice Builder
{} .
ĠMethod Info
Ġpage Id
ĠDis k
Sort Order
vile gedException
Pop ulator
alias es
Net cdf
Provisioning Artifact
vilegedException Action
M easures
get Weight
Ġd ont
ĠT s
Ġvalue Class
IT OR
getC oordinates
map s
getP erson
11 0
ĠPre ference
PI O
Simple Type
Ġrender ing
Ġrepository Name
domain s
ĠCondition al
SHA RED
ToolTip Text
, _
in a
Ġr val
set Paint
Ġget Feature
our c
Ġset Max
Event Attributes
Ġparam Map
Ġas ynchronous
ĠTh at
fl aeche
ĠProperty Key
ĠPath Element
Ġsql Type
Common Modifier
("[ ");
cap italize
sv g
pipeline Id
ĠRed irect
getLayout Bounds
A ws
P aged
æ ®
tr e
ar s
an im
re em
String Type
Ġo Auth
De viation
ĠT ASK
Request Parameters
IN CT
File Manager
Ġresult Code
Be arer
Ġcol Name
Ġpage Index
13 0
ĠVariable Expression
Ġ'; '
marshallAs Attribute
anop ub
C mp
I A
u v
è ±
Ġ uris
at an
or b
Ġf illed
ĠList Buffer
Ġrequest Code
CE D
Spec imen
Input Column
Ġservice Id
Ġjson String
Callback Handler
source File
Ġignore Case
bl k
Jvm TypeReference
Ġprodu ces
F D
S ITE
c apture
Ð ½
ar ily
is Started
Ġd ensity
set All
Ġget Report
Ġpar m
ast ers
time Index
Ġentry Name
PER CENT
IP Address
chedul ers
BO OT
getPage Size
writeStart Object
D es
Ġf etched
as pect
set Node
set Priority
ĠD istance
ĠJ NDI
As Boolean
ĠF lag
ĠV i
Cms Search
Timeout Ms
getE ffective
Ġph oneNumber
Ġgo al
Ġenum eration
ĠTemplate Exception
chunk s
pair s
ĠSymbol Type
Ġdestroy ed
Ġtyped Array
Ġautom ationAccountName
Att ack
sem antic
getCom panyId
G A
L ucene
m bean
t yp
u ul
get Labels
Ġm oment
Ġd ie
ĠI HC
File DataType
Entry Type
create OrUpdate
For est
Inter leaved
Ġsub net
EL LY
Ġcontainer Name
getAttribute LocalName
ĠValue Expression
Ġvari ants
getAbsolute File
ĠgetC ached
MILLI SECOND
ĠGr pc
Fraction Digits
M ID
M oved
m achine
at uration
In Transaction
Ġnew ly
set Parameters
Ġthrow Exception
ĠC lock
Ġget Action
Int Value
Address Rel
ĠK ryo
Graph Node
PA X
Ġcp DefinitionId
Ge ometries
Optim izer
ĠSecure Random
ĠCity GML
Provisioned Product
- (
B TC
L ING
P m
Ġc id
Ġf lex
Ġs quare
ed Set
ĠS MB
ĠJ AR
ĠH azelcast
Date Range
Rate Limit
xff ff
METHOD S
ĠManaged ObjectReference
Ġmc Wrapper
Occur red
Ġrew rit
Rew riter
/_ /_
: ").
C aster
O UND
b ridge
get Enabled
per s
Pro tein
ĠC DI
ĠB inder
ĠP y
An ti
RE DIRECT
Ġadd Listener
.. /
ost en
ard s
Values From
ĠType Spec
ĠK eeper
Ġuri Builder
Doc Id
jar File
accum ulator
Intros pector
DISTRIBUT ION
E vict
T i
get Workplace
ed Text
od ies
Ġpro filing
Context ual
File Attributes
At FixedRate
Ġun escape
getC ore
ĠE Enum
ĠCom plete
Check Result
Extension Container
Ġag reement
getContent s
Site Root
Management ResourceRegistration
Grant ing
getSecurity Manager
Ġsoft ware
amen ode
h ub
el ler
Ġin trospectedTable
ĠO ps
Ġcheck Closed
Partition ing
Ġtransaction Manager
Prop ag
Ġprimitive Type
ĠCONT ROL
Radio Button
ĠSsh Exception
G ateways
j etty
r r
è ´
Ġc rop
is Successful
Ġd iagram
set Sub
add Object
Ġst orm
ĠF actor
View Id
Model Exception
Ġfile List
for Class
column Family
ĠData Input
ĠData Output
Click Handler
Ident ities
COMP RESSION
getSub scription
iagn os
ĠEX IST
Ġ'. ');
ĠAtlas BaseException
Policies Request
Naming Exception
ĠWindow s
ĠSecret KeySpec
REGISTR Y
> .
C anceled
M FA
N at
U tc
h ow
s chemas
Ġf loor
Ġth umb
List Entry
if s
ĠSet ting
remove From
Ġnext Page
input Type
Ġxml ns
Aggreg ations
Ġred ucer
ĠCode Block
LOAD ER
Working Memory
ĠRep lic
ĠVis ual
K B
N ATIVE
r ases
Ġp icture
is Accessible
ex tras
ĠS ccp
Ġget Stream
Ġget Required
li k
par ency
ĠIn clude
ĠClass path
Ġform al
af eas
getM aster
12 0
Fragment Manager
ĠEn code
Ġreason s
Ġmonth s
ĠEN UM
Ġlazy Get
/ "+
L ake
b g
b md
Ġ Registration
at z
Ġs ynchronize
Ġm n
Ġa os
par sing
ĠIn crement
port s
Call Back
ĠX MPP
Module Info
Ġtim ers
getT rigger
ĠNO I
Audit Event
primary Key
Offer ings
Ġdeep Copy
ĠJO IN
æ Ł¥
get Str
set W
Ġget Java
ec raft
pro viders
ĠArray Deque
format Url
Ġnext Value
Ġlock ing
ĠRE MOVE
Gu ice
Ġdist ances
attach ments
Ġest imated
ĠStop watch
ĠBE GIN
Ġod d
O WS
P seudo
h ape
l g
l able
er ated
is Number
Ġs vc
Ġ" }");
Ġstr Builder
Ġan notate
Ġk nowledge
Gener ating
node List
Ġstring Writer
Ġdep ending
Module Name
parent Id
Connect edException
Ġopen Session
Select able
pli ers
FINISH ED
ĠTR UE
toJSON String
ĠNEXT TOKEN
yth on
æĸ¹ æ³ķ
è± ¡
D oubles
ur ance
it led
te fact
Ġthe Class
ĠL I
By ID
create Message
SE Code
Text s
For All
ere o
ĠByte Order
Ġview port
Ġactual Type
ĠConfig Exception
dec rypt
coord inate
getProcess EngineConfiguration
PROCESS ING
usp ension
B OLD
E F
S IDE
c id
Ġs om
Type Request
par ation
++ ]);
ash ed
Ġun subscribe
10 5
ĠLog Level
Io Session
ĠVol demort
ĠCUR RENT
P ivot
U RES
r ans
get Use
get JSONArray
id o
Ġm tas
ab b
um a
Ġget Start
Path Segment
ĠO PER
As sembler
com ma
AD DED
Rule Map
Target Type
ĠType Declaration
Ġapp fw
arg inal
web App
lex er
PageContext Impl
ĠMithra DataObject
Ġleg end
I Type
S RE
U C
m ime
s uspend
le ave
Ġin cr
Time Out
Handler Exception
has Errors
Entity Class
xb f
Geometry Type
Serialization Context
ĠWR ITE
MAG IC
P DF
R APH
g ray
add Import
int o
ĠM arshall
pro j
pro files
yp oth
From Map
ĠPro ps
Output Handler
pen se
Ġtotal Bytes
ĠSh adow
Multi Map
ĠCache Key
Ip Range
Ġensure Capacity
getApplication Name
Ġra ise
ä½ ¿
( \\
U GH
i ro
at im
as PropertyList
Ġs anity
Ġin ventory
Ġg ame
Container Page
ĠData Types
ĠK ubernetes
ĠIN VOKE
cache Entry
FO C
ĠRE FERENCE
getInt Value
Ġsl ider
CALL BACK
ĠisTrace On
> ")
G row
L and
R ING
er isk
get Transform
Ġm ater
Ġget Single
Data Manager
Ġch anging
cl ause
ĠIterator s
Wh ich
jo urn
Tri vial
Scan Result
Fl ux
ãĤ Ĵ
è¿ Ķ
ĠVertex ium
Ġdead line
getIts Id
evalu ation
* ",
D uck
S uggest
q a
de precated
Ġs lide
Ġb son
Ġb pmn
Name List
File InputStream
AT ILE
Token Types
getC ached
Ġext ern
Dis covered
ĠAt tempt
Ġnum Of
Module MetaData
sTo Add
EObject Description
web app
Ġfont Size
ĠHO SECode
yph en
I BLE
Ġc ircuit
Ġf o
ĠT cp
Ġof Nullable
Ġup loaded
list By
ĠRequest Body
12 34
mod s
ux er
OW LAxiom
ĠNoSuch FieldException
ĠPRO CESS
Ġneighb our
rout ing
TaxFixedRate AddressRel
ĠFE EL
F loor
H i
re pl
Re pos
ĠS um
Ġa o
Data Container
ĠL ength
read From
Of Axiom
log ies
sub Sequence
11 6
getD istance
Ġtim ing
pri or
mark up
Domain Request
Ġred uced
################ ################
Ġ'| '
COMPOS ITE
E ps
is Required
Res idual
Ġh dfs
ĠN S
create ConfigIssue
CE S
Provider Info
Ġcolumn Label
Ġz ookeeper
Ġbase line
IL LEGAL
Persistence Unit
ĠBe ans
ĠCLO SE
Combin er
J T
N P
[ --
n atural
get Beans
Ġi l
Ġf x
Ġget Or
Ġ: "
Event Id
Al gorithms
For Update
getD esc
Ġac ross
ship ping
Ġqueue Name
Ġvari ance
æľ ¬
pli ant
inv oice
Ġsem antics
anit ized
("* "))
JMS Exception
CDK Constants
UPD ATED
Ġget Declared
int egr
ĠW OR
Int ensity
check ArgNotNull
getContent Length
names paces
getMin Y
Ġexpect ing
Ġauthor ize
setBackground Color
" };
) &&
j pa
Con duit
ĠS ocialize
Ġe of
ĠA sc
Component Properties
Access Time
Task Instance
Ġz os
ĠDis covery
Jvm Type
report Error
ĠAst Factory
Intros pection
è®¾ ç½®
? "
B enefit
get LayoutParams
an cestor
is Disabled
Ġin active
set Count
set Timeout
Ġget Array
ĠT otal
not es
++ ++
Ġ' \"
aw ard
Le ave
Ġx Path
Ġprotocol s
Function Symbol
sRequest Marshaller
ĠProcess Definition
SM TP
ĠcastTo CodeableConcept
ĠRep lication
ĠRa ft
ASY NC
D fs
j asper
x be
z Get
st uff
Ġm ojo
set DataType
Context ClassLoader
Ġj avadoc
ĠP ur
pro vided
Ġcreate And
Block Builder
Profile Result
Identity Pool
mi um
Ġrelease d
Ġmonitor ing
lower Bound
ĠEV ENT
c v
d ummy
è Ģ
ug ar
work place
getD ialect
ĠDefault MutableTreeNode
Pointer s
invoke Method
len ium
ĠAttribute Definition
compareTo IgnoreCase
xb a
ĠMon th
setRequest Method
Ġins pect
Gran ularity
Parenth esized
ruise Config
T IN
f if
g iven
Ġi Index
Str Len
Res tricted
Ġre cogn
Ġget T
Ġpro vides
com parison
Form Data
RO UND
ĠE lem
Task State
Sub Model
Session Impl
Job Instance
ĠType Checker
Ġne ither
http ServletRequest
Ġcommerce NotificationTemplate
ĠRE G
REF ER
high light
same Diff
ĠCOM MA
v ey
is Map
ed Item
set Its
Request Method
out going
Not In
CO DER
Dis crete
Ġpre fer
Ġ{} );
Ġtask Name
omet imes
getB ottom
Structure Definition
Unsigned Int
Band width
B olt
x jc
is Class
set Alpha
ĠM B
Ġlog Level
AL WAYS
Version sResult
Ġwrite External
ä¸ Ĭ
Working Directory
Ġconversation Id
ĠElastic search
M ixed
m gr
n arrow
ut z
Ġget Create
Ġget Variable
Class Helper
ug ht
ĠR ight
Code Exception
ĠW eld
Ġinit ializing
ret Val
Ass igment
Tim ers
store Name
ik sdagen
15 50
xb b
SA VE
Ġcre ates
Indicator s
ĠFast List
Div ision
!!!! !!!!
ĠXmlPull ParserException
Electr ic
Eager Singleton
ĠUsername Password
e Set
f ault
de e
is Equal
set Original
Ġget Collection
to Date
out es
AT YPE
Not Available
Ġlist View
For Each
Settings Request
Tx t
Ġav ro
getElement Type
ĠBack ground
readUnsigned Byte
echno logy
B M
X sd
c are
Config Service
Ġ(! ((
Instance Result
Client Response
Ġparam List
FI C
reg ular
Ġuse ful
Iterator s
tag ged
Ġmetric Registry
xb d
temp File
Ġdrop ped
Evaluation Context
REL ATED
OVER RIDE
Ġdecor ate
CONF LICT
ĠKeeper Exception
C ouch
h dr
j av
w ning
è ·
get Head
Ġth ink
Ġ! _
Config Exception
ĠH igh
[...]
