{"<s>": 0, "<pad>": 1, "</s>": 2, "!": 3, "\"": 4, "#": 5, "$": 6, "%": 7, "&": 8, "'": 9, "(": 10, ")": 11, "*": 12, "+": 13, ",": 14, "-": 15, ".": 16, "/": 17, "0": 18, "1": 19, "2": 20, "3": 21, "4": 22, "5": 23, "6": 24, "7": 25, "8": 26, "9": 27, ":": 28, ";": 29, "<": 30, "=": 31, ">": 32, "?": 33, "@": 34, "A": 35, "B": 36, "C": 37, "D": 38, "E": 39, "F": 40, "G": 41, "H": 42, "I": 43, "J": 44, "K": 45, "L": 46, "M": 47, "N": 48, "O": 49, "P": 50, "Q": 51, "R": 52, "S": 53, "T": 54, "U": 55, "V": 56, "W": 57, "X": 58, "Y": 59, "Z": 60, "[": 61, "\\": 62, "]": 63, "^": 64, "_": 65, "`": 66, "a": 67, "b": 68, "c": 69, "d": 70, "e": 71, "f": 72, "g": 73, "h": 74, "i": 75, "j": 76, "k": 77, "l": 78, "m": 79, "n": 80, "o": 81, "p": 82, "q": 83, "r": 84, "s": 85, "t": 86, "u": 87, "v": 88, "w": 89, "x": 90, "y": 91, "z": 92, "{": 93, "|": 94, "}": 95, "~": 96, "¡": 97, "¢": 98, "£": 99, "¤": 100, "¥": 101, "¦": 102, "§": 103, "¨": 104, "©": 105, "ª": 106, "«": 107, "¬": 108, "®": 109, "¯": 110, "°": 111, "±": 112, "²": 113, "³": 114, "´": 115, "µ": 116, "¶": 117, "·": 118, "¸": 119, "¹": 120, "º": 121, "»": 122, "¼": 123, "½": 124, "¾": 125, "¿": 126, "À": 127, "Á": 128, "Â": 129, "Ã": 130, "Ä": 131, "Å": 132, "Æ": 133, "Ç": 134, "È": 135, "É": 136, "Ê": 137, "Ë": 138, "Ì": 139, "Í": 140, "Î": 141, "Ï": 142, "Ð": 143, "Ñ": 144, "Ò": 145, "Ó": 146, "Ô": 147, "Õ": 148, "Ö": 149, "×": 150, "Ø": 151, "Ù": 152, "Ú": 153, "Û": 154, "Ü": 155, "Ý": 156, "Þ": 157, "ß": 158, "à": 159, "á": 160, "â": 161, "ã": 162, "ä": 163, "å": 164, "æ": 165, "ç": 166, "è": 167, "é": 168, "ê": 169, "ë": 170, "ì": 171, "í": 172, "î": 173, "ï": 174, "ð": 175, "ñ": 176, "ò": 177, "ó": 178, "ô": 179, "õ": 180, "ö": 181, "÷": 182, "ø": 183, "ù": 184, "ú": 185, "û": 186, "ü": 187, "ý": 188, "þ": 189, "ÿ": 190, "Ā": 191, "ā": 192, "Ă": 193, "ă": 194, "Ą": 195, "ą": 196, "Ć": 197, "ć": 198, "Ĉ": 199, "ĉ": 200, "Ċ": 201, "ċ": 202, "Č": 203, "č": 204, "Ď": 205, "ď": 206, "Đ": 207, "đ": 208, "Ē": 209, "ē": 210, "Ĕ": 211, "ĕ": 212, "Ė": 213, "ė": 214, "Ę": 215, "ę": 216, "Ě": 217, "ě": 218, "Ĝ": 219, "ĝ": 220, "Ğ": 221, "ğ": 222, "Ġ": 223, "ġ": 224, "Ģ": 225, "ģ": 226, "Ĥ": 227, "ĥ": 228, "Ħ": 229, "ħ": 230, "Ĩ": 231, "ĩ": 232, "Ī": 233, "ī": 234, "Ĭ": 235, "ĭ": 236, "Į": 237, "į": 238, "İ": 239, "ı": 240, "Ĳ": 241, "ĳ": 242, "Ĵ": 243, "ĵ": 244, "Ķ": 245, "ķ": 246, "ĸ": 247, "Ĺ": 248, "ĺ": 249, "Ļ": 250, "ļ": 251, "Ľ": 252, "ľ": 253, "Ŀ": 254, "ŀ": 255, "Ł": 256, "ł": 257, "Ń": 258, "er": 259, "on": 260, "et": 261, "in": 262, ");": 263, "at": 264, "es": 265, "en": 266, "al": 267, "Ġ{": 268, "Ġ}": 269, "ion": 270, "Ġ=": 271, "tr": 272, "or": 273, "le": 274, "get": 275, "st": 276, "Ġr": 277, "()": 278, "ar": 279, "ur": 280, "Ġn": 281, "Ġ(": 282, "Ġi": 283, "an": 284, "Ġ<": 285, "Ġc": 286, "ing": 287, "ce": 288, "Ġt": 289, "Ġp": 290, "ct": 291, "ro": 292, "ent": 293, "it": 294, "de": 295, "se": 296, "am": 297, "ul": 298, "ic": 299, "Ġf": 300, "ut": 301, "Str": 302, "Ġif": 303, "pt": 304, "re": 305, "ew": 306, "as": 307, "String": 308, "ate": 309, "is": 310, "Ġs": 311, "Ġth": 312, "ex": 313, "ad": 314, "Ġret": 315, "urn": 316, "Ġreturn": 317, "ed": 318, "el": 319, "();": 320, "ub": 321, "In": 322, "il": 323, "Ex": 324, "ull": 325, "ch": 326, "ption": 327, "Ġb": 328, "Ġ</": 329, "pe": 330, "ri": 331, "ue": 332, "Ġnew": 333, "ap": 334, "Ġin": 335, "ame": 336, "Con": 337, "lic": 338, "ist": 339, "ag": 340, "Ġ\"": 341, "ation": 342, "qu": 343, "id": 344, "lo": 345, "Ġm": 346, "ess": 347, "(\"": 348, "ect": 349, "ab": 350, "Ġnull": 351, "ol": 352, "ext": 353, "Re": 354, "om": 355, "Ġv": 356, "un": 357, "Ġ/": 358, "ublic": 359, "ception": 360, "ype": 361, "Ġpublic": 362, "Exception": 363, "Ġ+": 364, "est": 365, "ment": 366, "Ġ//": 367, "ass": 368, "ode": 369, "ver": 370, "ot": 371, "inal": 372, "ĠString": 373, "ig": 374, "ck": 375, "Name": 376, "alue": 377, "ter": 378, "em": 379, "Ġd": 380, "able": 381, "lass": 382, "per": 383, "ult": 384, "im": 385, "List": 386, "Type": 387, "set": 388, "row": 389, "St": 390, "ject": 391, "ile": 392, "th": 393, "od": 394, "Ġo": 395, "().": 396, "age": 397, "Ġw": 398, "end": 399, "())": 400, "quest": 401, "iz": 402, "Res": 403, "add": 404, "Ġthrow": 405, "Ġ==": 406, "Pro": 407, "and": 408, "ay": 409, "Ġst": 410, "um": 411, "Ġre": 412, "text": 413, "Ġfinal": 414, "ĠS": 415, "Ġ@": 416, "ey": 417, "put": 418, "En": 419, "ĠC": 420, "bject": 421, "try": 422, "Ġl": 423, "Id": 424, "Ġget": 425, "up": 426, "int": 427, "ild": 428, "Ġ!": 429, "act": 430, "))": 431, "ase": 432, "Ġcon": 433, "());": 434, "Ġe": 435, "\",": 436, "Ġ0": 437, "Ġfor": 438, "ata": 439, "\");": 440, "Ġres": 441, "oid": 442, "all": 443, "pl": 444, "Ġint": 445, "Object": 446, "De": 447, "our": 448, "Ġvoid": 449, "atch": 450, "Ġ!=": 451, "ers": 452, "Ġel": 453, "pon": 454, "con": 455, "to": 456, "te": 457, "Ġelse": 458, "Par": 459, "oo": 460, "Ar": 461, "ff": 462, "Ġthe": 463, "Ġpro": 464, "ĠI": 465, "Over": 466, "ve": 467, "stan": 468, "Value": 469, "oun": 470, "Ġthis": 471, "ride": 472, "Map": 473, "To": 474, "Ġto": 475, "us": 476, "Override": 477, "uild": 478, "));": 479, "ath": 480, "ource": 481, "Lo": 482, "Ġh": 483, "if": 484, "fig": 485, "(),": 486, "Ġa": 487, "vi": 488, "ize": 489, "ĠT": 490, "Request": 491, "ib": 492, "ction": 493, "ity": 494, "ack": 495, "Class": 496, "rit": 497, "eld": 498, "ime": 499, "art": 500, "dex": 501, "pr": 502, "ield": 503, "app": 504, "ort": 505, "pert": 506, "Ġ:": 507, "lement": 508, "Met": 509, "os": 510, "ER": 511, "ition": 512, "ray": 513, "ator": 514, "Ġ-": 515, "eng": 516, "ser": 517, "ain": 518, "ory": 519, "lean": 520, "Ġex": 521, "ON": 522, "stance": 523, "Ġ&": 524, "Context": 525, "ĠA": 526, "yte": 527, "Ġstat": 528, ").": 529, "Ġlo": 530, "Ser": 531, "reate": 532, "Ch": 533, "IN": 534, "ength": 535, "ec": 536, "ponse": 537, "File": 538, "Key": 539, "sh": 540, "orm": 541, "oolean": 542, "uilder": 543, "Com": 544, "ace": 545, "Ġ1": 546, "hod": 547, "ow": 548, "[]": 549, "Ġtr": 550, "eam": 551, "ir": 552, "ord": 553, "new": 554, "cess": 555, "ure": 556, "Ġthrows": 557, "Ġis": 558, "li": 559, "essage": 560, "ute": 561, "Ġpri": 562, "vice": 563, "par": 564, "ession": 565, "str": 566, "ĠB": 567, "Data": 568, "Ġstatic": 569, "vate": 570, "ĠM": 571, "Ġ&&": 572, "Set": 573, "Ġch": 574, "Ġ.": 575, "--": 576, "Ġj": 577, "Ġde": 578, "Array": 579, "ger": 580, "Config": 581, "key": 582, "ine": 583, "ach": 584, "ith": 585, "ror": 586, "ader": 587, "Ġprivate": 588, "urr": 589, "Node": 590, "cri": 591, "Ġtry": 592, "Ġcase": 593, "als": 594, "ong": 595, "ore": 596, "At": 597, "append": 598, "fo": 599, "ler": 600, "trib": 601, "ies": 602, "class": 603, "vent": 604, "Ġresult": 605, "ĠD": 606, "Ġpar": 607, "ind": 608, "ang": 609, "ĠP": 610, "Ġcom": 611, "Param": 612, "res": 613, "equ": 614, "Tr": 615, "ken": 616, "ans": 617, "ial": 618, "Propert": 619, "Ġ)": 620, "out": 621, "ener": 622, "Ġcatch": 623, "ount": 624, "An": 625, "uff": 626, "Element": 627, "Un": 628, "urrent": 629, "ĠList": 630, "Ġvalue": 631, "op": 632, "ument": 633, "rom": 634, "Ġg": 635, "ak": 636, "Ġboolean": 637, "til": 638, "Result": 639, "alse": 640, "Stream": 641, "ĠL": 642, "AT": 643, "av": 644, "RE": 645, "Field": 646, "arsh": 647, "Def": 648, "State": 649, "lient": 650, "ĠIn": 651, "Hand": 652, "Builder": 653, "eck": 654, "Ġ|": 655, "oc": 656, "Util": 657, "ip": 658, "length": 659, "Path": 660, "ĠObject": 661, "Col": 662, "ire": 663, "ery": 664, "roup": 665, "ax": 666, "equals": 667, "ast": 668, "arshall": 669, "val": 670, "cal": 671, "not": 672, "rite": 673, "tem": 674, "ug": 675, "uffer": 676, "yn": 677, "Ġ*": 678, "Ġar": 679, "ĠO": 680, "ence": 681, "final": 682, "read": 683, "ht": 684, "ĠJ": 685, "this": 686, "port": 687, "ST": 688, "Ġ>": 689, "Response": 690, "As": 691, "Ġset": 692, "ule": 693, "ĠF": 694, "son": 695, "name": 696, "Time": 697, "Index": 698, "Ġrequest": 699, "ive": 700, "com": 701, "tain": 702, "Ġbe": 703, "tern": 704, "value": 705, "form": 706, "cl": 707, "Ġfalse": 708, "nect": 709, "oub": 710, "of": 711, "ĠH": 712, "Method": 713, "ouble": 714, "Message": 715, "EN": 716, "pro": 717, "Handler": 718, "tp": 719, "odel": 720, "ac": 721, "ĠR": 722, "ault": 723, "col": 724, "Info": 725, "umn": 726, "arget": 727, "tribute": 728, "Ġtrue": 729, "escri": 730, "Ġen": 731, "++": 732, "By": 733, "Property": 734, "Ad": 735, "ber": 736, "eter": 737, "Qu": 738, "Im": 739, "00": 740, "actory": 741, "ask": 742, "tent": 743, "Ġ||": 744, "uration": 745, "ust": 746, "ifi": 747, "Service": 748, "ail": 749, "Ġlog": 750, "Ġinstance": 751, "Ġ(!": 752, "),": 753, "Event": 754, "ID": 755, "Of": 756, "Se": 757, "Po": 758, "Ġ_": 759, "Ġ'": 760, "Ġnot": 761, "let": 762, "reak": 763, "Ġadd": 764, "ly": 765, "date": 766, "yst": 767, "Stat": 768, "Ġout": 769, "ound": 770, "byte": 771, "ystem": 772, "Ġse": 773, "fer": 774, "ilter": 775, "Al": 776, "ĠV": 777, "AL": 778, "OException": 779, "lection": 780, "UR": 781, "ecut": 782, "ache": 783, "Ġbreak": 784, "Entry": 785, "Instance": 786, "Ġwh": 787, "ĠN": 788, "Ġ?": 789, "ign": 790, "pty": 791, "Ġtype": 792, "Resource": 793, "pression": 794, "anag": 795, "lect": 796, "Ġcontext": 797, "sion": 798, "ash": 799, "ob": 800, "size": 801, "LE": 802, "Ġon": 803, "Er": 804, "ponent": 805, "riter": 806, "iew": 807, "Ġkey": 808, "<?": 809, "ress": 810, "OR": 811, "Ġmet": 812, "Ġcreate": 813, "po": 814, "Token": 815, "AR": 816, "Ġname": 817, "Th": 818, "gument": 819, "ME": 820, "ues": 821, "Factory": 822, "Error": 823, "Group": 824, "Log": 825, "ccess": 826, "ttp": 827, "Size": 828, "ava": 829, "Ġ((": 830, "Ġinstanceof": 831, "leg": 832, "ove": 833, "pos": 834, "der": 835, "use": 836, ">>": 837, "ms": 838, "Em": 839, "ight": 840, "..": 841, "He": 842, "Client": 843, "ix": 844, "code": 845, "ames": 846, "Ġof": 847, "ION": 848, "nection": 849, "ected": 850, "Val": 851, "anager": 852, "action": 853, "create": 854, "lock": 855, "ange": 856, "Ġstr": 857, "Null": 858, "notation": 859, "Utils": 860, "Ġparam": 861, "ork": 862, "Not": 863, "Ġ);": 864, "Or": 865, "error": 866, "teger": 867, "toString": 868, "tected": 869, "----": 870, "getName": 871, "ĠG": 872, "iv": 873, "Out": 874, "Ġat": 875, "uth": 876, "yp": 877, "ml": 878, "Ġprotected": 879, "Item": 880, "abled": 881, "ann": 882, "Code": 883, "With": 884, "putStream": 885, "aw": 886, "Ġval": 887, "getS": 888, "umber": 889, "Query": 890, "ĠArray": 891, "ari": 892, "ces": 893, "Ġser": 894, "\")": 895, "ary": 896, "ost": 897, "bug": 898, "peration": 899, "ings": 900, "ĠIOException": 901, "];": 902, "ync": 903, "Ġlist": 904, "null": 905, "low": 906, "ĠMap": 907, "rap": 908, "Attribute": 909, "Ġlong": 910, "Ap": 911, "ffset": 912, "Expression": 913, "Manager": 914, "inition": 915, "Ġan": 916, "her": 917, "Add": 918, "ersion": 919, "DE": 920, "Empty": 921, "Be": 922, "context": 923, "Ġdata": 924, "Count": 925, "SE": 926, "Ġresponse": 927, "ts": 928, "write": 929, "ference": 930, "Text": 931, "Option": 932, "tes": 933, "((": 934, "Ġor": 935, "AN": 936, "be": 937, "print": 938, "cord": 939, "Ġ2": 940, "Descri": 941, "ated": 942, "type": 943, "mand": 944, "ink": 945, "ric": 946, "ert": 947, "OG": 948, "red": 949, "Parameter": 950, "For": 951, "gs": 952, "Ġdef": 953, "CE": 954, "ill": 955, "co": 956, "ĠW": 957, "uct": 958, "uper": 959, "next": 960, "pec": 961, "Configuration": 962, "Enabled": 963, "User": 964, "ded": 965, "time": 966, "Argument": 967, "Ġcol": 968, "arshaller": 969, "ple": 970, ">();": 971, "View": 972, "ĠFile": 973, "\";": 974, ",(": 975, "legal": 976, "ternal": 977, "Le": 978, "Ġx": 979, "Ġwe": 980, "Buffer": 981, "Up": 982, "Ġand": 983, "back": 984, "Execut": 985, "ypes": 986, "Trans": 987, "IT": 988, "tocol": 989, "lose": 990, "irst": 991, "Status": 992, "Definition": 993, "llegal": 994, "ication": 995, "vel": 996, "unction": 997, "ized": 998, "Model": 999, "Ġid": 1000, "log": 1001, "Form": 1002, "ner": 1003, "++)": 1004, "\"))": 1005, "From": 1006, "ĠClass": 1007, "Ent": 1008, "vid": 1009, "oot": 1010, "Ġit": 1011, "user": 1012, "Ġfield": 1013, "Ġdouble": 1014, "Ġfile": 1015, "ING": 1016, "All": 1017, "ptor": 1018, "Ġconfig": 1019, "Ġcurrent": 1020, "Ġun": 1021, "On": 1022, "Ġmethod": 1023, "Component": 1024, "irect": 1025, "sub": 1026, "Ġwhile": 1027, "has": 1028, "SS": 1029, "current": 1030, "query": 1031, "Table": 1032, "start": 1033, "Ġstart": 1034, "ref": 1035, "CT": 1036, "Ġup": 1037, "getC": 1038, "ard": 1039, "Ġcheck": 1040, "==": 1041, "annel": 1042, "ge": 1043, "chem": 1044, "pace": 1045, "Ġal": 1046, "Call": 1047, "Ġext": 1048, "file": 1049, "ĠArrayList": 1050, "Entity": 1051, "Ġtarget": 1052, "Date": 1053, "Ġindex": 1054, "Inter": 1055, "RO": 1056, "ĠSystem": 1057, "abel": 1058, "ron": 1059, "ĠE": 1060, "Content": 1061, "Reg": 1062, "tainer": 1063, "Ġsh": 1064, "Local": 1065, "Pos": 1066, "Column": 1067, "ocument": 1068, "Ġnode": 1069, "index": 1070, "tribut": 1071, "erm": 1072, "vider": 1073, "one": 1074, "opy": 1075, "UT": 1076, "eters": 1077, "ĠIllegal": 1078, "ature": 1079, "az": 1080, "ance": 1081, "Ġfrom": 1082, "Listener": 1083, "Ġclass": 1084, "Sh": 1085, "arn": 1086, "cation": 1087, "entity": 1088, "move": 1089, "Impl": 1090, "And": 1091, "Ġbyte": 1092, "Int": 1093, "ok": 1094, "Names": 1095, "tains": 1096, "enc": 1097, "Start": 1098, "uf": 1099, "ep": 1100, "own": 1101, "ifier": 1102, "Ġpropert": 1103, "ud": 1104, "valid": 1105, "Ġpath": 1106, "ĠCol": 1107, "Connection": 1108, "Source": 1109, "Line": 1110, "End": 1111, "Ġ->": 1112, "Access": 1113, "Ġas": 1114, "ant": 1115, "AME": 1116, "ends": 1117, "ree": 1118, "ENT": 1119, "ĠTh": 1120, "iter": 1121, "adata": 1122, "isEmpty": 1123, ">(": 1124, "ĠRe": 1125, "und": 1126, "Ġwith": 1127, "ry": 1128, "cc": 1129, "cket": 1130, "untime": 1131, "ension": 1132, "sed": 1133, "Address": 1134, "load": 1135, "()));": 1136, "Ġsb": 1137, "Version": 1138, "Properties": 1139, "ft": 1140, "PE": 1141, "Filter": 1142, "Task": 1143, "<?>": 1144, "Ġdo": 1145, "Ġsuper": 1146, "getValue": 1147, "Ġcl": 1148, "arch": 1149, "Ġread": 1150, "**": 1151, "FI": 1152, "debug": 1153, "Ġdefault": 1154, "terator": 1155, "Mod": 1156, "Constan": 1157, "ecute": 1158, "Cache": 1159, "lication": 1160, "ĠCom": 1161, "CO": 1162, "Format": 1163, "Tag": 1164, "Ġstate": 1165, "old": 1166, "attern": 1167, "Sub": 1168, "loat": 1169, "Annotation": 1170, "\\\"": 1171, "request": 1172, "Metric": 1173, "TY": 1174, "ql": 1175, "Process": 1176, "chema": 1177, "ave": 1178, "Default": 1179, "ĠLOG": 1180, "mit": 1181, "ĠException": 1182, "Ġlogger": 1183, "Ġk": 1184, "Dis": 1185, "Action": 1186, "ializ": 1187, "idth": 1188, "data": 1189, "ariable": 1190, "gn": 1191, "uld": 1192, "ln": 1193, "Operation": 1194, "uture": 1195, "map": 1196, "Ġend": 1197, "Json": 1198, "Ġcall": 1199, "Ġmap": 1200, "Number": 1201, "url": 1202, "ody": 1203, "ackage": 1204, "upport": 1205, "reg": 1206, "contains": 1207, "vlet": 1208, "word": 1209, "rl": 1210, "Ġinput": 1211, "quire": 1212, "Ġrem": 1213, "ould": 1214, "Char": 1215, "CON": 1216, "Marshaller": 1217, "Next": 1218, "cod": 1219, "Pl": 1220, "string": 1221, "Ġ+=": 1222, "Length": 1223, "Ġbuilder": 1224, "trol": 1225, "mer": 1226, "Child": 1227, "Ġentry": 1228, "tributes": 1229, "check": 1230, "//": 1231, "Execution": 1232, "Reference": 1233, "Long": 1234, "LA": 1235, "ee": 1236, "App": 1237, "Integer": 1238, "ete": 1239, "URL": 1240, "plate": 1241, "Ġelement": 1242, "Ġy": 1243, "Ġhand": 1244, "met": 1245, "Ġmessage": 1246, "Ġwrite": 1247, "true": 1248, "Ġhe": 1249, "Provider": 1250, "isit": 1251, "Url": 1252, "sing": 1253, "UE": 1254, "println": 1255, "Types": 1256, "NAME": 1257, "format": 1258, "path": 1259, "point": 1260, "ification": 1261, "Session": 1262, "ateg": 1263, "Bean": 1264, "Ġsub": 1265, "SON": 1266, "ĠSet": 1267, "rc": 1268, "Ġjava": 1269, "Non": 1270, "ED": 1271, "ister": 1272, "vert": 1273, "min": 1274, "sum": 1275, "remove": 1276, "Case": 1277, "Bytes": 1278, "Ġresource": 1279, "ArgumentException": 1280, "UN": 1281, "Async": 1282, "ages": 1283, "Writer": 1284, "iled": 1285, "UL": 1286, "ook": 1287, "pth": 1288, "()))": 1289, "entry": 1290, "eb": 1291, "place": 1292, "Ġobject": 1293, "Ġ});": 1294, "result": 1295, "aint": 1296, "Ġmax": 1297, "AD": 1298, "pect": 1299, "Ġquery": 1300, "Ġextends": 1301, "les": 1302, "Update": 1303, "GE": 1304, "Ġtrans": 1305, "Get": 1306, "Server": 1307, "MA": 1308, "cond": 1309, "info": 1310, "Ġ%": 1311, "Trace": 1312, "parse": 1313, "CH": 1314, "Spec": 1315, "Auth": 1316, "Level": 1317, "other": 1318, "ĠInteger": 1319, "Header": 1320, "ĠSer": 1321, "ĠCh": 1322, "Ġpos": 1323, "Byte": 1324, "Ġby": 1325, "og": 1326, "mp": 1327, "Ġpre": 1328, "marshall": 1329, "ĠX": 1330, "gment": 1331, "Record": 1332, "Ġle": 1333, "Ġsize": 1334, "Ġcan": 1335, "posit": 1336, "Ġuser": 1337, "Constants": 1338, "Ġsource": 1339, "ps": 1340, "ailed": 1341, "Unit": 1342, "refix": 1343, "Ġtoken": 1344, "ayout": 1345, "emplate": 1346, "eature": 1347, "ĠCollection": 1348, "ML": 1349, "ark": 1350, "ĠCon": 1351, "Http": 1352, "Ġinit": 1353, "If": 1354, "ause": 1355, "field": 1356, "atcher": 1357, "older": 1358, "atab": 1359, "Point": 1360, "Del": 1361, "bj": 1362, "list": 1363, "Ġprotocol": 1364, "...": 1365, "LO": 1366, "Base": 1367, "Act": 1368, "Rule": 1369, "Part": 1370, "getP": 1371, "--------": 1372, "Values": 1373, "Ġ{}": 1374, "gle": 1375, "Ġbuffer": 1376, "build": 1377, "Ġevent": 1378, "param": 1379, "Parent": 1380, "raph": 1381, "atabase": 1382, "order": 1383, "ply": 1384, "Ġfind": 1385, "Gener": 1386, "ĠIllegalArgumentException": 1387, "ual": 1388, "Ġnext": 1389, "ified": 1390, "Ġerror": 1391, "getClass": 1392, "ĠHash": 1393, "ources": 1394, "pare": 1395, "Sc": 1396, "LI": 1397, "ender": 1398, "Ref": 1399, "Ġupdate": 1400, "Metadata": 1401, "ĠStringBuilder": 1402, "Ġthat": 1403, "iles": 1404, "inter": 1405, "Row": 1406, "Dep": 1407, "Depth": 1408, "icate": 1409, "imple": 1410, "Input": 1411, "Reader": 1412, "elper": 1413, "ency": 1414, "Ġprocess": 1415, "TE": 1416, "apt": 1417, "irectory": 1418, "URI": 1419, "raw": 1420, "Loader": 1421, "wit": 1422, "Function": 1423, "ote": 1424, "Mem": 1425, "getMessage": 1426, "merce": 1427, "Ġreg": 1428, "ia": 1429, "scri": 1430, ".\");": 1431, "Page": 1432, "Ġchar": 1433, "ĠHttp": 1434, "yle": 1435, "cept": 1436, "Target": 1437, "ere": 1438, "line": 1439, "Job": 1440, "Ġ>=": 1441, "ĠTr": 1442, "sRequest": 1443, "Offset": 1444, "plit": 1445, "Descriptor": 1446, "ym": 1447, "lector": 1448, "Ġhas": 1449, "Command": 1450, "Store": 1451, "ueue": 1452, "uster": 1453, "Statement": 1454, "Ġfinally": 1455, "he": 1456, "tin": 1457, "Container": 1458, "cope": 1459, "Ġ3": 1460, "ret": 1461, "Stack": 1462, "TR": 1463, "Future": 1464, "Ġass": 1465, "lete": 1466, "Metrics": 1467, "witch": 1468, "Collection": 1469, "\".": 1470, "<>();": 1471, "air": 1472, "sg": 1473, "Valid": 1474, "ptions": 1475, "Block": 1476, "ole": 1477, "Check": 1478, "Pri": 1479, "clar": 1480, "esc": 1481, "config": 1482, "ss": 1483, "face": 1484, "xy": 1485, "Mode": 1486, "ĠType": 1487, "Ġtime": 1488, "Ġclient": 1489, "ram": 1490, "ATION": 1491, "tx": 1492, "Ext": 1493, "KE": 1494, "Ġoutput": 1495, "ake": 1496, "azz": 1497, "Ġcolumn": 1498, "Location": 1499, "Rel": 1500, "oogle": 1501, "Ġchild": 1502, "QL": 1503, "Ġproperty": 1504, "].": 1505, "Ġargs": 1506, "Ass": 1507, "Options": 1508, "Ġform": 1509, "Ġall": 1510, "FA": 1511, "MP": 1512, "Position": 1513, "Parameters": 1514, "Constr": 1515, "TYPE": 1516, "ify": 1517, "Dir": 1518, "ox": 1519, "Ġlast": 1520, "ative": 1521, "close": 1522, "Ġparent": 1523, "aders": 1524, "char": 1525, "odes": 1526, "Parser": 1527, "vok": 1528, "Document": 1529, "sert": 1530, "ocket": 1531, "Ġparse": 1532, "cle": 1533, "ynch": 1534, "Sup": 1535, "node": 1536, "Ġwriter": 1537, "Cl": 1538, "ible": 1539, "ached": 1540, "SI": 1541, "af": 1542, "ĠPro": 1543, "token": 1544, "Ġservice": 1545, "ization": 1546, "Ġitem": 1547, "Ġ(\"": 1548, "Label": 1549, "Image": 1550, "Order": 1551, "press": 1552, "OT": 1553, "ush": 1554, "parator": 1555, "getType": 1556, "ynchron": 1557, "Helper": 1558, "fore": 1559, "Params": 1560, "Tree": 1561, "Ġlength": 1562, "AP": 1563, "tings": 1564, "Ġim": 1565, "ell": 1566, "Read": 1567, "ates": 1568, "Channel": 1569, "actor": 1570, "Ġvalues": 1571, "VAL": 1572, "Match": 1573, "ping": 1574, "rid": 1575, "\"));": 1576, "Ġlocal": 1577, "Create": 1578, "Ret": 1579, "ved": 1580, "ATE": 1581, "Output": 1582, "substring": 1583, "pen": 1584, "Ab": 1585, "getId": 1586, "imit": 1587, "gnore": 1588, "google": 1589, "Ġsession": 1590, "Package": 1591, "tinue": 1592, "Variable": 1593, "Ġare": 1594, "Meta": 1595, "urity": 1596, "GER": 1597, "ĠprotocolMarshaller": 1598, "Ġvalid": 1599, "sp": 1600, "Ġuse": 1601, "licy": 1602, "Thread": 1603, "System": 1604, "){": 1605, "entifier": 1606, "Boolean": 1607, "Ġexecut": 1608, "for": 1609, "with": 1610, "Ġrow": 1611, "('": 1612, "gin": 1613, "Ġfirst": 1614, "__": 1615, "amp": 1616, "Ġswitch": 1617, "led": 1618, "ched": 1619, "getKey": 1620, "Ġtable": 1621, "getM": 1622, "from": 1623, "tc": 1624, "Control": 1625, "'t": 1626, "input": 1627, "InputStream": 1628, "Enum": 1629, "untimeException": 1630, "Ġcontent": 1631, "Ġ<=": 1632, "Hash": 1633, "undle": 1634, "Ġne": 1635, "Regis": 1636, "ugin": 1637, "Ġcount": 1638, "\").": 1639, "rame": 1640, "IND": 1641, "loy": 1642, "Servlet": 1643, "work": 1644, "utt": 1645, "ish": 1646, "Pre": 1647, "Ġpo": 1648, "stream": 1649, "Ġact": 1650, "Ġfilter": 1651, "Ġdis": 1652, "Ġ/*": 1653, "upported": 1654, "Link": 1655, "Warn": 1656, "ape": 1657, "ivity": 1658, "Ġ*/": 1659, "Su": 1660, "dition": 1661, "Ġline": 1662, "Ġq": 1663, "Ġcontinue": 1664, "Ġurl": 1665, "ĠU": 1666, "lob": 1667, "propert": 1668, "otal": 1669, "TA": 1670, "]);": 1671, "ren": 1672, "TH": 1673, "oin": 1674, "max": 1675, "()).": 1676, "Ġsc": 1677, "ializer": 1678, "ission": 1679, "Description": 1680, "rowable": 1681, "def": 1682, "its": 1683, "ics": 1684, "Ġad": 1685, "ision": 1686, "pected": 1687, "Double": 1688, "plet": 1689, "Lock": 1690, "clu": 1691, "Ġmatch": 1692, "ounter": 1693, "utton": 1694, "ical": 1695, "EL": 1696, "TER": 1697, "pository": 1698, "Ed": 1699, "IOException": 1700, "OP": 1701, "cript": 1702, "Ġpart": 1703, "ĠJson": 1704, "Ġgener": 1705, "01": 1706, "io": 1707, "ustom": 1708, "ll": 1709, "Ġz": 1710, "empty": 1711, "util": 1712, "ialize": 1713, "voke": 1714, "ite": 1715, "getF": 1716, "Ġoffset": 1717, "Color": 1718, "getInstance": 1719, "ector": 1720, "quired": 1721, "Ġtask": 1722, "Work": 1723, "ables": 1724, "Layout": 1725, "ility": 1726, "ptional": 1727, "ynchronized": 1728, "Attributes": 1729, "false": 1730, "ination": 1731, "Ġrule": 1732, "lang": 1733, "Ġrun": 1734, "api": 1735, "Ġgroup": 1736, "itor": 1737, "Width": 1738, "Root": 1739, "Det": 1740, "OD": 1741, "element": 1742, "Ġ4": 1743, "assword": 1744, "utable": 1745, "Pan": 1746, "state": 1747, "essages": 1748, "uri": 1749, "ĠByte": 1750, "method": 1751, "last": 1752, "KEY": 1753, "Ġother": 1754, "count": 1755, "lag": 1756, "ULT": 1757, "Per": 1758, "++;": 1759, "rapper": 1760, "Ġparams": 1761, "Ġexecute": 1762, "aces": 1763, "ices": 1764, "FF": 1765, "No": 1766, "Found": 1767, "Ġorig": 1768, "Transaction": 1769, "mary": 1770, "pre": 1771, "Last": 1772, "ie": 1773, "Ġjson": 1774, "Ġmin": 1775, "Ġapp": 1776, "valueOf": 1777, "VER": 1778, "copy": 1779, "Iterator": 1780, "PRO": 1781, "Template": 1782, "apter": 1783, "ĠBoolean": 1784, "ick": 1785, "ations": 1786, "Ġsynchronized": 1787, "Fields": 1788, "OutputStream": 1789, "ater": 1790, "ample": 1791, "Host": 1792, "dk": 1793, "Ġentity": 1794, "Dec": 1795, "Ġinter": 1796, "Ġbuild": 1797, "ide": 1798, "long": 1799, "ous": 1800, "mon": 1801, "java": 1802, "ccount": 1803, "Ġremove": 1804, "Ġconnection": 1805, "find": 1806, "Ġtext": 1807, "resource": 1808, "orage": 1809, "bser": 1810, "Ġcache": 1811, "stract": 1812, "iff": 1813, "Inner": 1814, "Var": 1815, "group": 1816, "play": 1817, "Warnings": 1818, "BLE": 1819, "Internal": 1820, "sor": 1821, "Ġarray": 1822, "Ġobj": 1823, "ymb": 1824, "Run": 1825, "builder": 1826, "ĠAt": 1827, "Ġmod": 1828, "HandlerContext": 1829, "Range": 1830, "rint": 1831, "Ġpl": 1832, "Callback": 1833, "emp": 1834, "Ġformat": 1835, "<>(": 1836, "ĠLong": 1837, "Port": 1838, "ru": 1839, "base": 1840, "ĠJSON": 1841, "EX": 1842, "Pattern": 1843, "stat": 1844, "Tim": 1845, "Resol": 1846, "SER": 1847, "tract": 1848, "Suppress": 1849, "11": 1850, "wer": 1851, "Ġnum": 1852, "Api": 1853, "ists": 1854, "omain": 1855, "Unm": 1856, "Declar": 1857, "Ġstream": 1858, "rig": 1859, "Ġcode": 1860, "Ġfloat": 1861, "uctor": 1862, "Debug": 1863, "Ġfound": 1864, "Directory": 1865, "Application": 1866, "Ġroot": 1867, "Body": 1868, "Ġ};": 1869, "Project": 1870, "ĠHashMap": 1871, "item": 1872, "indow": 1873, "Num": 1874, "ait": 1875, "sc": 1876, "Ġtag": 1877, "Ġtc": 1878, "Ġ[": 1879, "ĠNode": 1880, "verter": 1881, "Bound": 1882, "SuppressWarnings": 1883, "atri": 1884, "are": 1885, "apply": 1886, "inding": 1887, "pan": 1888, "Ġexception": 1889, "ulti": 1890, "ĠAn": 1891, "Segment": 1892, "atrix": 1893, "OL": 1894, "itle": 1895, "Ġhave": 1896, "Ġmodel": 1897, "Init": 1898, "target": 1899, "ĠMath": 1900, "Ġno": 1901, "Ġparameter": 1902, "http": 1903, "Ġold": 1904, "DB": 1905, "Ġdest": 1906, "Ġhandle": 1907, "ymbol": 1908, "hand": 1909, "Ġserver": 1910, "New": 1911, "event": 1912, "Extension": 1913, "ier": 1914, "kip": 1915, "ĠRuntimeException": 1916, "message": 1917, "column": 1918, "equence": 1919, "10": 1920, "Sec": 1921, "Ġdescri": 1922, "Pool": 1923, "trans": 1924, "illis": 1925, "Ag": 1926, "rag": 1927, "Uns": 1928, "Ġproperties": 1929, "Ġmarshall": 1930, "cale": 1931, "\\\\": 1932, "db": 1933, "iterator": 1934, "ĠLog": 1935, "ĠCms": 1936, "endar": 1937, "ermission": 1938, "Ids": 1939, "unk": 1940, "ĠIm": 1941, "Ġbase": 1942, "Unmarshaller": 1943, "Style": 1944, "ĠDate": 1945, "Ġmsg": 1946, "ĠOptional": 1947, "TI": 1948, "UM": 1949, "._": 1950, "warn": 1951, "redicate": 1952, "gr": 1953, "ities": 1954, "Schema": 1955, "Ġbuf": 1956, "::": 1957, "VALUE": 1958, "AC": 1959, "Ġstring": 1960, "source": 1961, "Web": 1962, "getD": 1963, "coding": 1964, ")));": 1965, "Ġso": 1966, "uid": 1967, "test": 1968, "Ġctx": 1969, "Keys": 1970, "match": 1971, "Ġmust": 1972, "filter": 1973, "pc": 1974, "Ġargument": 1975, "hasNext": 1976, "sumer": 1977, "tries": 1978, "ifact": 1979, "sWith": 1980, "Queue": 1981, "Policy": 1982, "Ġload": 1983, "Assign": 1984, "ph": 1985, "SC": 1986, "ĠData": 1987, "gress": 1988, "Ġspec": 1989, "buffer": 1990, "ĠIf": 1991, "Any": 1992, "acter": 1993, "init": 1994, "update": 1995, "Invalid": 1996, "estamp": 1997, "Ġcopy": 1998, "alendar": 1999, "Ġversion": 2000, "Rem": 2001, "ucket": 2002, "acing": 2003, "IL": 2004, "replace": 2005, "****": 2006, "fter": 2007, "perator": 2008, "Back": 2009, ">()": 2010, "Mapping": 2011, "Exp": 2012, "clude": 2013, "inc": 2014, "olve": 2015, "Ġwork": 2016, "Ġcommand": 2017, "Ġaction": 2018, "ures": 2019, "Ġauth": 2020, "IS": 2021, "values": 2022, "buf": 2023, "resent": 2024, "lected": 2025, "Uri": 2026, "BIND": 2027, "Cms": 2028, "loyment": 2029, "Change": 2030, "ĠRequest": 2031, "Ġjob": 2032, "NotNull": 2033, "eline": 2034, "checked": 2035, "Ġattribute": 2036, "client": 2037, "Ġhttp": 2038, "Registry": 2039, "Interface": 2040, "ient": 2041, "Pair": 2042, "Nullable": 2043, "version": 2044, "Settings": 2045, "Sign": 2046, "entication": 2047, "response": 2048, "BINDING": 2049, "{}": 2050, "Ġparameters": 2051, "Ġconvert": 2052, "Ignore": 2053, "ategy": 2054, "PER": 2055, "Failed": 2056, "Max": 2057, "ialog": 2058, "process": 2059, "RI": 2060, "enu": 2061, "etwork": 2062, "json": 2063, "FAULT": 2064, "fl": 2065, "coder": 2066, "inary": 2067, "imal": 2068, "ĠK": 2069, "12": 2070, "Ġwill": 2071, "sRequestMetrics": 2072, "uto": 2073, "Top": 2074, "ont": 2075, "Ġoptions": 2076, "Millis": 2077, "64": 2078, "Wrapper": 2079, "ailable": 2080, "ECT": 2081, "formation": 2082, ".\",": 2083, "====": 2084, "tach": 2085, "Ġoriginal": 2086, "ĠSt": 2087, "ayer": 2088, "resh": 2089, "],": 2090, "Ġshould": 2091, "loud": 2092, "ise": 2093, "aly": 2094, "Ġlen": 2095, "object": 2096, "getString": 2097, "000": 2098, "valu": 2099, "Height": 2100, "viron": 2101, "Ġdep": 2102, "PO": 2103, "ĠMethod": 2104, "omet": 2105, "getCurrent": 2106, "Ġclose": 2107, "vironment": 2108, "Module": 2109, "ingle": 2110, "rupt": 2111, "getProperty": 2112, "LOG": 2113, "Socket": 2114, "')": 2115, "Constraint": 2116, "ules": 2117, "SH": 2118, "(_": 2119, "StateException": 2120, "Ġrecord": 2121, "Ġ\",": 2122, "Sequence": 2123, "nown": 2124, "md": 2125, "Ġbytes": 2126, "array": 2127, "Ġcomponent": 2128, "mutable": 2129, "Ġblock": 2130, "PAR": 2131, "ersist": 2132, "ipeline": 2133, "greg": 2134, "uple": 2135, "Executor": 2136, "Graph": 2137, "cer": 2138, "ategory": 2139, "END": 2140, "flow": 2141, "duct": 2142, ">)": 2143, "Ġdelete": 2144, "ĠAp": 2145, "TO": 2146, "parent": 2147, "ANCE": 2148, "Button": 2149, "Feature": 2150, "oord": 2151, "edia": 2152, "ails": 2153, "NO": 2154, "Parse": 2155, "ĠLOGGER": 2156, "Ġview": 2157, "(@": 2158, "shot": 2159, "Timeout": 2160, "ined": 2161, "Prefix": 2162, "Scope": 2163, "Ġwas": 2164, "table": 2165, "execute": 2166, "ursor": 2167, "ĠInternal": 2168, "Ġarg": 2169, "Panel": 2170, "Ġsrc": 2171, "andom": 2172, "Ġclazz": 2173, "etch": 2174, "Ġconfiguration": 2175, "property": 2176, "position": 2177, "voc": 2178, "ayload": 2179, "ments": 2180, "PA": 2181, "Ġannotation": 2182, "Comp": 2183, "Elements": 2184, "terable": 2185, "RA": 2186, "ertex": 2187, "ready": 2188, "xml": 2189, "Ġone": 2190, "32": 2191, "Ġpage": 2192, "nap": 2193, "Ġstatus": 2194, "Ġref": 2195, "plete": 2196, "Is": 2197, "JSON": 2198, "Ġreader": 2199, "service": 2200, "startsWith": 2201, "org": 2202, "Can": 2203, "getR": 2204, "Identifier": 2205, "Ġ\".": 2206, "qual": 2207, "Return": 2208, "isDebug": 2209, "Ġmem": 2210, "Ġorder": 2211, "ailure": 2212, "UP": 2213, "Ġassert": 2214, "Ġneed": 2215, "eat": 2216, "Ġ{}\",": 2217, "Endpoint": 2218, "Ġvisit": 2219, "Eng": 2220, "Ġop": 2221, "mod": 2222, "amespace": 2223, "Delete": 2224, "ĠService": 2225, "Ġrel": 2226, "Adapter": 2227, "Write": 2228, "IC": 2229, "Locale": 2230, "loc": 2231, "cover": 2232, "getB": 2233, "addAll": 2234, "nextToken": 2235, "dis": 2236, "register": 2237, "Search": 2238, "ubl": 2239, "Ġheader": 2240, "Tracing": 2241, "');": 2242, "tml": 2243, "lobal": 2244, "redent": 2245, "atas": 2246, "Ġonly": 2247, "ating": 2248, "que": 2249, "ences": 2250, "vious": 2251, "napshot": 2252, "content": 2253, "Term": 2254, "ome": 2255, "Ġcached": 2256, "ĠResponse": 2257, "Engine": 2258, "Ġ<<": 2259, "Step": 2260, "ERR": 2261, "AX": 2262, "ĠtargetDepth": 2263, "Account": 2264, "isDebugEnabled": 2265, "clear": 2266, "Headers": 2267, "chedule": 2268, "First": 2269, "ename": 2270, "ĠIllegalStateException": 2271, "Mapper": 2272, "ĠCollections": 2273, "ĠDouble": 2274, "ClientException": 2275, "Ġnumber": 2276, "bserv": 2277, "NotFound": 2278, "Java": 2279, "yncHandler": 2280, "river": 2281, "eas": 2282, "num": 2283, "ank": 2284, "Ġus": 2285, "Proxy": 2286, "Ġexecution": 2287, "(\"\\": 2288, "mitive": 2289, "Box": 2290, "call": 2291, "vocation": 2292, "anged": 2293, "Nonnull": 2294, "unchecked": 2295, "Ġ8": 2296, "Ġoperation": 2297, "Handle": 2298, "HT": 2299, "Ġbefore": 2300, "ĠField": 2301, "aster": 2302, "Logger": 2303, "bers": 2304, "model": 2305, "issing": 2306, "enter": 2307, "ĠProperty": 2308, "IgnoreCase": 2309, "oci": 2310, "Ġinfo": 2311, "----------------": 2312, "ern": 2313, "scription": 2314, "Condition": 2315, "VI": 2316, "mt": 2317, "Ġlistener": 2318, "Ġbean": 2319, "Ġ\");": 2320, "vision": 2321, "ason": 2322, "NonNull": 2323, "session": 2324, "trim": 2325, "delete": 2326, "containsKey": 2327, "Ġ5": 2328, "Ġ\"/": 2329, "Files": 2330, "Ġright": 2331, "isAny": 2332, "ution": 2333, "src": 2334, "child": 2335, "TracingEnabled": 2336, "legate": 2337, "Mon": 2338, "Partition": 2339, "err": 2340, "Load": 2341, "=\"": 2342, "ending": 2343, "sol": 2344, "ĠResource": 2345, "Ġcal": 2346, "Present": 2347, "view": 2348, "Struct": 2349, "tag": 2350, "isAnyTracingEnabled": 2351, "Ġorg": 2352, "'s": 2353, "stant": 2354, "lem": 2355, "Ġconstr": 2356, "eser": 2357, "Processor": 2358, "Decimal": 2359, "round": 2360, "Holder": 2361, "double": 2362, "ĠIN": 2363, "obj": 2364, "ragment": 2365, "Ġregister": 2366, "Throwable": 2367, "split": 2368, "sure": 2369, "istory": 2370, "SQL": 2371, "</": 2372, "du": 2373, "Ġleft": 2374, "Ġbut": 2375, "Ġed": 2376, "ĠLink": 2377, "Generator": 2378, "Ġuri": 2379, "()),": 2380, "Min": 2381, "down": 2382, "Unable": 2383, "uage": 2384, "Ġchannel": 2385, "by": 2386, "IG": 2387, "ĠIterator": 2388, "imension": 2389, "Ġag": 2390, ")\");": 2391, "VE": 2392, "RES": 2393, "pute": 2394, "Ġexp": 2395, "server": 2396, "Ġproject": 2397, "ice": 2398, "MENT": 2399, "edException": 2400, "Activity": 2401, "AM": 2402, "ĠTrans": 2403, "Ġhost": 2404, "Ġper": 2405, "endency": 2406, "ĠPath": 2407, "aining": 2408, "offset": 2409, "ialized": 2410, "ĠAs": 2411, "Ġac": 2412, "Nodes": 2413, "sl": 2414, "change": 2415, "MetaData": 2416, "eners": 2417, "ĠModel": 2418, "Left": 2419, "XML": 2420, "charAt": 2421, "Ġdb": 2422, "ĠGet": 2423, "descri": 2424, "Ġposition": 2425, "ĠQuery": 2426, "Test": 2427, "Protocol": 2428, "izer": 2429, "Art": 2430, "://": 2431, "Plugin": 2432, "Ġappend": 2433, "Ind": 2434, "Ġhandler": 2435, "Connect": 2436, "args": 2437, "Doc": 2438, "iteral": 2439, "entrySet": 2440, "Converter": 2441, "inish": 2442, "NotFoundException": 2443, "oll": 2444, "vailable": 2445, "The": 2446, "Ġcomp": 2447, "Database": 2448, "status": 2449, "ally": 2450, "lease": 2451, "ĠURL": 2452, "Vis": 2453, "MAX": 2454, "ear": 2455, "ifiers": 2456, "Current": 2457, "da": 2458, "INE": 2459, "auth": 2460, "TraceComponent": 2461, "ServiceResponse": 2462, "we": 2463, "atal": 2464, "Member": 2465, "isting": 2466, "ĠAd": 2467, "Ġdoes": 2468, "ting": 2469, "Ġdate": 2470, "QU": 2471, "igh": 2472, "ĠTime": 2473, "Cluster": 2474, "indexOf": 2475, "part": 2476, "Messages": 2477, "Ġport": 2478, "equalsIgnoreCase": 2479, "Permission": 2480, "Repository": 2481, "Ġsql": 2482, "ormal": 2483, "Classes": 2484, "StackTrace": 2485, "ĠSdk": 2486, "azon": 2487, "ometry": 2488, "ceptor": 2489, "Xml": 2490, "UID": 2491, "NON": 2492, "Op": 2493, "task": 2494, "ERROR": 2495, "Success": 2496, "Stats": 2497, "iod": 2498, "ĠChar": 2499, "visit": 2500, "Resolver": 2501, "ZE": 2502, "Unsupported": 2503, "Desc": 2504, "lick": 2505, "Atom": 2506, "mar": 2507, "over": 2508, "Qual": 2509, "Ġ\"'": 2510, "Ġtemp": 2511, "output": 2512, "ĠSdkClientException": 2513, "lags": 2514, "Ġdel": 2515, "Args": 2516, "local": 2517, "UTF": 2518, "ClassName": 2519, "vices": 2520, "ĠSQL": 2521, "ĠElement": 2522, "Ġtim": 2523, "Ġany": 2524, "Ġimage": 2525, "Region": 2526, "Resources": 2527, "IR": 2528, "ority": 2529, "default": 2530, "Close": 2531, "ĠPo": 2532, "Ġput": 2533, "getA": 2534, "ĠSe": 2535, "Obj": 2536, "ines": 2537, "ertif": 2538, "Ġattr": 2539, "0000": 2540, "wner": 2541, "\"),": 2542, "andid": 2543, "cre": 2544, "Frame": 2545, "Ġtmp": 2546, "vm": 2547, "Ġ'\"": 2548, "wsRequestMetrics": 2549, "Role": 2550, "ld": 2551, "Sum": 2552, "Ġthread": 2553, "ctx": 2554, "Only": 2555, "US": 2556, "Ġlabel": 2557, "DEFAULT": 2558, "ade": 2559, "ancel": 2560, "ta": 2561, "][": 2562, "PRE": 2563, "Ġtotal": 2564, "ict": 2565, "oute": 2566, "df": 2567, "Ġ6": 2568, "Us": 2569, "ĠNo": 2570, "bservable": 2571, "ors": 2572, "comp": 2573, "trace": 2574, "ability": 2575, "lv": 2576, "do": 2577, "ging": 2578, "Ġalready": 2579, "Expr": 2580, "Ġcallback": 2581, "Ġover": 2582, "Ġsend": 2583, "Ġback": 2584, "Security": 2585, "logy": 2586, "ĠThread": 2587, "Ġrequired": 2588, "cur": 2589, "Batch": 2590, "first": 2591, "INST": 2592, "ĠMessage": 2593, "pres": 2594, "store": 2595, "Marshall": 2596, "':": 2597, "stances": 2598, "Vari": 2599, "Ġpoint": 2600, "INT": 2601, "ITY": 2602, "16": 2603, "ran": 2604, "Ġcontainer": 2605, "ich": 2606, "compare": 2607, "Factor": 2608, "Ġem": 2609, "JECT": 2610, "Ġpattern": 2611, "run": 2612, "Ġu": 2613, "AGE": 2614, "testExpression": 2615, "Window": 2616, "gener": 2617, "DS": 2618, "amb": 2619, "Ġprint": 2620, "Strategy": 2621, "afe": 2622, "getAttribute": 2623, "Man": 2624, "LASS": 2625, "Ġlock": 2626, "ique": 2627, "OB": 2628, "unmarshall": 2629, "ulate": 2630, "Ifc": 2631, "Script": 2632, "Sp": 2633, "Ġab": 2634, "lers": 2635, "DO": 2636, "estination": 2637, "ĠLinked": 2638, "asic": 2639, "ged": 2640, "##": 2641, "Word": 2642, "Bundle": 2643, "CTION": 2644, "ĠDefault": 2645, "instance": 2646, "ĠBase": 2647, "Ġmake": 2648, "sql": 2649, "cache": 2650, "ean": 2651, "Ġvalidate": 2652, "Ġxml": 2653, "ilename": 2654, "roll": 2655, "Ġwhen": 2656, "Ġcannot": 2657, "getT": 2658, "Ġaddress": 2659, "Relation": 2660, "Report": 2661, "STR": 2662, "ĠKey": 2663, "orted": 2664, "Ġ++": 2665, "Ġmetric": 2666, "Artifact": 2667, "ES": 2668, "ored": 2669, "coded": 2670, "PAT": 2671, "amed": 2672, "ATA": 2673, "ĠUn": 2674, "bo": 2675, "Len": 2676, "Storage": 2677, "Profile": 2678, "80": 2679, "Cap": 2680, "Ġparser": 2681, "Ġtest": 2682, "root": 2683, "idget": 2684, "ODO": 2685, "Pointer": 2686, "Serializer": 2687, "anguage": 2688, "Ġtop": 2689, "ĠInputStream": 2690, "Ġsearch": 2691, "tration": 2692, "anges": 2693, "ULL": 2694, "ning": 2695, "ĠAb": 2696, "Ġiter": 2697, "ĠBuffer": 2698, "201": 2699, "pri": 2700, "Results": 2701, ")))": 2702, "urrency": 2703, "Ġfunction": 2704, "SIZE": 2705, "easure": 2706, "Matrix": 2707, "logger": 2708, "Ġsu": 2709, "iver": 2710, "Chain": 2711, "ĠThe": 2712, "ultip": 2713, "Controller": 2714, "Ġfactory": 2715, "PT": 2716, "ookie": 2717, "(\"/": 2718, "solute": 2719, "Ġdocument": 2720, "ied": 2721, "unc": 2722, "incip": 2723, "ORT": 2724, "known": 2725, "mark": 2726, "TIME": 2727, "Ġcommerce": 2728, "ertificate": 2729, "eometry": 2730, "Ġprefix": 2731, "ays": 2732, "Ġattributes": 2733, "Device": 2734, "Ġ\"+": 2735, "Lower": 2736, "Ġexpression": 2737, "SET": 2738, "ĠXML": 2739, "Mark": 2740, "ĠImmutable": 2741, "ared": 2742, "Bit": 2743, "!=": 2744, "ials": 2745, "Ġind": 2746, "Counter": 2747, "Ġhash": 2748, "pose": 2749, "Ġschema": 2750, "ection": 2751, "reader": 2752, "Ġ\"\\": 2753, "Ġdoc": 2754, "ĠHashSet": 2755, "Ġ10": 2756, "Post": 2757, "ĠEx": 2758, "ferences": 2759, "Has": 2760, "tra": 2761, "IP": 2762, "ra": 2763, "HE": 2764, "Encoding": 2765, "NOT": 2766, "Items": 2767, "plier": 2768, "Ġempty": 2769, "Ġkeys": 2770, "Notification": 2771, "arg": 2772, "ward": 2773, "former": 2774, "Zone": 2775, "oordin": 2776, "Cell": 2777, "irt": 2778, "Bl": 2779, "Children": 2780, "20": 2781, "exit": 2782, "ycle": 2783, "Plan": 2784, "msg": 2785, "Sql": 2786, "CP": 2787, "LS": 2788, "istance": 2789, "INSTANCE": 2790, "DA": 2791, ")).": 2792, "TP": 2793, "Ġstore": 2794, "iction": 2795, "lowed": 2796, "Ġgenerate": 2797, "ĠPre": 2798, "cast": 2799, "apped": 2800, "Ġmetadata": 2801, "isEntry": 2802, "Vertex": 2803, "orre": 2804, "lation": 2805, "Environment": 2806, "getO": 2807, "Bounds": 2808, "isEntryEnabled": 2809, "+\"": 2810, "body": 2811, "GroupName": 2812, "Ġdst": 2813, "Ġcp": 2814, "Limit": 2815, "Namespace": 2816, "AS": 2817, "conds": 2818, "ART": 2819, "Ġfields": 2820, "igDecimal": 2821, "Ġreq": 2822, "Ġ(_": 2823, "Vector": 2824, "Ġlocation": 2825, "riteria": 2826, "Ġresults": 2827, "Domain": 2828, "lot": 2829, "Ġbody": 2830, "Ins": 2831, "CK": 2832, "Ġafter": 2833, "rammar": 2834, "attribute": 2835, "Memory": 2836, "Declaration": 2837, "ambda": 2838, "Menu": 2839, "inder": 2840, "(!": 2841, "left": 2842, "FO": 2843, "eta": 2844, "Collector": 2845, "concurrent": 2846, "Symbol": 2847, "anaged": 2848, "Ġsign": 2849, "Build": 2850, "ced": 2851, "Deployment": 2852, "DI": 2853, "Ġreport": 2854, "ibility": 2855, "MS": 2856, "atalog": 2857, "nable": 2858, "boolean": 2859, "COL": 2860, ":\"": 2861, "ĠArrays": 2862, "gor": 2863, "open": 2864, "Short": 2865, "Conf": 2866, "acity": 2867, "itions": 2868, "mem": 2869, "ship": 2870, "Flow": 2871, "ĠSh": 2872, "apping": 2873, "ĠThis": 2874, "andard": 2875, "Methods": 2876, "Ali": 2877, "Each": 2878, "Details": 2879, "MO": 2880, "gorith": 2881, "El": 2882, "FOR": 2883, "acket": 2884, "host": 2885, "width": 2886, "Visit": 2887, "ataset": 2888, "Annotations": 2889, "])": 2890, "invoke": 2891, "avax": 2892, "ao": 2893, "ground": 2894, "ELD": 2895, "Binding": 2896, "Ġ()": 2897, "ollow": 2898, "Abstract": 2899, "25": 2900, "Ġthere": 2901, "ĠSimple": 2902, "ĠFunction": 2903, "ns": 2904, "return": 2905, "ĠRE": 2906, "Ġaccess": 2907, "istics": 2908, "ĠAbstract": 2909, "ĠasyncHandler": 2910, "Bar": 2911, "orization": 2912, "ĠObservable": 2913, "incipal": 2914, "ĠawsRequestMetrics": 2915, "Password": 2916, "Ġreplace": 2917, "ular": 2918, "bed": 2919, "ClassLoader": 2920, "HandlerContextKey": 2921, "ted": 2922, "addHandlerContext": 2923, "ĠValue": 2924, "ynam": 2925, "Ġnon": 2926, "Calendar": 2927, "clazz": 2928, "Open": 2929, "len": 2930, "reen": 2931, "ĠCreate": 2932, "Rep": 2933, "ialization": 2934, "xa": 2935, "24": 2936, "ParentElement": 2937, "rem": 2938, "Display": 2939, "ped": 2940, "Ġtransaction": 2941, "GET": 2942, "ĠView": 2943, "Constructor": 2944, "Columns": 2945, "Ġthen": 2946, "Consumer": 2947, "Down": 2948, "Ġapply": 2949, "SION": 2950, "erge": 2951, "getPath": 2952, "Ġtemplate": 2953, "ixed": 2954, "ĠInter": 2955, "iler": 2956, "annotation": 2957, ">\");": 2958, "Ph": 2959, "ĠStream": 2960, "ServletRequest": 2961, "18": 2962, "Category": 2963, "impleName": 2964, "oly": 2965, "Ġ'\\": 2966, "UB": 2967, "LOW": 2968, "Ġwidth": 2969, "StringUtils": 2970, "Constant": 2971, "Edge": 2972, "Ġmay": 2973, "ĠDE": 2974, "TimeMillis": 2975, "accept": 2976, "bytes": 2977, "redentials": 2978, "Ġstack": 2979, "Attach": 2980, "Information": 2981, "imum": 2982, "ABLE": 2983, "oved": 2984, "ruptedException": 2985, "Ġnow": 2986, "getResource": 2987, "ured": 2988, "Ġjj": 2989, "Dialog": 2990, "WS": 2991, "eed": 2992, "cs": 2993, "Buf": 2994, "ĠWeb": 2995, "Ġ\"\";": 2996, "connect": 2997, "Ġconf": 2998, "Ġopen": 2999, "ĠBuffered": 3000, "Ġstop": 3001, "Render": 3002, "Interval": 3003, "ik": 3004, "now": 3005, "CHE": 3006, "Groups": 3007, "lip": 3008, "Ġvar": 3009, "ĠURI": 3010, "tempt": 3011, "Custom": 3012, "Arguments": 3013, "Failure": 3014, "jection": 3015, "header": 3016, "Ġcompare": 3017, "getData": 3018, "OUT": 3019, "Identity": 3020, "quence": 3021, "rec": 3022, "expected": 3023, "gorithm": 3024, "ĠWe": 3025, "ty": 3026, "TAG": 3027, "ranch": 3028, "Wh": 3029, "proto": 3030, "Ġtx": 3031, "getParent": 3032, "fs": 3033, "ived": 3034, "FIX": 3035, "Ġmain": 3036, "Timestamp": 3037, "anner": 3038, "Ġinvoke": 3039, "Literal": 3040, "irection": 3041, "Commerce": 3042, "cp": 3043, "Network": 3044, "ĠTODO": 3045, "Ġskip": 3046, "Red": 3047, "Float": 3048, "ĠSib": 3049, "irtual": 3050, "Comparator": 3051, "exists": 3052, "stall": 3053, "jo": 3054, "right": 3055, "verse": 3056, "toArray": 3057, "Click": 3058, "Ġprop": 3059, "ended": 3060, "ĠAttribute": 3061, "hash": 3062, "Operator": 3063, "[])": 3064, "eatures": 3065, "Such": 3066, "TEX": 3067, "can": 3068, "Ġdatabase": 3069, "Select": 3070, "Ġreference": 3071, "Ġqu": 3072, "space": 3073, "Ġiterator": 3074, "rypt": 3075, "rop": 3076, "Ġ;": 3077, "dir": 3078, "ĠToken": 3079, "Remote": 3080, "send": 3081, "Attr": 3082, "ume": 3083, "',": 3084, "ĠSibTr": 3085, "Ġwhich": 3086, "job": 3087, "utdown": 3088, "Progress": 3089, "ĠThrowable": 3090, "andidate": 3091, "ĠResult": 3092, "CA": 3093, "Ġchildren": 3094, "Ġsegment": 3095, "connection": 3096, "Entries": 3097, "printStackTrace": 3098, "rie": 3099, "Selector": 3100, "ynamic": 3101, "Ġexecutor": 3102, "15": 3103, "assed": 3104, "Ġlink": 3105, "clus": 3106, "ws": 3107, "bean": 3108, "ww": 3109, "Arg": 3110, "OUR": 3111, "Gr": 3112, "////": 3113, "vers": 3114, "attr": 3115, "Msg": 3116, "CLASS": 3117, "Track": 3118, "++]": 3119, "ias": 3120, "tree": 3121, "Db": 3122, "Multi": 3123, "Space": 3124, "posite": 3125, "channel": 3126, "Ġcluster": 3127, "ten": 3128, "Ġtypes": 3129, "location": 3130, "History": 3131, "OF": 3132, "DateTime": 3133, "no": 3134, "ĠZ": 3135, "BY": 3136, "properties": 3137, "exception": 3138, "chedul": 3139, "ince": 3140, "aws": 3141, "Ġfeature": 3142, "ek": 3143, "cr": 3144, "lat": 3145, "convert": 3146, "Active": 3147, "matcher": 3148, "Character": 3149, "Support": 3150, "Absolute": 3151, "exp": 3152, "QUE": 3153, "ĠVal": 3154, "Dig": 3155, "ds": 3156, "amazon": 3157, "Folder": 3158, "dep": 3159, "Ġresolve": 3160, "HashMap": 3161, "Product": 3162, "Selected": 3163, "ov": 3164, "page": 3165, "Tool": 3166, "Ġused": 3167, "ock": 3168, "=\\\"": 3169, "label": 3170, "Copy": 3171, "uffix": 3172, "Ġresol": 3173, "Changed": 3174, "curity": 3175, "Ġsplit": 3176, "IB": 3177, "Rece": 3178, "Tags": 3179, "Authentication": 3180, "uction": 3181, "ĠUser": 3182, "Ġfiles": 3183, "Ġmodule": 3184, "DATA": 3185, "ĠAdd": 3186, "Ġheight": 3187, "Assignable": 3188, "ens": 3189, "Ġfailed": 3190, "Ġactual": 3191, "Ġexpected": 3192, "hs": 3193, "validate": 3194, "newInstance": 3195, "codeString": 3196, "Ġprevious": 3197, "here": 3198, "collect": 3199, "ById": 3200, "Ġbec": 3201, "LIC": 3202, "ĠStringUtils": 3203, "bound": 3204, "keySet": 3205, "ĠclassName": 3206, "rincipal": 3207, "Diff": 3208, "Ġlimit": 3209, "13": 3210, "component": 3211, ">,": 3212, "getAs": 3213, "currentTimeMillis": 3214, "Primitive": 3215, "PI": 3216, "ĠOut": 3217, "One": 3218, "igned": 3219, "UI": 3220, "sis": 3221, "cloud": 3222, "command": 3223, "Full": 3224, "oop": 3225, "Ġprovider": 3226, "aded": 3227, "cat": 3228, "ALL": 3229, "Cannot": 3230, "MIN": 3231, "tro": 3232, "asList": 3233, "Accessor": 3234, "Ġver": 3235, "block": 3236, "anization": 3237, "record": 3238, "getDefault": 3239, "Snapshot": 3240, "faces": 3241, "ĠSQLException": 3242, "\":": 3243, "ĠCheck": 3244, "namespace": 3245, "ParseException": 3246, "Icon": 3247, "ugh": 3248, "super": 3249, "Aggreg": 3250, "amazonaws": 3251, "Ġdet": 3252, "oice": 3253, "ibr": 3254, "Ġapplication": 3255, "adding": 3256, "Ġconnect": 3257, "Ġrange": 3258, "Ġraw": 3259, "ha": 3260, "ORD": 3261, "Ġtimeout": 3262, "Ġpassed": 3263, "Ġoff": 3264, "Uuid": 3265, "parameter": 3266, "Import": 3267, "LowerCase": 3268, "Validation": 3269, "Instances": 3270, "TEXT": 3271, "Draw": 3272, "Ġcontrol": 3273, "card": 3274, "(\",": 3275, "Topic": 3276, "Ġextension": 3277, "Ġlevel": 3278, "Cre": 3279, "getE": 3280, "Complet": 3281, "Iter": 3282, "Idx": 3283, "14": 3284, "container": 3285, "ArrayList": 3286, "protobuf": 3287, "Ġprops": 3288, "Ġstatement": 3289, "ĠNot": 3290, "********": 3291, "idx": 3292, "float": 3293, "Ġdiff": 3294, "Ġbatch": 3295, "rs": 3296, "dbc": 3297, "getText": 3298, "leton": 3299, "Ġbeen": 3300, "Ġbound": 3301, "the": 3302, "ynt": 3303, "Ġrest": 3304, "lear": 3305, "Lambda": 3306, "BU": 3307, "ATTR": 3308, "ero": 3309, "getLast": 3310, "Runtime": 3311, "99": 3312, "stop": 3313, "Ġelements": 3314, "OBJECT": 3315, "50": 3316, "Math": 3317, "Imp": 3318, "Ġignore": 3319, "parseInt": 3320, "link": 3321, "ĠConfig": 3322, "AND": 3323, "internal": 3324, "Ġsp": 3325, "Rest": 3326, "Ġ,": 3327, "alysis": 3328, "getSimpleName": 3329, "params": 3330, "covery": 3331, "ling": 3332, "NS": 3333, "box": 3334, "formed": 3335, "atew": 3336, "22": 3337, "Use": 3338, "yped": 3339, "ĠDescri": 3340, "IF": 3341, "Ġchange": 3342, "Static": 3343, "Illegal": 3344, "Describe": 3345, "Dependency": 3346, "getRequest": 3347, "cent": 3348, "ĠAnnotation": 3349, "orig": 3350, "orter": 3351, "Agent": 3352, "words": 3353, "ä¸": 3354, "ĠDocument": 3355, "Ġpartition": 3356, "handle": 3357, "ublish": 3358, "Ġimp": 3359, "ĠoriginalDepth": 3360, "Direct": 3361, "Ġnames": 3362, "Missing": 3363, "Ġhere": 3364, "pology": 3365, "ĠID": 3366, "ignment": 3367, "Right": 3368, "Ġlook": 3369, "agement": 3370, "Could": 3371, "ĠcachedSer": 3372, "Ġinternal": 3373, "ĠexecutionContext": 3374, "Ġsame": 3375, "Ġvariable": 3376, "<?>>": 3377, "Simple": 3378, "iate": 3379, "Ġweb": 3380, "Ġscope": 3381, "Void": 3382, "Constraints": 3383, "Single": 3384, "MAT": 3385, "Ġbecause": 3386, "Predicate": 3387, "udit": 3388, "Binary": 3389, "ĠGener": 3390, "lf": 3391, "Objects": 3392, "Ac": 3393, "sible": 3394, "FIG": 3395, "options": 3396, "Required": 3397, "Ġproxy": 3398, "Ġred": 3399, "Ġ>>>": 3400, "ĠValid": 3401, "isAssignable": 3402, "req": 3403, "Ġheaders": 3404, "ĠNumber": 3405, "Summary": 3406, "ĠApp": 3407, "Ġpost": 3408, "eg": 3409, "Ġextract": 3410, "Loc": 3411, "Ġdirectory": 3412, "top": 3413, "Generic": 3414, "ĠProtocol": 3415, "PROPER": 3416, "UND": 3417, "forEach": 3418, "ĠExpression": 3419, "endsWith": 3420, "ump": 3421, "cheme": 3422, "Invocation": 3423, "Chunk": 3424, "Ġterm": 3425, "Ġbind": 3426, "ĠContext": 3427, "encode": 3428, "project": 3429, "ĠOperation": 3430, "Kind": 3431, "Listeners": 3432, "ĠByteBuffer": 3433, "idd": 3434, "Persist": 3435, "notated": 3436, "Modified": 3437, "Matcher": 3438, "Ax": 3439, "Ġstep": 3440, "getLocal": 3441, "getL": 3442, "Ġmark": 3443, "Ġtree": 3444, "ampl": 3445, "IVE": 3446, "getContext": 3447, "resolve": 3448, "Title": 3449, "adi": 3450, "itional": 3451, "Tuple": 3452, "========": 3453, "iag": 3454, "Prop": 3455, "Visible": 3456, "angle": 3457, "PATH": 3458, "toLowerCase": 3459, "UUID": 3460, "Ġ\\\"": 3461, "getG": 3462, "address": 3463, "doc": 3464, "matches": 3465, "ĠIterable": 3466, "Ġidx": 3467, "ĠJava": 3468, "Enc": 3469, "eep": 3470, "mb": 3471, "ĠError": 3472, "Ġqueue": 3473, "DataType": 3474, "OperationException": 3475, "Ġdescription": 3476, "active": 3477, "ACK": 3478, "ma": 3479, "ĠInvalid": 3480, "ific": 3481, "55": 3482, "ories": 3483, "ateway": 3484, "Ġcur": 3485, "SECON": 3486, "getX": 3487, "med": 3488, "Ġthan": 3489, "cas": 3490, "search": 3491, "Visitor": 3492, "Ġsum": 3493, "Alias": 3494, "Are": 3495, "Auto": 3496, "ĠByteArray": 3497, "aved": 3498, "ĠST": 3499, "ys": 3500, "(\"<": 3501, "Fragment": 3502, "External": 3503, "Reason": 3504, "Arch": 3505, "isAssignableFrom": 3506, "artifact": 3507, "commerce": 3508, "*/": 3509, "oz": 3510, "sb": 3511, "VICE": 3512, "Ġmeta": 3513, "erson": 3514, "Optional": 3515, "02": 3516, "sent": 3517, "ClientExecution": 3518, "tom": 3519, "ĠTree": 3520, "var": 3521, "Remove": 3522, "Ġword": 3523, "ayment": 3524, "yntax": 3525, "Subscription": 3526, "MM": 3527, "Media": 3528, "Split": 3529, "types": 3530, "ou": 3531, "ested": 3532, "ableFuture": 3533, "ĠEvent": 3534, "Ġexisting": 3535, "getParameter": 3536, "getUser": 3537, "cheduler": 3538, "RAY": 3539, "Route": 3540, "nt": 3541, "Ġinsert": 3542, "Bucket": 3543, "ENG": 3544, "FILE": 3545, "Ġcollection": 3546, "CONFIG": 3547, "licit": 3548, "Selection": 3549, "ense": 3550, "configuration": 3551, "After": 3552, "Driver": 3553, "aun": 3554, "Ġdir": 3555, "(((": 3556, "[]{": 3557, "ux": 3558, "ian": 3559, "sist": 3560, "encies": 3561, "failed": 3562, "select": 3563, "Stop": 3564, "Usage": 3565, "lice": 3566, "Ġ>>": 3567, "image": 3568, "UTE": 3569, "cogn": 3570, "Ġinitial": 3571, "sort": 3572, "We": 3573, "ĠEntity": 3574, "Writ": 3575, "sTo": 3576, "Ġio": 3577, "Variables": 3578, "join": 3579, "BE": 3580, "Ġencode": 3581, "Common": 3582, "ATOR": 3583, "Ġregis": 3584, "prop": 3585, "ĠServer": 3586, "='": 3587, "Registration": 3588, "ĠAuth": 3589, "getNode": 3590, "Ġpassword": 3591, "net": 3592, "DATE": 3593, "AndSet": 3594, "Ġbit": 3595, "Ġresources": 3596, "getField": 3597, "conf": 3598, "eo": 3599, "ĠTask": 3600, "ĠPoint": 3601, ".<": 3602, "getTime": 3603, "Ġcls": 3604, "Ġconn": 3605, "Ġmon": 3606, "ByteArray": 3607, "setName": 3608, "sw": 3609, "Ġ\")": 3610, "Ġdestination": 3611, "getStatus": 3612, "Blank": 3613, "NULL": 3614, "Ġrender": 3615, "ĠModelNode": 3616, "DC": 3617, "ĠStringBuffer": 3618, "FIELD": 3619, "track": 3620, "isher": 3621, "Ġfull": 3622, "Rows": 3623, "reshold": 3624, "wo": 3625, "URE": 3626, "ĠComplet": 3627, "IFI": 3628, "Anim": 3629, "Ġnodes": 3630, "Ġsystem": 3631, "Widget": 3632, "havi": 3633, "ottom": 3634, "ByteBuffer": 3635, "NLS": 3636, "onical": 3637, "Ġunit": 3638, "Ġshort": 3639, "Ġselect": 3640, "Ġjust": 3641, "CODE": 3642, "Ġframe": 3643, "Upper": 3644, "Tx": 3645, "ift": 3646, "Ġmore": 3647, "Sdk": 3648, "ĠServlet": 3649, "Ġitems": 3650, "Am": 3651, "(...": 3652, "Ġjavax": 3653, "ĠCache": 3654, "ĠJSONObject": 3655, "olution": 3656, "INTER": 3657, "getBytes": 3658, "ily": 3659, "VERSION": 3660, "aging": 3661, "Ġsecond": 3662, "Complete": 3663, "ĠSub": 3664, "Ġremote": 3665, "ĠText": 3666, "MPTY": 3667, "OURCE": 3668, "Ġinto": 3669, "FileName": 3670, "ĠMod": 3671, "Validator": 3672, "Ġ7": 3673, "setText": 3674, "Ġ16": 3675, "ĠEnum": 3676, "setValue": 3677, "pha": 3678, "33": 3679, "acet": 3680, "ĠConfiguration": 3681, "Ġ\"]": 3682, "Html": 3683, "Commit": 3684, "Ġcustom": 3685, "prefix": 3686, "CESS": 3687, "Ġplugin": 3688, "Ġfuture": 3689, "ĠProperties": 3690, "Signature": 3691, "CONT": 3692, "Measure": 3693, "Ġcalc": 3694, "Ġvari": 3695, "ĠDel": 3696, "NE": 3697, "Ġlocale": 3698, "UnsupportedOperationException": 3699, "struction": 3700, "ozu": 3701, "schema": 3702, "Iterable": 3703, "Associ": 3704, "Ġmy": 3705, "wrap": 3706, "ifc": 3707, "rule": 3708, "Pane": 3709, "Factories": 3710, "setProperty": 3711, "ĠRun": 3712, "Certificate": 3713, "Ġdon": 3714, "ixel": 3715, "Interceptor": 3716, "tribution": 3717, "ublisher": 3718, "aunch": 3719, "ĠDis": 3720, "Join": 3721, "Ġwait": 3722, "Errors": 3723, "Ġ//$": 3724, "Statistics": 3725, "number": 3726, "itive": 3727, "inner": 3728, "ĠTimeUnit": 3729, "expression": 3730, "Ġ},": 3731, "ads": 3732, "ĠdefaultValue": 3733, "OK": 3734, "my": 3735, "ĠIndex": 3736, "just": 3737, "Duration": 3738, "tim": 3739, "Ġrece": 3740, "--;": 3741, "Ġpush": 3742, "Layer": 3743, "ĠParameter": 3744, "eet": 3745, "eeded": 3746, "Ġeach": 3747, "bl": 3748, "Ġusing": 3749, "ired": 3750, "Dao": 3751, "getAbsolute": 3752, "ther": 3753, "STRING": 3754, "Ġsort": 3755, "STAT": 3756, "Ġarguments": 3757, "pared": 3758, "lementation": 3759, "Before": 3760, "crement": 3761, "itu": 3762, "ĠCommand": 3763, "system": 3764, "Jvm": 3765, "icator": 3766, "JsonUnmarshaller": 3767, "ExecutionContext": 3768, "ĠgetS": 3769, "Ġoption": 3770, "FIN": 3771, "Ver": 3772, "Ġpackage": 3773, "off": 3774, "OPER": 3775, "aug": 3776, "Ġdown": 3777, "ToString": 3778, "writer": 3779, "entation": 3780, "Marshalling": 3781, "NING": 3782, "Structure": 3783, "READ": 3784, "Ġrs": 3785, "(...)\");": 3786, "Ġaccept": 3787, "cessed": 3788, "ITE": 3789, "Ġdec": 3790, "Ġprev": 3791, "Ġcondition": 3792, "elp": 3793, "Day": 3794, "LIST": 3795, "Ġactive": 3796, "Ġconstructor": 3797, "Inf": 3798, "eek": 3799, "LOGGER": 3800, "ĠJob": 3801, "BO": 3802, "ĠUpdate": 3803, "Events": 3804, "Tokens": 3805, "Ġsave": 3806, "ĠLocal": 3807, "lush": 3808, "Bag": 3809, "feature": 3810, "SL": 3811, "style": 3812, "Services": 3813, "cls": 3814, "ifiable": 3815, "ond": 3816, "Ġmode": 3817, "REN": 3818, "ĠCall": 3819, "make": 3820, "Ġcause": 3821, "ĠClient": 3822, "IO": 3823, "ĠmethodName": 3824, "getMethod": 3825, "ĠPage": 3826, "Ġenc": 3827, "Qualified": 3828, "endencies": 3829, "Props": 3830, "Price": 3831, "Register": 3832, "rigger": 3833, "QName": 3834, "orrect": 3835, "Paths": 3836, "description": 3837, "engine": 3838, "mise": 3839, "Ġmember": 3840, "Ġwhere": 3841, "sets": 3842, "ĠOr": 3843, "Ġendpoint": 3844, "Rect": 3845, "Parsed": 3846, "Monitor": 3847, "alan": 3848, "ServletResponse": 3849, "jj": 3850, "Ident": 3851, "perand": 3852, "su": 3853, "quals": 3854, "rapped": 3855, "Ġmatcher": 3856, "Declared": 3857, "ouse": 3858, "ARRAY": 3859, "Ġman": 3860, "ware": 3861, "bind": 3862, "Admin": 3863, "COMP": 3864, "hing": 3865, "Formatter": 3866, "operation": 3867, "ites": 3868, "roid": 3869, "ires": 3870, "Concept": 3871, "adius": 3872, "Payload": 3873, "vance": 3874, "Ġavailable": 3875, "EClass": 3876, "getContent": 3877, "Ġ(!(": 3878, "className": 3879, "ĠAction": 3880, "Ġsuccess": 3881, "ĠApi": 3882, "Ġmv": 3883, "ĠBigDecimal": 3884, "Ip": 3885, "tact": 3886, "igger": 3887, "Ġdelegate": 3888, "draw": 3889, "setS": 3890, "ultiple": 3891, "Period": 3892, "SERVICE": 3893, "19": 3894, "ech": 3895, "eration": 3896, "!\");": 3897, "getColumn": 3898, "Generated": 3899, "ins": 3900, "ene": 3901, "ulator": 3902, "omic": 3903, "tractor": 3904, "ibrary": 3905, "Ġmetrics": 3906, "conditions": 3907, "Ġdescribe": 3908, ")\",": 3909, "EObject": 3910, "losing": 3911, "Shape": 3912, "OW": 3913, "alth": 3914, "Unknown": 3915, "Ġresp": 3916, "ĠConnection": 3917, "reset": 3918, "Ġentries": 3919, "ferred": 3920, "alyz": 3921, "Rate": 3922, "QUEST": 3923, "Area": 3924, "PREFIX": 3925, "isPresent": 3926, "\"+": 3927, "Deser": 3928, "Bind": 3929, "ĠSec": 3930, "Ġbegin": 3931, "compareTo": 3932, "Ġav": 3933, "ls": 3934, "Ġinitialize": 3935, "ions": 3936, "execut": 3937, "Ġbucket": 3938, "MAP": 3939, "This": 3940, "ful": 3941, "ĠPl": 3942, "Tri": 3943, "ĠTable": 3944, "Score": 3945, "eer": 3946, "ELE": 3947, "xb": 3948, "Destination": 3949, "axis": 3950, "uce": 3951, "function": 3952, "Comment": 3953, "ipe": 3954, "cluded": 3955, "getUnmarshaller": 3956, "ges": 3957, "ĠImage": 3958, "Ġcell": 3959, "Ġapi": 3960, "Off": 3961, "Ġpop": 3962, "limit": 3963, "Ġbundle": 3964, "Detail": 3965, "application": 3966, "ĠNull": 3967, "Ġcursor": 3968, "show": 3969, "uplic": 3970, "height": 3971, "Public": 3972, "getInt": 3973, "TypeName": 3974, "amily": 3975, "START": 3976, "PROPERTY": 3977, "post": 3978, "abs": 3979, "cheduled": 3980, "oles": 3981, "Available": 3982, "ĠInternalX": 3983, "sResult": 3984, "Ġgraph": 3985, "full": 3986, "23": 3987, "Ġcontains": 3988, "Ġdeclar": 3989, "SSAGE": 3990, "getFirst": 3991, "Proto": 3992, "Ġcounter": 3993, "escape": 3994, "Defined": 3995, "Ġnamespace": 3996, "web": 3997, "decode": 3998, "ffect": 3999, "Rules": 4000, "estro": 4001, "SSION": 4002, "beta": 4003, "getMax": 4004, "Ġchain": 4005, "Ġspecified": 4006, "Ġinclude": 4007, "Specification": 4008, "DataSource": 4009, "html": 4010, "LINE": 4011, "ĠfieldName": 4012, "Insn": 4013, "Attachment": 4014, "getAnnotation": 4015, "estroy": 4016, "Iss": 4017, "Edit": 4018, "ĠBean": 4019, "Ġencoding": 4020, "Stage": 4021, "ipher": 4022, "getAbsolutePath": 4023, "Temp": 4024, "Ġsequence": 4025, "ĠCode": 4026, "Dto": 4027, "Language": 4028, "Ġmapping": 4029, "getIn": 4030, "xFF": 4031, "Ġclear": 4032, "ison": 4033, "ootstr": 4034, "ĠAssert": 4035, "setAttribute": 4036, "CRE": 4037, "OPERATION": 4038, "Ġjoin": 4039, "ducer": 4040, "Ġcolumns": 4041, "Ġsupported": 4042, "Ġmapper": 4043, "valuate": 4044, "generate": 4045, "ĠState": 4046, "compute": 4047, "ExecutionException": 4048, "ACT": 4049, "Ġloop": 4050, "sume": 4051, "Revision": 4052, "bar": 4053, "ASE": 4054, "ONE": 4055, "vas": 4056, "Ġstyle": 4057, "Tick": 4058, "Assignment": 4059, "Ġ\"\\\"": 4060, "Members": 4061, "Global": 4062, "Ġfetch": 4063, "DK": 4064, "ĠVector": 4065, "Ġmethods": 4066, "Timer": 4067, "17": 4068, "Ġchunk": 4069, "Virtual": 4070, "Exists": 4071, "itude": 4072, "PORT": 4073, "head": 4074, "isNot": 4075, "ĠOn": 4076, "ootstrap": 4077, "report": 4078, "GRO": 4079, "CS": 4080, "AsString": 4081, "ĠY": 4082, "Ġscript": 4083, "Ġpool": 4084, "Points": 4085, "listener": 4086, "FOL": 4087, "(\".": 4088, "Ġhtml": 4089, "RuntimeException": 4090, "locator": 4091, "Real": 4092, "ORY": 4093, "Execute": 4094, "aven": 4095, "level": 4096, "Unique": 4097, "Ġreset": 4098, "Arrays": 4099, "stack": 4100, "ĠAct": 4101, "ifest": 4102, "AccessException": 4103, "clud": 4104, "Ġreal": 4105, "ĠProcess": 4106, "ADD": 4107, "Ġopt": 4108, "ĠDB": 4109, "oom": 4110, "Ġcf": 4111, "redential": 4112, "nd": 4113, "SECONDS": 4114, "Email": 4115, "tmp": 4116, "amples": 4117, "WR": 4118, "Ġinner": 4119, "Ġrep": 4120, "oordinate": 4121, "SA": 4122, "Supplier": 4123, "||": 4124, "Ġmerge": 4125, "ResponseHandler": 4126, "ifec": 4127, "ĠDescribe": 4128, "title": 4129, "tn": 4130, "Gateway": 4131, "Ġtokens": 4132, "del": 4133, "Ġdig": 4134, "getChild": 4135, "Grid": 4136, "CHAR": 4137, "SdkInternal": 4138, "sole": 4139, "TypeReference": 4140, "Vol": 4141, "SK": 4142, "ountry": 4143, "Hint": 4144, "resources": 4145, "ifecycle": 4146, "ĠNoSuch": 4147, "More": 4148, "Transform": 4149, "Ġcast": 4150, "flush": 4151, "ĠFilter": 4152, "patcher": 4153, "Cursor": 4154, "Font": 4155, "require": 4156, "Ġclean": 4157, "begin": 4158, "30": 4159, "Ġcreated": 4160, "Ġpipeline": 4161, "Encoder": 4162, "Ġservlet": 4163, "Ġph": 4164, "patch": 4165, "ENGTH": 4166, "Ġcompute": 4167, "CL": 4168, "ider": 4169, "ĠDe": 4170, "gram": 4171, "PARAM": 4172, "Ori": 4173, "<?,": 4174, "metric": 4175, "constr": 4176, "Ġtransform": 4177, "TableName": 4178, "arraycopy": 4179, "parison": 4180, "protocol": 4181, "Jar": 4182, "Ġrec": 4183, "Ġ\":": 4184, "insert": 4185, "Ġlayout": 4186, "(\"%": 4187, "addParameter": 4188, "Ġdefinition": 4189, "SY": 4190, "core": 4191, "ationException": 4192, "scribe": 4193, "Capacity": 4194, "Ġenv": 4195, "Ġexpr": 4196, "atform": 4197, "Ġaccount": 4198, "ĠPreconditions": 4199, "Ġimport": 4200, "CR": 4201, "Separator": 4202, "ĠColor": 4203, "havior": 4204, "Owner": 4205, "Ġshow": 4206, "Ġstorage": 4207, "API": 4208, "Span": 4209, "getN": 4210, "ĠForm": 4211, "ĠfileName": 4212, "total": 4213, "Editor": 4214, "iven": 4215, "Seq": 4216, "Ġsettings": 4217, "temp": 4218, "Ġpayload": 4219, "apache": 4220, "Ġensure": 4221, "pattern": 4222, "Ġexist": 4223, "MI": 4224, "ĠEND": 4225, "handlers": 4226, "imiter": 4227, "Org": 4228, "Algorithm": 4229, "APP": 4230, "Bits": 4231, "alle": 4232, "Raw": 4233, "edis": 4234, "LENGTH": 4235, "PUT": 4236, "_.": 4237, "21": 4238, "Modifier": 4239, "Ġ9": 4240, "Pipeline": 4241, "ope": 4242, "igr": 4243, "notNull": 4244, "VAR": 4245, "aterial": 4246, "Scan": 4247, "files": 4248, "ses": 4249, "Section": 4250, "Look": 4251, "ĠPattern": 4252, "SU": 4253, "Connector": 4254, "Ġsw": 4255, "azy": 4256, "inished": 4257, "HEAD": 4258, "Ġsince": 4259, "ccum": 4260, "getCurrentDepth": 4261, "Ġsupport": 4262, "Ġ...": 4263, "ĠFloat": 4264, "Definitions": 4265, "uch": 4266, "pn": 4267, "Ġrequire": 4268, "short": 4269, "submit": 4270, "Ġ--": 4271, "ĠresponseHandler": 4272, "--------------------------------": 4273, "https": 4274, "jb": 4275, "rough": 4276, "Ġdecode": 4277, "rt": 4278, "Tasks": 4279, "Ġartifact": 4280, "Equal": 4281, "ĠLinkedList": 4282, "Codec": 4283, "access": 4284, "ely": 4285, "REQUEST": 4286, "};": 4287, "FormatException": 4288, "MB": 4289, "Ġdescriptor": 4290, "Relationship": 4291, "Ġprob": 4292, "Ġgrid": 4293, "Ġnormal": 4294, "ializable": 4295, "ĠChannel": 4296, "cm": 4297, "Weight": 4298, "Ġ[\"": 4299, "DF": 4300, "gon": 4301, "Ġcontain": 4302, "Ġatom": 4303, "Ġclasses": 4304, "Decl": 4305, "ATTRIB": 4306, "Else": 4307, "Ġgo": 4308, "istic": 4309, "Ġexists": 4310, "EXT": 4311, "Ġcmd": 4312, "RED": 4313, "Parsing": 4314, "achine": 4315, "POST": 4316, "ols": 4317, "ReturnType": 4318, "VALID": 4319, "Opt": 4320, "push": 4321, "Ġedge": 4322, "Ġdesc": 4323, "ĠTag": 4324, "Ġowner": 4325, "olygon": 4326, "ĠDelete": 4327, "USER": 4328, "MESSAGE": 4329, "isNull": 4330, "BYTE": 4331, "Ġloc": 4332, "rest": 4333, "xff": 4334, "Ġscale": 4335, "getObject": 4336, "ĠcaseIfc": 4337, "AUT": 4338, "pressed": 4339, "bserver": 4340, "rieve": 4341, "Year": 4342, "parameters": 4343, "Ġdevice": 4344, "Rec": 4345, "Collectors": 4346, "ernal": 4347, "ET": 4348, "ĠDEFAULT": 4349, "Dimension": 4350, "ĠTransaction": 4351, "Total": 4352, "eric": 4353, "IM": 4354, "Flag": 4355, "Ġ/**": 4356, "Ġgr": 4357, "ONG": 4358, "Ġdisplay": 4359, "Ġdeployment": 4360, "OM": 4361, "erms": 4362, "Tab": 4363, "enant": 4364, "Ġos": 4365, "Strings": 4366, "ĠContent": 4367, "ĠComponent": 4368, "Ġscan": 4369, "(\"[": 4370, "cedure": 4371, "vide": 4372, "ives": 4373, "Super": 4374, "Evalu": 4375, "sign": 4376, "Ġupd": 4377, "Authorization": 4378, "Ġrows": 4379, "Archive": 4380, "tl": 4381, "intValue": 4382, "Processing": 4383, "Mask": 4384, "Transport": 4385, "ĠAl": 4386, "FINE": 4387, "ccur": 4388, "Extended": 4389, "Ġsocket": 4390, "arshal": 4391, "ĠFI": 4392, "Ġrepository": 4393, "ĠColumn": 4394, "Ġalt": 4395, "Av": 4396, "Ġthem": 4397, "COUN": 4398, "27": 4399, "JsonObject": 4400, "Background": 4401, "forName": 4402, "gnored": 4403, "getFile": 4404, "Upload": 4405, "Month": 4406, "newLine": 4407, "PTION": 4408, "ĠCalendar": 4409, "ĠDateTime": 4410, "Ġrelation": 4411, "AsyncHandler": 4412, "allel": 4413, "AV": 4414, "RequestMetrics": 4415, "irror": 4416, "template": 4417, "ural": 4418, "Ġwindow": 4419, "pop": 4420, "spec": 4421, "28": 4422, "Ġprogress": 4423, "Ġerrors": 4424, "Ġselected": 4425, "ĠRet": 4426, "oft": 4427, "Ġ-=": 4428, "Ġtitle": 4429, "startEvent": 4430, "anel": 4431, "(-": 4432, "DArray": 4433, "idden": 4434, "Geometry": 4435, "Ġ\").": 4436, "Ġstrategy": 4437, "getSource": 4438, "aj": 4439, "Trigger": 4440, "WSRequestMetrics": 4441, "JS": 4442, "Core": 4443, "document": 4444, "Ġcs": 4445, "getSh": 4446, "Lat": 4447, "Ġverify": 4448, "bit": 4449, "jector": 4450, "WN": 4451, "Print": 4452, "Flags": 4453, "EMPTY": 4454, "Ġdraw": 4455, "keys": 4456, "late": 4457, "awsRequestMetrics": 4458, "ĠbeforeClientExecution": 4459, "IAL": 4460, "Scale": 4461, "RequestMarshall": 4462, "RequestMarshallTime": 4463, "alt": 4464, "parser": 4465, "Ġdomain": 4466, "Inv": 4467, "Ġallow": 4468, "Ġds": 4469, "igInteger": 4470, "Ġsingle": 4471, "alancer": 4472, "ĠSession": 4473, "ways": 4474, "HTTP": 4475, "ByName": 4476, "####": 4477, "Scroll": 4478, "main": 4479, "ELEMENT": 4480, "AXB": 4481, "Ġcre": 4482, "opt": 4483, "ĠgetValue": 4484, "replaceAll": 4485, "getLength": 4486, "queue": 4487, "Ġ\"/\"": 4488, "Credentials": 4489, ")),": 4490, "toList": 4491, "fill": 4492, "Wait": 4493, "<?>)": 4494, "Ġcolor": 4495, "attributes": 4496, "Second": 4497, "Ġinst": 4498, "Ġev": 4499, "avig": 4500, "save": 4501, "Ġits": 4502, "ernel": 4503, "Ġwrit": 4504, "Ġdelta": 4505, "Head": 4506, "WAR": 4507, "callback": 4508, "Ġ|=": 4509, "Locator": 4510, "]\",": 4511, "Ġjar": 4512, "ĠHT": 4513, "FOLLOW": 4514, "Delet": 4515, "transform": 4516, "Ms": 4517, "ULE": 4518, "Bus": 4519, "asyncHandler": 4520, "finalRequest": 4521, "ĠLA": 4522, "Ġ'%": 4523, "ĠCompletableFuture": 4524, "ĠEntry": 4525, "ojo": 4526, "ĠUtil": 4527, "Gen": 4528, "dl": 4529, "oding": 4530, "ugg": 4531, "Ġmanager": 4532, "ike": 4533, "Ġcould": 4534, "LETE": 4535, "CAL": 4536, "SIG": 4537, "Ġpair": 4538, "handler": 4539, "getStart": 4540, "Ġprofile": 4541, "Seconds": 4542, "skip": 4543, "Dataset": 4544, "ĠInterruptedException": 4545, "ĠBit": 4546, "ores": 4547, "Ġpermission": 4548, "Principal": 4549, "go": 4550, "ServiceResponseAsync": 4551, "Export": 4552, "Ġtrace": 4553, "isSet": 4554, "Scal": 4555, "used": 4556, "Put": 4557, "Ġbr": 4558, "REG": 4559, "ITION": 4560, "Place": 4561, "ibm": 4562, "before": 4563, "getSub": 4564, "color": 4565, "Ġcommit": 4566, "ĠConstr": 4567, "Ġdirect": 4568, "ĠDatabase": 4569, "Ġconsumer": 4570, "STATE": 4571, "Transformer": 4572, "ween": 4573, "LY": 4574, "ARY": 4575, "Closed": 4576, "Attempt": 4577, "IST": 4578, "acy": 4579, "uc": 4580, "bedded": 4581, "sList": 4582, "Ġdone": 4583, "getWidth": 4584, "Callable": 4585, "Ġrole": 4586, "()];": 4587, "ework": 4588, "Ġinvalid": 4589, "Ġinpos": 4590, "[][]": 4591, "Ġadded": 4592, "oriz": 4593, "ĠRunnable": 4594, ";\");": 4595, "Ġ\"\");": 4596, "Ġregistry": 4597, "tracking": 4598, "etween": 4599, "Site": 4600, "Delay": 4601, "br": 4602, "66": 4603, "cluster": 4604, "ramework": 4605, "Delegate": 4606, "oth": 4607, "wise": 4608, "ĠConstants": 4609, "Ġsome": 4610, "Ġbl": 4611, "ĠPri": 4612, "incre": 4613, "InterruptedException": 4614, "Cause": 4615, "Ġ?>": 4616, "ĠTim": 4617, "ictionary": 4618, "Ġfail": 4619, "ĠOutputStream": 4620, "rows": 4621, "()[": 4622, "Env": 4623, "cognition": 4624, "uffers": 4625, "range": 4626, "getNext": 4627, "IZ": 4628, "manager": 4629, "Ġsure": 4630, "Ġpersist": 4631, "commit": 4632, "IndexOf": 4633, "NUM": 4634, "Decoder": 4635, "sm": 4636, "gen": 4637, "scriber": 4638, "wait": 4639, "locate": 4640, "ĠRef": 4641, "DD": 4642, "vided": 4643, "Ġcomplet": 4644, "Fixed": 4645, "acters": 4646, "Ġconstraint": 4647, "ĠReference": 4648, "iss": 4649, "ĠFor": 4650, "Sample": 4651, "original": 4652, "member": 4653, "Ġperform": 4654, "Ġour": 4655, "yy": 4656, "Managed": 4657, "leep": 4658, "ĠPrint": 4659, "Ġstmt": 4660, "Ġ();": 4661, "Cur": 4662, "luster": 4663, "wh": 4664, "Ġactivity": 4665, "arm": 4666, "stanti": 4667, "Intent": 4668, "ele": 4669, "Pack": 4670, "Ġ\"_": 4671, "atype": 4672, "Cookie": 4673, "Ġpredicate": 4674, "Ġusername": 4675, "CONTENT": 4676, "wn": 4677, "Runner": 4678, "extension": 4679, "Ġconfigure": 4680, "mission": 4681, "ialect": 4682, "ĠCharacter": 4683, "DEX": 4684, "custom": 4685, "ĠBlock": 4686, "ITH": 4687, "getH": 4688, "Clause": 4689, "cludes": 4690, "plex": 4691, "ench": 4692, "POS": 4693, "eserialize": 4694, "aming": 4695, "Ġtimestamp": 4696, "Ġparts": 4697, "aim": 4698, "Ġfilename": 4699, "REF": 4700, "module": 4701, "ĠVariable": 4702, "Retry": 4703, "Ġdiffer": 4704, "getService": 4705, "ï¼": 4706, "ĠTypes": 4707, "WithServiceResponseAsync": 4708, "Deprec": 4709, "argument": 4710, "ivate": 4711, "Ġam": 4712, "BagConstraints": 4713, "Ġsm": 4714, "Ġremoved": 4715, "Setting": 4716, "EC": 4717, "JB": 4718, "Ġenvironment": 4719, "Ġ\"<": 4720, "losure": 4721, "TRAN": 4722, "35": 4723, "Ġsent": 4724, "Ġsecurity": 4725, "INFO": 4726, "ĠCommerce": 4727, "ĠtableName": 4728, "olt": 4729, "Standard": 4730, "Modifiers": 4731, "ĠImmutableList": 4732, "icon": 4733, "Topology": 4734, "ildcard": 4735, "ĠHe": 4736, "Visibility": 4737, "else": 4738, "ĠXml": 4739, "opied": 4740, "Ġ\"-": 4741, "Deprecated": 4742, "clone": 4743, "getVersion": 4744, "getHost": 4745, "Organization": 4746, "Ġ).": 4747, "iom": 4748, "getIndex": 4749, "Syntax": 4750, "segment": 4751, "TABLE": 4752, "Axis": 4753, "las": 4754, "backtracking": 4755, "ager": 4756, "fieldName": 4757, "ĠRem": 4758, ".\"": 4759, "88": 4760, "GroupId": 4761, "Transition": 4762, "getAll": 4763, "20180": 4764, "40": 4765, "LL": 4766, "26": 4767, "ĠresourceGroupName": 4768, "Ġlat": 4769, "Created": 4770, "velope": 4771, "ĠInt": 4772, "oke": 4773, "Ġmatches": 4774, "estion": 4775, "Ġadapter": 4776, ">\\": 4777, "Ġ1000": 4778, "Extensions": 4779, "><": 4780, "very": 4781, "clusive": 4782, "ilities": 4783, "impl": 4784, "Ġidentifier": 4785, "getComponent": 4786, "ids": 4787, "THOD": 4788, "det": 4789, "Random": 4790, "ĠOp": 4791, "Sort": 4792, "QualifiedName": 4793, "UMN": 4794, "icates": 4795, "ATED": 4796, "Ġbest": 4797, "(\"-": 4798, "(\"\\\\": 4799, "Dat": 4800, "ker": 4801, "reference": 4802, "ĠFunc": 4803, "NECT": 4804, "www": 4805, "ĠgetC": 4806, "ĠRandom": 4807, "ĠLe": 4808, "ĠBuild": 4809, "Expected": 4810, "Border": 4811, "Sur": 4812, "Prob": 4813, "References": 4814, "come": 4815, "Replace": 4816, "Allowed": 4817, "GROUP": 4818, "AG": 4819, "[]>": 4820, "VO": 4821, "uring": 4822, "stit": 4823, "Ġtags": 4824, "Management": 4825, "ulk": 4826, "pm": 4827, "imate": 4828, "ĠMon": 4829, "weight": 4830, "aml": 4831, "UST": 4832, "Ġiss": 4833, "MAGE": 4834, "getY": 4835, "OS": 4836, "Ġmessages": 4837, "Compat": 4838, "Loop": 4839, "RequestMarshaller": 4840, "td": 4841, "Ġcompose": 4842, "Ġstats": 4843, "Ġcap": 4844, "Ġalias": 4845, "board": 4846, "ulation": 4847, "getLong": 4848, "MODE": 4849, "ĠSecurity": 4850, "Equals": 4851, "ases": 4852, "Tracker": 4853, "rift": 4854, "orElse": 4855, "getElement": 4856, "uplicate": 4857, "Worker": 4858, "});": 4859, "Ġ$": 4860, "olation": 4861, "metadata": 4862, "ĠSchema": 4863, "ĠVAL": 4864, "Dynamic": 4865, "Ġengine": 4866, "Marker": 4867, "rammarAccess": 4868, "Ġmulti": 4869, "PRI": 4870, "Distance": 4871, "NONE": 4872, "cognitionException": 4873, "section": 4874, "timeout": 4875, "Final": 4876, "Ġlookup": 4877, "security": 4878, "Cal": 4879, "meta": 4880, "ILLI": 4881, "ATTRIBUTE": 4882, "Ġqual": 4883, "wt": 4884, "udio": 4885, "utom": 4886, "ĠGraph": 4887, "Criteria": 4888, "ingleton": 4889, "TERN": 4890, "Ġtrack": 4891, "less": 4892, "rel": 4893, "ĠAtomic": 4894, "gable": 4895, "argin": 4896, "TRUE": 4897, "Ġchanged": 4898, "Ġfire": 4899, "Login": 4900, "ĠSearch": 4901, "UpperCase": 4902, "ĠLogger": 4903, "database": 4904, "LOCK": 4905, "getTarget": 4906, "COUNT": 4907, "ROOT": 4908, "Insert": 4909, "SQLException": 4910, "Ġconverter": 4911, "Upd": 4912, "WE": 4913, "layout": 4914, "ii": 4915, "ĠIfc": 4916, "eries": 4917, "etAddress": 4918, "complete": 4919, "Ġhapp": 4920, "Ġme": 4921, "Ġloader": 4922, "ĠMAP": 4923, "currentThread": 4924, "SP": 4925, "Ġnotify": 4926, "Sync": 4927, "Logging": 4928, "Direction": 4929, "increment": 4930, "Cost": 4931, "ĠCON": 4932, "Mult": 4933, "ĠApplication": 4934, "ĠpropertyName": 4935, "adwords": 4936, "(\"_": 4937, "Ġkeep": 4938, "Labels": 4939, "Ġbutton": 4940, "curs": 4941, "Ġenum": 4942, "getEntity": 4943, "provider": 4944, "env": 4945, "separator": 4946, "ĠBasic": 4947, "iagn": 4948, "ĠClassLoader": 4949, "ĠUnsupportedOperationException": 4950, "AccessorTable": 4951, "Sent": 4952, "Lookup": 4953, "ĠName": 4954, "Screen": 4955, "Ġans": 4956, "Ġallowed": 4957, "resourceGroupName": 4958, "utation": 4959, "ither": 4960, "Begin": 4961, ">>()": 4962, "////////": 4963, "ensor": 4964, "Issue": 4965, "yc": 4966, "identifier": 4967, "Ġsubject": 4968, "me": 4969, "getHeight": 4970, "control": 4971, "DER": 4972, "Conversion": 4973, "Stax": 4974, "Send": 4975, "(()": 4976, "Ġsignature": 4977, "partition": 4978, "zip": 4979, "ideo": 4980, "Ġtrigger": 4981, "Ġgenerator": 4982, "Padding": 4983, "InstanceState": 4984, "describe": 4985, "proxy": 4986, "Ġsup": 4987, "look": 4988, "Operations": 4989, "HEADER": 4990, "Ġcomplete": 4991, "erved": 4992, "Distribution": 4993, "ĠIO": 4994, "FS": 4995, "Ġ\".\"": 4996, "Ġ(((": 4997, "ĠLocale": 4998, "vile": 4999, "ResultSet": 5000, "getRoot": 5001, "ĠWork": 5002, "PointerException": 5003, "60": 5004, "Backup": 5005, "factory": 5006, "ogram": 5007, "Ġglobal": 5008, "ierarch": 5009, "100": 5010, "Ġerr": 5011, "Sl": 5012, "Ġobjects": 5013, "Ġtopic": 5014, "Ġwant": 5015, "Features": 5016, "LED": 5017, "Drawable": 5018, "binding": 5019, "thread": 5020, "StaxUnmarshaller": 5021, "Ġlisteners": 5022, "Ġprepare": 5023, "ĠByteArrayOutputStream": 5024, "ĠOrder": 5025, "Workflow": 5026, "Immutable": 5027, "ĠopLambda": 5028, "enum": 5029, "Ġserialize": 5030, "Primary": 5031, "Ġstruct": 5032, "rowser": 5033, "Vars": 5034, "Follow": 5035, "rv": 5036, "scan": 5037, "cf": 5038, "ĠNO": 5039, "ENCE": 5040, "Bitmap": 5041, "Ġsymbol": 5042, "Filters": 5043, "adow": 5044, "istogram": 5045, "paredStatement": 5046, "Ġpanel": 5047, "Ġvertex": 5048, ")){": 5049, "Ġmask": 5050, "setC": 5051, "ĠMatcher": 5052, "Ġexchange": 5053, "Unsigned": 5054, "Parts": 5055, ",\"": 5056, "34": 5057, "Native": 5058, "ĠOpen": 5059, "ĠProtocolMarshaller": 5060, "Ġinterface": 5061, "SCRI": 5062, "Lines": 5063, "Ġupdated": 5064, "LICATION": 5065, "Person": 5066, "Getter": 5067, "Ġaggreg": 5068, "Composite": 5069, "Association": 5070, "adient": 5071, "ĠUI": 5072, "Fetch": 5073, "Ġflow": 5074, "Ġretry": 5075, "bs": 5076, "Ġcontroller": 5077, "Ġ100": 5078, "()){": 5079, "Ġresolved": 5080, "pack": 5081, "scope": 5082, "Ġcurr": 5083, "ĠMulti": 5084, "ĠRead": 5085, "Records": 5086, "mi": 5087, "merge": 5088, "PLA": 5089, "ĠRule": 5090, "ithra": 5091, "ViewById": 5092, "singleton": 5093, "Ġcharacter": 5094, "ĠInput": 5095, "Threshold": 5096, "ĠStatus": 5097, "]));": 5098, "loader": 5099, "password": 5100, "ui": 5101, "package": 5102, "tokens": 5103, "mode": 5104, "Ġifc": 5105, "ongo": 5106, "setType": 5107, "Running": 5108, "States": 5109, "Do": 5110, "getDeclared": 5111, "Hex": 5112, "Ord": 5113, "Ġmissing": 5114, "graph": 5115, "lastIndexOf": 5116, "ĠInternalXbase": 5117, "etter": 5118, "Ġhead": 5119, "HttpRequest": 5120, "ĠIS": 5121, "icip": 5122, "js": 5123, "FORMAT": 5124, "ĠEn": 5125, "Ġbinding": 5126, "getConfig": 5127, "Ġdebug": 5128, "ACTION": 5129, "resol": 5130, "PEC": 5131, "HER": 5132, "available": 5133, "Ġpossible": 5134, "Chars": 5135, "Ġcharset": 5136, "RESOURCE": 5137, "ĠBufferedReader": 5138, "Ġpass": 5139, "getResponse": 5140, "Ġauthentication": 5141, "mediate": 5142, "iration": 5143, "CUR": 5144, "Ġgen": 5145, "ĠVALUE": 5146, "Ġap": 5147, "render": 5148, "ĠTuple": 5149, "servlet": 5150, "ross": 5151, "EM": 5152, "LET": 5153, "mine": 5154, "batch": 5155, "Ġnetwork": 5156, "OFF": 5157, "unit": 5158, "ByComparator": 5159, "cap": 5160, "ANT": 5161, "Named": 5162, "Ġcalculate": 5163, "Rout": 5164, "FieldName": 5165, "Actions": 5166, "Ġssl": 5167, "AUTH": 5168, "ential": 5169, "Ġregion": 5170, "Ġrandom": 5171, "InstanceId": 5172, "Ġweight": 5173, "Blocking": 5174, "Ġcancel": 5175, "29": 5176, "Ġgiven": 5177, "ryption": 5178, "unlock": 5179, "Paint": 5180, "requ": 5181, "BUG": 5182, "37": 5183, "Tile": 5184, "Ġfill": 5185, "ĠnewValue": 5186, "ĠParseException": 5187, "plugin": 5188, "Ġ^": 5189, "Show": 5190, "ãģ": 5191, "EV": 5192, "Ġcor": 5193, "Ġduration": 5194, "getSession": 5195, "Infos": 5196, "Ġdependency": 5197, "iness": 5198, "BASE": 5199, "abilities": 5200, "\")));": 5201, "fields": 5202, "GL": 5203, "ighb": 5204, "lap": 5205, "ĠMatrix": 5206, "Ġdefined": 5207, "Ġps": 5208, "Ġruntime": 5209, "ĠAccess": 5210, "transaction": 5211, "ponses": 5212, "prev": 5213, "ProtocolMarshaller": 5214, "SUB": 5215, "tf": 5216, "acesContext": 5217, "ĠAPI": 5218, "ableConcept": 5219, "Subject": 5220, "Ġmove": 5221, "OrEmpty": 5222, "Persistence": 5223, "Ġself": 5224, "PACE": 5225, "getLastParsed": 5226, "Ġspace": 5227, "Ġarr": 5228, "clusion": 5229, "vanced": 5230, "jar": 5231, "ContentType": 5232, "should": 5233, "Ġlayer": 5234, "getLastParsedParentElement": 5235, "INDEX": 5236, "Ctx": 5237, "frame": 5238, "Ġsl": 5239, "Ġdelet": 5240, "Ġip": 5241, "HashSet": 5242, "ĠMAX": 5243, "ĠRepository": 5244, "ĠprotocolFactory": 5245, "Branch": 5246, "Ġ\"\"": 5247, "allback": 5248, "Ġ(@": 5249, "Ġms": 5250, "Ġindent": 5251, "Family": 5252, "vis": 5253, "expr": 5254, "CONNECT": 5255, "HttpServletRequest": 5256, "RENT": 5257, "Throw": 5258, "ĠMem": 5259, "newBuilder": 5260, "Safe": 5261, "Ġproduct": 5262, "iagnost": 5263, "ĠcheckNotNull": 5264, "Renderer": 5265, "div": 5266, "option": 5267, "FT": 5268, "Ġcandidate": 5269, "ĠCommon": 5270, "Mirror": 5271, "Ġids": 5272, "Permissions": 5273, "etermine": 5274, "COLUMN": 5275, "ĠRel": 5276, "Vert": 5277, "Ġzip": 5278, "Ġflags": 5279, "Extra": 5280, "names": 5281, "versation": 5282, "ĠUtils": 5283, "prepare": 5284, "flat": 5285, "onError": 5286, "release": 5287, "Supported": 5288, "NODE": 5289, "jsp": 5290, "children": 5291, "Fl": 5292, "enchmark": 5293, "Skip": 5294, "Ġvalidation": 5295, "Assert": 5296, "BER": 5297, "non": 5298, "Require": 5299, "Ġwrapper": 5300, "Ġ\";": 5301, "enari": 5302, "anonical": 5303, "QueryBuilder": 5304, "Sets": 5305, "ivation": 5306, "ĠRes": 5307, "compile": 5308, "endpoint": 5309, "Ġauto": 5310, "Ġattach": 5311, "ĠCP": 5312, "ĠBind": 5313, "Main": 5314, "aptor": 5315, "isLog": 5316, "SSL": 5317, "Extractor": 5318, "Master": 5319, "Balancer": 5320, "çļ": 5321, "kg": 5322, "getEnd": 5323, "script": 5324, "Cancel": 5325, "imeType": 5326, "ĠVoid": 5327, "çļĦ": 5328, "ĠPredicate": 5329, "Ġreason": 5330, "empl": 5331, "Inputs": 5332, "Exchange": 5333, ">>>": 5334, "getMin": 5335, "side": 5336, "Ġ[{}": 5337, "itespace": 5338, "getCause": 5339, "STATUS": 5340, "road": 5341, "So": 5342, "Chart": 5343, "domain": 5344, "},": 5345, "Initial": 5346, "Ġwrap": 5347, "Ġent": 5348, "locale": 5349, "Suffix": 5350, "MILLI": 5351, "_);": 5352, "Dependencies": 5353, "Ġdoesn": 5354, "WID": 5355, "ĠexecutorService": 5356, "illi": 5357, "Catalog": 5358, "sd": 5359, "ĠSAX": 5360, "ĠLine": 5361, "SERVER": 5362, "Ġsection": 5363, "cel": 5364, "Sol": 5365, "elements": 5366, "Example": 5367, "isTrace": 5368, "Ġscore": 5369, "Ship": 5370, "Ġsetup": 5371, "icker": 5372, "Ġprimary": 5373, "QUAL": 5374, "emptyList": 5375, "so": 5376, "Mapp": 5377, "dap": 5378, "ClickListener": 5379, "ailability": 5380, "Ġparsed": 5381, "Creator": 5382, "ĠPair": 5383, "åĪ": 5384, "Configs": 5385, "import": 5386, "Ġattrs": 5387, "MIT": 5388, "cd": 5389, "ĠJsonObject": 5390, "Comparison": 5391, "ĠSI": 5392, "Secret": 5393, "Basic": 5394, "ĠinputStream": 5395, "case": 5396, "Accept": 5397, "ENTER": 5398, "DAY": 5399, "Vi": 5400, ")(": 5401, "Ġcalled": 5402, "Ġrelease": 5403, "Updated": 5404, "dst": 5405, "ĠgetClass": 5406, "Ġpresent": 5407, "Codes": 5408, "izedType": 5409, "ĠqName": 5410, "ĠLabel": 5411, "Health": 5412, "ĠRecord": 5413, "Ġlines": 5414, "ĠCondition": 5415, "riginal": 5416, "chor": 5417, "39": 5418, "ness": 5419, "fpl": 5420, "Handlers": 5421, "Absent": 5422, "Ġencoded": 5423, "Ġsnapshot": 5424, "ĠINDArray": 5425, "Pixel": 5426, "question": 5427, "ĠFileInputStream": 5428, "viders": 5429, "cision": 5430, "Ġmemory": 5431, "OPT": 5432, "DateFormat": 5433, "Ġrunning": 5434, "UBLE": 5435, "Ġtimer": 5436, "sec": 5437, "anos": 5438, "Tra": 5439, "getLocation": 5440, "ĠHttpServletResponse": 5441, "Components": 5442, "Ops": 5443, "Ġprimitive": 5444, "Behavior": 5445, "fplib": 5446, "holder": 5447, "ano": 5448, "Ġsec": 5449, "Ġassoci": 5450, "Entities": 5451, "pany": 5452, "MOD": 5453, "ĠItem": 5454, "Ġ),": 5455, "ĠMojo": 5456, "Mappings": 5457, "Ġinterval": 5458, "Ġns": 5459, "isk": 5460, "Quot": 5461, "lif": 5462, "Ġ})": 5463, "Instruction": 5464, "Ġannotations": 5465, "marshal": 5466, "ĠLinkedHashMap": 5467, "Ġoperator": 5468, "Writable": 5469, "Audit": 5470, "Sorted": 5471, "finish": 5472, "ALSE": 5473, "ĠScript": 5474, "getResult": 5475, "Ġday": 5476, "presentation": 5477, "pring": 5478, "Ġretval": 5479, "Ġlower": 5480, "Ġadditional": 5481, "Based": 5482, "Ġignored": 5483, "Ġimplement": 5484, "Ġunique": 5485, "getState": 5486, "Ġsee": 5487, "variable": 5488, "StringUtil": 5489, "ovy": 5490, "ĠQ": 5491, "EW": 5492, "86": 5493, "Ġflush": 5494, "Signing": 5495, "Co": 5496, "cancel": 5497, "Checker": 5498, "Facet": 5499, "METHOD": 5500, "Ġtwo": 5501, "ecess": 5502, "remote": 5503, "cmd": 5504, "DIS": 5505, "herit": 5506, "found": 5507, "Ġmatrix": 5508, "headers": 5509, "84": 5510, "Ġnotification": 5511, "sequence": 5512, "icated": 5513, "Ġdialog": 5514, "Ġformatter": 5515, "IGHT": 5516, "Analysis": 5517, "DAO": 5518, "eme": 5519, "pool": 5520, "ĠRemote": 5521, "previous": 5522, "putAll": 5523, "Ġthrough": 5524, "ĠgroupId": 5525, "Ġexport": 5526, "Private": 5527, "Ġprocessing": 5528, "step": 5529, "Initialized": 5530, "Ġsaved": 5531, "admin": 5532, "****************": 5533, "Ġpoints": 5534, "hip": 5535, "ĠFF": 5536, "roovy": 5537, "Ġextra": 5538, "isDirectory": 5539, "åı": 5540, "COMM": 5541, "Streaming": 5542, "username": 5543, "Ġdistance": 5544, "UNK": 5545, "Esc": 5546, "HO": 5547, "Ġsample": 5548, "Machine": 5549, "Keyword": 5550, "(\"</": 5551, "Ġbits": 5552, "Elem": 5553, "destination": 5554, "getError": 5555, "Observer": 5556, "Ġdriver": 5557, "acer": 5558, "Origin": 5559, "getClassLoader": 5560, "Pop": 5561, "man": 5562, "Ġattempt": 5563, "oad": 5564, "Copied": 5565, "Other": 5566, "ese": 5567, "ENER": 5568, "Include": 5569, "lipse": 5570, "getCanonical": 5571, "doubleValue": 5572, "Animation": 5573, "HIR": 5574, "Ġcomment": 5575, "book": 5576, "ARG": 5577, "grpc": 5578, "awt": 5579, "isLoggable": 5580, "ators": 5581, "Injection": 5582, "getPri": 5583, "Changes": 5584, "Ġremaining": 5585, "Ġcollect": 5586, "56": 5587, "ollback": 5588, "Sk": 5589, "SELE": 5590, "Dispatcher": 5591, "Ġpc": 5592, "ocus": 5593, "atio": 5594, "actual": 5595, "Old": 5596, "Ġserializer": 5597, "writeInt": 5598, "tributed": 5599, "auge": 5600, "RM": 5601, "second": 5602, "Ġbinary": 5603, "otion": 5604, "Ġfollow": 5605, "AB": 5606, "ĠNullPointerException": 5607, "Ġpolicy": 5608, ">\"": 5609, "KEN": 5610, "YPE": 5611, "dr": 5612, "AST": 5613, "Gu": 5614, "peat": 5615, "Card": 5616, "MBean": 5617, "fin": 5618, "Ġhigh": 5619, "Deep": 5620, "NoSuch": 5621, "activity": 5622, "ĠRuntime": 5623, "Packet": 5624, "ĠHttpServletRequest": 5625, "dd": 5626, "Tables": 5627, "ĠStatement": 5628, "36": 5629, "ĠPRO": 5630, "MethodName": 5631, "oordinates": 5632, "ĠJAXB": 5633, "509": 5634, "Ġcomb": 5635, "VM": 5636, "Feat": 5637, "Ġlanguage": 5638, "ka": 5639, "TRA": 5640, "PARATOR": 5641, "Author": 5642, "AndGet": 5643, "ĠUUID": 5644, "Digest": 5645, "socket": 5646, "Expressions": 5647, "RESS": 5648, "nowled": 5649, "include": 5650, "ORE": 5651, "ridge": 5652, "ĠgetAll": 5653, "static": 5654, "Ġbounds": 5655, "ĠAg": 5656, "bucket": 5657, "Ġcorrect": 5658, "Ġneeded": 5659, "orizont": 5660, "Ġpending": 5661, "policy": 5662, "istor": 5663, "CACHE": 5664, "Operand": 5665, "Ġplace": 5666, "Matches": 5667, "Completion": 5668, "Cloud": 5669, "imap": 5670, "())));": 5671, "toUpperCase": 5672, "fplibPackage": 5673, "Hook": 5674, "term": 5675, "Delta": 5676, "raction": 5677, "profile": 5678, "Ġvariables": 5679, "items": 5680, "Ġele": 5681, "qName": 5682, "FE": 5683, "Save": 5684, "IllegalArgumentException": 5685, "Started": 5686, "getPort": 5687, "Ġupper": 5688, "Cor": 5689, "Segments": 5690, "ecessary": 5691, "Contain": 5692, "ĠGroup": 5693, "getHeader": 5694, "Ġtab": 5695, "Ġpred": 5696, "IV": 5697, "Annotated": 5698, "Ġgeneric": 5699, "ually": 5700, "Fail": 5701, "RG": 5702, "semb": 5703, "Coord": 5704, "ĠSTART": 5705, "Ġselector": 5706, "CONTEXT": 5707, "ĠAN": 5708, "erged": 5709, "DEBUG": 5710, "Pass": 5711, "throw": 5712, "verity": 5713, "Ġalways": 5714, "ĠNOT": 5715, "Currency": 5716, "shutdown": 5717, "iet": 5718, "icro": 5719, "mozu": 5720, "Ġexternal": 5721, "';": 5722, "Charset": 5723, "Used": 5724, "MD": 5725, "ĠFHIR": 5726, "CLO": 5727, "CHAN": 5728, "self": 5729, "peek": 5730, "Cast": 5731, "ĠBundle": 5732, "role": 5733, "ENTITY": 5734, "Week": 5735, "dest": 5736, "WITH": 5737, "TOKEN": 5738, "era": 5739, "USE": 5740, "Ġfailure": 5741, "inality": 5742, "also": 5743, "Ġhappen": 5744, "declar": 5745, "Contact": 5746, "irc": 5747, "ĠPersist": 5748, "Ġyou": 5749, "CATION": 5750, "atom": 5751, "ĠJsonToken": 5752, "parable": 5753, "ingClass": 5754, "umb": 5755, "IfAbsent": 5756, "Ġco": 5757, "Ġbb": 5758, "ĠVersion": 5759, "ĠRest": 5760, "Interfaces": 5761, "Added": 5762, "condition": 5763, "gt": 5764, "eray": 5765, "Ġchars": 5766, "aN": 5767, "Ġdimension": 5768, "enario": 5769, "31": 5770, "pa": 5771, "Ġshape": 5772, "ycler": 5773, "LOAD": 5774, "89": 5775, "Ġ24": 5776, "alformed": 5777, "ĠXMLStream": 5778, "Aggregation": 5779, "oto": 5780, "Ġenabled": 5781, "Ġfs": 5782, "Ġclosed": 5783, "Should": 5784, "Roles": 5785, "Runnable": 5786, "ĠProject": 5787, "cursor": 5788, "Relative": 5789, "allow": 5790, "ĠSql": 5791, "ĠgetLog": 5792, "getDescription": 5793, "Ġdist": 5794, "opes": 5795, "Payment": 5796, "/{": 5797, "Center": 5798, "Ġinformation": 5799, "ĠGeneric": 5800, "Ġvis": 5801, "Arr": 5802, "ROM": 5803, "ĠEX": 5804, "setA": 5805, "Shared": 5806, "andidates": 5807, "Ġtile": 5808, "WIDTH": 5809, "Ġprovided": 5810, "ead": 5811, "Ġstage": 5812, "BACK": 5813, "Discount": 5814, "Tokenizer": 5815, "roadcast": 5816, "ĠParser": 5817, "Ġwarn": 5818, "Ptr": 5819, "DELETE": 5820, "span": 5821, "fromString": 5822, "Slot": 5823, "endent": 5824, "Producer": 5825, "ultipart": 5826, "orizontal": 5827, "Ġlv": 5828, "toByteArray": 5829, "Priority": 5830, "extract": 5831, "arr": 5832, "Ġfeatures": 5833, "Ġfactor": 5834, "Ġdim": 5835, "ĠTo": 5836, "Ġcookie": 5837, "eeper": 5838, "Ġsuffix": 5839, "lert": 5840, "Ġmenu": 5841, "ĠComp": 5842, "SocketAddress": 5843, "Implementation": 5844, "(\":": 5845, "NumberOf": 5846, "Ġthey": 5847, "Users": 5848, "requireNonNull": 5849, "ĠEd": 5850, "Ġrequested": 5851, "remaining": 5852, "Ġsimple": 5853, "Dist": 5854, "Ġevents": 5855, "BeCopied": 5856, "Move": 5857, "tached": 5858, "Refresh": 5859, "SPACE": 5860, "FALSE": 5861, "normal": 5862, "Ġthrowable": 5863, "PC": 5864, "ium": 5865, "Ġmd": 5866, "Regex": 5867, "BeCopiedAndSet": 5868, "PUB": 5869, "ĠGrid": 5870, "OptionValue": 5871, "ants": 5872, "lookup": 5873, "ĠSSL": 5874, "ni": 5875, "Ġcriteria": 5876, "Finder": 5877, "Ġ\\": 5878, "Aware": 5879, "Ġrelative": 5880, "getClient": 5881, "copyOf": 5882, "ediaType": 5883, "ColumnName": 5884, "Zero": 5885, "getTag": 5886, "getBoolean": 5887, "(\"\\\"": 5888, "Ġnever": 5889, "essaging": 5890, "ĠHTTP": 5891, "Ġregistered": 5892, "Utilities": 5893, "Ġexec": 5894, "ries": 5895, "Reply": 5896, "sv": 5897, "ĠclassLoader": 5898, "Resolved": 5899, "settings": 5900, "Accessible": 5901, "ool": 5902, "ention": 5903, "Ġalso": 5904, "Ġagain": 5905, "Ġcb": 5906, "Leaf": 5907, "lay": 5908, "alance": 5909, "!!": 5910, "SEPARATOR": 5911, "AMETER": 5912, "isValid": 5913, "hasMore": 5914, "Ġicon": 5915, "ĠPort": 5916, "ĠFileOutputStream": 5917, "Lifecycle": 5918, "PS": 5919, "getConnection": 5920, "Without": 5921, "liferay": 5922, "ets": 5923, "getApplication": 5924, "seconds": 5925, "ĠSource": 5926, "DED": 5927, "Ġ'{}": 5928, "statement": 5929, "APPLICATION": 5930, "Surface": 5931, "tracts": 5932, "WORD": 5933, "JSONObject": 5934, "Asset": 5935, "Ġcalendar": 5936, "Ġassign": 5937, "Launch": 5938, "87": 5939, "Indicator": 5940, "FilePath": 5941, "aker": 5942, "zone": 5943, "codes": 5944, "BigDecimal": 5945, "INVALID": 5946, "Ġwithout": 5947, "Words": 5948, "ism": 5949, "Descr": 5950, "rase": 5951, "real": 5952, "ĠMutable": 5953, "ĠFFDC": 5954, "PR": 5955, "cell": 5956, "Received": 5957, "Pred": 5958, "edge": 5959, "Many": 5960, "Ġ20": 5961, "aus": 5962, "Completed": 5963, "Ġplan": 5964, "rece": 5965, "Ġroute": 5966, "Threads": 5967, "Ġchanges": 5968, "Decor": 5969, "Merge": 5970, "getTask": 5971, "URN": 5972, "dig": 5973, "vari": 5974, "Same": 5975, "triction": 5976, "}\",": 5977, "}\");": 5978, "Ġgroups": 5979, "LONG": 5980, "Percent": 5981, "uil": 5982, "utes": 5983, "Ġmonitor": 5984, "defined": 5985, "ĠObjects": 5986, "Ġunder": 5987, "flags": 5988, "Disk": 5989, "ARL": 5990, "Addresses": 5991, "Lex": 5992, "ĠCO": 5993, "initial": 5994, "alf": 5995, "ĠParse": 5996, "||(": 5997, "runtime": 5998, "Ġtuple": 5999, "Ġorigin": 6000, "Ġiv": 6001, "bb": 6002, "Ġfix": 6003, "Invoke": 6004, "collection": 6005, "Normal": 6006, "getNum": 6007, "Stmt": 6008, "SPEC": 6009, "owner": 6010, "Indexes": 6011, "scale": 6012, "Decision": 6013, "Volume": 6014, "ï¼Į": 6015, "================": 6016, "Pending": 6017, "(\"\");": 6018, "ordinal": 6019, "emplates": 6020, "etty": 6021, "Req": 6022, "Ġfragment": 6023, "Units": 6024, "getChildren": 6025, "Executable": 6026, "verage": 6027, "ĠAsync": 6028, "Terms": 6029, "getAttributes": 6030, "200": 6031, "EventListener": 6032, "rupted": 6033, "SELECT": 6034, "Scheduler": 6035, "curr": 6036, "conn": 6037, "rong": 6038, "HTML": 6039, "ĠShort": 6040, "Deploy": 6041, "=%": 6042, "oring": 6043, "ĠgetProperty": 6044, "setStatus": 6045, "Amount": 6046, "ĠTerm": 6047, "Ġioe": 6048, "Ġshutdown": 6049, "getCode": 6050, "grade": 6051, "Ġvisitor": 6052, "Setter": 6053, "Ġclone": 6054, "Platform": 6055, "Deleted": 6056, "desc": 6057, "GIN": 6058, "Ġcategory": 6059, "public": 6060, "SdkInternalList": 6061, "ĠStart": 6062, "Ġarch": 6063, "success": 6064, "54": 6065, "ategories": 6066, "uuid": 6067, "HA": 6068, "Configur": 6069, "ĠFuture": 6070, "ĠStandard": 6071, "Ġ){": 6072, "Ġduring": 6073, "ffic": 6074, "Ġpw": 6075, "FACT": 6076, "Ġzero": 6077, "cached": 6078, "Replication": 6079, "Ġnothing": 6080, "Ġob": 6081, "Ġ'/": 6082, "Ġunmarshall": 6083, "Remaining": 6084, "Ġfolder": 6085, "Ġdifferent": 6086, "mx": 6087, "Occ": 6088, "Ġrefresh": 6089, "common": 6090, "yles": 6091, "ough": 6092, "Ġ\"\",": 6093, "setId": 6094, "alyzer": 6095, "UMENT": 6096, "Requests": 6097, "CONST": 6098, "alias": 6099, "Ġ12": 6100, "ĠInstance": 6101, "setF": 6102, "Ġgenerated": 6103, ">());": 6104, "Ġspan": 6105, "Series": 6106, "StringBuilder": 6107, "Ġoccur": 6108, "HttpClient": 6109, "Home": 6110, "utures": 6111, "fileName": 6112, "grid": 6113, "True": 6114, "ĠAuthentication": 6115, "PK": 6116, "getConfiguration": 6117, "fe": 6118, "Curve": 6119, "></": 6120, "igration": 6121, "Ġanswer": 6122, "riterion": 6123, "overage": 6124, "ierarchy": 6125, "Library": 6126, "plied": 6127, "Ġsorted": 6128, "Ġ#": 6129, "props": 6130, "subject": 6131, "ABLED": 6132, "ffective": 6133, "OLE": 6134, "pipeline": 6135, "Ġselection": 6136, "Done": 6137, "Ġpaths": 6138, "single": 6139, "MAN": 6140, "Forward": 6141, "cursive": 6142, "javax": 6143, "IfN": 6144, "'\",": 6145, "Ġ[]": 6146, "Ġpr": 6147, "ĠRect": 6148, "CLI": 6149, "Ġrules": 6150, "Ġunknown": 6151, "Addr": 6152, "Append": 6153, "Ġcc": 6154, "isNullOrEmpty": 6155, "coming": 6156, "OPTION": 6157, "Find": 6158, "orrelation": 6159, "orld": 6160, "getJ": 6161, "device": 6162, "readLine": 6163, "ĠCloud": 6164, "getProperties": 6165, "Convert": 6166, "Ġpack": 6167, "dec": 6168, "lict": 6169, "RESULT": 6170, "Zip": 6171, "Stub": 6172, "Amazon": 6173, "lex": 6174, "ĠTemplate": 6175, "Ġyet": 6176, "filename": 6177, "payload": 6178, "ĠME": 6179, "fire": 6180, "ensure": 6181, "ĠRow": 6182, "Ġreturned": 6183, "poll": 6184, "ading": 6185, "Ġexit": 6186, "ĠcontentType": 6187, "lastic": 6188, "Break": 6189, "fully": 6190, "Actual": 6191, "antity": 6192, "Est": 6193, "rot": 6194, "Ġok": 6195, "DT": 6196, "Ġescape": 6197, "Ġelem": 6198, "INIT": 6199, "shape": 6200, "Ġbranch": 6201, "Ġupdater": 6202, "Ġbox": 6203, "antic": 6204, "Ġwould": 6205, "ĠserviceName": 6206, "reater": 6207, "Ġmatching": 6208, "Ġperiod": 6209, "(){": 6210, "MenuItem": 6211, "ival": 6212, "currency": 6213, "random": 6214, "ĠValidation": 6215, "CC": 6216, "nowledge": 6217, "dm": 6218, "Ġdelay": 6219, "ĠBigInteger": 6220, "TreeNode": 6221, "onSuccess": 6222, "):": 6223, "ĠAfplibPackage": 6224, "warning": 6225, "Neg": 6226, "light": 6227, "illing": 6228, "mun": 6229, "readInt": 6230, "consume": 6231, "FIL": 6232, "Ġflag": 6233, "Transfer": 6234, "addChild": 6235, "Blocks": 6236, "lib": 6237, "Src": 6238, "display": 6239, "'re": 6240, "rools": 6241, "SARL": 6242, "201809": 6243, "PL": 6244, "sleep": 6245, "force": 6246, "cms": 6247, "account": 6248, "ĠJS": 6249, "asString": 6250, "product": 6251, "Schedule": 6252, "enable": 6253, "invalid": 6254, "Alignment": 6255, "avigation": 6256, "Material": 6257, "quires": 6258, "Mgr": 6259, "Margin": 6260, "ĠEnumeration": 6261, "()]);": 6262, "alException": 6263, "persist": 6264, "Ġax": 6265, "Trust": 6266, "swing": 6267, "cause": 6268, "global": 6269, "Filename": 6270, "Ġsync": 6271, "Than": 6272, "44": 6273, "quare": 6274, "Encoded": 6275, "concat": 6276, "ĠBinary": 6277, "GeneratedMessage": 6278, "Scanner": 6279, "grammarAccess": 6280, "roker": 6281, "DefinitionId": 6282, "ĠSp": 6283, "ĠLists": 6284, "rypted": 6285, "Ġcommon": 6286, "Ġ)?": 6287, "ĠClassNotFoundException": 6288, "Qualifier": 6289, "Ġcenter": 6290, "Links": 6291, "Ġresolver": 6292, "multi": 6293, "Compiler": 6294, "ĠServletException": 6295, "ĠExecutionContext": 6296, "poch": 6297, "GeneratedMessageV": 6298, "IDs": 6299, "Cols": 6300, "Download": 6301, "Sources": 6302, "getParameters": 6303, "posed": 6304, "Redirect": 6305, "onym": 6306, "Ġholder": 6307, "Ġinvocation": 6308, "Receiver": 6309, "flatMap": 6310, "Unexpected": 6311, "Ġseparator": 6312, "Sink": 6313, "ĠMessages": 6314, "icipant": 6315, "MediaType": 6316, "eger": 6317, "Ġann": 6318, "Clazz": 6319, "Ġ!(": 6320, "orary": 6321, "UserSegment": 6322, "Terminal": 6323, "WOR": 6324, "({": 6325, "ĠgetName": 6326, "Ġrestore": 6327, "ĠClose": 6328, "Ġmonth": 6329, "Ġinstall": 6330, "esign": 6331, "Ġneg": 6332, "ulated": 6333, "EVENT": 6334, "Ġ\":\"": 6335, "hir": 6336, "Ġavoid": 6337, "Stroke": 6338, "Ġforce": 6339, "Tax": 6340, "propertyName": 6341, "selected": 6342, "Authent": 6343, "Ġ32": 6344, "Candidate": 6345, "Ġsite": 6346, "delegate": 6347, "Ġlogin": 6348, "TURN": 6349, "Ġcms": 6350, "Ġpriority": 6351, "Connections": 6352, "Note": 6353, "execution": 6354, "Ġretrieve": 6355, "thing": 6356, "ĠCharSequence": 6357, "ĠZip": 6358, "Drop": 6359, "atic": 6360, "timestamp": 6361, "ĠId": 6362, "getSuper": 6363, "57": 6364, "pred": 6365, "Stamp": 6366, "Collections": 6367, "]))": 6368, "ued": 6369, "Buffered": 6370, "getSize": 6371, "ssl": 6372, "ours": 6373, "Ġ\"&": 6374, "getQuery": 6375, "PARAMETER": 6376, "Push": 6377, "PROP": 6378, "plan": 6379, "Ġlabels": 6380, "getSchema": 6381, "Br": 6382, "elf": 6383, "Ġworker": 6384, "getItem": 6385, "Ġtoo": 6386, "Ġinv": 6387, "Ġequal": 6388, "rono": 6389, "setString": 6390, "Ġdigest": 6391, "entr": 6392, "getModel": 6393, "strument": 6394, "Ġtransport": 6395, "ValuePair": 6396, "ĠdataSource": 6397, "ai": 6398, "Install": 6399, "Ġdeserialize": 6400, "tros": 6401, "then": 6402, "Axiom": 6403, "Scheme": 6404, "getBase": 6405, "NOWN": 6406, "Matching": 6407, "required": 6408, "Transl": 6409, "rep": 6410, "Ġdid": 6411, "ilation": 6412, "parts": 6413, "ĠgetString": 6414, "Ġdepth": 6415, "ĠFiles": 6416, "NaN": 6417, "Ġmodified": 6418, "Radius": 6419, "LayoutParams": 6420, "ceed": 6421, "Ġexample": 6422, "vertex": 6423, "ErrorCode": 6424, "59": 6425, "Ġpublish": 6426, "SDK": 6427, "ident": 6428, "ĠMan": 6429, "GHT": 6430, "URLConnection": 6431, "STEM": 6432, "ĠconvertTo": 6433, "setOn": 6434, "ĠOption": 6435, "regis": 6436, "Lib": 6437, "DM": 6438, "ĠSc": 6439, "REGION": 6440, "counter": 6441, "AVA": 6442, "vation": 6443, "EAR": 6444, "Pr": 6445, "ozuClient": 6446, "ipient": 6447, "MON": 6448, "getRaw": 6449, "associ": 6450, "FieldAccessorTable": 6451, "Ġuuid": 6452, "aped": 6453, "irm": 6454, "Ġsubscription": 6455, "FOUND": 6456, "ĠResultSet": 6457, "aving": 6458, "Ġws": 6459, "ĠCluster": 6460, "writeString": 6461, "Ġintent": 6462, "NumberFormatException": 6463, "It": 6464, "apture": 6465, "adoop": 6466, "idual": 6467, "Variant": 6468, "Const": 6469, "oss": 6470, "Digit": 6471, "Ġinstead": 6472, "PATTERN": 6473, "Ġmultiple": 6474, "bundle": 6475, "(\"$": 6476, "Ġjs": 6477, "existing": 6478, "Ġconfigured": 6479, "NAL": 6480, "Publish": 6481, "ccumulator": 6482, "HttpResponse": 6483, "iagnostic": 6484, "isBlank": 6485, "NUMBER": 6486, "Sw": 6487, "Ġdetermine": 6488, "Whitespace": 6489, "Removed": 6490, "Peer": 6491, "Shard": 6492, "ĠSocket": 6493, "Ġvert": 6494, "isNotEmpty": 6495, "Ġcanvas": 6496, "Dim": 6497, "alled": 6498, "Phase": 6499, "Beans": 6500, "gb": 6501, "modifiable": 6502, "Ġnested": 6503, "bose": 6504, "ĠStorage": 6505, "Ġencoder": 6506, "Ġts": 6507, "Linked": 6508, "writeAttribute": 6509, "jected": 6510, "ĠnumberOf": 6511, "FIND": 6512, "aos": 6513, "WA": 6514, "day": 6515, "OutOf": 6516, "ĠInit": 6517, "Ġidentity": 6518, "atial": 6519, "ĠReturn": 6520, "Ġrecover": 6521, "Ġevaluate": 6522, "ĠruleJvm": 6523, "Ġyear": 6524, "TIMEOUT": 6525, "Release": 6526, "RequestContext": 6527, "Ok": 6528, "na": 6529, "chunk": 6530, "Clean": 6531, "shake": 6532, "usters": 6533, "Ġ'.": 6534, "CCESS": 6535, "ourn": 6536, "Ġhelper": 6537, "ORDER": 6538, "Using": 6539, "ĠGeometry": 6540, "Ġadvanced": 6541, "attach": 6542, "('.": 6543, "ĠBatch": 6544, "fetch": 6545, "vileged": 6546, "Ġbeing": 6547, "aught": 6548, "ularity": 6549, "resolved": 6550, "serialize": 6551, "longValue": 6552, "ERY": 6553, "Ġshared": 6554, "LOAT": 6555, "versal": 6556, "acro": 6557, "ĠExecutor": 6558, "Ans": 6559, "ĠWrite": 6560, "ĠMetric": 6561, "getInputStream": 6562, "Preferences": 6563, "Preference": 6564, "getTable": 6565, "QNames": 6566, "getProject": 6567, "predicate": 6568, "uit": 6569, "licies": 6570, "(\"\",": 6571, "ĠLevel": 6572, "ĠKEY": 6573, "Ġmembers": 6574, "ront": 6575, "EncodingException": 6576, "newArrayList": 6577, "ookies": 6578, "Ġbetween": 6579, "setMax": 6580, "Ġ',": 6581, "Fix": 6582, "Bottom": 6583, "SO": 6584, "SESSION": 6585, "inate": 6586, "Ġgu": 6587, "getPackage": 6588, "ĠFIELD": 6589, "04": 6590, "Uml": 6591, "EventType": 6592, "ĠretVal": 6593, "Ġoptional": 6594, "contracts": 6595, "tinu": 6596, "RAN": 6597, "Serializable": 6598, "DataSet": 6599, "Solution": 6600, "Parallel": 6601, "SCHE": 6602, "Ġasync": 6603, "Workspace": 6604, "Ġupload": 6605, "methodName": 6606, "Bindings": 6607, "Side": 6608, "dc": 6609, "ĠInvocation": 6610, "Ġrout": 6611, "Ġhistory": 6612, "calc": 6613, "ĠcachedDeser": 6614, "ĠcachedSerFactories": 6615, "Ġge": 6616, "ĠcachedDeserFactories": 6617, "iment": 6618, "ĠcachedSerClasses": 6619, "ĠcachedSerQNames": 6620, "ĠBack": 6621, "ĠHtml": 6622, "Ġstarted": 6623, "Ġalpha": 6624, "ensitive": 6625, "addAttribute": 6626, "Watch": 6627, "directory": 6628, "mask": 6629, "ĠInputStreamReader": 6630, "256": 6631, "LoadBalancer": 6632, "Ġedit": 6633, "Vpc": 6634, "getToken": 6635, "Ġoutpos": 6636, "LIMIT": 6637, "kdir": 6638, "Ġvector": 6639, "ĠRange": 6640, "SyntaxException": 6641, "Modification": 6642, "olders": 6643, "Ġlike": 6644, "Ġagent": 6645, "*(": 6646, "Ġmight": 6647, "WARNING": 6648, "Ġeditor": 6649, "Binder": 6650, "Rpc": 6651, "ĠSingle": 6652, "Ġincrement": 6653, "mapping": 6654, "Ġnamed": 6655, "nodes": 6656, "otype": 6657, "addr": 6658, "ĠgetType": 6659, "UNKNOWN": 6660, "_;": 6661, "Ġgetter": 6662, "stitution": 6663, "initialize": 6664, "ose": 6665, "ĠExecution": 6666, "åĲ": 6667, "encoding": 6668, "IFC": 6669, "Credential": 6670, "crete": 6671, "sn": 6672, "Ġleast": 6673, "groupId": 6674, "getServer": 6675, "ADV": 6676, "Ġimplementation": 6677, "Ġ)*": 6678, "LAG": 6679, "subscribe": 6680, "Ġway": 6681, "entries": 6682, "ĠValidate": 6683, "oned": 6684, "results": 6685, "TargetException": 6686, "jax": 6687, "ĠstartTime": 6688, "Ġfont": 6689, "Serialization": 6690, "Dot": 6691, "ĠDeployment": 6692, "ignore": 6693, "ANCED": 6694, "ĠHandler": 6695, "notify": 6696, "install": 6697, "stantiate": 6698, "FFER": 6699, "DOUBLE": 6700, "isNotBlank": 6701, "ae": 6702, "hashCode": 6703, "schedule": 6704, "Ġtasks": 6705, "Ġtick": 6706, "Ġkind": 6707, "ConfigurationException": 6708, "after": 6709, "/\"": 6710, "Exit": 6711, "ĠFormat": 6712, "Counts": 6713, "Ġdeleted": 6714, "region": 6715, "yclerView": 6716, "etSocketAddress": 6717, "SM": 6718, "ĠStr": 6719, "Ġcons": 6720, "('\\": 6721, "Book": 6722, "sistency": 6723, "where": 6724, "Ġenable": 6725, "Ġemit": 6726, "ĠPrintWriter": 6727, "FailedException": 6728, "pair": 6729, "ByteString": 6730, "Ġneeds": 6731, "ĠMojoExecutionException": 6732, "SHA": 6733, "retty": 6734, "getAws": 6735, "istoric": 6736, "ĠCLASS": 6737, "beans": 6738, "SOURCE": 6739, "QUERY": 6740, "Ġbus": 6741, "center": 6742, "UCT": 6743, "cest": 6744, "Fault": 6745, "xx": 6746, "quival": 6747, "Ġdat": 6748, "Indices": 6749, "getLogger": 6750, "Nanos": 6751, "sib": 6752, "safe": 6753, "ĠUN": 6754, "DTO": 6755, "OrCreate": 6756, "Ġoperations": 6757, "setEnabled": 6758, "messages": 6759, "Ġfree": 6760, "Angle": 6761, "paces": 6762, "Blob": 6763, "SING": 6764, "deployment": 6765, "ca": 6766, "writeObject": 6767, "bin": 6768, "Ġ\"(": 6769, "posal": 6770, "ChangeListener": 6771, "High": 6772, "topic": 6773, "MSG": 6774, "Country": 6775, "ĠStore": 6776, "Functions": 6777, "Initializer": 6778, "TEMP": 6779, "ĠFHIRException": 6780, "fix": 6781, "ĠAuto": 6782, "Edges": 6783, "ĠPointer": 6784, "Ġdrop": 6785, "NEW": 6786, "Ġstill": 6787, "Ġgeometry": 6788, "ĠIMAGE": 6789, "beat": 6790, "Deliver": 6791, "Ġident": 6792, "Ġ\\\"\"": 6793, "Ġsim": 6794, "coord": 6795, "interval": 6796, "ĠBufferedImage": 6797, "Specific": 6798, "validator": 6799, "ĠSign": 6800, "IGN": 6801, "SIGNING": 6802, "istant": 6803, "inct": 6804, "Ġfinder": 6805, "pend": 6806, "otation": 6807, "pi": 6808, "Ġquestion": 6809, "Ġct": 6810, "Encryption": 6811, "Ġamount": 6812, "ather": 6813, "ĠIntent": 6814, "Ġseq": 6815, "ĠNote": 6816, "ĠserviceCallback": 6817, "ĠTest": 6818, "ĠuserId": 6819, "printf": 6820, "Feed": 6821, "OFFSET": 6822, "Ġupdateres": 6823, "ADVANCED": 6824, "Embedded": 6825, "processor": 6826, "Contents": 6827, "ĠcolumnName": 6828, "Replic": 6829, "di": 6830, "rawtypes": 6831, "tab": 6832, "Slice": 6833, "ModelImpl": 6834, "Bond": 6835, "ingBox": 6836, "getLine": 6837, "Leg": 6838, "getOutput": 6839, "ExecuteTime": 6840, "SdkInternalApi": 6841, "izes": 6842, "ĠgetSigning": 6843, "ĠAddress": 6844, "fsp": 6845, "ventory": 6846, "Ġotherlv": 6847, "endEvent": 6848, "ĠFlow": 6849, "Resolution": 6850, "Loading": 6851, "Ġcomponents": 6852, "dim": 6853, "Ġforward": 6854, "Ġcomparator": 6855, "only": 6856, "KET": 6857, "ĠtoString": 6858, "itr": 6859, "oral": 6860, "MATCH": 6861, "Ġboth": 6862, "ĠJSONArray": 6863, "Creation": 6864, "ĠpushFollow": 6865, "Js": 6866, "Ġanim": 6867, "Ġreceived": 6868, "getBean": 6869, "000000": 6870, "ĠConstructor": 6871, "assert": 6872, "SD": 6873, "ven": 6874, "amera": 6875, "Ġlon": 6876, "ĠFeature": 6877, "Ġcas": 6878, "checkNotNull": 6879, "identity": 6880, "Numeric": 6881, "Ġemail": 6882, "Ġcollector": 6883, "()+\"": 6884, "oler": 6885, "ĠConst": 6886, "Portlet": 6887, "Ġcatalog": 6888, "PageLink": 6889, "Ġprocessor": 6890, "ks": 6891, "Ġdataset": 6892, "Ġuntil": 6893, "SYSTEM": 6894, "rames": 6895, "classes": 6896, "tableName": 6897, "ĠorderByComparator": 6898, "ĠcreateExecutionContext": 6899, "getClassName": 6900, "CREATE": 6901, "ĠAWSRequestMetrics": 6902, "ĠModule": 6903, "getAwsRequestMetrics": 6904, "Produ": 6905, "Pull": 6906, "Publisher": 6907, "ĠBinds": 6908, "Descriptors": 6909, "WORK": 6910, "hl": 6911, "ĠApiException": 6912, "Ġissue": 6913, "CharSequence": 6914, "CENTER": 6915, "<?>[]": 6916, "getAwsResponse": 6917, "setAWSRequestMetrics": 6918, "æľ": 6919, "Ġsafe": 6920, "STORE": 6921, "ĠRemove": 6922, "pol": 6923, "ClientExecuteTime": 6924, "Ġcompile": 6925, "MX": 6926, "ĠcpDefinition": 6927, "ĠendClientExecution": 6928, "Validate": 6929, "arge": 6930, "amel": 6931, "beforeMarshalling": 6932, "PM": 6933, "ashboard": 6934, "Ġbel": 6935, "MethodException": 6936, "ĠCan": 6937, "CHECK": 6938, "Patch": 6939, "ĠSE": 6940, "getPre": 6941, "ĠadvancedConfig": 6942, "bus": 6943, "ApiException": 6944, "Switch": 6945, "Ġmaster": 6946, "Coded": 6947, "ndi": 6948, "Help": 6949, "ĠgetSigningRegion": 6950, "ĠtypeName": 6951, "ĠTry": 6952, "Cached": 6953, "ĠCmsResource": 6954, "Registered": 6955, "descriptor": 6956, "Program": 6957, "ĠgetM": 6958, "Ġlow": 6959, "ĠFast": 6960, "Ele": 6961, "RT": 6962, "Ġabout": 6963, "=(": 6964, "CodeableConcept": 6965, "ErrorException": 6966, "AMP": 6967, "isIn": 6968, "artbeat": 6969, "arguments": 6970, "getProcess": 6971, "Ġcore": 6972, "ĠIt": 6973, "...\");": 6974, "neg": 6975, "otherlv": 6976, "Ġauthorization": 6977, "Ġreplacement": 6978, "Answer": 6979, "ĠMatch": 6980, "ClassNotFoundException": 6981, "Ġinterceptor": 6982, "Buffers": 6983, "diff": 6984, "ARD": 6985, "getI": 6986, "ĠfinalRequest": 6987, "Div": 6988, "ĠBy": 6989, "Ġrecords": 6990, "Username": 6991, "ComponentException": 6992, "Bad": 6993, "Question": 6994, "Availability": 6995, "ĠServiceFuture": 6996, "dataType": 6997, "ĠcastTo": 6998, "Ġanother": 6999, "atient": 7000, "Ġwhat": 7001, "Ġ255": 7002, "Grammar": 7003, "repository": 7004, "Differ": 7005, "Ġtail": 7006, "ĠruleX": 7007, "ĠNULL": 7008, "columns": 7009, "executor": 7010, "button": 7011, "FileSystem": 7012, "icle": 7013, "ĠInternalSARL": 7014, "Flush": 7015, "sq": 7016, "getW": 7017, "Scheduled": 7018, "storage": 7019, "Ġgot": 7020, "ĠAss": 7021, "language": 7022, "Ġknow": 7023, "ne": 7024, "ĠTYPE": 7025, "Apply": 7026, "Ġder": 7027, "XY": 7028, "ĠHttpResponse": 7029, "ĠNotification": 7030, "ĠContainer": 7031, "Warning": 7032, "lying": 7033, "GR": 7034, "getModifiers": 7035, "Under": 7036, "MASK": 7037, "Ġinstances": 7038, "way": 7039, "Typed": 7040, "getDocument": 7041, "Ġschedule": 7042, "exec": 7043, "mm": 7044, "Jobs": 7045, "Digits": 7046, "ShouldBeCopiedAndSet": 7047, "Discovery": 7048, "Sip": 7049, "ais": 7050, "ORM": 7051, "Ġtrim": 7052, "Ġadjust": 7053, "ĠCharset": 7054, "Dictionary": 7055, "Ġcredentials": 7056, "la": 7057, "upplier": 7058, "getLog": 7059, "tags": 7060, "PON": 7061, "enabled": 7062, "Ġrevision": 7063, "Checked": 7064, "CLOSE": 7065, "ĠIR": 7066, "Altern": 7067, "sync": 7068, "LOCAL": 7069, "panded": 7070, "ARK": 7071, "Hints": 7072, "gl": 7073, "Ġ[%": 7074, "Ġloaded": 7075, "SuccessResponse": 7076, "relation": 7077, "WithAnnotations": 7078, "Ġmean": 7079, "UPDATE": 7080, "category": 7081, "loaded": 7082, "Cmd": 7083, "Ġouter": 7084, "ĠPer": 7085, "]\");": 7086, "any": 7087, "Ġevery": 7088, "Ġstructure": 7089, "subscription": 7090, "Benchmark": 7091, "REMO": 7092, "Ġadmin": 7093, "publisher": 7094, "Ġsip": 7095, "tegr": 7096, "BYTES": 7097, "Mutable": 7098, "ãĤ": 7099, "ĠOutput": 7100, "Ġ().": 7101, "Ġsink": 7102, "ĠJC": 7103, "StartElement": 7104, "Shutdown": 7105, "Video": 7106, "Ġfinish": 7107, "UnsupportedEncodingException": 7108, "Versions": 7109, "atory": 7110, "network": 7111, "Ġrhs": 7112, "ĠSequence": 7113, "Alt": 7114, "Ġmeans": 7115, "Ġmp": 7116, "Modules": 7117, "Bug": 7118, "Ġzone": 7119, "imp": 7120, "MILLISECONDS": 7121, "ĠIllegalAccessException": 7122, "getAsJsonObject": 7123, "getRow": 7124, "acc": 7125, "dat": 7126, "Ġwere": 7127, "Ġperm": 7128, "Existing": 7129, "ĠoutputStream": 7130, "Mail": 7131, "Ġtransformer": 7132, "è¯": 7133, "ĠActivity": 7134, "Ġmaximum": 7135, "FieldValue": 7136, "PriceList": 7137, "requency": 7138, "ParsingComponentException": 7139, "ĠJAXBElement": 7140, "38": 7141, "window": 7142, "Ġalgorithm": 7143, "Ġpe": 7144, "alk": 7145, "Ġet": 7146, "unmodifiable": 7147, "ĠsetState": 7148, "ĠReflection": 7149, "Ġscal": 7150, "Ġbug": 7151, "checkArgument": 7152, "67": 7153, "Enable": 7154, "Ġ\"'\");": 7155, "Ġfilters": 7156, "Ġcurrency": 7157, "Ġprocessed": 7158, "ĠDo": 7159, "Reporter": 7160, "casType": 7161, "Ġsegments": 7162, "ĠgridBagConstraints": 7163, "Consum": 7164, "RECT": 7165, "driver": 7166, "TypeInfo": 7167, "GUI": 7168, "90": 7169, "Ġtopology": 7170, "Finished": 7171, "ooled": 7172, "Patterns": 7173, "Band": 7174, "Ġmerged": 7175, "vals": 7176, "AsStream": 7177, "FAIL": 7178, "ĠByteArrayInputStream": 7179, "ĠSAXException": 7180, "ĠRender": 7181, "allocate": 7182, "Shift": 7183, "aybe": 7184, "Ġdecoder": 7185, "addProperty": 7186, "ErrorMessage": 7187, "ĠProxy": 7188, "ĠlocalName": 7189, "Ġexpect": 7190, "Ġpopulate": 7191, "Idle": 7192, "Ticket": 7193, "getLocalName": 7194, "Ġdue": 7195, "Free": 7196, "ĠByteBuf": 7197, "gers": 7198, "Ġpacket": 7199, "uilt": 7200, "Alpha": 7201, "WT": 7202, "tras": 7203, "ĠManaged": 7204, "eded": 7205, "compiler": 7206, "Ġdownload": 7207, "ng": 7208, "getUrl": 7209, "ismatch": 7210, "ĠCount": 7211, "Representation": 7212, "ĠgetResource": 7213, "Ġfollowing": 7214, "Inst": 7215, "Ġdetails": 7216, "Geo": 7217, "ILED": 7218, "ĠArgument": 7219, "\",\"": 7220, "DR": 7221, "Ġtra": 7222, "SV": 7223, "Ġeither": 7224, "Ġredirect": 7225, "CF": 7226, "ircle": 7227, "Ġprincipal": 7228, "LEFT": 7229, "Ġscreen": 7230, "Requirement": 7231, "OLEAN": 7232, "getIdentifier": 7233, "author": 7234, "Ġcfg": 7235, "GENER": 7236, "Increment": 7237, "Ġwrapped": 7238, "panyId": 7239, "ents": 7240, "Ġbottom": 7241, "oint": 7242, "ĠDO": 7243, "evaluate": 7244, "isArray": 7245, "Ġ'\\\\": 7246, "Ġevalu": 7247, "acle": 7248, "ĠSo": 7249, "Previous": 7250, "DBC": 7251, "ĠCH": 7252, "getCanonicalName": 7253, "ceeded": 7254, "Ġannotated": 7255, "Cert": 7256, "ĠControl": 7257, "VIEW": 7258, "clean": 7259, "Ġslot": 7260, "ewrite": 7261, "Reset": 7262, "going": 7263, "sect": 7264, "Ġcontents": 7265, "Ġbar": 7266, "Ġ\"[": 7267, "Touch": 7268, "Ġinc": 7269, "Ġseconds": 7270, "Already": 7271, "47": 7272, "ĠOperator": 7273, "COM": 7274, "Models": 7275, "ula": 7276, "--)": 7277, "ĠreturnType": 7278, "edit": 7279, "voker": 7280, "ĠJsonNode": 7281, "Ġusage": 7282, "Connected": 7283, "FORM": 7284, "Latch": 7285, "ving": 7286, "Ġ30": 7287, "Ġrect": 7288, "Commands": 7289, "anoTime": 7290, "getReturnType": 7291, "WebSocket": 7292, "kind": 7293, "ĠRecognitionException": 7294, "->": 7295, "site": 7296, "chain": 7297, "Ġworkspace": 7298, "Envelope": 7299, "flater": 7300, "getCurrentToken": 7301, "getAddress": 7302, "addElement": 7303, "ONLY": 7304, "DN": 7305, "lower": 7306, "Ġpadding": 7307, "ĠcompareDeep": 7308, "Grant": 7309, "Ġconnector": 7310, "PP": 7311, "struct": 7312, "Tenant": 7313, "ĠGr": 7314, "INTERNAL": 7315, "Into": 7316, "readObject": 7317, "Ġaddr": 7318, "etermin": 7319, "########": 7320, "complet": 7321, "Ġdiv": 7322, "Serialized": 7323, "mkdir": 7324, "HERE": 7325, "Ġchart": 7326, "ServletContext": 7327, "ĠPh": 7328, ">>();": 7329, "Polygon": 7330, "})": 7331, "emon": 7332, "Procedure": 7333, "ĠStringWriter": 7334, "ITS": 7335, "atible": 7336, "Shipping": 7337, "comment": 7338, "Ġfiltered": 7339, "inputStream": 7340, "Ġlib": 7341, "duration": 7342, "xf": 7343, "Ġpaint": 7344, "ĠgetContext": 7345, "singletonList": 7346, "TypeEnum": 7347, "Ġrc": 7348, "Ġfn": 7349, "Realm": 7350, "auto": 7351, "Ġcompleted": 7352, "IFIER": 7353, "Ġoverride": 7354, "admanager": 7355, "ĠSymbol": 7356, "ĠcheckArgument": 7357, "ĠhasNext": 7358, "Ġauthor": 7359, "ITER": 7360, "ResponseBody": 7361, "TimeZone": 7362, "ether": 7363, "ONT": 7364, "CharArray": 7365, "Der": 7366, "kernel": 7367, "getBundle": 7368, "RUN": 7369, "VEL": 7370, "ĠComparator": 7371, "ADDRESS": 7372, "sample": 7373, "ĠConnect": 7374, "Ġcharacters": 7375, "Ġest": 7376, "Ġsetter": 7377, "Ġpointer": 7378, "dialog": 7379, "mapper": 7380, "97": 7381, "Ġ15": 7382, "ĠUse": 7383, "xmlEvent": 7384, "EntityManager": 7385, "Ġmaybe": 7386, "ReadOnly": 7387, "getParameterTypes": 7388, "Ġsmall": 7389, "Ġå": 7390, "getJob": 7391, "andra": 7392, "pond": 7393, "85": 7394, "Ġeval": 7395, "permission": 7396, "ĠWriter": 7397, "iddle": 7398, "Ġdot": 7399, "ĠresultSet": 7400, "Ġparsing": 7401, "PUBLIC": 7402, "created": 7403, "leet": 7404, "ĠSpec": 7405, "Ġcaller": 7406, "pector": 7407, "Times": 7408, "ĠVolt": 7409, "ĠfindBy": 7410, "setDefault": 7411, "Ġsetting": 7412, "icode": 7413, "FACE": 7414, "ĠattributeName": 7415, "ĠEl": 7416, "atasource": 7417, "ENABLED": 7418, "Ġdeclared": 7419, "ĠAtlas": 7420, "Quiet": 7421, "WRITE": 7422, "ĠImmutableMap": 7423, "getNamespace": 7424, "fa": 7425, "Cycle": 7426, "assandra": 7427, "iry": 7428, "esh": 7429, "Conditional": 7430, "fail": 7431, "aring": 7432, "getCache": 7433, "uggest": 7434, "ResourceDefinition": 7435, "=\");": 7436, "Two": 7437, "tas": 7438, "Ġbs": 7439, "constraint": 7440, "ĠgetDefault": 7441, "EP": 7442, "ane": 7443, "Setup": 7444, "aged": 7445, "Try": 7446, "oneNumber": 7447, "DEFIN": 7448, "ERENCE": 7449, "\")))": 7450, "Ġcn": 7451, "pection": 7452, "ĠHeader": 7453, "dist": 7454, "urable": 7455, "stats": 7456, "ĠCallable": 7457, "Alive": 7458, "points": 7459, "ĠAnalysis": 7460, "parseLong": 7461, "ĠConsumer": 7462, "Injector": 7463, "LAY": 7464, "ĠLock": 7465, "Ġsubmit": 7466, "Resolve": 7467, "ĠInternalXbaseWithAnnotations": 7468, "Console": 7469, "ĠMetadata": 7470, "Positions": 7471, "closed": 7472, "support": 7473, "Ġotherwise": 7474, "ä»": 7475, "ournal": 7476, "Loaded": 7477, "osu": 7478, "ROW": 7479, "03": 7480, "mo": 7481, "ysical": 7482, "Ġservices": 7483, "Ġround": 7484, "Ġportlet": 7485, "Evaluator": 7486, "POINT": 7487, "bits": 7488, "getDisplay": 7489, "RIGHT": 7490, "Tools": 7491, "Wildcard": 7492, "Ġpt": 7493, "Ġsources": 7494, "Ġrelationship": 7495, "Pres": 7496, "EQUAL": 7497, "Hidden": 7498, "Ġenter": 7499, "GroupRequest": 7500, "setDescription": 7501, "getLeft": 7502, "Manifest": 7503, "ajor": 7504, "TextField": 7505, "activate": 7506, "Sm": 7507, "ĠDuration": 7508, "ailing": 7509, "Ġ\"%": 7510, "Multimap": 7511, "Ġcodec": 7512, "MONTH": 7513, "Providers": 7514, "Deserializer": 7515, "Ġcr": 7516, "Scaling": 7517, "ĠAggreg": 7518, "Alert": 7519, "Ġnative": 7520, "Ġclasspath": 7521, "Wrap": 7522, "Ġmedia": 7523, "Ġpeer": 7524, "dp": 7525, "ĠPO": 7526, "SEVER": 7527, "symbol": 7528, "ServiceName": 7529, "Allow": 7530, "Complex": 7531, "CLIENT": 7532, "OutOfBounds": 7533, "Graphics": 7534, "olling": 7535, "sf": 7536, "Ġradius": 7537, "CodedOutputStream": 7538, "Ġsender": 7539, "ooser": 7540, "Detector": 7541, "Bootstrap": 7542, "Sem": 7543, "ĠWS": 7544, "resp": 7545, "CAP": 7546, "pli": 7547, "ocity": 7548, "URATION": 7549, "RESPON": 7550, "ĠXMLStreamException": 7551, "Promise": 7552, "INK": 7553, "isTraceEnabled": 7554, "Fast": 7555, "icense": 7556, "CEPTION": 7557, "Ġthese": 7558, "Low": 7559, "Ġbasic": 7560, "oving": 7561, "export": 7562, "Meter": 7563, "afka": 7564, "Ġentities": 7565, "Ġtake": 7566, "Css": 7567, "ĠRelation": 7568, "getFull": 7569, "ANG": 7570, "XX": 7571, "OperationMetadata": 7572, "Coordinate": 7573, "ĠpackageName": 7574, "Ġscanner": 7575, "(\"{": 7576, "Translation": 7577, "Ġca": 7578, "ounded": 7579, "sFor": 7580, "Ġshift": 7581, "Ġcompiler": 7582, "ensity": 7583, "DIR": 7584, "TOP": 7585, "Ġii": 7586, "Ġpref": 7587, "IfNot": 7588, "Sim": 7589, "Bud": 7590, "pus": 7591, "Ġimpl": 7592, "Ġknown": 7593, "SCO": 7594, "FLAG": 7595, "Ġprodu": 7596, "Ġvalidator": 7597, "featureID": 7598, "}/": 7599, "Ġ(;": 7600, "Transformation": 7601, "Ġmodify": 7602, "Ġdependencies": 7603, "Ġlhs": 7604, "ĠSTR": 7605, "Ġworkflow": 7606, "apsed": 7607, "Ġappro": 7608, "operator": 7609, "binary": 7610, "Ġvol": 7611, "ixin": 7612, "getSystem": 7613, "columnName": 7614, "Ġspecific": 7615, "Ratio": 7616, "Ġsig": 7617, "Compare": 7618, "TS": 7619, "Ġdispatch": 7620, "(\",\");": 7621, "getGroup": 7622, "fc": 7623, "ĠConstant": 7624, "android": 7625, "Ġregex": 7626, "Where": 7627, "Ġdump": 7628, "Ġconstruct": 7629, "è¿": 7630, ";)": 7631, "Pure": 7632, "oped": 7633, "Hy": 7634, "getLabel": 7635, "Ġscroll": 7636, "LATE": 7637, "Ġmc": 7638, "Related": 7639, "ĠSimpleDateFormat": 7640, "Original": 7641, "RETURN": 7642, "Enumeration": 7643, "Backend": 7644, "Exist": 7645, "ooter": 7646, "Urls": 7647, "Ġconverted": 7648, "ingType": 7649, "Singleton": 7650, "Indent": 7651, "esired": 7652, "Ġmarker": 7653, "Multiple": 7654, "ĠNAME": 7655, "MAIN": 7656, "getRe": 7657, "OutOfBoundsException": 7658, "arded": 7659, "getExpression": 7660, "Focus": 7661, "fine": 7662, "getElements": 7663, "Ġbitmap": 7664, "TRANS": 7665, "getTransaction": 7666, "Disabled": 7667, "equal": 7668, "PageContext": 7669, "Ġspecial": 7670, "Ġreceiver": 7671, ":\");": 7672, "Ġreading": 7673, "Ġwords": 7674, "getJava": 7675, "Utility": 7676, "COLOR": 7677, "ãĥ": 7678, "Ġexceptions": 7679, "numberOf": 7680, "ĠAND": 7681, "Ġbased": 7682, "Persistent": 7683, "Soft": 7684, "Ġsolution": 7685, "Implement": 7686, "dt": 7687, "Ġblocks": 7688, "Heap": 7689, "BUFFER": 7690, "Ġarchive": 7691, "preter": 7692, "Structural": 7693, "rypto": 7694, "unct": 7695, "OptionCall": 7696, "Outer": 7697, "Sender": 7698, "ĠHas": 7699, "Packages": 7700, "OrUpdate": 7701, "Partial": 7702, "JC": 7703, "isEnabled": 7704, "Ġdt": 7705, "ĠCoordinate": 7706, "Indexed": 7707, "Ġdirection": 7708, "Ġstrings": 7709, "ĠLocation": 7710, "Ġdeploy": 7711, "RESPONSE": 7712, "definition": 7713, "getFirstChild": 7714, "ummy": 7715, "SPECIFI": 7716, "Bund": 7717, "();)": 7718, "olerance": 7719, "ĠRedis": 7720, "Arn": 7721, "ĠgetCurrent": 7722, "indent": 7723, "Ġvariant": 7724, "Dump": 7725, "ApplicationContext": 7726, "Ġmapped": 7727, "ORIZ": 7728, "monitor": 7729, "addListener": 7730, "park": 7731, "96": 7732, "Ġ]": 7733, "heet": 7734, "CPDefinition": 7735, "nn": 7736, "Policies": 7737, "Quietly": 7738, "ASS": 7739, "Ġ\")\");": 7740, "{}\",": 7741, "BEL": 7742, "Sheet": 7743, "REC": 7744, "Subscriber": 7745, "ĠCustom": 7746, "inger": 7747, "REST": 7748, "Ġ{},": 7749, "Evaluation": 7750, "Requested": 7751, "FR": 7752, "Ġlater": 7753, "progress": 7754, "stmt": 7755, "ThreadPool": 7756, "controller": 7757, "Conn": 7758, "DING": 7759, "menu": 7760, "æĸ": 7761, "Ġimg": 7762, "wd": 7763, "free": 7764, "Capability": 7765, "ĠJvm": 7766, "loor": 7767, "IDE": 7768, "Histogram": 7769, "Jdbc": 7770, "Ġpm": 7771, "ĠCell": 7772, "processException": 7773, "]).": 7774, "Ġconstant": 7775, "Ġ60": 7776, "Lon": 7777, "selector": 7778, "Ring": 7779, "ĠArtifact": 7780, "Ge": 7781, "getMetadata": 7782, "Prot": 7783, "Ġnc": 7784, "Ġproblem": 7785, "ĠfindViewById": 7786, "ĠUri": 7787, "Ġexplicit": 7788, "ĠJoin": 7789, "ircuit": 7790, "nitro": 7791, "hance": 7792, "Ġorganization": 7793, "hasMoreElements": 7794, "Escape": 7795, "addContent": 7796, "Closure": 7797, "FILTER": 7798, "assign": 7799, "errors": 7800, "Ġmatched": 7801, "peed": 7802, "ĠLayout": 7803, "RuleCall": 7804, "future": 7805, "font": 7806, "Ġbuff": 7807, "nextInt": 7808, "Animator": 7809, "setHeader": 7810, "Ġpermissions": 7811, "vc": 7812, "ĠBuilder": 7813, "nextElement": 7814, "Actor": 7815, "77": 7816, "ĠPackage": 7817, "ĠOAuth": 7818, "Images": 7819, "Ġpkg": 7820, "ĠOR": 7821, "ynth": 7822, "Ġinjection": 7823, "Ġ*=": 7824, "IES": 7825, "ĠStop": 7826, "under": 7827, "XA": 7828, "OrNull": 7829, "Ġshard": 7830, "pliterator": 7831, "ĠIter": 7832, "omething": 7833, "Calc": 7834, "43": 7835, "Now": 7836, "ĠQueue": 7837, "ibern": 7838, "REAM": 7839, "ĠGit": 7840, "Ne": 7841, "TEGER": 7842, "Days": 7843, "ĠBitmap": 7844, "eval": 7845, "Ġslice": 7846, "login": 7847, "nanoTime": 7848, "Ġperson": 7849, "ĠAll": 7850, "ctr": 7851, "setContent": 7852, "ĠaddTo": 7853, "ĠDataType": 7854, "year": 7855, "Detection": 7856, "Ġauthent": 7857, "')||(": 7858, "pow": 7859, "ĠMark": 7860, "Additional": 7861, "ĠIP": 7862, "Med": 7863, "fragment": 7864, "pu": 7865, "Ġflat": 7866, "periment": 7867, "Ġtrust": 7868, "OPEN": 7869, "supported": 7870, "RecognitionException": 7871, "Ġsuch": 7872, "Ġusers": 7873, "configure": 7874, "Ġinitialized": 7875, "getAsString": 7876, "[],": 7877, "Ġindexes": 7878, "contentType": 7879, "ibernate": 7880, "NC": 7881, "EndElement": 7882, "inated": 7883, "Statements": 7884, "Ġdestroy": 7885, "That": 7886, "TASK": 7887, "Classpath": 7888, "SCRIPTION": 7889, "TL": 7890, "setColor": 7891, "Ready": 7892, "saved": 7893, "ĠIOUtils": 7894, "Ġhow": 7895, "dy": 7896, "getDeclar": 7897, "ĠWh": 7898, "dev": 7899, "fhir": 7900, "ATCH": 7901, "DEP": 7902, "YEAR": 7903, "authentication": 7904, "Gradient": 7905, "1000": 7906, "getList": 7907, "PAGE": 7908, "cestor": 7909, "Ġpur": 7910, "Quantity": 7911, "Ġrepo": 7912, "ProcessInstance": 7913, "Ġsk": 7914, "aps": 7915, "'\");": 7916, "att": 7917, "getBody": 7918, "plus": 7919, "getOffset": 7920, "Ġexpand": 7921, "HAND": 7922, "getEvent": 7923, "Ġes": 7924, "CLU": 7925, "Templates": 7926, "cut": 7927, "SHORT": 7928, "getPage": 7929, "getShort": 7930, "Go": 7931, "ital": 7932, "getResources": 7933, "FACTORY": 7934, "getPosition": 7935, "ACCESS": 7936, "Ġonce": 7937, "ĠclientId": 7938, "Ġmanaged": 7939, "Instanti": 7940, "ones": 7941, "ĠAnd": 7942, "500": 7943, "Hub": 7944, "setAccessible": 7945, "HEIGHT": 7946, "48": 7947, "ained": 7948, "ĠoldValue": 7949, "setRequest": 7950, "ERO": 7951, "ofNullable": 7952, "JsonUnmarshallerContext": 7953, "Ġregistration": 7954, "HOST": 7955, "LocalService": 7956, "When": 7957, "ĠBson": 7958, "IMP": 7959, "ĠMeta": 7960, "ĠPipeline": 7961, "bc": 7962, "AttributeValue": 7963, "Ġdefine": 7964, "getStatusCode": 7965, "ASC": 7966, "layer": 7967, "Views": 7968, "Asc": 7969, "Boundary": 7970, "ĠFind": 7971, "Me": 7972, "ĠRectangle": 7973, "Phrase": 7974, "Mouse": 7975, "IllegalAccessException": 7976, "VOKE": 7977, "Ġvm": 7978, "getMap": 7979, "oose": 7980, "Checksum": 7981, "Conditions": 7982, "TODO": 7983, "gre": 7984, "Sid": 7985, "Handling": 7986, "ale": 7987, "Ġfixed": 7988, "ĠLO": 7989, "AF": 7990, "Ġown": 7991, "ĠjsonObject": 7992, "()-": 7993, "writeByte": 7994, "Criterion": 7995, "Elastic": 7996, "Pages": 7997, "Share": 7998, "si": 7999, "Ġ\"]\");": 8000, "Ġinject": 8001, "ObjectType": 8002, "serviceName": 8003, "email": 8004, "Ġatt": 8005, "Ġeven": 8006, "ENSION": 8007, "Delivery": 8008, "appings": 8009, "Transactional": 8010, "PASS": 8011, "ev": 8012, "Soap": 8013, "ibling": 8014, "Ġsol": 8015, "Encode": 8016, "Ġcoll": 8017, "constructor": 8018, "Ordinal": 8019, "SB": 8020, "Restriction": 8021, "getDatabase": 8022, "ird": 8023, "Partitions": 8024, "removeAll": 8025, "ManagerFactory": 8026, "findViewById": 8027, "candidate": 8028, "(\"#": 8029, "portal": 8030, "Reserved": 8031, "BAD": 8032, "ĠHttpResponseHandler": 8033, "withPayload": 8034, "Numbers": 8035, "Ġbad": 8036, "').": 8037, "jdbc": 8038, "Configurations": 8039, "ĠcurrentParentElement": 8040, "getCurrentParentElement": 8041, "Ġ?,": 8042, "LEVEL": 8043, "Formal": 8044, "Theme": 8045, "ĠnewInstance": 8046, "getRight": 8047, "ĠGeo": 8048, "Destroy": 8049, "aries": 8050, "ObjectName": 8051, "ively": 8052, "loop": 8053, "getProvider": 8054, "Locked": 8055, "II": 8056, "BeanDefinition": 8057, "StackSize": 8058, "AmazonWeb": 8059, "Ġthreshold": 8060, "getCount": 8061, "Ġce": 8062, "reason": 8063, "ĠgetInstance": 8064, "urrence": 8065, "ĠTrace": 8066, "Ġoptim": 8067, "Authority": 8068, "ĠEMPTY": 8069, "Plugins": 8070, "Combo": 8071, "writ": 8072, "protocolFactory": 8073, "Checkpoint": 8074, "TIES": 8075, "adoc": 8076, "newValue": 8077, "ĠdataType": 8078, "Offsets": 8079, "ClassInfo": 8080, "Os": 8081, "ayers": 8082, "Tier": 8083, "consumer": 8084, "ORMAL": 8085, "ĠTI": 8086, "currentParentElement": 8087, "aching": 8088, "generated": 8089, "Ġvars": 8090, "FAILED": 8091, "ĠComposite": 8092, "Fore": 8093, "Ġpixel": 8094, "wrapped": 8095, "inator": 8096, "STATIC": 8097, "Poly": 8098, "chemas": 8099, "Datatype": 8100, "ĠinternalGet": 8101, "tream": 8102, "Problem": 8103, "Modify": 8104, "Bridge": 8105, "Ranges": 8106, "nel": 8107, "ello": 8108, "DOC": 8109, "ĠProtocolRequestMarshaller": 8110, "illed": 8111, "addStatement": 8112, "Shadow": 8113, "Ġasset": 8114, "AmazonWebServiceResponse": 8115, "createProtocolMarshaller": 8116, "startMarshalling": 8117, "finishMarshalling": 8118, "withHas": 8119, "delta": 8120, "ĠresourceName": 8121, "createResponseHandler": 8122, "CONNECTION": 8123, "ĠcheckState": 8124, "den": 8125, "toCharArray": 8126, "Picker": 8127, "vh": 8128, "ĠsessionId": 8129, "ĠMono": 8130, "Activ": 8131, "ĠJsonOperationMetadata": 8132, "Optim": 8133, "isAnnotation": 8134, "Ġstored": 8135, "StreamingSuccessResponse": 8136, "direct": 8137, "withPayloadJson": 8138, "withHasStreamingSuccessResponse": 8139, "Perm": 8140, "():": 8141, "aa": 8142, "æķ": 8143, "ĠEJB": 8144, "Dialect": 8145, "Ġinterfaces": 8146, "ĠInternalXtext": 8147, "Ġdynamic": 8148, "Ġlet": 8149, "Face": 8150, "Updates": 8151, "Vec": 8152, "ĠPut": 8153, "Charsets": 8154, "BufferSize": 8155, "Live": 8156, "ĠBound": 8157, "ĠChange": 8158, "FLOAT": 8159, "nc": 8160, "TextView": 8161, "interrupt": 8162, "Compound": 8163, "ĠConstraint": 8164, "ĠisValid": 8165, "++,": 8166, "AtomContainer": 8167, "mis": 8168, "Ġcipher": 8169, "STAMP": 8170, "Reduce": 8171, "(\"&": 8172, "BB": 8173, "ĠSD": 8174, "VR": 8175, "SCHEMA": 8176, "Attrs": 8177, "elem": 8178, "Ġactions": 8179, "mkdirs": 8180, "ĠBorder": 8181, "ĠReader": 8182, "getLocalized": 8183, "dx": 8184, "Contract": 8185, "Queries": 8186, "ĠSorted": 8187, "Ġreply": 8188, "ĠLinkedHashSet": 8189, "seq": 8190, "eclipse": 8191, "ĠTransformer": 8192, "MT": 8193, "cookie": 8194, "ĠEN": 8195, "setContext": 8196, "Privileged": 8197, "Ack": 8198, "ithub": 8199, "Ġrequires": 8200, "chars": 8201, "Stm": 8202, "SEVERE": 8203, "ggle": 8204, "getK": 8205, "Lang": 8206, "Readable": 8207, "EE": 8208, "[(": 8209, "getTotal": 8210, "ung": 8211, "Estimate": 8212, "Ġinteger": 8213, "ĠlocalVar": 8214, "ĠentityType": 8215, "Quality": 8216, "Ġtimes": 8217, "95": 8218, "Ġwithin": 8219, "Provision": 8220, "Ġexact": 8221, "ĠPlugin": 8222, "Exceptions": 8223, "ĠEObject": 8224, "Own": 8225, "getReference": 8226, "Ġstarting": 8227, "period": 8228, "formance": 8229, "WL": 8230, "Identifiable": 8231, "environment": 8232, "avadoc": 8233, "comm": 8234, "elocity": 8235, "Ġborder": 8236, "ĠFrame": 8237, "ruid": 8238, "ĠMIN": 8239, "associate": 8240, "Adapt": 8241, "ividual": 8242, "await": 8243, "Net": 8244, "lines": 8245, "]]": 8246, "(\"@": 8247, "Ann": 8248, "åŃ": 8249, "Ġdisabled": 8250, "ĠgetB": 8251, "Comput": 8252, "LISH": 8253, "ĠSegment": 8254, "trict": 8255, "Attachments": 8256, "URLException": 8257, "Performed": 8258, "Ġtenant": 8259, "getRecord": 8260, "tology": 8261, "ĠConcurrent": 8262, "Ġadapt": 8263, "Ġhttps": 8264, "getSuperclass": 8265, "Ġmanifest": 8266, "Aggregator": 8267, "Ws": 8268, "Fn": 8269, "Ġworking": 8270, "Ġdto": 8271, "Ġbackup": 8272, "primary": 8273, "ĠPdf": 8274, "Ġgl": 8275, "ĠMAPParsingComponentException": 8276, "Ġhex": 8277, "destroy": 8278, "atis": 8279, "ATURE": 8280, "Outcome": 8281, "ĠfilePath": 8282, "creen": 8283, "px": 8284, "Recovery": 8285, "Ġless": 8286, "ATIVE": 8287, "Delimiter": 8288, "EXCEPTION": 8289, "Ġbinder": 8290, "ĠDb": 8291, "ĠsetValue": 8292, "ĠNetwork": 8293, "SECOND": 8294, "ĠsavedInstanceState": 8295, "Ġfinished": 8296, "ainten": 8297, "illiseconds": 8298, "ĠParam": 8299, "Ġindices": 8300, "++){": 8301, "KeyValue": 8302, "FieldAccess": 8303, "TagName": 8304, "aintenance": 8305, "agent": 8306, "hasText": 8307, "house": 8308, "note": 8309, "external": 8310, "ĠCopy": 8311, "ĠgetUser": 8312, "Characters": 8313, "HexString": 8314, "alformedURLException": 8315, "done": 8316, "Defs": 8317, "ifPresent": 8318, "Streams": 8319, "aggreg": 8320, "iterals": 8321, "lots": 8322, "ROL": 8323, "ĠSerializable": 8324, "getExecution": 8325, "getTitle": 8326, ";\\": 8327, "lp": 8328, "Ġlang": 8329, "MARK": 8330, "ĠFROM": 8331, "ĠFileUtils": 8332, "getDate": 8333, "Locations": 8334, "FINDER": 8335, "Ġinputs": 8336, "HttpServletResponse": 8337, "getInput": 8338, "Ġroles": 8339, "distance": 8340, "HttpMethod": 8341, "parsed": 8342, "ElementType": 8343, "Ġ11": 8344, "ĠhttpClient": 8345, "Hierarchy": 8346, "Ġvirtual": 8347, "Ġcard": 8348, "catch": 8349, "Ġissues": 8350, "encoded": 8351, "ANNOT": 8352, "LOB": 8353, "groups": 8354, "EntityType": 8355, "Repo": 8356, "DOWN": 8357, "Ġcoord": 8358, "Integr": 8359, "Aggregate": 8360, "ĠTimer": 8361, "Prev": 8362, "Ġthreads": 8363, "pp": 8364, "utf": 8365, "Ġ())": 8366, "ĠonCreate": 8367, "geometry": 8368, "Ġdelimiter": 8369, "Ġequals": 8370, "Ġliteral": 8371, "panel": 8372, "Dev": 8373, "Ġtransition": 8374, "Ġwaiting": 8375, "52": 8376, "publish": 8377, "Ġrequests": 8378, "SUCCESS": 8379, "SUP": 8380, "getDimension": 8381, "registry": 8382, "Ġpid": 8383, "ĠTyped": 8384, "iation": 8385, "ube": 8386, "scriptions": 8387, "Ġwhether": 8388, "Ġbig": 8389, "ARGET": 8390, "score": 8391, "Fleet": 8392, "fit": 8393, "Claim": 8394, "Comments": 8395, "ĠImmutableSet": 8396, "Ġ\"</": 8397, "ĠstartIndex": 8398, "Ġrv": 8399, "olec": 8400, "priority": 8401, "unknown": 8402, "typeName": 8403, "getVariable": 8404, "services": 8405, "Ġtransl": 8406, "qPath": 8407, "ĠInetAddress": 8408, "Ġserialized": 8409, "ĠProgress": 8410, "sqrt": 8411, "BL": 8412, "ĠTreeMap": 8413, "route": 8414, "Distributed": 8415, "defaultValue": 8416, "Parcel": 8417, "Ġtranslate": 8418, "ĠIType": 8419, "Construct": 8420, "Ġ');": 8421, "LF": 8422, "Que": 8423, "ActionListener": 8424, "uxio": 8425, "Expand": 8426, "BR": 8427, "Pin": 8428, "Ġmat": 8429, "ĠDimension": 8430, "BigInteger": 8431, "ango": 8432, "getCluster": 8433, "None": 8434, "need": 8435, "ĠgetObject": 8436, "ĠFl": 8437, "trigger": 8438, "Ġscheduler": 8439, "putInt": 8440, "ounce": 8441, "Thing": 8442, "ExecutorService": 8443, "ĠrequireNonNull": 8444, "uples": 8445, "Steps": 8446, "getEx": 8447, "\\\":": 8448, "ffff": 8449, "watch": 8450, "Ġreverse": 8451, "Cnt": 8452, "tle": 8453, "isPrimitive": 8454, "Ġtool": 8455, "Written": 8456, "Ġ','": 8457, "Ġmost": 8458, "<>": 8459, "QUI": 8460, "OLD": 8461, "AccessToken": 8462, "matched": 8463, "Atomic": 8464, "validation": 8465, "andf": 8466, "Ġassignment": 8467, "Since": 8468, "lide": 8469, "ocker": 8470, "Ġsentence": 8471, "getRemote": 8472, "Ġins": 8473, "ĠIo": 8474, "Dest": 8475, "Ġ14": 8476, "Utf": 8477, "Ġpayment": 8478, "Ġphase": 8479, "pmn": 8480, "CSS": 8481, "Ġlaunch": 8482, "('/": 8483, "unique": 8484, "castTo": 8485, "getDouble": 8486, "Until": 8487, "compressed": 8488, "userId": 8489, "ooth": 8490, "Appender": 8491, "ĠFirst": 8492, "exchange": 8493, "ĠHttpRequest": 8494, "Observable": 8495, "agate": 8496, "dfs": 8497, "Orders": 8498, "05": 8499, "setVisible": 8500, "\")).": 8501, "hook": 8502, "getResourceAsStream": 8503, "!\",": 8504, "Ġhref": 8505, "munication": 8506, "ĠPromise": 8507, "ĠHost": 8508, "82": 8509, "Observ": 8510, "isInfo": 8511, "InBytes": 8512, "005": 8513, "ĠCallback": 8514, "IMAGE": 8515, "Responses": 8516, "ARCH": 8517, "Nested": 8518, "getFrom": 8519, "Quote": 8520, "Inc": 8521, "ĠBY": 8522, "attrs": 8523, "getEClass": 8524, "SN": 8525, "Ġpi": 8526, "ĠMBean": 8527, "ĠTimestamp": 8528, "QueryParam": 8529, "ĠAssertion": 8530, "ivot": 8531, "Ġnegative": 8532, "NER": 8533, "Outline": 8534, "////////////////": 8535, "åħ": 8536, "ĠLogging": 8537, "Ġattachment": 8538, "*\");": 8539, "Starting": 8540, "ĠStack": 8541, "reverse": 8542, "STREAM": 8543, "ĠwriteTo": 8544, "atives": 8545, "getSelected": 8546, "ilar": 8547, "DEC": 8548, "BEAN": 8549, "CODING": 8550, "drop": 8551, "Severity": 8552, "setData": 8553, "ĠConvert": 8554, "Io": 8555, "getValues": 8556, "ServiceException": 8557, "ĠmetaData": 8558, "Fill": 8559, "apis": 8560, "Targets": 8561, "Scalar": 8562, "ĠDat": 8563, "getID": 8564, "getFormat": 8565, "ĠNodeList": 8566, "Ġ~": 8567, "EXEC": 8568, "Ġra": 8569, "plain": 8570, "MULT": 8571, "Ġextensions": 8572, "Ġaudit": 8573, "getAttributeValue": 8574, "ElementException": 8575, "retry": 8576, "Hosts": 8577, "Capabilities": 8578, "Ġcss": 8579, "FacesContext": 8580, "Ġseen": 8581, "Participant": 8582, "styleable": 8583, "Ġnecessary": 8584, "Ġ')": 8585, "Tail": 8586, "Channels": 8587, "ĠOpenCms": 8588, "charset": 8589, "present": 8590, "ListItem": 8591, "ĠComparable": 8592, "codec": 8593, "Ġextended": 8594, "Plus": 8595, "Ġcalling": 8596, "INF": 8597, "getAction": 8598, "Projection": 8599, "Ġstd": 8600, "PropertyName": 8601, "=='": 8602, "Ġyour": 8603, "square": 8604, "FFIX": 8605, "PING": 8606, "Ġtables": 8607, "Ġaltern": 8608, "escaped": 8609, "Ġlibrary": 8610, "Player": 8611, "shared": 8612, "STRUCT": 8613, "snapshot": 8614, "Enclosing": 8615, "zz": 8616, "getKind": 8617, "ferr": 8618, "TAIN": 8619, "ĠtaskId": 8620, "onymous": 8621, "beandf": 8622, "Expired": 8623, "beansf": 8624, "Ġcomposite": 8625, "getLocalizedMessage": 8626, "Working": 8627, "Ġabove": 8628, "Implicit": 8629, "Ġpartial": 8630, "Unsafe": 8631, "arehouse": 8632, "Ġcleanup": 8633, "Subnet": 8634, "Ġnormalize": 8635, "Ġ'{}'": 8636, "Cipher": 8637, "ĠSupplier": 8638, "agraph": 8639, "ĠonClick": 8640, "NodeType": 8641, "alyt": 8642, "ACTIVE": 8643, "isAnnotationPresent": 8644, "erve": 8645, "avor": 8646, "Ġlocator": 8647, "Ġvi": 8648, "Rendering": 8649, "å¤": 8650, "Ġexclude": 8651, "ower": 8652, "refresh": 8653, "LABEL": 8654, "pear": 8655, "ĠAT": 8656, "Ġunexpected": 8657, "annotations": 8658, "digest": 8659, "css": 8660, "Ġinstantiate": 8661, "ĠFileSystem": 8662, "signature": 8663, "BLOCK": 8664, "Ġcert": 8665, "isInfoEnabled": 8666, "endor": 8667, "getEPackage": 8668, "PROPERTIES": 8669, "PrimaryKey": 8670, "Ġwidget": 8671, "Ġedges": 8672, "DOM": 8673, "DIRECT": 8674, "getColor": 8675, "high": 8676, "Lists": 8677, "setUser": 8678, "parseDouble": 8679, "PH": 8680, "Ġ\"$": 8681, "los": 8682, "parseBoolean": 8683, "sessionId": 8684, "ĠRepositoryException": 8685, "asc": 8686, "OAuth": 8687, "PROCESS": 8688, "ĠDynamic": 8689, "ResultJsonUnmarshaller": 8690, "alpha": 8691, "Chooser": 8692, "Ġ));": 8693, "origin": 8694, "Ġsummary": 8695, "Fire": 8696, "07": 8697, "ingularity": 8698, "htable": 8699, "theEObject": 8700, "setParameter": 8701, "ĠJsp": 8702, "Redis": 8703, "pending": 8704, "addMethod": 8705, "Ġbackground": 8706, "ĠJsonArray": 8707, "sembly": 8708, "NA": 8709, "Ġhint": 8710, "ĠMult": 8711, "inv": 8712, "Ġfunc": 8713, "ĠVirtual": 8714, "compareAndSet": 8715, "TypeElement": 8716, "interface": 8717, "Texture": 8718, "Ġscheme": 8719, "tile": 8720, "ĠBox": 8721, "getRuntime": 8722, "returnType": 8723, "Ġsecret": 8724, "æĺ": 8725, "Ġproc": 8726, "ĠThere": 8727, "Ġcreating": 8728, "Design": 8729, "scal": 8730, "())))": 8731, "RULE": 8732, "logp": 8733, "Drag": 8734, "ĠtoIndex": 8735, "ational": 8736, "STOP": 8737, "45": 8738, "My": 8739, "Ġcar": 8740, "txt": 8741, "Self": 8742, "Pur": 8743, "ĠMake": 8744, "getSec": 8745, "ĠPersistence": 8746, "902": 8747, "REL": 8748, "FieldType": 8749, "ĠTreeSet": 8750, "Micro": 8751, "notification": 8752, "Ġthrown": 8753, "æķ°": 8754, "Profiles": 8755, "ĠNon": 8756, "catalog": 8757, "odo": 8758, "fp": 8759, "lab": 8760, "simple": 8761, "ISO": 8762, "Ġvisible": 8763, "ĠOptions": 8764, "ĠcommerceOrder": 8765, "Arc": 8766, "icture": 8767, "Ġ(%": 8768, "ĠEClass": 8769, "VED": 8770, "ĠPos": 8771, "Overlay": 8772, "ERS": 8773, "Expiration": 8774, "ĠfieldType": 8775, "StartTime": 8776, "UNI": 8777, "Framework": 8778, "github": 8779, "Ġvia": 8780, "RY": 8781, "adapter": 8782, "Ġinside": 8783, "ĠgetNext": 8784, "getView": 8785, "Ġjdbc": 8786, "attributeName": 8787, "dot": 8788, "getGeneric": 8789, "Ġextractor": 8790, "getStyle": 8791, "Trade": 8792, "Ġreduce": 8793, "sorted": 8794, "OWL": 8795, "Vertical": 8796, "Naming": 8797, "ĠStruct": 8798, "ĠStringTokenizer": 8799, "Ġnote": 8800, "ĠInetSocketAddress": 8801, "()+": 8802, "license": 8803, "ĠPartition": 8804, "getUri": 8805, "setLength": 8806, "crease": 8807, "metrics": 8808, "Placement": 8809, "SessionId": 8810, "Ġcurrently": 8811, "Ġevt": 8812, "License": 8813, "Ġsym": 8814, "ĠExtension": 8815, "Ġquot": 8816, "Ġss": 8817, "throwable": 8818, "MethodDescriptor": 8819, "ILD": 8820, "ĠWebSocket": 8821, "Lazy": 8822, "ĠhttpRequest": 8823, "ĠOnly": 8824, "Ġcertificate": 8825, "Possible": 8826, "SIBLE": 8827, "phab": 8828, "ConnectionFactory": 8829, "Ġstub": 8830, "ĠNd": 8831, "ĠModifier": 8832, "Pairs": 8833, "Ġblob": 8834, "ĠMediaType": 8835, "PARENT": 8836, "ĠDev": 8837, "home": 8838, "Ġpatch": 8839, "Ġmeasure": 8840, "Unary": 8841, "ife": 8842, "Ġ'-": 8843, "StoreException": 8844, "getTableName": 8845, "Processed": 8846, "acade": 8847, "ĠpageSize": 8848, "cn": 8849, "Ġtgt": 8850, "located": 8851, "Ġoccurred": 8852, "ĠCloudException": 8853, "Ġside": 8854, "Ġbaos": 8855, "Bi": 8856, "ĠgetService": 8857, "HashCode": 8858, "ZERO": 8859, "ListValue": 8860, "Ġcandidates": 8861, "Maps": 8862, "quivalent": 8863, "Ġconversion": 8864, "(\"/\"))": 8865, "echan": 8866, ">=": 8867, "dependency": 8868, "(\"}\");": 8869, "Exec": 8870, "Ġiteration": 8871, "Ġ[{}]": 8872, "Horizontal": 8873, "emit": 8874, "ĠCOL": 8875, "Ġseed": 8876, "ĠwriteLine": 8877, "Station": 8878, "Refs": 8879, "ĠStage": 8880, "ĠgetJ": 8881, "gree": 8882, "compress": 8883, "transport": 8884, "ĠDataSource": 8885, "å®": 8886, "andatory": 8887, "ĠNow": 8888, "loadClass": 8889, "Ġwritten": 8890, "depth": 8891, "Secure": 8892, "Ġmany": 8893, "vs": 8894, "Ġcapacity": 8895, "Light": 8896, "ĠBytes": 8897, "Ġiterable": 8898, "SUFFIX": 8899, "failure": 8900, "Ġ=>": 8901, "Ġ[{}]\",": 8902, "isInstance": 8903, "ĠClassNode": 8904, ")?": 8905, "Fact": 8906, "eNS": 8907, "PROTO": 8908, "booleanValue": 8909, "ializers": 8910, "Browser": 8911, "ermark": 8912, "Ġui": 8913, "UTES": 8914, "Dom": 8915, "Assistant": 8916, "localctx": 8917, "raft": 8918, "kt": 8919, "toJson": 8920, "running": 8921, "Ġneighb": 8922, "auses": 8923, "Occup": 8924, "isStatic": 8925, "Ġhandlers": 8926, "Ġtransfer": 8927, "EJB": 8928, "Inventory": 8929, "setParent": 8930, "Defer": 8931, "Emit": 8932, "201902": 8933, "ior": 8934, "Ġcomput": 8935, "83": 8936, "Clone": 8937, "BA": 8938, "Keep": 8939, "Ġ());": 8940, "ValueType": 8941, "adio": 8942, "ĠSw": 8943, "getDeclaringClass": 8944, "named": 8945, "Ġ200": 8946, "Ġaxis": 8947, "Pdf": 8948, "Ġcommands": 8949, "Coverage": 8950, "Vpn": 8951, "getLocale": 8952, "RC": 8953, "cor": 8954, "Ġrollback": 8955, "Parameterized": 8956, "Bulk": 8957, "tt": 8958, "Ġprovide": 8959, "ĠIdentity": 8960, "ĠWindow": 8961, "getParentFile": 8962, "Offer": 8963, "alleng": 8964, "Ns": 8965, "Ġfast": 8966, "avas": 8967, "Ġalert": 8968, "Bool": 8969, "81": 8970, "ĠUTF": 8971, "Hour": 8972, "Sequ": 8973, "Ġfeed": 8974, "Ġreferences": 8975, "IDENT": 8976, "Ġ':": 8977, "Ġlex": 8978, "converter": 8979, "ResourceType": 8980, "ĠProvider": 8981, "Ġfacet": 8982, "DEN": 8983, "ĠMithra": 8984, "ĠOther": 8985, "Ġacc": 8986, "ByteBuf": 8987, "Ssl": 8988, "ĠCounter": 8989, "Ġ\",\"": 8990, "sistent": 8991, "Ġreplic": 8992, "ĠJs": 8993, "deserialize": 8994, "iling": 8995, "setM": 8996, "BOOLEAN": 8997, "(\");": 8998, "Play": 8999, "Ġleg": 9000, "adapt": 9001, "ĠserverName": 9002, "iagram": 9003, "çĶ": 9004, "STY": 9005, "dataSource": 9006, "zs": 9007, "CacheEntry": 9008, "dimension": 9009, "Ġcd": 9010, "Ġsn": 9011, "Quick": 9012, "uby": 9013, "antics": 9014, "azel": 9015, "getChannel": 9016, "BUT": 9017, "Ġstandard": 9018, "ĠBi": 9019, "Caller": 9020, "deploy": 9021, "when": 9022, "setTime": 9023, "ryo": 9024, "ĠreturnValue": 9025, "iki": 9026, "Ġ}).": 9027, "ĠTarget": 9028, "Ġrate": 9029, "Ġmodules": 9030, "Compatible": 9031, "ĠFFDCFilter": 9032, "(\"(": 9033, "MeasureSpec": 9034, "Ġreturns": 9035, "Instant": 9036, "Allocator": 9037, "ĠREST": 9038, "Ġserial": 9039, "ĠSerializer": 9040, "Decode": 9041, "Keeper": 9042, "ĠSip": 9043, "Ġproducer": 9044, "Union": 9045, "readValue": 9046, "WEB": 9047, "phabet": 9048, "ĠfinderCache": 9049, "branch": 9050, "Ġcases": 9051, "crimin": 9052, "Ġobtain": 9053, "ĠCore": 9054, "ĠOpcodes": 9055, "Adjust": 9056, "Ġprevent": 9057, "incrementAndGet": 9058, "---": 9059, "Catch": 9060, "listeners": 9061, "ynchronization": 9062, "Proposal": 9063, "dom": 9064, "Ġ{@": 9065, "InMillis": 9066, "Ġstatistics": 9067, "Ordered": 9068, "PART": 9069, "Ġquote": 9070, "master": 9071, "getConstructor": 9072, "ĠUrl": 9073, "Ġtyped": 9074, "agger": 9075, "Ġreceive": 9076, "mf": 9077, "pass": 9078, "())).": 9079, "OVER": 9080, "Ġconsume": 9081, "findBy": 9082, "appendChild": 9083, "ATEG": 9084, "ORITY": 9085, "BC": 9086, "46": 9087, "getTimestamp": 9088, "Ġcat": 9089, "Ġbootstrap": 9090, "riend": 9091, "ĠNew": 9092, "Ġminimum": 9093, "getCommand": 9094, "AlgorithmException": 9095, "OfWeek": 9096, "Ġembedded": 9097, "LINK": 9098, "getEClassifiers": 9099, "history": 9100, "mail": 9101, "verify": 9102, "Clear": 9103, "matrix": 9104, "ĠDevice": 9105, "'))": 9106, "ĠDOM": 9107, "Statistic": 9108, "META": 9109, "JsonArray": 9110, "ĠxmlEvent": 9111, "Warehouse": 9112, "Ġbelow": 9113, "UNCTION": 9114, "_(": 9115, "ListNew": 9116, "Ġactually": 9117, "drools": 9118, "getArtifact": 9119, "INPUT": 9120, "Clock": 9121, "FC": 9122, "alert": 9123, "ollo": 9124, "Mutation": 9125, "Ġautom": 9126, "translate": 9127, "ĠEvalu": 9128, "ĠObjectMapper": 9129, "StringStaxUnmarshaller": 9130, "addTo": 9131, "upper": 9132, "tail": 9133, "ĠSee": 9134, "ĠNamed": 9135, "ĠerrorMessage": 9136, "Restore": 9137, ".*": 9138, "RS": 9139, "FromString": 9140, "Gray": 9141, "iqu": 9142, "fg": 9143, "åĬ": 9144, "Ġbond": 9145, "ĠBe": 9146, "rides": 9147, "Vault": 9148, "Ġctxt": 9149, "ĠMemory": 9150, "Ġcols": 9151, "Ġexc": 9152, ">\";": 9153, "Ġsur": 9154, "Ġtheir": 9155, "Drawer": 9156, "bottom": 9157, "IfNeeded": 9158, "ARE": 9159, "Ġfallback": 9160, "ĠDMatrix": 9161, "lee": 9162, "Ġisn": 9163, "timer": 9164, "SCRIPT": 9165, "&&": 9166, "addHeader": 9167, "Symbols": 9168, "ĠuserName": 9169, "Ġarea": 9170, "ĠStringUtil": 9171, "toBlocking": 9172, "ĠAttributes": 9173, "Rectangle": 9174, "ĠvalueType": 9175, "png": 9176, "STYLE": 9177, "ParameterizedType": 9178, "Func": 9179, "ĠgetAttribute": 9180, "ObjectProperty": 9181, "members": 9182, "fr": 9183, "herited": 9184, "setR": 9185, "Ġanalysis": 9186, "ons": 9187, "ĠAst": 9188, "xc": 9189, "ĠEnvironment": 9190, "[].": 9191, "Faces": 9192, "RequestProtocolMarshaller": 9193, "Ġdecor": 9194, "VARI": 9195, "REFERENCE": 9196, "avascript": 9197, "ĠSTRING": 9198, "Hit": 9199, "ĠDraw": 9200, "Activation": 9201, ">>(": 9202, "Notify": 9203, "redirect": 9204, "Ġbindings": 9205, "RMaj": 9206, "Ġdx": 9207, "Ġocc": 9208, "RequestException": 9209, "listFiles": 9210, "modifiers": 9211, "atastream": 9212, "Ġnv": 9213, "Att": 9214, "Receive": 9215, "Ġdi": 9216, "ĠnodeList": 9217, "ĠSelect": 9218, "(\"\"))": 9219, "sBy": 9220, "ĠEnd": 9221, "(\"{}": 9222, "getActivity": 9223, "igher": 9224, "akes": 9225, "rier": 9226, "Ġproper": 9227, "Ġpersistence": 9228, "Finish": 9229, "ĠPlan": 9230, "sun": 9231, "ĠSubscription": 9232, "PriceEntry": 9233, "TRY": 9234, "Ġhelp": 9235, "capacity": 9236, "Ġais": 9237, "ROLE": 9238, "example": 9239, "ĠLook": 9240, "Enter": 9241, "ĠGu": 9242, "Concat": 9243, "ĠWrit": 9244, "getEntry": 9245, "PROJECT": 9246, "Ġcnt": 9247, "Ġsem": 9248, "CURRENT": 9249, "xe": 9250, "Subsystem": 9251, "PublicKey": 9252, "TypeParameter": 9253, "Analyzer": 9254, "CEPT": 9255, "Servers": 9256, "ĠConverter": 9257, "anit": 9258, "Ġsoap": 9259, "Ġexpiration": 9260, "Samples": 9261, "Ġassociated": 9262, ";}": 9263, "Pager": 9264, "Ġdr": 9265, "ALLOW": 9266, "Ġaggregate": 9267, "SCOPE": 9268, "Kie": 9269, "vol": 9270, "PLAY": 9271, "lems": 9272, "Ġincluded": 9273, "Aff": 9274, "\\\"\");": 9275, "Scopes": 9276, "oder": 9277, "ante": 9278, "optional": 9279, "otential": 9280, "ĠJar": 9281, "<<": 9282, "INARY": 9283, "quote": 9284, "ably": 9285, "PLACE": 9286, "FFFF": 9287, "ĠSDVariable": 9288, "TEMPLATE": 9289, "ĠreportError": 9290, "SIGN": 9291, "getImage": 9292, "Ġ\"?": 9293, "ĠVer": 9294, "SecurityException": 9295, "ĠVertex": 9296, "calculate": 9297, "INVOKE": 9298, "Submit": 9299, "isFile": 9300, "Ġmid": 9301, "checkState": 9302, "restore": 9303, "Ġconsole": 9304, "REE": 9305, "ModelNode": 9306, "DownLatch": 9307, "ervation": 9308, "unnel": 9309, "Negative": 9310, "azelcast": 9311, "vant": 9312, "ĠReport": 9313, "Mock": 9314, "help": 9315, "ĠSort": 9316, "Fraction": 9317, "getUn": 9318, "Align": 9319, "Ġ{\\": 9320, "ci": 9321, "ĠSkip": 9322, "Ġsheet": 9323, "Helpers": 9324, "ReturnValue": 9325, "img": 9326, "ProcessingException": 9327, "SERT": 9328, "ĠStep": 9329, "ouch": 9330, "rib": 9331, "Ġwrong": 9332, "Contexts": 9333, "otate": 9334, "setVisibility": 9335, "OUTPUT": 9336, "Ġpres": 9337, "Appro": 9338, "LOCATION": 9339, "Membership": 9340, "ynchronous": 9341, "ĠHTML": 9342, "apes": 9343, "getOutputStream": 9344, "Comb": 9345, "Traversal": 9346, "orrelationId": 9347, "allenge": 9348, "ĠEOF": 9349, "issues": 9350, "ĠTri": 9351, "Inline": 9352, "setLast": 9353, "Ġpromise": 9354, "DESC": 9355, "BIG": 9356, "ĠAST": 9357, "ITLE": 9358, "getSt": 9359, "generic": 9360, "tick": 9361, "(\"'": 9362, "month": 9363, "Canvas": 9364, "alyzed": 9365, "Ġversions": 9366, "Ġinjector": 9367, "writeTo": 9368, "packageName": 9369, "LD": 9370, "Audio": 9371, "CKET": 9372, "normalize": 9373, "Ast": 9374, ">\",": 9375, "75": 9376, "Mapped": 9377, "aemon": 9378, "async": 9379, "Ġtrying": 9380, "ntk": 9381, "ingerprint": 9382, "ĠMeasure": 9383, "ĠCAP": 9384, "inite": 9385, "Ġinstruction": 9386, "MODULE": 9387, "LT": 9388, "Ġ31": 9389, "Ġsomething": 9390, "Ġmemo": 9391, "Ġdetail": 9392, "Ljava": 9393, "gnoring": 9394, "Bracket": 9395, "missing": 9396, "Updater": 9397, "Age": 9398, "Xbase": 9399, "jp": 9400, "Ġterms": 9401, "ĠHttpClient": 9402, "RACE": 9403, "Iteration": 9404, "Business": 9405, "ĠFont": 9406, "Gap": 9407, "dataset": 9408, "arl": 9409, "....": 9410, "Ġlatest": 9411, "qn": 9412, "Epoch": 9413, "Reflection": 9414, "Den": 9415, "]+": 9416, "ĠstringBuilder": 9417, "Toolbar": 9418, "Sentence": 9419, "RB": 9420, "ĠThrow": 9421, "columnIndex": 9422, "memory": 9423, "ĠcompareTo": 9424, "completed": 9425, "Ġchecked": 9426, "Fully": 9427, "atisf": 9428, "Ġnorm": 9429, "disable": 9430, "FailureException": 9431, "Ġpretty": 9432, "anning": 9433, "Ġstatements": 9434, "uggestion": 9435, "ĠMaven": 9436, "ipp": 9437, "ä¸į": 9438, "06": 9439, "putIfAbsent": 9440, "ĠindexOf": 9441, "ĠManagement": 9442, "Ġdy": 9443, "Ġgreater": 9444, "Handshake": 9445, "Levels": 9446, "Ġconnections": 9447, "94": 9448, "Eval": 9449, "Letter": 9450, "Sizes": 9451, "ĠScope": 9452, "getSymbol": 9453, "CheckBox": 9454, "Ġsupplier": 9455, "processed": 9456, "128": 9457, "Termination": 9458, "Ġconnected": 9459, "agination": 9460, "ĠFIX": 9461, ")/": 9462, "allery": 9463, "PolicyRequest": 9464, "ĠfromIndex": 9465, "initialized": 9466, "Containers": 9467, "PathParam": 9468, "FAILURE": 9469, "StreamReader": 9470, "Dirs": 9471, "äº": 9472, "Conversation": 9473, "Deleg": 9474, "Ġdecoding": 9475, "FRAME": 9476, "Ġdeser": 9477, "ĠCase": 9478, "Ġbuffered": 9479, "orer": 9480, "setup": 9481, "aches": 9482, "TimeUnit": 9483, "Replacement": 9484, "ĠDependency": 9485, "Ġdisable": 9486, "Popup": 9487, "LER": 9488, "Ġtri": 9489, "Invoice": 9490, "Raster": 9491, "Sig": 9492, "ableType": 9493, "ializing": 9494, "Deferred": 9495, "Known": 9496, "Ġ\"\\\\": 9497, "Ġproto": 9498, "astic": 9499, "CALL": 9500, "Ġmappings": 9501, "regor": 9502, "LAST": 9503, "ĠservletContext": 9504, "Exact": 9505, "Contains": 9506, "ĠSignature": 9507, "Ġ13": 9508, "ti": 9509, "Ġ`": 9510, "Zoom": 9511, "ĠPreparedStatement": 9512, "EDEFAULT": 9513, "eINSTANCE": 9514, "ĠgetParent": 9515, "FORE": 9516, "Ġejb": 9517, "NodeId": 9518, "IAS": 9519, "Wish": 9520, "Ġ1024": 9521, "getOwner": 9522, "eros": 9523, "Ġmut": 9524, "addReference": 9525, "XmlElement": 9526, "Orientation": 9527, "see": 9528, "ĠgetFile": 9529, "Decorator": 9530, "Ġcos": 9531, "rog": 9532, "Ġprogram": 9533, "ENCODING": 9534, "cker": 9535, "respond": 9536, "UInt": 9537, "Ġstrip": 9538, "Ġpercent": 9539, "bounds": 9540, "best": 9541, "positories": 9542, "vidence": 9543, "ROLL": 9544, "ĠEdge": 9545, "ĠMongo": 9546, "BuilderFactory": 9547, "ĠLoad": 9548, "Ġoperand": 9549, "ĠGlobal": 9550, "ZIP": 9551, "PreparedStatement": 9552, "Ġsyn": 9553, "Ġwatch": 9554, "modified": 9555, "Acl": 9556, "border": 9557, "cos": 9558, "Slash": 9559, "esis": 9560, "ĠLE": 9561, "writeLong": 9562, "Ġabsolute": 9563, "ades": 9564, "Transient": 9565, "Explicit": 9566, "Categories": 9567, "Ġmult": 9568, "ĠRemoteException": 9569, "ĠAccount": 9570, "anagers": 9571, "TARGET": 9572, "Ġbin": 9573, "otionEvent": 9574, "Ġchecksum": 9575, "ToRemove": 9576, "Choice": 9577, "ĠJPanel": 9578, "ITIVE": 9579, "Like": 9580, "getNodeName": 9581, "JOB": 9582, "Oid": 9583, "regex": 9584, "getNumberOf": 9585, "Logs": 9586, "Risk": 9587, "coOccup": 9588, "ancell": 9589, "Ġhandled": 9590, "zscoOccup": 9591, "zscoOccupations": 9592, "ĠmethodBuilder": 9593, "ĠAnzscoOccupations": 9594, "JAVA": 9595, "PACK": 9596, "'ll": 9597, "ĠIs": 9598, "getFields": 9599, "Ġscheduled": 9600, "delay": 9601, ":\\": 9602, "HOUR": 9603, "Ġdeli": 9604, "Ġloading": 9605, "Ġdirectly": 9606, "Maven": 9607, "ĠgetOrCreate": 9608, "SecurityGroup": 9609, "CW": 9610, "ĠCaster": 9611, "INTEGER": 9612, "ĠtimeUnit": 9613, "Imports": 9614, "ĠEndpoint": 9615, "Training": 9616, "cognized": 9617, "compatible": 9618, "Ġfore": 9619, "Diagnostic": 9620, "Ġmb": 9621, "ĠAm": 9622, "ĠMedia": 9623, "Ġfl": 9624, "udo": 9625, "was": 9626, "ĠEC": 9627, "Ġ40": 9628, "ĠGL": 9629, "Mut": 9630, "Preferred": 9631, "startElement": 9632, "ĠSend": 9633, "ĠCertificate": 9634, "Ġcompletion": 9635, "ĠInvocationTargetException": 9636, "erc": 9637, "Plain": 9638, "ĠLocalDate": 9639, "Sn": 9640, "Ġcredential": 9641, "ĠgetChild": 9642, "PrimitiveName": 9643, "sip": 9644, "visor": 9645, "ĠAssertionError": 9646, "atermark": 9647, "Between": 9648, "Ġpeek": 9649, "comparator": 9650, "slt": 9651, "iring": 9652, "Signal": 9653, "CASE": 9654, "JAXB": 9655, "Ġsf": 9656, "Ġden": 9657, "addComponent": 9658, "ĠLinear": 9659, "variant": 9660, "Jsp": 9661, "WH": 9662, "setTitle": 9663, "ĠFileNotFoundException": 9664, "Ġwarning": 9665, "Ġgeo": 9666, "anned": 9667, "userName": 9668, "Ġclosing": 9669, "folder": 9670, "FeatureCall": 9671, "ĠInternalException": 9672, "Ġcoordinates": 9673, "chase": 9674, "ĠgetConfig": 9675, "ĠBad": 9676, "prec": 9677, "eq": 9678, "Specs": 9679, "oordinator": 9680, "Ġqueries": 9681, "ora": 9682, "versed": 9683, "Ġrealm": 9684, "SUPPORT": 9685, "è®": 9686, "getScope": 9687, "flag": 9688, "ĠMozuClient": 9689, "ASK": 9690, "Ġswap": 9691, "Multipart": 9692, "ArrayType": 9693, "Git": 9694, "alyze": 9695, "ĠOvh": 9696, "okhttp": 9697, "changed": 9698, "Ġoid": 9699, "Classification": 9700, "ENDING": 9701, "UAL": 9702, "person": 9703, "ĠtargetClass": 9704, "[%": 9705, "ĠWHERE": 9706, "Ġæ": 9707, "rout": 9708, "ĠIgnore": 9709, "serializer": 9710, "peated": 9711, "additional": 9712, "Ġaggs": 9713, "Ġupdateresource": 9714, "Ġpolygon": 9715, "avity": 9716, "SocketFactory": 9717, "Vertices": 9718, "Ġ{\");": 9719, "Ġdao": 9720, "ĠTH": 9721, "Ġseg": 9722, "Routing": 9723, "Kit": 9724, "fn": 9725, "ClassType": 9726, "Datastore": 9727, "Ġdimensions": 9728, "KeyStore": 9729, "Generate": 9730, "VISIBLE": 9731, "Ġpersistent": 9732, "updated": 9733, "fw": 9734, "onds": 9735, "rollback": 9736, "Ġ19": 9737, "convertTo": 9738, "Ġconstraints": 9739, "Ġconsum": 9740, "Compression": 9741, "AccountId": 9742, "hrow": 9743, "ĠMenu": 9744, "Ġpatterns": 9745, "added": 9746, "ĠobjectMapper": 9747, "ACC": 9748, "FieldAccessors": 9749, "alytics": 9750, "ially": 9751, "Ġhour": 9752, "Configurator": 9753, "Ġduplicate": 9754, "phan": 9755, "prob": 9756, "ĠOP": 9757, "getTypeName": 9758, "Pipe": 9759, "uages": 9760, "Positive": 9761, "tasks": 9762, "Ġexpressions": 9763, "Ġear": 9764, "<?>,": 9765, "private": 9766, "Was": 9767, "Dem": 9768, "æĺ¯": 9769, "ertificates": 9770, "regorian": 9771, "Ġ}));": 9772, "ackson": 9773, "SED": 9774, "ĠCollector": 9775, "ĠdefaultCase": 9776, "Ġhostname": 9777, "(\\\"": 9778, "cert": 9779, "ä¸Ģ": 9780, "ĠgetRequest": 9781, "HS": 9782, "sem": 9783, "Inclusive": 9784, "Directories": 9785, "CY": 9786, "FER": 9787, "ture": 9788, "getV": 9789, "CommandLine": 9790, "ĠCommandLine": 9791, "lish": 9792, "enk": 9793, "Ġparallel": 9794, "ENTRY": 9795, "ĠlastComparison": 9796, "EXTENSION": 9797, "65": 9798, "VID": 9799, "Ġhit": 9800, "ĠAL": 9801, "Ġhandling": 9802, "ĠUIComponent": 9803, "CM": 9804, "ĠOWL": 9805, "ĠVisit": 9806, "EOF": 9807, "sin": 9808, "etime": 9809, "ĠCloseable": 9810, "flip": 9811, "Ġ17": 9812, "ARN": 9813, "ĠtargetType": 9814, "Ġnb": 9815, "CLE": 9816, "etic": 9817, "ĠVar": 9818, "Ġtxn": 9819, "Classifier": 9820, "PASSWORD": 9821, "ClassNode": 9822, "Ġsubscribe": 9823, "Ġspecify": 9824, "stage": 9825, "PoolSize": 9826, "NORMAL": 9827, "ĠStyle": 9828, "Ġ64": 9829, "getFilter": 9830, "Ġbuffers": 9831, "ANNOTATION": 9832, "Duplicate": 9833, "getException": 9834, "oins": 9835, "squareup": 9836, "Broker": 9837, "getParam": 9838, "localName": 9839, "Ġ'.'": 9840, "]),": 9841, "arning": 9842, "Dirty": 9843, "INTERVAL": 9844, "ç»": 9845, "ality": 9846, "Assertion": 9847, "ĠinternalGetFieldAccessorTable": 9848, "Pref": 9849, "Ġmail": 9850, "ChangeEvent": 9851, "ĠMy": 9852, "ĠLazy": 9853, "fieldAccessorTable": 9854, "ensureFieldAccessors": 9855, "ensureFieldAccessorsInitialized": 9856, "ĠsetProperty": 9857, "BIT": 9858, "MARY": 9859, "getInternal": 9860, "Ġremain": 9861, "methods": 9862, "FROM": 9863, "Interceptors": 9864, "Sibling": 9865, "wall": 9866, "Intern": 9867, "Ġcreation": 9868, "uent": 9869, "agation": 9870, "ylesheet": 9871, "SerializedSize": 9872, "getHeaders": 9873, "lastModified": 9874, "Ġlogging": 9875, "ĠchildNode": 9876, "ĠTimeout": 9877, "Solver": 9878, "ho": 9879, "ĠPost": 9880, "readLong": 9881, "SACTION": 9882, "mut": 9883, "JO": 9884, "ĠEPackage": 9885, "getIdentity": 9886, "ĠparameterTypes": 9887, "42": 9888, "ĠPAR": 9889, "ĠORecord": 9890, "Ġrelated": 9891, "oval": 9892, "ĠIdentifier": 9893, "ObjectReference": 9894, "UTC": 9895, "factor": 9896, "getTo": 9897, "viction": 9898, "ĠGroovy": 9899, "JobRequest": 9900, "Big": 9901, "getMetaData": 9902, "exclude": 9903, "Ġlazy": 9904, "AU": 9905, "features": 9906, "Special": 9907, "Ġconversation": 9908, "ĠSample": 9909, "pens": 9910, "getDefaultInstance": 9911, "cb": 9912, "getNumber": 9913, "uman": 9914, "OptionalParameter": 9915, "Coordinates": 9916, "Defaults": 9917, "TIMESTAMP": 9918, "(\"--": 9919, "usage": 9920, "Ġcomments": 9921, "basic": 9922, "Ġfall": 9923, "wrapper": 9924, "startIndex": 9925, "connected": 9926, "Anchor": 9927, "CacheKey": 9928, "mult": 9929, "actions": 9930, "propName": 9931, "SINGLE": 9932, "Ġrank": 9933, "Ġqualified": 9934, "imation": 9935, "ĠCodeableConcept": 9936, "Ġcloud": 9937, "selection": 9938, "Ġsyntax": 9939, "Adaptor": 9940, "getOriginal": 9941, "EEnum": 9942, "Ġinvok": 9943, "Violation": 9944, "ĠJSONException": 9945, "BoundingBox": 9946, "ragments": 9947, "RequestBuilder": 9948, "getAtom": 9949, "()\");": 9950, "Dependent": 9951, "Ġassume": 9952, "forward": 9953, "inity": 9954, "igu": 9955, "seek": 9956, "getComponentType": 9957, "big": 9958, "etype": 9959, "uspend": 9960, "ĠcolumnIndex": 9961, "ITEM": 9962, "Tensor": 9963, "Ġcm": 9964, "ariant": 9965, "axb": 9966, "getMain": 9967, "ji": 9968, "alone": 9969, "ĠgetColumn": 9970, "Ui": 9971, "rules": 9972, "getPartition": 9973, "(',": 9974, "White": 9975, "getExternal": 9976, "ATER": 9977, "Rollback": 9978, "imserver": 9979, "ategor": 9980, "Ġconsider": 9981, "NEL": 9982, "ances": 9983, "classLoader": 9984, "formatter": 9985, "dstu": 9986, "getActual": 9987, "declared": 9988, "nb": 9989, "Ġfr": 9990, "ĠCal": 9991, "OptionRel": 9992, "TX": 9993, "Ġconcat": 9994, "ĠhttpResponse": 9995, "Aliases": 9996, "fx": 9997, "OfMonth": 9998, "ĠWidget": 9999, "Ġpartitions": 10000, "flate": 10001, "Verification": 10002, "relative": 10003, "ĠElk": 10004, "pliance": 10005, "ĠendIndex": 10006, "ke": 10007, "orders": 10008, "egr": 10009, "Attached": 10010, "Linear": 10011, "ACL": 10012, "INITIAL": 10013, "Pb": 10014, ":%": 10015, "getBlock": 10016, "ased": 10017, "possible": 10018, "()==": 10019, "ĠCurrency": 10020, "ĠNative": 10021, "Ġdeclaration": 10022, "getOrder": 10023, "ĠAudit": 10024, "INFIN": 10025, "getSecond": 10026, "ĠDon": 10027, "media": 10028, "setLayout": 10029, "toHexString": 10030, "Ġprocedure": 10031, "ĠInjection": 10032, "SEARCH": 10033, "ĠWritable": 10034, "tow": 10035, "reement": 10036, "Disable": 10037, "isTraceOn": 10038, "Ġpd": 10039, "ĠMode": 10040, "Coding": 10041, "IMAL": 10042, "Ġcost": 10043, "Ġandroid": 10044, "ĠParameterizedType": 10045, "Prom": 10046, "ĠGET": 10047, "Suite": 10048, "ĠPortalException": 10049, "ĠJMS": 10050, "filtered": 10051, "rew": 10052, "ĠgetField": 10053, "MethodCall": 10054, "=>": 10055, "inst": 10056, "endElement": 10057, "ras": 10058, "ĠRed": 10059, "ĠConditionOptionCall": 10060, "DP": 10061, "za": 10062, "Ġdisk": 10063, ".\";": 10064, "ĠTIME": 10065, "(':": 10066, "Ġurls": 10067, "Initialization": 10068, "ĠPageException": 10069, "ingMode": 10070, "sheet": 10071, "Ġdecoded": 10072, "Rank": 10073, "Upgrade": 10074, "Minimum": 10075, "BOT": 10076, "TC": 10077, "ĠserviceContext": 10078, "Produces": 10079, "nextPageLink": 10080, "ĠXPath": 10081, "car": 10082, "Ġreporter": 10083, "Ġunderlying": 10084, "TITLE": 10085, "Ġactor": 10086, "getRule": 10087, "PRIORITY": 10088, "ĠStructure": 10089, "Exclusive": 10090, "shift": 10091, "Descriptions": 10092, "NAMESPACE": 10093, "isNaN": 10094, "Clusters": 10095, "ptr": 10096, "onCreate": 10097, "ĠgetData": 10098, "[\"": 10099, "andalone": 10100, "Ġtokenizer": 10101, "($": 10102, "Car": 10103, "allowed": 10104, "Ġangle": 10105, "<=": 10106, "Maintenance": 10107, "Literals": 10108, "è¡": 10109, "Coords": 10110, "Tmp": 10111, "ConfigurationRequest": 10112, "Ġupdates": 10113, "jcasType": 10114, "Ġtm": 10115, "aking": 10116, "Conflict": 10117, "Ġlinks": 10118, "Printer": 10119, "=\\\"\"": 10120, "uer": 10121, "Spaces": 10122, "getDescriptor": 10123, "ĠgetKey": 10124, "getSql": 10125, "oinspection": 10126, "Frequency": 10127, "dn": 10128, "Ġfp": 10129, "ServiceInterface": 10130, "Flat": 10131, "ĠgetState": 10132, "EXP": 10133, "Translator": 10134, "))));": 10135, "Ġbehavior": 10136, "Retrie": 10137, "Ġplatform": 10138, "Ġta": 10139, "OrDefault": 10140, "General": 10141, "upload": 10142, "Ġpositive": 10143, "findFirst": 10144, "organization": 10145, "pointer": 10146, "Ġzoom": 10147, "ĠstreamId": 10148, "ĠDecimal": 10149, "peech": 10150, "Ġobserver": 10151, "Ġrunner": 10152, "scroll": 10153, "ĠAv": 10154, "ĠDoc": 10155, "easured": 10156, "While": 10157, "Ġreferenced": 10158, "Shell": 10159, "09": 10160, "Ġnormalized": 10161, "scheme": 10162, "ocab": 10163, "StackTraceElement": 10164, "criteria": 10165, "++];": 10166, "GMENT": 10167, "Stored": 10168, "UserId": 10169, "ordered": 10170, "MESSAGES": 10171, "ITERAL": 10172, "Party": 10173, "TypeId": 10174, "Ġ---------------------------------": 10175, "Atlas": 10176, "ViewHolder": 10177, "Compile": 10178, "CONTAIN": 10179, "Ġsubscriber": 10180, "TypeArguments": 10181, "Ġcmp": 10182, "rol": 10183, "annotationType": 10184, "Ġcheckpoint": 10185, "ĠTAG": 10186, "Builders": 10187, "vict": 10188, "Ġkernel": 10189, "getNew": 10190, "Preview": 10191, "Ġ655": 10192, "Ġparas": 10193, "getGroupId": 10194, "ANY": 10195, "fromJson": 10196, "DOCUMENT": 10197, "ĠHandle": 10198, "Ġmodifiers": 10199, "ĠDataSet": 10200, "celer": 10201, "logging": 10202, "JSONArray": 10203, "InProgress": 10204, "Minute": 10205, "Ġdecimal": 10206, "getOperation": 10207, "Ġenough": 10208, "screen": 10209, "Ġrestart": 10210, "Ġcontact": 10211, "AccessFile": 10212, "Scene": 10213, "suffix": 10214, "ALIAS": 10215, "utils": 10216, "ucer": 10217, "agic": 10218, "ĠRoute": 10219, "fficient": 10220, "Dst": 10221, "character": 10222, "Ġtheme": 10223, "Ġ\"-\"": 10224, "cing": 10225, "inject": 10226, "Ġrw": 10227, "tools": 10228, "Compress": 10229, "MessageSize": 10230, "ĠPermission": 10231, "openc": 10232, "objects": 10233, "Migration": 10234, "Outbound": 10235, "vector": 10236, "ĠaddChild": 10237, "Customer": 10238, "sk": 10239, "Endpoints": 10240, "Ġ{\"": 10241, "getProtocol": 10242, "Artifacts": 10243, "ĠhashCode": 10244, "ĠRandomVariable": 10245, "filePath": 10246, "switch": 10247, "amount": 10248, "Inject": 10249, "REQUI": 10250, "ListIndex": 10251, "rpc": 10252, "modify": 10253, "taskId": 10254, "Ġtemporary": 10255, "addItem": 10256, "Adminis": 10257, "gu": 10258, "zero": 10259, "forcer": 10260, "Ġvertices": 10261, "76": 10262, "ĠgetMessage": 10263, "ĠMin": 10264, "Ġconditions": 10265, "LETED": 10266, "getURI": 10267, "Ġjedis": 10268, "ĠMaps": 10269, "PED": 10270, "ĠUnknown": 10271, "extra": 10272, "ĠgetG": 10273, "Ġstates": 10274, "ĠSerialization": 10275, "levant": 10276, "Ġ<%": 10277, "2018": 10278, "Ġcanonical": 10279, "AutoCreate": 10280, "ResourceException": 10281, "Ġcalls": 10282, "Effect": 10283, "ampa": 10284, "Ġformatted": 10285, "Ġdetect": 10286, "Subscribe": 10287, "ĠProto": 10288, "define": 10289, "vacy": 10290, "xd": 10291, "pret": 10292, "ĠPrimitive": 10293, "ĠCompletion": 10294, "outer": 10295, "unmarshal": 10296, "OrBuilder": 10297, "Processors": 10298, "Ġtxt": 10299, "Neighb": 10300, "ampaign": 10301, "none": 10302, "RequestMapping": 10303, "ĠjobId": 10304, "iator": 10305, "Difference": 10306, "getModule": 10307, "fd": 10308, "feat": 10309, "THREAD": 10310, "Ġmodification": 10311, "UserSegmentEntry": 10312, "getSign": 10313, "getPoint": 10314, "principal": 10315, "ĠDet": 10316, "worker": 10317, "Quota": 10318, "pid": 10319, "Ġ{//": 10320, "ĠGray": 10321, "offer": 10322, "getUuid": 10323, "AddOn": 10324, "fixed": 10325, "Ġqualifier": 10326, "Ġclaim": 10327, "Sessions": 10328, "ĠViewGroup": 10329, "detail": 10330, "GRE": 10331, "lin": 10332, "perform": 10333, "NoSuchMethodException": 10334, "TRACE": 10335, "Ġrecursive": 10336, "ToAdd": 10337, "Ġll": 10338, "Ġhome": 10339, "Counters": 10340, "ĠButton": 10341, "Ġabstract": 10342, "ĠFactory": 10343, "CommandContext": 10344, "oper": 10345, "arante": 10346, "ĠBeanDefinition": 10347, "workflow": 10348, "plies": 10349, "EXIST": 10350, "NN": 10351, "ĠQName": 10352, "æĹ": 10353, "opLambda": 10354, "ĠKie": 10355, "Authenticator": 10356, "Ġitr": 10357, "Ġlb": 10358, "GP": 10359, "seudo": 10360, "losest": 10361, "Maker": 10362, "Ġcx": 10363, "Exclude": 10364, "tenant": 10365, "Ġenclosing": 10366, "waitFor": 10367, "Chrono": 10368, "ChannelHandlerContext": 10369, "izard": 10370, "Ġhalf": 10371, "AttributeName": 10372, "visitMethod": 10373, "setInt": 10374, "CHANGE": 10375, "ĠTemp": 10376, "Ġsignal": 10377, "ĠNUM": 10378, "ĠSettings": 10379, "dbSession": 10380, "cannot": 10381, "ByTagName": 10382, "DESCRIPTION": 10383, "PRESSION": 10384, "mac": 10385, "Dimensions": 10386, "ĠSH": 10387, "FileEntry": 10388, "getPrimary": 10389, "ĠcheckFor": 10390, "Ġsuccessfully": 10391, "ĠCatalog": 10392, "41": 10393, "getCreate": 10394, "Ġrunnable": 10395, "savedInstanceState": 10396, "ĠgetNode": 10397, "PackageName": 10398, "MF": 10399, "Ġfv": 10400, "edValue": 10401, "getLanguage": 10402, "Autom": 10403, "Ġaccumulator": 10404, "Ġgson": 10405, "61": 10406, "Ġpk": 10407, "ĠTABLE": 10408, "Ġunset": 10409, "ĠConsole": 10410, "wards": 10411, "OC": 10412, "peer": 10413, "processing": 10414, "=\"+": 10415, "olecule": 10416, "æŀ": 10417, "ĠgetMax": 10418, "setContentType": 10419, "editor": 10420, "negative": 10421, "Sensitive": 10422, "RESH": 10423, "ĠStax": 10424, "Router": 10425, "EXECUT": 10426, "Expect": 10427, "ContextFactory": 10428, "Ġunion": 10429, "enkins": 10430, "IE": 10431, "getAnnotations": 10432, "Ġboundary": 10433, "unused": 10434, "ĠBug": 10435, "Ignored": 10436, "ä½": 10437, "ansion": 10438, "EXTRA": 10439, "setIs": 10440, "Ġincludes": 10441, "UNIT": 10442, "ĠProfile": 10443, "uncate": 10444, "lhs": 10445, "advance": 10446, "Ġ&=": 10447, "ĠbyteBuffer": 10448, "Ġring": 10449, "Ġmed": 10450, "Comparable": 10451, "62": 10452, "Mat": 10453, "omer": 10454, "Elk": 10455, "ificant": 10456, "DynamicQuery": 10457, "ĠaggsLambda": 10458, "SAX": 10459, "Inclusion": 10460, "CHED": 10461, "Retries": 10462, "ymbo": 10463, "labels": 10464, "Pixels": 10465, "getContainer": 10466, "NetworkInterface": 10467, "Ġdigit": 10468, "ĠDebug": 10469, "ĠgetMethod": 10470, "0000000": 10471, "onedDateTime": 10472, "getSecurity": 10473, "FUNCTION": 10474, "ĠCSS": 10475, "zure": 10476, "ĠcreateIfc": 10477, "ĠIss": 10478, "Fil": 10479, "slice": 10480, "ĠrequestId": 10481, "ĠNoSuchElementException": 10482, "Err": 10483, "SearchResult": 10484, "ĠRoot": 10485, "Ġadding": 10486, "Ġprojection": 10487, "ä¸º": 10488, "Ġassociation": 10489, "ĠScan": 10490, "ĠHttpURLConnection": 10491, "authent": 10492, "echanism": 10493, "ITT": 10494, "USTER": 10495, "Ġcombined": 10496, "Ġrr": 10497, "Ġpoll": 10498, "ĠWord": 10499, "ĠfieldValue": 10500, "ENUM": 10501, "ĠonError": 10502, "ĠaccessToken": 10503, "Ġreally": 10504, "background": 10505, "ĠOutputStreamWriter": 10506, "tuple": 10507, "setCurrent": 10508, "ĠinitialValue": 10509, "GED": 10510, "Resp": 10511, "ĠBinding": 10512, "Then": 10513, "ĠXA": 10514, "each": 10515, "tool": 10516, "Ġ^=": 10517, "Mean": 10518, "Ġaccum": 10519, "There": 10520, "Ġstrict": 10521, "Ġjsp": 10522, "ĠJLabel": 10523, "getMethods": 10524, "ĠgetPath": 10525, "Ġpad": 10526, "Ġkeyword": 10527, "Heartbeat": 10528, "ĠbatchSize": 10529, "ĠConnector": 10530, "toURI": 10531, "unexpected": 10532, "Ġgit": 10533, "covered": 10534, "olations": 10535, "writeValue": 10536, "CacheModel": 10537, "Ġiterate": 10538, "ĠDBConstants": 10539, "Ġklass": 10540, "Ġvideo": 10541, "Ġdead": 10542, "subList": 10543, "********************************": 10544, "Hive": 10545, "Ġencounter": 10546, "ĠgetP": 10547, "ĠHE": 10548, "ĠHy": 10549, "VarName": 10550, "addColumn": 10551, "ĠScreen": 10552, "ĠorderBy": 10553, "Ġlonger": 10554, "Ġpin": 10555, "Ġsv": 10556, "Scenario": 10557, "Beta": 10558, "setResource": 10559, "ĠFOR": 10560, "Ġfact": 10561, "Ġdispatcher": 10562, "FLOW": 10563, "Historic": 10564, "getRequestContext": 10565, "Navigation": 10566, "NodeList": 10567, "ActionEvent": 10568, "ĠCountDownLatch": 10569, "Generation": 10570, "Bin": 10571, "ValueMap": 10572, "ĠMapping": 10573, "ĠgetContent": 10574, "='\\": 10575, "Lab": 10576, "noinspection": 10577, "bedd": 10578, "sym": 10579, "VATE": 10580, "Wrapped": 10581, "itel": 10582, "CTED": 10583, "Tracking": 10584, "drawable": 10585, "trust": 10586, "Ġattached": 10587, "getInteger": 10588, "getRef": 10589, "riendly": 10590, "Macro": 10591, "}\\": 10592, "getScheme": 10593, "Ġitself": 10594, "Ġshadow": 10595, "PACKAGE": 10596, "JDBC": 10597, "_\"": 10598, "getPer": 10599, "Ġanything": 10600, "ACTIV": 10601, "Ġbeans": 10602, "ampling": 10603, "seen": 10604, "iform": 10605, "jspx": 10606, "alker": 10607, "Aspect": 10608, "witter": 10609, "getTemplate": 10610, "rev": 10611, "OrderItem": 10612, "floor": 10613, "sup": 10614, "Ġdbc": 10615, "ĠCalc": 10616, "Ġsys": 10617, "ĠAS": 10618, "ĠLex": 10619, "PropertyType": 10620, "grees": 10621, "icient": 10622, "IFIED": 10623, "Ġimplemented": 10624, "Balance": 10625, "Cross": 10626, "CONF": 10627, "criminator": 10628, "]*": 10629, "setOutput": 10630, "ĠSets": 10631, "getContextClassLoader": 10632, "Cardinality": 10633, "Ġ\"{": 10634, "geom": 10635, "POOL": 10636, "SqlType": 10637, "Buckets": 10638, "CastException": 10639, "ĠOtherwise": 10640, "Ġconfigs": 10641, "TYPES": 10642, "ĠBootstrap": 10643, "ĠDirectory": 10644, "FIR": 10645, "Compilation": 10646, "Fs": 10647, "Ġ\"(\"": 10648, "formations": 10649, "OfType": 10650, "RecyclerView": 10651, "perimental": 10652, "=\").": 10653, "amodel": 10654, "(\"*": 10655, "ĠAuthorization": 10656, "atar": 10657, "getCon": 10658, "ientation": 10659, "Successful": 10660, "Ġ18": 10661, "Ġleaf": 10662, "getFeature": 10663, "ENGLISH": 10664, "CDATA": 10665, "Ġmillis": 10666, "Ġast": 10667, "LABLE": 10668, "ĠobjectName": 10669, "\"})": 10670, "Attempts": 10671, "uggestions": 10672, "Ġinvalidate": 10673, "Ġwell": 10674, "ĠgetD": 10675, "Interaction": 10676, "Ġblack": 10677, "setOnClickListener": 10678, "You": 10679, "kit": 10680, "InstanceRequest": 10681, "ryRun": 10682, "Circle": 10683, "getCommerce": 10684, "ĠEmpty": 10685, "Ġdatasource": 10686, "Ġseries": 10687, "Ġincoming": 10688, "Ġdays": 10689, "ĠODocument": 10690, "literal": 10691, "Broadcast": 10692, "ĠdataSet": 10693, "ef": 10694, "ĠStatic": 10695, "construct": 10696, "CLUDE": 10697, "DU": 10698, "JsonProperty": 10699, "structure": 10700, "CODES": 10701, "Measurement": 10702, "-\"": 10703, "dump": 10704, "chart": 10705, "49": 10706, "CN": 10707, "++);": 10708, "Voice": 10709, "getApp": 10710, "Ġdf": 10711, "ĠwaitFor": 10712, "ĠApiResponse": 10713, "Docs": 10714, "Ġ\"_\"": 10715, "Ġpages": 10716, "emptyMap": 10717, "Ġque": 10718, "PlanNode": 10719, "Ġnm": 10720, "ĠMember": 10721, "ymbolic": 10722, ".\\": 10723, "/*": 10724, "Ldap": 10725, "agram": 10726, "MEDI": 10727, "Generics": 10728, "irty": 10729, "annotated": 10730, "ĠSER": 10731, "prot": 10732, "Ġmemoized": 10733, "Pub": 10734, "å¼": 10735, "getApi": 10736, "ĠSV": 10737, "anode": 10738, "RESOL": 10739, "ĠcommandContext": 10740, "CANCE": 10741, "Ġack": 10742, "ees": 10743, "Ġdc": 10744, "ĠgetList": 10745, "ĠEL": 10746, "ĠeventType": 10747, "DBCluster": 10748, "Tip": 10749, "thrift": 10750, "Regular": 10751, "VarInsn": 10752, "cus": 10753, "lier": 10754, "strumentation": 10755, "Ġci": 10756, "setSource": 10757, "ĠSpan": 10758, "Ġheap": 10759, "ĠGeneral": 10760, "ĠToast": 10761, "Recipient": 10762, "Ġmsgs": 10763, "ComboBox": 10764, "BINARY": 10765, "ĠGrammar": 10766, "getPassword": 10767, "ufficient": 10768, "cceeded": 10769, "getStream": 10770, "Ġcompressed": 10771, "umbn": 10772, "getBounds": 10773, "Serial": 10774, "Ġvisited": 10775, "Budget": 10776, "SUM": 10777, "orr": 10778, "ĠStringType": 10779, "vides": 10780, "ĠUP": 10781, "nOs": 10782, "adaptor": 10783, "Ġbetter": 10784, "Ġexcluded": 10785, "Ġgc": 10786, "MQ": 10787, "ĠDATA": 10788, "AccessControl": 10789, "XPath": 10790, "ĠAssoci": 10791, "AGER": 10792, "Groovy": 10793, "reduce": 10794, "Sep": 10795, "mapped": 10796, "getQualifiedName": 10797, "ĠgetParameter": 10798, "USTOM": 10799, "TaskId": 10800, "Ġchecking": 10801, "Ġready": 10802, "MISSION": 10803, "ino": 10804, "termin": 10805, "Windows": 10806, "Enforcer": 10807, "Alarm": 10808, "Managers": 10809, "ĠHttpMethod": 10810, "Ġreserved": 10811, "Dispatch": 10812, "udy": 10813, "events": 10814, "Canonical": 10815, "ĠIndexOutOfBoundsException": 10816, "ĠgrammarAccess": 10817, "Ġreload": 10818, "Ġpairs": 10819, "DEFINED": 10820, "={}": 10821, "obot": 10822, "obser": 10823, "Testing": 10824, "GB": 10825, "esting": 10826, "ĠAr": 10827, "delet": 10828, "addLast": 10829, "Ġrev": 10830, "Ġimmediate": 10831, "ening": 10832, "Allocation": 10833, "download": 10834, "Ġcounters": 10835, "Ascii": 10836, "ĠInterval": 10837, "CONTROL": 10838, "ever": 10839, "lyph": 10840, "closeQuietly": 10841, "Identifiers": 10842, "bitmap": 10843, "Declarations": 10844, "dispose": 10845, "ience": 10846, "ĠGenerator": 10847, "registered": 10848, "ĠShared": 10849, "framework": 10850, "DefaultValue": 10851, "Retention": 10852, "Round": 10853, "ĠgetIfc": 10854, "ĠDiff": 10855, "ByType": 10856, "Confirm": 10857, "Ġrm": 10858, "Ġcare": 10859, "Ġlab": 10860, "Ġspecification": 10861, "Grpc": 10862, "ARGUMENT": 10863, "opencms": 10864, "spring": 10865, "widget": 10866, "QUEUE": 10867, "TRANSACTION": 10868, "OAD": 10869, "isS": 10870, "cols": 10871, "Ġgradient": 10872, "Ġ(),": 10873, "Chunks": 10874, "cy": 10875, "setKey": 10876, "ĠRetry": 10877, "QNAME": 10878, "sers": 10879, "ĠCriteria": 10880, "FEATURE": 10881, "removeResult": 10882, "255": 10883, "LeafNode": 10884, "()]": 10885, "Ġfos": 10886, "WIND": 10887, "Ġnet": 10888, "getCom": 10889, "ĠBO": 10890, "ĠOperationFailedException": 10891, "Ġfully": 10892, "ĠERROR": 10893, "Ġsq": 10894, "setWidth": 10895, "ĠqueryParams": 10896, "ippet": 10897, "setMessage": 10898, "Ġredis": 10899, "ĠStrings": 10900, "connector": 10901, "POSITION": 10902, "Cleanup": 10903, "subscriptionId": 10904, "INFINITY": 10905, "Ġhold": 10906, "ActCode": 10907, "PROTOCOL": 10908, "Ġprecision": 10909, "(\"/\");": 10910, "rank": 10911, "Ġranges": 10912, "ĠCPDefinition": 10913, "Rotation": 10914, "Extras": 10915, "ĠJdbc": 10916, "Ġrenderer": 10917, "MER": 10918, "oices": 10919, "revision": 10920, "topology": 10921, "trl": 10922, "urer": 10923, "Ġordered": 10924, "Pid": 10925, "rate": 10926, "Ġtz": 10927, "repo": 10928, "ĠCipher": 10929, "using": 10930, "ccp": 10931, "retrieve": 10932, "ĠDisplay": 10933, "rigin": 10934, "HealthCheck": 10935, "Percentage": 10936, "ĠCHAR": 10937, "ĠmimeType": 10938, "ĠTHE": 10939, "hex": 10940, "Amp": 10941, "imated": 10942, "mean": 10943, "RequestListener": 10944, "TRIC": 10945, "Ġacquire": 10946, "ĠfeatureID": 10947, "HttpHeaders": 10948, "Reload": 10949, "cluding": 10950, "ĠdeploymentUnit": 10951, "FormalParameter": 10952, "Ġ))": 10953, "getExtension": 10954, "getActive": 10955, "Ġtf": 10956, "isEvent": 10957, "Ġeffective": 10958, "Ġresolution": 10959, "+=": 10960, "getInit": 10961, "virt": 10962, "ĠPlat": 10963, "NORE": 10964, "prepareStatement": 10965, "ĠprojectId": 10966, "marker": 10967, "çĶ¨": 10968, "precated": 10969, "Acc": 10970, "Ct": 10971, "Ġbrowser": 10972, "Ġsepar": 10973, "Ġactivate": 10974, "FromS": 10975, "ĠPathAddress": 10976, "scanpos": 10977, "Cli": 10978, "getSc": 10979, "ĠTypeReference": 10980, "Creating": 10981, "'ve": 10982, "avac": 10983, "GEX": 10984, "ĠPlatform": 10985, "Ġsingleton": 10986, "Ġtargets": 10987, "Closeable": 10988, "ocks": 10989, "lon": 10990, "ĠScheduler": 10991, "JsonNode": 10992, "qualified": 10993, "velop": 10994, "Ġdigits": 10995, "Strict": 10996, "Billing": 10997, "Watcher": 10998, "getSite": 10999, "ze": 11000, "ĠPar": 11001, "visitVarInsn": 11002, "Ġ65535": 11003, "ĠScheduled": 11004, "fieldType": 11005, "DIST": 11006, "ĠAtomicInteger": 11007, "Authenticated": 11008, "essment": 11009, "EXPRESSION": 11010, "getChildNodes": 11011, "getUsername": 11012, "Lexicon": 11013, "Ġuses": 11014, "Black": 11015, "ĠSize": 11016, "contact": 11017, "addActionListener": 11018, "ĠValidator": 11019, "orable": 11020, "Ġaux": 11021, "ĠkeyStore": 11022, "Matched": 11023, "Ġte": 11024, "ĠVER": 11025, "Abort": 11026, "Ġscenario": 11027, "FULL": 11028, "ipt": 11029, "ĠInstanti": 11030, "ĠHive": 11031, "visitInsn": 11032, "ĠAnalysisException": 11033, "Ġclip": 11034, "1111": 11035, "IFICATION": 11036, "ĠassertThat": 11037, "ĠStaxResponseHandler": 11038, "MR": 11039, "numCols": 11040, "Ġsi": 11041, "Minutes": 11042, "traction": 11043, "absent": 11044, "Transit": 11045, "Ġttl": 11046, "ĠCached": 11047, "sig": 11048, "getByte": 11049, "Extract": 11050, "asset": 11051, "ToFile": 11052, "ĠNaming": 11053, "1024": 11054, "Ġabs": 11055, "regorianCalendar": 11056, "ĠmemoizedSize": 11057, ")*": 11058, "Footer": 11059, "\\\",": 11060, "Ġoper": 11061, "DataInput": 11062, "ĠListUnmarshaller": 11063, "ynthetic": 11064, ".%": 11065, "Ġmaven": 11066, "ĠGoogle": 11067, "ClassPath": 11068, "ĠnodeId": 11069, "LOY": 11070, "Ġsd": 11071, "Phone": 11072, "Ġcw": 11073, "ĠCookie": 11074, "ModelAttribute": 11075, "sources": 11076, "ĠDescription": 11077, "AUTO": 11078, "prom": 11079, "Prepare": 11080, "Colors": 11081, "Ġdom": 11082, "ToBe": 11083, "ĠEnumSet": 11084, "GROUND": 11085, "MBER": 11086, "quot": 11087, "removed": 11088, "writeLock": 11089, "InvocationTargetException": 11090, "receiver": 11091, "Front": 11092, "Ġart": 11093, "Configured": 11094, "ollout": 11095, "LU": 11096, "getOptions": 11097, "tracef": 11098, "Ġinterrupted": 11099, "licable": 11100, "Ġgetting": 11101, "ADATA": 11102, "spaces": 11103, "CmsResource": 11104, "ĠdatabaseName": 11105, "ä¸ª": 11106, "ĠendTime": 11107, "ĠstatusCode": 11108, "Lexer": 11109, "Foreign": 11110, "Cat": 11111, "arter": 11112, "ĠOK": 11113, "PAREN": 11114, "ĠHashtable": 11115, "LITERAL": 11116, "ĠOrderByComparator": 11117, "country": 11118, "ĠSm": 11119, "ĠVec": 11120, "Assigned": 11121, "EST": 11122, "Room": 11123, "sys": 11124, "ĠExtended": 11125, "ICAL": 11126, "Ġetc": 11127, "EK": 11128, "Needed": 11129, "oration": 11130, "reat": 11131, "ĠDialog": 11132, "Portal": 11133, "Capture": 11134, "packet": 11135, "Ġhook": 11136, "Callbacks": 11137, "Graphic": 11138, "ĠServiceCallback": 11139, "IDENTIFIER": 11140, "may": 11141, "Weights": 11142, "Must": 11143, "ejs": 11144, "Dead": 11145, "ĠImport": 11146, "Ġanimation": 11147, "Ġlp": 11148, "Within": 11149, "dispatch": 11150, "Ġprinter": 11151, "ĠSplit": 11152, "Seen": 11153, "hanced": 11154, "Cred": 11155, "Concurrent": 11156, "Ġ'/'": 11157, "Occur": 11158, "ToInt": 11159, "Relational": 11160, "Nav": 11161, "ĠNamespace": 11162, "Ġassigned": 11163, "ĠValueEnforcer": 11164, "COMMAND": 11165, "Ġsin": 11166, "InfoList": 11167, "ĠGson": 11168, "Spatial": 11169, "FeatCode": 11170, "MalformedURLException": 11171, "MET": 11172, "ĠCOMP": 11173, "HANDLER": 11174, "53": 11175, "ĠpropertyValue": 11176, "Ġmiddle": 11177, "Ġep": 11178, "ĠAR": 11179, "Recursive": 11180, "Ġlarge": 11181, "Ġdeep": 11182, "rawler": 11183, "ĠOB": 11184, "FixedRate": 11185, "Ġcountry": 11186, "ingException": 11187, "ĠSlice": 11188, "ĠpropName": 11189, "getFieldName": 11190, "RGB": 11191, "slot": 11192, "ãĢ": 11193, "RAINT": 11194, "Ġupdateresources": 11195, "ĠBorderLayout": 11196, "Fallback": 11197, "InetAddress": 11198, "Ġmi": 11199, "toMillis": 11200, "ookeeper": 11201, "apiVersion": 11202, "EqualTo": 11203, "secret": 11204, "ASCII": 11205, ".\")": 11206, "Repeat": 11207, "Ġminute": 11208, "Ġdesired": 11209, "could": 11210, "mv": 11211, "ILITY": 11212, "ĠINT": 11213, "NEG": 11214, "nested": 11215, "setSelected": 11216, "ALOAD": 11217, "MEM": 11218, "Inspector": 11219, "Informations": 11220, "Ġvec": 11221, "vie": 11222, "Ġcounts": 11223, "Latest": 11224, "Accumulator": 11225, "Camera": 11226, "mn": 11227, "Ġsr": 11228, "Ġchunks": 11229, "Ġgrant": 11230, "Ġrespon": 11231, "ĠparentNode": 11232, "ParserException": 11233, "Ġbackend": 11234, "Ġwildcard": 11235, "93": 11236, "edType": 11237, "ĠNum": 11238, "ndiName": 11239, "Journal": 11240, "Ra": 11241, "Ġpositions": 11242, "Dates": 11243, "Ġband": 11244, "setBackground": 11245, "toSet": 11246, "Ġ'<": 11247, "IfNecessary": 11248, "polator": 11249, "ĠQu": 11250, "signed": 11251, "ĠfacesContext": 11252, "Ġwb": 11253, "Ġdetected": 11254, "Ġrgb": 11255, "Ġ)=>": 11256, "cursively": 11257, "vere": 11258, "anceled": 11259, "Ġ50": 11260, "ĠPrintStream": 11261, "getRead": 11262, "Ġpoly": 11263, "TimeoutException": 11264, "Ġcross": 11265, "Ġtp": 11266, "ENAME": 11267, "Devices": 11268, "ĠIAtom": 11269, "MODEL": 11270, "lt": 11271, "backup": 11272, "Pers": 11273, "ĠSA": 11274, "StyleName": 11275, "Shipment": 11276, "Tuples": 11277, "ĠDA": 11278, "ĠOpcode": 11279, "Ġcompression": 11280, "PropertyInfo": 11281, "helper": 11282, "Ġtransformed": 11283, "ODY": 11284, "SCA": 11285, "Trim": 11286, "Ġchannels": 11287, "DBObject": 11288, "Ġconv": 11289, "riding": 11290, "ĠAtom": 11291, "ĠDevFailed": 11292, "sr": 11293, "Ġ\"#": 11294, "ĠmozuClient": 11295, "EDIT": 11296, "Ġ'{}'\",": 11297, "Ġrecovery": 11298, "ĠTO": 11299, "Prefixes": 11300, "pkg": 11301, "elet": 11302, "readByte": 11303, "SECUR": 11304, "erator": 11305, "algorithm": 11306, "Ġ\".\");": 11307, "001": 11308, "ĠSTATE": 11309, "must": 11310, "ners": 11311, "getAttachment": 11312, "('.');": 11313, "FIRST": 11314, "QUENCE": 11315, "SECURITY": 11316, "Ġsteps": 11317, "Candidates": 11318, "Fit": 11319, "mat": 11320, "ĠUnit": 11321, "ExceptionHandler": 11322, "igation": 11323, "Ġjp": 11324, "acquire": 11325, "users": 11326, "ĠaddAll": 11327, "Ġ\"@": 11328, "newState": 11329, "Ġappendable": 11330, "ĠBufferedWriter": 11331, "getNodeValue": 11332, "setD": 11333, "ĠExternal": 11334, "Mist": 11335, "ĠExecutionException": 11336, "Ġplay": 11337, "FINEST": 11338, "Sym": 11339, "deli": 11340, "Ġcomparison": 11341, "Continue": 11342, "Reservation": 11343, "addOption": 11344, "executeQuery": 11345, "Ġ\")\";": 11346, "Ġanno": 11347, "atable": 11348, "Ġthose": 11349, "imator": 11350, "Ġindexed": 11351, "rect": 11352, "collector": 11353, "Ġoffsets": 11354, "Projects": 11355, "reply": 11356, "setState": 11357, "ĠAc": 11358, "uctr": 11359, "Race": 11360, "ĠgetLocal": 11361, "ĠLONG": 11362, "IGH": 11363, "ĠSTAT": 11364, "ah": 11365, "getStack": 11366, "Ġinline": 11367, "Logical": 11368, "fromResponse": 11369, "VIDER": 11370, "virtual": 11371, "radius": 11372, "}\")": 11373, "Ġrepeat": 11374, "Ġcomplex": 11375, "ograph": 11376, "ĠgroupName": 11377, "binder": 11378, "getWriter": 11379, "Ġprom": 11380, "ĠIssue": 11381, "CAT": 11382, "StatusCode": 11383, "ĠAny": 11384, "Placeholder": 11385, "Best": 11386, "arc": 11387, "ingStrategy": 11388, "ĠsetContent": 11389, "ĠexecuteGet": 11390, "authorization": 11391, "BOUND": 11392, "atures": 11393, "Ġlambda": 11394, "LineString": 11395, "Ġvolume": 11396, "allet": 11397, "calendar": 11398, "Ġ25": 11399, "Leader": 11400, "Ġwriting": 11401, "Quotes": 11402, "trospected": 11403, "amps": 11404, "getIts": 11405, "Typ": 11406, "Ġarrays": 11407, "ĠgetId": 11408, "notate": 11409, "cording": 11410, "getStringValue": 11411, "platform": 11412, "tein": 11413, "GridBagConstraints": 11414, "ableDynamicQuery": 11415, "ĠparamName": 11416, "DEF": 11417, "ĠMessageDigest": 11418, "(%": 11419, "False": 11420, "ulative": 11421, "unwrap": 11422, "ĠAttach": 11423, "unregister": 11424, "ĠTypeToken": 11425, "ĠattrName": 11426, "nodeName": 11427, "TopLevel": 11428, "Ġweights": 11429, "Far": 11430, "Ġrename": 11431, "Force": 11432, "Ġdistribution": 11433, "Ġfc": 11434, "OptionPane": 11435, "CD": 11436, "atibility": 11437, "Ġunits": 11438, "ĠqueryString": 11439, "DatabaseException": 11440, "ĠHelper": 11441, ":\"+": 11442, "attachment": 11443, "keep": 11444, "ĠDirect": 11445, "IAN": 11446, "Ġserialization": 11447, "requested": 11448, "Ġretrie": 11449, "orrent": 11450, "98": 11451, "ainter": 11452, "ĠnextPageLink": 11453, "PROXY": 11454, "getDestination": 11455, "ĠShape": 11456, "FINER": 11457, "Less": 11458, "Ġpipe": 11459, "ĠMock": 11460, "ĠparamTypes": 11461, "getRole": 11462, "Ġhosts": 11463, "Ġoverflow": 11464, "csv": 11465, "WAY": 11466, "Ġmg": 11467, "rogate": 11468, "08": 11469, "sender": 11470, "Inflater": 11471, "duplicate": 11472, "icast": 11473, "Ġaudio": 11474, "INSERT": 11475, "JavaType": 11476, "INTERFACE": 11477, "tinuation": 11478, "getFunction": 11479, "Ġinf": 11480, "ExecutableElement": 11481, "addLine": 11482, "constant": 11483, "TOM": 11484, "Compatibility": 11485, "JMS": 11486, "ĠinstanceValue": 11487, "logical": 11488, "Ġleave": 11489, "MAPPING": 11490, "enation": 11491, "Ġraf": 11492, "ĠgetConnection": 11493, "ĠBE": 11494, "getDialog": 11495, "yyyy": 11496, "Observation": 11497, "Cpu": 11498, "DataObject": 11499, "Cr": 11500, "ĠnodeName": 11501, "Timed": 11502, "SCAL": 11503, "?\");": 11504, "aption": 11505, "KeySpec": 11506, "EventHandler": 11507, "Ġnear": 11508, "TING": 11509, "cons": 11510, "responses": 11511, "Ġ__": 11512, "ĠresponseFields": 11513, "ĠPolicy": 11514, "Ġmanagement": 11515, "ĠFIXME": 11516, "æī": 11517, "Ġldap": 11518, "LANG": 11519, "audit": 11520, "balance": 11521, "FileNotFoundException": 11522, "isInterface": 11523, "Ġdeleg": 11524, "ĠRole": 11525, "Cut": 11526, "erts": 11527, "ĠInv": 11528, "Directive": 11529, "tip": 11530, "Ġtraining": 11531, "aves": 11532, "ĠbufferSize": 11533, "MXBean": 11534, "Substitution": 11535, "ĠtheEObject": 11536, "Nonce": 11537, "THE": 11538, "umbnail": 11539, "City": 11540, "Cfg": 11541, "QueryResult": 11542, "ScrollPane": 11543, "ĠgetInt": 11544, "Ġderiv": 11545, "Ġclosure": 11546, "RequestBody": 11547, "ĠBl": 11548, "InstantiationException": 11549, "ĠATTR": 11550, "ĠCF": 11551, "GroupLayout": 11552, "MPLE": 11553, "Ġdictionary": 11554, "Ġagainst": 11555, "receive": 11556, "VARIABLE": 11557, "credentials": 11558, "INAL": 11559, "Ts": 11560, "payment": 11561, "Ġfutures": 11562, "UserName": 11563, "Specifier": 11564, "getColumns": 11565, "hasDefined": 11566, "ModelDao": 11567, "archive": 11568, "getLat": 11569, "undera": 11570, "native": 11571, "ris": 11572, "ĠObjectName": 11573, "Ġcontexts": 11574, "Ġskipped": 11575, "BEGIN": 11576, "getNamed": 11577, "measure": 11578, "Coll": 11579, "Ġsamples": 11580, "SW": 11581, "getter": 11582, "getParams": 11583, "assignment": 11584, "Ġprior": 11585, "ĠGridBagConstraints": 11586, "supports": 11587, "Ġvals": 11588, "intent": 11589, "getZ": 11590, "arrow": 11591, "TypeVariable": 11592, "Ġexpired": 11593, "<>());": 11594, "Camel": 11595, "ĠRep": 11596, "Ġnumeric": 11597, "ĠAmazon": 11598, "LastModified": 11599, "cfg": 11600, "SPECIFIC": 11601, "padding": 11602, "(\"^": 11603, "Ġconflict": 11604, "Bundler": 11605, "itlement": 11606, "isClosed": 11607, "ĠDescriptor": 11608, "CONFIGURATION": 11609, "Precision": 11610, "ĠactionPerformed": 11611, "================================": 11612, "getBuffer": 11613, "Ġpull": 11614, "Ġpick": 11615, "Ġsstop": 11616, "ĠgetView": 11617, "Ġpublisher": 11618, "readLock": 11619, "ĠServiceResponse": 11620, "resolveModelAttribute": 11621, "multiply": 11622, "æľī": 11623, "href": 11624, "æĪ": 11625, "Handles": 11626, "Ġservers": 11627, "Expiry": 11628, "ISH": 11629, "Ġ\"\"));": 11630, "REA": 11631, "Ġatts": 11632, "Ġgeom": 11633, "Ġhard": 11634, "DISPLAY": 11635, "seg": 11636, "Ġmarshal": 11637, "ĠlistBy": 11638, "filters": 11639, "gp": 11640, "ĠCl": 11641, "Thrift": 11642, "Documentation": 11643, "readUnsigned": 11644, "PropertyValue": 11645, "getContentType": 11646, "ĠWorkflow": 11647, "Buff": 11648, "(\")": 11649, "ypher": 11650, "Ġplain": 11651, "ingContext": 11652, "ĠConversion": 11653, "ĠentityManager": 11654, "iagnostics": 11655, "MANAGER": 11656, "ĠruleXExpression": 11657, "getStorage": 11658, "ĠVis": 11659, "Gauge": 11660, "Ġescaped": 11661, "Invoker": 11662, "setP": 11663, "DataStore": 11664, "ĠelementName": 11665, ")((": 11666, "roken": 11667, "Presenter": 11668, ":\",": 11669, "that": 11670, "Ġ'>": 11671, "paths": 11672, "ĠHttpStatus": 11673, "utting": 11674, "ĠOne": 11675, "Derived": 11676, "Knowledge": 11677, "ĠexecuteDescribe": 11678, "clientId": 11679, "generator": 11680, "evt": 11681, "scheduler": 11682, "getDeployment": 11683, "Ġtw": 11684, "Seed": 11685, "Ġ';": 11686, "ĠPersistent": 11687, "Near": 11688, "replaceFirst": 11689, "ops": 11690, "obile": 11691, "Ġanchor": 11692, "Ġlocations": 11693, "stub": 11694, "Review": 11695, "ĠgetTable": 11696, "RequestId": 11697, "SIST": 11698, "Workplace": 11699, "priate": 11700, "orth": 11701, "Ġwon": 11702, "toPath": 11703, "ĠVert": 11704, "Ġallocate": 11705, "persistence": 11706, "stride": 11707, "ĠDomain": 11708, "ĠSubject": 11709, "92": 11710, "Ġrpc": 11711, "Ġ/=": 11712, "addValue": 11713, "Through": 11714, "ĠExample": 11715, "Ġproviders": 11716, "Replica": 11717, "Ġdiag": 11718, "Ġnumbers": 11719, "Cells": 11720, "PRIVATE": 11721, "direction": 11722, "ĠFieldItem": 11723, "openStream": 11724, "ised": 11725, "pur": 11726, "Ġsoft": 11727, "ĠgetLogger": 11728, "Ġsep": 11729, "ErrorHandler": 11730, "MINUTE": 11731, "TON": 11732, "zk": 11733, "orph": 11734, "COMMENT": 11735, "Vm": 11736, "isTrue": 11737, "ummary": 11738, "ResourceBundle": 11739, "facesContext": 11740, "Ġmargin": 11741, "StartOf": 11742, "CmsObject": 11743, "Verifier": 11744, "itelist": 11745, "OTE": 11746, "evalu": 11747, "Ġdialect": 11748, "comb": 11749, "Ġconstructors": 11750, "Ġsupports": 11751, "Ġtracker": 11752, "Sparse": 11753, "ĠTile": 11754, "Ġkeyspace": 11755, "CB": 11756, "Ġaddresses": 11757, "CONSTANT": 11758, "RECORD": 11759, "responding": 11760, "ides": 11761, "(\")\");": 11762, "tributor": 11763, "numRows": 11764, "UniqueId": 11765, "Csv": 11766, "pended": 11767, "Ġadaptor": 11768, "Ġprobably": 11769, "uet": 11770, "Ġee": 11771, "strix": 11772, "ĠFieldLocation": 11773, "Atoms": 11774, "bi": 11775, "Ġvs": 11776, "ĠcacheKey": 11777, "ĠGraphics": 11778, "ĠON": 11779, "rowse": 11780, "achable": 11781, "Monitoring": 11782, "Volt": 11783, "ICON": 11784, "kin": 11785, "asis": 11786, "ĠDT": 11787, "OrderBy": 11788, "WriteLock": 11789, "Ġbusiness": 11790, "LOBAL": 11791, "velopment": 11792, "autom": 11793, "Ġ}.": 11794, "Ġnav": 11795, "Ġtrain": 11796, "getCl": 11797, "Ports": 11798, "AccountName": 11799, "incipals": 11800, "getClientId": 11801, "Mistyped": 11802, "Dn": 11803, "Sys": 11804, "Ġaff": 11805, "override": 11806, "unmodifiableList": 11807, "COR": 11808, "Ġclock": 11809, "ForTesting": 11810, "ultiplic": 11811, "TT": 11812, "Asn": 11813, "ĠCONT": 11814, "({\"": 11815, "Dt": 11816, "getHttp": 11817, "setLabel": 11818, "Frames": 11819, "å¯": 11820, "Ġuid": 11821, "invocation": 11822, "getStackTrace": 11823, "Adding": 11824, "Opcodes": 11825, "Ġabort": 11826, "Ġprot": 11827, "ĠjcasType": 11828, "ĠInstant": 11829, "Notifier": 11830, "FILL": 11831, "ĠJCGL": 11832, "Ġbeta": 11833, "ĠFailed": 11834, "posable": 11835, "precation": 11836, "ToOne": 11837, "Verb": 11838, "Authorized": 11839, "Syn": 11840, "ĠPRI": 11841, "proc": 11842, "LEN": 11843, "Ġ('": 11844, "setImage": 11845, "Oracle": 11846, "ĠbytesRead": 11847, "Ġgoing": 11848, "implement": 11849, "sequ": 11850, "ĠgetFirst": 11851, "shard": 11852, "Ġcompress": 11853, "LEG": 11854, "resourceName": 11855, "ĠSmb": 11856, "ĠIterables": 11857, "objectName": 11858, "CSV": 11859, "SchedulerSupport": 11860, "interfaces": 11861, "MistypedParameter": 11862, "Average": 11863, "Facade": 11864, "Ġec": 11865, "Ġaverage": 11866, "miss": 11867, "pd": 11868, "getThread": 11869, "Ġlatch": 11870, "Ġeps": 11871, "Ġhealth": 11872, "(\":\");": 11873, "ĠStandardCharsets": 11874, "Ġcaught": 11875, "Ġgrammar": 11876, "ByKey": 11877, "Ġcallable": 11878, "ĠSelection": 11879, "bon": 11880, "setSize": 11881, "Ġdatastore": 11882, "ĠTypeDesc": 11883, "Ġ\"\".": 11884, "Solr": 11885, "HASH": 11886, "Translated": 11887, "marshaller": 11888, "getProxy": 11889, "SetRequest": 11890, "ĠListener": 11891, "Ġbulk": 11892, "Concurrency": 11893, "ĠActor": 11894, "ĠunknownFields": 11895, "Hits": 11896, "createNew": 11897, "ENTIC": 11898, "ĠpageContext": 11899, "ĠXMLEvent": 11900, "NotificationTemplate": 11901, "/%": 11902, "maven": 11903, "ĠMPS": 11904, "XmlElementDecl": 11905, "boot": 11906, "getSegment": 11907, "getOp": 11908, "Secondary": 11909, "RANGE": 11910, "ingKey": 11911, "transition": 11912, "Ġwhole": 11913, "getBuild": 11914, "stitute": 11915, "Ġclause": 11916, "isEnd": 11917, "Ġ+\"": 11918, "area": 11919, "dependent": 11920, "ĠgetModel": 11921, "scribed": 11922, "ucene": 11923, "ParameterTypes": 11924, "emptySet": 11925, "isActive": 11926, "Ġ\"\")": 11927, "ĠresultList": 11928, "Ġgs": 11929, "StartIndex": 11930, "('\"": 11931, "Ġdecision": 11932, "uplicates": 11933, "Ġud": 11934, "LEMENT": 11935, "Ġunmarshal": 11936, "Ġsubstitution": 11937, "LIMITER": 11938, "Hello": 11939, "Consistency": 11940, "Documents": 11941, "CompositeNode": 11942, "ĠlocalVarReturnType": 11943, "Subscriptions": 11944, "ĠZipEntry": 11945, "DRL": 11946, "getMember": 11947, "verbose": 11948, "Ġreached": 11949, "Ġtok": 11950, "ĠTrigger": 11951, "ĠisEmpty": 11952, "Ġweek": 11953, "Ġexpire": 11954, "IZED": 11955, "variables": 11956, "aton": 11957, "Ġfraction": 11958, "Comma": 11959, "ĠgetElement": 11960, "paring": 11961, "ĠNotFound": 11962, "gml": 11963, "ĠTRACE": 11964, "Compute": 11965, "QUOTE": 11966, "Building": 11967, "PhoneNumber": 11968, "ression": 11969, "Android": 11970, "Dns": 11971, "pref": 11972, "INS": 11973, "getDomain": 11974, "Ġencrypted": 11975, "ocial": 11976, "resultSet": 11977, "Ġlinked": 11978, "ĠCompute": 11979, "ĠUSER": 11980, "BS": 11981, "Mithra": 11982, "RL": 11983, "finished": 11984, "mc": 11985, "getLevel": 11986, "toFile": 11987, "Ġunregister": 11988, "Markup": 11989, "ĠNoSuchMethodException": 11990, "MISS": 11991, "Ġslash": 11992, "Pod": 11993, "ColumnNames": 11994, "Formats": 11995, "Relations": 11996, "REMOVE": 11997, "rhs": 11998, "EngineConfiguration": 11999, "Restart": 12000, "Slave": 12001, "redis": 12002, "getCurrency": 12003, "THAN": 12004, "cx": 12005, "Ġcookies": 12006, "Ġzk": 12007, "HostName": 12008, "Topics": 12009, "uzz": 12010, "zen": 12011, "amma": 12012, "Ġtranslation": 12013, "IllegalStateException": 12014, "CREATED": 12015, "getIs": 12016, "vention": 12017, "readable": 12018, "Ġxsp": 12019, "hi": 12020, "Ġddl": 12021, "edBy": 12022, "Ġworld": 12023, "streamId": 12024, "Ġfunctions": 12025, "WRAP": 12026, "Ġcont": 12027, "Hostname": 12028, "Legacy": 12029, "Integration": 12030, "maybe": 12031, "Ġsleep": 12032, "umes": 12033, "ĠJOptionPane": 12034, "SIP": 12035, "Ġstreams": 12036, "ĠPool": 12037, "ĠchildrenList": 12038, "POL": 12039, "ĠdoGet": 12040, "ĠjsonWriter": 12041, "VisibleForTesting": 12042, "vars": 12043, "CHANNEL": 12044, "Ġpackages": 12045, "UserSegmentRel": 12046, "ĠAndroid": 12047, "Ġcli": 12048, "Ġresponses": 12049, "entityType": 12050, "sqlg": 12051, "Associations": 12052, "Ġ!\"": 12053, "ROP": 12054, "ĠparameterName": 12055, "JavaScript": 12056, "Fed": 12057, "Namespaces": 12058, "CONSTRAINT": 12059, "planation": 12060, ");//": 12061, "Ġdefaults": 12062, "getPayload": 12063, "ĠDOUBLE": 12064, "DOT": 12065, "Ġbi": 12066, "setLocation": 12067, "Formula": 12068, "Cancelled": 12069, "WAIT": 12070, "recognized": 12071, "Ġreuse": 12072, "Ġlifecycle": 12073, "entroid": 12074, "uris": 12075, "setBody": 12076, ">>,": 12077, "ipel": 12078, "Ġchecks": 12079, "uda": 12080, "ollup": 12081, "ĠShould": 12082, "jboss": 12083, "IDDEN": 12084, "ĠprimaryKey": 12085, "Ln": 12086, "xid": 12087, "ONENT": 12088, "started": 12089, "ActionBar": 12090, "getOut": 12091, "anchor": 12092, "Ġclick": 12093, "Ġsy": 12094, "setFont": 12095, "adix": 12096, "Transactions": 12097, "etched": 12098, "stand": 12099, "StreamWriter": 12100, "getCustom": 12101, "Ġsubsystem": 12102, "Ġblk": 12103, "Need": 12104, "NEXT": 12105, "Ġfis": 12106, "indices": 12107, "ovie": 12108, "MessageId": 12109, "METRIC": 12110, "Ġasc": 12111, "Ġdrawable": 12112, "ĠBitSet": 12113, "PrivateKey": 12114, "toMap": 12115, "errorMessage": 12116, "click": 12117, "VirtualMachine": 12118, "BODY": 12119, "getEndpoint": 12120, "setT": 12121, "ĠMissing": 12122, "\")){": 12123, "ĠProcedure": 12124, "InstancesRequest": 12125, "ParameterizedTypeReference": 12126, "ilent": 12127, "Ġbc": 12128, "isError": 12129, "izable": 12130, "moveTo": 12131, "ApplicationException": 12132, "PERMISSION": 12133, "51": 12134, "CER": 12135, "MimeType": 12136, "ĠRegister": 12137, "Ġintegr": 12138, "ĠJDBC": 12139, "ridden": 12140, "eventType": 12141, "Ġsuccessful": 12142, "tinuous": 12143, "ValueSet": 12144, "ĠstackSize": 12145, "Ġoffer": 12146, "ĠController": 12147, "Ġbroadcast": 12148, "ooKeeper": 12149, "orderBy": 12150, "63": 12151, "getFileName": 12152, "Ġrid": 12153, "ĠPlease": 12154, "Ġopts": 12155, "issue": 12156, "ĠTopic": 12157, "ĠrequestContext": 12158, "getGlobal": 12159, "Equality": 12160, "Alternatives": 12161, "Pe": 12162, "Ġable": 12163, "userAgent": 12164, "Ġsessions": 12165, "Individual": 12166, "ĠWhen": 12167, "DECIMAL": 12168, "Google": 12169, "asy": 12170, "Ġbud": 12171, "ĠRec": 12172, "BaseUrl": 12173, "elementName": 12174, "maries": 12175, "CRY": 12176, "Ġdfs": 12177, "ĠSnapshot": 12178, "MapEntry": 12179, "ĠServletContext": 12180, "ĠScriptable": 12181, "NDI": 12182, "typed": 12183, "Ġrepresent": 12184, "ĠPaths": 12185, "Ġ'[": 12186, "ĠBufferedInputStream": 12187, "ierarchical": 12188, "WebApp": 12189, "Ġ'\"+": 12190, "getAuth": 12191, "Ġcoordinate": 12192, "Ġdd": 12193, "ĠgetText": 12194, "ĠlineNumber": 12195, "isEventEnabled": 12196, "Norm": 12197, "Proc": 12198, "Ġhad": 12199, "Ġdecl": 12200, "readString": 12201, "ĠbyteArray": 12202, "getDb": 12203, "getDataType": 12204, "Ġinstalled": 12205, "YN": 12206, "Ġie": 12207, "Inverse": 12208, "Ġmock": 12209, "DeclaredType": 12210, "NG": 12211, "coin": 12212, "Ġticket": 12213, "ĠVisitor": 12214, "dup": 12215, "oting": 12216, "plorer": 12217, "Tran": 12218, "ĠTimeZone": 12219, "ĠSET": 12220, "Ġhistogram": 12221, "Ġupgrade": 12222, "JobExecution": 12223, "ĠPeriod": 12224, "SUPPORTED": 12225, "norm": 12226, "Ġpb": 12227, "ĠRO": 12228, "Ġminutes": 12229, "HORIZ": 12230, "gc": 12231, "StringLiteral": 12232, "izing": 12233, "createQuery": 12234, "MOVE": 12235, "Ġtd": 12236, "ĠPayment": 12237, "getFont": 12238, "Keyspace": 12239, "Ġjobs": 12240, "ĠAppend": 12241, "ĠDriver": 12242, "ĠCmsException": 12243, "Txn": 12244, "Converters": 12245, "Slots": 12246, "Ġ'{": 12247, "------": 12248, "Ġmodels": 12249, "ĠMessageFormat": 12250, "iguous": 12251, "uetooth": 12252, "Correct": 12253, "accum": 12254, "ĠLayer": 12255, "hasRemaining": 12256, "Ġzz": 12257, "Ġresize": 12258, "REGEX": 12259, "Spans": 12260, "floatValue": 12261, "Ġtraverse": 12262, "GENERIC": 12263, ")+": 12264, "ĠCt": 12265, "Least": 12266, "ADMIN": 12267, "ĠExchange": 12268, "stackSize": 12269, "Ġelapsed": 12270, "signal": 12271, "ejb": 12272, "launch": 12273, "itation": 12274, "Seek": 12275, "ĠTransport": 12276, "ExistsException": 12277, "UNIQUE": 12278, "same": 12279, "isAttribute": 12280, "ĠDataset": 12281, "ĠRULE": 12282, "Ġ28": 12283, "ĠIndexed": 12284, "Traffic": 12285, "naire": 12286, "Ġtolerance": 12287, "Ġexpanded": 12288, "isOpen": 12289, "Ġaccessor": 12290, "Ġeverything": 12291, "79": 12292, "Ġer": 12293, "ĠStringReader": 12294, "addField": 12295, "Ġ?>)": 12296, "Ġsplits": 12297, "Adapters": 12298, "TransitGateway": 12299, "METADATA": 12300, "ble": 12301, "ĠSP": 12302, "ObjectId": 12303, "Anno": 12304, "OperationContext": 12305, "Ġreplaced": 12306, "Physical": 12307, "################": 12308, "Ġops": 12309, "BatchSize": 12310, "Relationships": 12311, "ĠgetSource": 12312, "Greater": 12313, "éĩ": 12314, "trins": 12315, "ĠgetEntity": 12316, "DENT": 12317, "std": 12318, "Ġrb": 12319, "Ġir": 12320, "ĠCurrent": 12321, "COND": 12322, "RowIndex": 12323, "ĠentityClass": 12324, "Ġ'\\'": 12325, "ĠDMatrixRMaj": 12326, "xies": 12327, "setStart": 12328, "Ġla": 12329, "Foundry": 12330, "tlr": 12331, "Ġaggregation": 12332, "Life": 12333, "valueType": 12334, "ThreadLocal": 12335, "Ġfit": 12336, "Notation": 12337, "Recording": 12338, "Cls": 12339, "Reverse": 12340, "ĠEdit": 12341, "dem": 12342, "units": 12343, "geo": 12344, "Skill": 12345, "ĠTopology": 12346, "Ġordinal": 12347, "ĠMed": 12348, ">(_": 12349, "summary": 12350, "TAIL": 12351, "Half": 12352, "Ġreturning": 12353, "statusCode": 12354, "ĠKeyStore": 12355, "Ġdefinitions": 12356, "Futures": 12357, "atural": 12358, "getArguments": 12359, "ĠAPP": 12360, "nz": 12361, "ĠFetch": 12362, "URISyntaxException": 12363, "Ġls": 12364, "Compressed": 12365, "]=": 12366, "FunctionType": 12367, "bum": 12368, "ĠIG": 12369, "ĠHollow": 12370, "Ġclusters": 12371, "3333": 12372, "rgb": 12373, "ĠSO": 12374, "ĠCursor": 12375, "ĠonSuccess": 12376, "2016": 12377, "TempFile": 12378, "parallel": 12379, "Ġprintln": 12380, "CAST": 12381, "ĠSecret": 12382, "ĠNOTE": 12383, "FRA": 12384, "sim": 12385, "getNodeType": 12386, "Ġmachine": 12387, "ToUse": 12388, "æ³": 12389, "primitive": 12390, "hostname": 12391, "IfNotEmpty": 12392, "70": 12393, "ically": 12394, "Unavailable": 12395, "Viewer": 12396, "RecordId": 12397, "ereg": 12398, ")[": 12399, "recover": 12400, "Ġjjtn": 12401, "Protection": 12402, "Examples": 12403, "Repl": 12404, "oost": 12405, "ĠFramework": 12406, "AttributeNames": 12407,
[...]
