#version: 0.2 - Trained by `huggingface/tokenizers`
Ġ .
Ġ (
Ġ )
Ġ ;
e r
i n
o n
a t
e t
Ġ ,
s t
i c
Ġ p
o r
e n
a l
Ġ {
Ġ }
a n
Ġ i
l e
Ġ c
Ġ =
t i
Ġ m
r e
t e
r o
i d
u b
Ġ n
s s
Ġ f
l ic
Ġ g
Ġ s
Ġ in
S t
Ġ "
a r
ub lic
c e
in g
Ġp ublic
Ġ t
m p
Ġg et
u r
I n
at e
en t
Ġ a
ti on
e w
Ġin t
e c
a g
r i
u l
or t
Ġ v
i t
Ġ r
Ġ b
Ġ st
i on
an d
a c
u t
Ġi mp
m e
d e
Ġimp ort
ur n
et urn
u n
s e
r ing
Ġ e
l a
Ġr eturn
Ġn ew
u e
St ring
Ġ C
Ġ 0
E x
Ġ <
Ġ T
R e
Ġst at
e d
Ġf in
o c
p tion
i l
Ġstat ic
x t
at ion
Ġ S
Ġ @
i st
Ġfin al
o id
Ġ l
Ġ A
Ġv oid
ul l
o m
er t
Ġi f
Ġ +
Ġt h
r a
ag e
Ġ re
ro id
Ġ String
b le
and roid
C on
o o
ri v
Ġ android
ce ption
riv ate
i s
ac k
v er
Ġ d
Ġp rivate
Ex ception
a d
e l
Ġ j
t er
e st
Ġ 1
ss ert
Ġ >
Ġ O
a p
c h
Ġ o
p p
Ġs et
Ġa ssert
0 0
Ġ [
a v
Ġ M
Ġn ull
Ġ ]
L ist
a me
Ġ R
i g
la ss
a ble
p e
q u
o de
o l
Ġ P
ro w
Ġ B
a m
m ent
Ġ I
oc k
te d
en d
y pe
Ġc on
O N
Ġ u
Ġ te
Ġc om
o t
ic e
y te
Ġ w
av a
al l
al ue
Ġ D
i le
i ew
Ġth row
a s
v ice
I d
ec t
d er
Ġt r
E R
In t
Ġj ava
id e
i z
ti l
Ġi s
s er
qu al
t h
e y
Ġ L
it y
e ss
o g
Ġ N
f f
o un
Ġ !
ul t
o w
at a
N ame
te xt
le an
Ġte st
Ġc lass
r ide
i f
Ġ h
f o
ver ride
d d
qual s
Ġ F
D e
an ag
oo lean
A T
u m
ĠO verride
u p
anag er
V iew
E n
ra y
u il
M anager
o d
Re s
ack age
T ype
I N
P ro
a se
v e
Ġb yte
C h
A c
l o
Ġb oolean
S T
T o
Ġ U
In fo
Ġ= =
T est
Ġ 2
l er
Ġ :
p ut
j ect
an g
u re
Ġ -
R E
Ġp ro
o mp
Ġf or
at ch
Ġ de
en er
al se
Ġre s
et h
St ate
on g
r ray
Ġ or
e xt
Ġ E
K ey
el d
ac t
iz e
Ġt o
i eld
V alue
Ġa dd
Ġ In
E quals
Con t
f a
S et
A G
ess age
le c
ĠT est
Ġc h
Ġe x
Ġ! =
b ject
in t
P ar
en ce
Ġu til
i me
oun t
Ġth is
Ġassert Equals
E N
uil der
F or
e s
Ġor g
r y
er s
ar g
er vice
Ġ on
Ġthrow s
A L
T r
Ġf alse
la y
i m
Ġa pp
u s
ĠC on
at or
it h
ti me
T I
O R
H and
an n
f ig
T h
st an
Ġtr ue
re am
o ur
L E
ti v
p ec
Ġcon t
D ata
e m
f er
C all
en g
v ent
ar t
de x
P o
tiv ity
P re
g er
our ce
ti f
le ment
A l
A n
Ġ V
Ġp ar
eng th
I D
Ġv alue
fer ence
T ime
or e
re ate
i r
a in
s c
Ġp ackage
A N
st r
M E
Ġ &
at h
ce ss
ro l
Ġl ong
a k
Ġ k
S ervice
if i
Ġ 3
St ream
s et
b ack
eth od
List ener
Ġe l
D E
Ġel se
ec k
p er
Ġe xt
re ss
q ue
o ut
a y
t or
A C
u te
N ull
l y
Ġres ult
or k
l i
y st
Ġo ut
A R
ĠR un
u ff
yst em
on e
M ap
Con text
ad er
i tion
E D
ing s
u pp
m at
u ment
U n
Ġ G
m and
an s
Ġtr y
m o
Ġa c
in d
ot ation
St at
lo at
S I
Ġs h
Ġ W
t t
Ġc reate
p h
U til
Ġ H
ĠA rray
in e
Hand ler
que st
te ger
a il
stan ce
F ile
oc al
ur r
uff er
ĠO bject
Int ent
T Y
De vice
Con fig
S e
Ġ List
S c
fa ce
Ġ< /
M essage
i o
č Ċ
A rray
Ġl ength
ac h
Ġ 4
r or
C E
v id
te m
ĠL og
tif ic
Ġf ield
Par am
C lass
Ġk ey
u c
Ġ ?
Ġc ase
ro m
or y
Ġc atch
sc ri
pec ted
Ġ& &
P E
i al
E vent
a st
t y
o p
A pp
Ġ |
S E
h t
Ġp ut
end s
b er
un d
la ble
g le
up er
i ve
ess ion
te c
urr ent
C omp
is p
T ext
Ġ Exception
ar d
W ith
M ode
y n
S h
Ġext ends
vid er
ĠT AG
Ġapp end
tec ted
Cont rol
ig n
u le
C ount
00 00
O U
o s
O n
Ġs uper
Ġcon text
Ġpro tected
Res ult
re c
B uilder
or d
S ize
U ser
fa ult
Ac tivity
Ġ Re
r g
oc ation
In dex
t ings
n ec
et w
Ġ+ +
Ġint er
Ġh as
en s
m i
oo gle
Ġs ize
r int
time Exception
lec tion
etw ork
Tr ue
oun d
arg et
p d
Ġn ame
Ġ x
F ield
t s
i a
Ġst art
um ber
ri te
O ut
Ġ 5
re ad
A A
IN G
al id
Ġ 6
En t
P er
P ackage
C ode
Ġg oogle
a b
Ġw h
t o
ĠRun timeException
St ub
T E
H e
R I
Ġcont ent
isp lay
a re
S S
er if
B yte
Ġm C
Ch ang
uil d
EN T
Ġi o
Call back
AT E
O f
ri b
Ġm ock
i b
Ġi d
a x
TI ON
Ġm essage
ur ation
le g
Ġ *
n al
Ġd ata
un it
il ter
pd ate
In ter
put Stream
li ent
ow n
Ġ en
om mand
Ġp re
Control ler
Ġd o
N ot
Al l
ed ia
l ock
ro up
Ġl ang
Ġ arg
ig ht
tific ation
Ġ ann
K E
ĠIn teger
Ġassert True
! "
F I
mp le
O Exception
Ent ry
l u
Pre ference
Ġ an
Ġex pected
erif y
Ġch eck
o tification
Ġe quals
on ent
ĠCon text
L O
In stance
ff set
ann el
ra w
Ġ View
Th at
ar y
R O
Ġann otation
O bject
Util s
Ġto String
A rg
ĠI OException
C ol
L og
or ted
Ġc omp
Ġr un
m s
Ġm M
Ġv iew
Ġt ype
rib ute
ĠA c
L I
R ec
r ic
mi ss
ate d
Ġ J
ub le
B uffer
ĠF ile
Ġm eth
Ġassert That
s h
m on
i p
M ethod
Ġstatic Int
Ġfield Int
T H
i ti
L ock
I tem
as k
Ex t
A d
r ag
at ure
il d
re ak
Ġv erify
iz ed
Ġj unit
A dd
ĠC ol
AT I
i x
able d
Ġm S
Ġf loat
at ive
Ġget S
c on
Ġw rite
V I
C O
und le
A B
Ġc all
U L
r ror
For mat
u g
or m
g ist
An d
Ġp rint
il ity
il l
Re quest
Ġ '
1 2
T ag
A D
Ġl ist
ind ow
ĠC h
act ory
C H
nec tion
n er
p t
Ġ| |
E ST
D ec
A ME
Ġu ser
C ON
Ġb reak
A P
on Null
Ġ time
i ble
ay out
o st
ĠS et
m ap
Ġ ar
er ver
miss ion
Ġre ad
l ag
Res ource
Cont ent
ce l
R un
lec t
u d
F rom
Ġin dex
KE Y
i te
Pro vider
Stat us
Ġ Intent
rag ment
B y
A tt
Ġl og
Ġis E
de d
Ġ at
D I
o f
as h
Tr ans
Param et
E lement
mp ty
ĠArray List
Ġ X
1 6
N umber
O r
3 2
id th
r on
f ile
Ġs e
Ġ 8
P ath
mo ve
scri ption
t on
ach e
1 0
it o
Ġm Context
upp orted
ut ton
ĠU n
C ap
Ġc ol
ud io
ATI ON
g et
Po s
o ul
p c
oul d
l et
p ort
ĠI N
E rror
F F
G roup
ĠS ystem
k en
ĠD E
00 0
ĠD e
Hand le
Ġs c
T R
Ġcom mon
Ġ un
ĠP ro
Ġ ent
te st
Ġo s
S ER
str act
AG E
raw able
St art
ak e
b stract
Ġb uild
c ount
se d
ocal e
Ac tion
TY PE
I L
ĠP ar
Ġs ub
c y
R eturn
Ġa s
leg al
Ġ la
m m
2 0
Ġar ray
l legal
N etwork
F actory
U N
ĠM ock
u f
Ġo f
S pec
m l
h one
C ommand
ap ter
Ġte xt
Ġ 7
L e
ti ve
Ġcont ain
m age
M P
ĠT h
1 1
at ter
Arg ument
5 6
Ġpar am
p on
l n
A Y
ĠN onNull
9 9
u st
Byte s
ĠB uilder
E T
A S
ut able
Ġb uilder
re d
lag s
oo th
Ex p
mp l
M et
Ġst ring
ib ility
N ode
Ġu pdate
ang e
Add ress
ra me
Ġ ro
V is
ul lable
F A
et ooth
lu etooth
lic y
Ġm B
v el
ĠI llegal
Ġo b
f t
ul ti
S ession
un ch
ir st
Ġin put
Ġ er
str uc
u al
H el
P a
f orm
5 0
ock et
T ER
Ġinter nal
Ġe vent
ur s
N AME
p s
Ġf ail
Ġ1 0
i rec
ce i
En abled
. "
Ġm D
Res ol
mo te
ption s
Ġs ec
ĠC lass
C TION
Ġch ar
Ġp os
Ġint ent
in k
Chang ed
Ġf ile
pon se
S p
Ġre move
lement s
Ġ y
a mple
U s
Ġfor mat
Con nection
Ġ ic
ĠB yte
am er
s g
b o
Th read
Ġcon fig
ens ion
Ġn ext
Value s
ur ity
Ġs yn
amer a
ĠA n
e ature
F ilter
De fault
ĠM ap
6 4
Ġm W
N O
V AL
ter ator
ial og
U T
ut h
Ġh e
p tor
k e
it map
ĠS T
U M
Ġ Key
Un it
ser ver
A t
I s
it ch
C T
Ġfin d
Ġat t
urs or
S ub
Stat s
In put
F alse
ĠCon t
Ġwh en
ĠT EST
lic ation
AC K
An im
AB LE
Ġan y
it or
Ġpar se
M O
ĠN ullable
Ġn ot
Ġcom mand
Ġm L
ĠC omp
S ource
ĠCol lection
3 4
ch ron
Ġb e
Ġm R
Ġarg s
Ġm ax
Ġget C
w itch
Param s
Rec ord
Ġh and
ra m
Ġandroid x
Ġre quest
Ġcontain s
UL T
v alid
t ure
ĠA ssert
Ġent ry
qu i
Att ribute
U E
S H
Ad apter
e e
ers ion
Ġm P
Ġf rom
Ġ 9
\ "
re en
Hel per
a it
ri ter
um n
c ast
O L
ol der
Ġ z
Ġprint ln
in der
lic k
Ġc urrent
mm utable
SI ON
id get
Ġst ate
c ode
O ffset
C ase
Ġde fault
L ong
Ġin fo
Ch annel
re e
v ed
D isplay
Ch ar
Po licy
L ayout
o ad
Ġt arget
p ly
3 0
y le
Per mission
Ġ al
on d
ĠT ext
T arget
in ter
5 5
Config uration
p i
Ac cess
lo se
Ġde vice
s n
o b
N E
el l
F ragment
2 4
th er
Ġs ession
Ġ- >
on y
T ask
le ar
ile d
ĠA l
gist er
V E
ĠT ype
Re cei
Ġ" "
Comp onent
A s
Ġdo uble
N o
a i
op y
Ġn et
u me
Pos ition
ĠU ser
le ph
scri ptor
1 4
chron ized
p en
ĠR E
B utton
Ġ K
le d
Ġc ount
leph ony
Ġ end
ĠB undle
Ġm ethod
U ri
a w
Ġin stance
oo l
Id en
ert y
ĠArray s
L ength
Ġp er
g or
l d
p erty
U p
I T
Ġex p
Ġd ec
er y
Ch eck
OR T
A X
B ar
ti ty
Ġc an
ON E
8 0
Ġsh ort
Ġtr ans
ac tion
Ġm ap
iti al
o uble
ĠAc tivity
Ġ ur
end ing
TI ME
Con stan
Ġm sg
Ch ild
Ġsyn chronized
Ġassert False
lo ad
Pro file
a iled
Ex ec
ar i
Z E
W indow
ĠCh ar
ĠI mmutable
n otation
e ar
ĠM edia
Ġs ource
U S
Ġs end
In teger
1 7
C lient
N otification
M ock
Argument Exception
qu ence
F loat
R ule
V ER
a ce
ĠA pp
un c
Ġpro to
Ġt ag
AL L
er ial
N ext
ĠH ash
Ġs p
5 4
ĠW ifi
OU N
= "
ur face
Ġimp lements
atter n
is h
Ġer ror
B ack
M atch
C lick
ri g
v ai
Par ser
e x
yn c
U P
f l
2 2
Chang e
VI CE
B lock
ĠT ime
qual To
oo t
ĠD ata
p ar
D own
1 9
W idth
Ġget Name
Col or
S ec
C reate
ill is
Set tings
m ary
3 3
Ġvalue s
I mpl
S ystem
Inter face
ĠIllegal ArgumentException
i mple
u se
ra ph
Ġs ervice
G et
Ġo ffset
v ocation
Paramet er
Ġo ther
Ġa bstract
an ce
En d
M S
Ġ+ =
Ġinter face
B U
8 8
F eature
Ġm in
ĠE X
an t
ĠP ackage
end er
Ġ le
Ġhas h
FA ULT
Ġ /
St r
Ġset tings
en u
Ġc lear
Ġout put
Ġ KEY
gor ith
ĠS h
He ight
U R
Recei ver
f ore
St ack
Q U
E X
Ġm T
Ġ all
Ġn ode
Ġlist ener
Resol ver
O W
Ġc lient
S C
Not Null
V ersion
Ġmock ito
s upported
Res ponse
Ġa d
De scriptor
ar n
AN D
ric s
ic s
er tific
ertific ate
ĠisE qualTo
Ġget String
SE T
ut o
U pdate
I S
Ġob j
v o
B ound
ac ter
Ġsh ould
gorith m
Or der
Ġi tem
o ader
ut ure
ign ed
Q L
Se lec
ut or
Ġde st
Ġv is
u ite
ĠT Y
ro und
3 6
vai lable
Ġ> =
T O
Ġpackage Name
D ate
Q u
F rame
OU T
ĠTY PE
Po int
Ġparam s
Resource s
ĠB ig
Ġget M
ĠmM ock
Ġs erver
v al
oo k
t ual
ĠC ON
Ġinstance of
En c
ug g
Ġm atch
ĠS upp
ĠU ri
U id
Ext ra
unc tion
Ġn o
VAL UE
Ġic u
n ame
M illis
en cy
Ġch ild
Us age
c om
S ocket
l it
F lags
D is
ri pt
Ġsec urity
Ġc lose
Paramet ers
ifi er
L AG
Ġp w
Tr ack
t om
O b
l ine
1 8
Ġb uffer
Ġwh ile
al end
U RE
f ix
alend ar
Ġb ase
T able
ĠN otification
4 0
Re ader
Ġ Z
To ken
ar k
3 7
tt p
Ġw ith
5 7
g round
ĠisE mpty
ad d
m in
Ġuser Id
Ġth en
I con
3 8
u ch
Re ad
Ġa p
ĠB luetooth
g e
Ġ1 2
c urrent
od ule
Ġget L
lay er
Name s
oc ument
u mp
Se quence
n ect
Out putStream
SI ZE
ad ata
lo b
ĠSet tings
Cont act
let e
P RO
ĠRe mote
Sh ort
Ġf ilter
Ġ _
f ter
AT A
Ġex ec
Ġget B
ĠS ec
A udio
ad ow
C K
CO DE
al e
00 1
Ġn ative
Ac count
2 9
t ing
St ore
S ign
ĠT r
ra ce
ide o
O M
In putStream
He ader
ow er
Ġhand le
v iew
ic al
Ġth e
av e
I mage
W riter
Ġm ode
Ġre c
tif i
pp er
Ġpos ition
Ġg r
rol l
W arn
Re gist
Out put
S P
oc us
Ġ %
St yle
H al
ĠUn supported
ĠT e
Ġn um
Ġget P
Ġs b
Ġ2 0
ĠR et
r act
s ent
ĠP re
Q ue
Ġstat us
y c
n able
en tion
Ġthen Return
o ver
An notation
Ġd isplay
o der
TR A
struc tion
MO DE
ĠMock ito
ĠC ommand
G ener
D ialog
Constan ts
S erver
O ptions
ĠR ec
Pro perty
D rawable
ĠL ong
ch ed
Ġst ream
ĠM ethod
ĠA CTION
Ġpro vider
Ġcall back
Col umn
3 9
e fore
Ġl oad
iti es
Ġ" ,
ĠL O
Ġur i
F irst
Ġget Instance
and om
ĠA S
a mp
leg ate
Sc reen
Ġch annel
w are
Ġc ore
Ġac tivity
im it
6 0
v ert
Ġac tion
in al
1 5
s p
r c
S ON
Ġpar ent
7 0
Ġp ath
qui re
row able
ACK AGE
Que ue
upp ort
uc cess
Ġla st
Dec l
Ġre f
Ġs witch
Ext ension
P ER
D et
o int
are d
ro ad
V alid
ĠRet ention
road cast
l og
H older
ĠCont ent
D irec
AA AA
ĠC all
En um
Lock ed
Ġen code
Type s
x y
ti es
ĠA sn
4 4
D ir
m b
ab el
Anim ation
ic k
Ġc opy
L AY
i ent
it s
ari able
ĠO n
ĠM essage
at er
A M
iz er
ST ATE
e as
C ache
or age
de f
ĠSupp ress
str ument
per ation
Ġ qu
Ġjava x
7 8
Re ference
Ġw idget
E L
Le vel
b ase
p rec
- -
ect or
eas ure
5 9
H ost
Ġc ode
k g
Ġc ar
U i
tif y
c ut
Ġb uf
Warn ings
In d
Pro g
B ase
2 6
M ulti
et er
) "
F ailed
Exec utor
Ġget Value
F ound
Ġe q
ĠTh rowable
ĠAS N
ĠM ath
per ties
Ġ" \
t ype
ĠAl l
ST R
L oader
ĠIn ter
b uf
st all
lay out
av ed
ĠJ SON
ĠSuppress Warnings
Ġbyte s
ĠDE FAULT
Ġe lement
ĠS c
Ġw ait
or ity
Ġsh ow
vo ke
O T
A vailable
Ġg raph
as on
L ine
ĠTh read
Z one
tor y
F ail
oo per
str ic
By Id
Ġc ursor
a use
Ġf irst
ĠL ayout
Ac tive
2 8
ĠM AX
strument ation
an el
o ice
ate g
tifi er
M s
is ion
R ange
F OR
Ġs ystem
In c
Pro to
ĠEX TRA
7 6
0000 0000
Ġr et
Ġv alid
Test ing
B undle
i es
ugg est
AN G
Ġgr pc
Re f
Ġc ap
im al
ĠN etwork
Cont ain
Ex pected
T AG
N ative
Ġw idth
r up
ĠS QL
De scription
Ġatt r
Ġo ld
nec ted
ĠE lement
M on
BU G
4 8
ĠA udio
5 8
ĠA bstract
9 0
N um
Ġre p
Ġf lags
I G
ĠString Builder
t le
W OR
ĠDe vice
R ow
Ġm Activity
O P
lob al
A ss
ic ation
LO W
ĠRun With
ĠV is
ĠmW ifi
IN T
E M
Mode l
n own
H ash
Ġm edia
Decl ar
la ce
Ġexp ect
Po inter
ĠD ate
Command Handler
Bound s
Ġproto buf
ri er
N ew
Ġdec ode
od ec
Package Name
G R
I f
F ocus
Ob server
a ss
ĠRemote Exception
w t
Ġin it
Ġu id
Ġre gister
U RI
ER R
ri x
eck ed
ĠST ATE
View ById
d k
unch er
ol ume
Ġcon current
ff ff
at rix
struc tor
w ord
ĠC ar
um mary
f or
C ATION
Ġres ol
g ion
Ġo pen
e g
Ġ1 6
2 7
P RE
add ing
ĠHash Map
Pro cess
ption al
Ġfind ViewById
A pi
Ġ layout
ĠAll ocation
stan t
Cap ab
Ġ row
it le
S U
lect ric
bo lectric
F uture
ĠPre ference
Par ent
Id s
Ġm In
E S
al led
Ġ< =
D S
ĠAc cess
Comp at
Ġfinal ly
n o
ens or
ti tle
rig ht
ĠL ocale
ic ode
Ġl ine
ph er
Ġ6 9
v as
1 3
OUN T
b ar
P UT
Hal f
b e
A SS
ce pt
ĠF LAG
E d
AR T
ri es
ĠCon fig
Inter nal
set s
6 6
s on
T e
ĠPackage Manager
Ġ Handler
O peration
Ġget Context
t r
ar ch
For Testing
Ġpre ference
ĠB itmap
Ġo bject
S uite
W ifi
re sh
Ġhe ight
Ġpar ser
Ġan im
ot al
e p
Ġin c
Ġc ts
Ġp m
Ġres et
o me
P ri
Ġd is
User Id
Ġn umber
Ġt ra
av ap
D ouble
g n
Ġm Service
Ġ q
St orage
F O
ERR OR
Ġto ken
Declar ation
uggest ion
i pher
ft p
t a
l ist
ro y
Ġset Up
b ug
Ġon Create
Result s
yc le
ched ule
ĠmR S
App lication
Al gorithm
Ġac tual
u tion
Ġg roup
ra pper
ftp server
ĠCollection s
Ġmock ftpserver
L ocale
Ġgraph ics
L ocal
atter y
A p
Selec ted
ĠComp onent
ĠDE BUG
ĠB it
Ġex ception
Ġvis it
Ġper mission
Ġg ener
Met rics
ĠByte Buffer
Ġc l
Call ing
l us
Ġs ign
Ġm Is
Ġpro cess
ot tom
Ġm ake
ĠP hone
Ġm Test
P ACKAGE
Pa ss
ar ser
ach ed
Ġhash Code
A uth
Regist ry
Ġatt ribute
Ġ1 00
Ġm F
. .
oun cy
avap arser
I P
st amp
Vis ibility
Ġ< <
Set ting
ver s
ĠLO G
Ġs aved
ĠVis ible
Ġte mp
e me
0 1
4 6
M edia
a f
ĠA rg
as y
ĠVisible ForTesting
Ġn etwork
7 7
i od
Th row
4 9
C OUNT
iz ation
ateg ory
t oc
ĠPar cel
SER VICE
V ariable
I terator
Ġd rawable
ĠU til
p ro
D el
Ġl ocal
toc ol
ti al
ĠA tt
ĠR ect
Ġw ifi
S ame
Ġassert NotNull
AP P
z z
Ġget Class
3 5
il ities
P anel
ith ub
ĠCol or
ĠF ield
ĠV ER
ĠS p
Instance State
ust om
cast le
Arg s
ouncy castle
Ġ Entry
Preference Controller
T ENT
50 9
k nown
ram ew
o x
I FI
ramew ork
ĠX ml
Iden tifier
Ġb ouncycastle
u i
OU R
W h
ack et
Ġ" /
ph a
Vis ible
m it
ĠN o
Ġn io
Ġr aw
Ġm et
EN D
; "
S upported
D ATA
Ġm ath
ee k
T itle
AN CE
li b
Re port
ry p
Ġcol lect
l ation
D i
Ġin itial
L abel
O ff
H E
I M
H T
I TY
Ġno tify
ĠAn d
I C
2 5
fl ater
Pro perties
ĠS imple
ĠN ull
ĠBig Integer
d ition
Ġap ache
ĠAnd roid
R o
ĠL ocal
isp atch
ĠE vent
ĠArg ument
V ENT
P ORT
Ġl en
Ġget Int
Ġm Device
Ġx ml
ĠS E
C ertificate
M AT
ĠUser Handle
Ġj j
P attern
Ġm H
( )
ĠIn putStream
Ġannotation s
u ard
Ġc ert
ĠB ase
Cap tor
He ad
A IL
Ġas List
B inder
ĠB efore
Ġi terator
ard ware
le ase
O ver
C an
ĠE asy
ce lable
ĠC alendar
Se lection
Field s
Ġrun ner
Ġres ponse
O p
P O
def ed
ĠTe lephony
j ec
On ly
ĠW indow
ĠG ener
4 7
M in
ĠImmutable List
s ing
B LE
ĠB uild
ifi ed
Gener ator
y mb
2 1
ymb ol
Ġl ock
Ġp kg
Qu ery
ĠEasy Mock
Key s
b el
Sc an
P ort
AC E
ress ion
pc ode
Click Listener
Iden tity
v ision
D ig
Ġre ader
ĠN ode
Ġassert Null
B oolean
O D
in ue
O F
Ġro ot
e b
Ġqu ery
Ġin voke
U ID
Sc roll
U SER
c c
ap er
Ġexec ute
D uration
M ax
Met adata
st ore
Ġin V
S L
Ġp ri
od ing
Re ply
Ġor ig
Sh ow
ĠChar Sequence
W rapper
Run ner
ĠU N
ĠF loat
Ġtra defed
To p
b s
ĠmC urrent
ĠI mage
I ME
lic e
Pro xy
Ġs rc
UL L
Ġm ulti
Ġ ss
ĠD ouble
Ġf il
I mp
Ġ- =
on t
ĠM et
m all
ĠS ub
l ot
Ġs upport
AT US
Ġm Handler
Ġ State
: "
Ġst r
Ġtr ack
ĠE N
ĠS log
Log ger
S A
ĠN O
9 8
9 6
Ġcomp onent
3 1
Ġget Key
State Exception
Attribute s
Ġte lephony
ar ted
p end
act s
] "
ĠP a
ĠIn valid
CE SS
ay load
S Y
Ġm Re
Ġl ocation
E mpty
Ġcont inue
ĠS ervice
Ġas n
Ġ" -
Dec imal
en ted
ĠRun nable
ĠTr ans
tion s
Ġget Default
A RE
Ġle ft
A g
De f
R ect
C om
Ġb ind
g ing
Ġsaved InstanceState
ol l
WOR K
r l
Ġget Type
od y
Ġm Controller
Pointer Exception
O ps
w ner
B e
ad io
R oot
N onNull
ol d
ow ed
ib r
ĠL ink
t p
Ġd om
Time out
In valid
On e
bo ard
In itial
P ool
C L
pp ed
ĠComponent Name
D OW
la p
Ġo p
L ocation
ĠText Utils
Char acter
c ore
la zz
Ġb ack
u sed
Ġm V
Ġcol umn
Ġ- -
Test Case
if ec
Ġget Content
ifec ycle
Ġ Int
ĠA C
all p
ĠText View
R L
Ġcomp are
8 6
ĠM IN
Ġac count
or der
IL LI
ĠC amera
C ard
unch ecked
rup ted
Ġ St
Ġl ocale
Ġpre v
CH ANG
Ġt ask
Ġcol or
2 3
P hone
Ġd ump
or rec
in ish
Ġc amera
Ġe mpty
orm al
ĠgetS ystem
OR Y
av ig
m ail
Det ail
p oint
an if
Ġget Message
Pre sent
AS K
ĠA ss
anif est
Sp an
t ain
lic it
allp aper
B ox
M ENT
Ġd b
M odule
Ġa uto
Ġde f
o ve
Ġp hone
Ġvalue Of
ĠC an
ĠNull PointerException
p ed
Capab ilities
Fail ure
me d
ĠTime Unit
Ġwait For
App Usage
AC TI
ut of
Anim ator
Ġpro g
Ġst op
l at
ter able
Ġset Text
ĠAtt ribute
Ġs pec
Ġc al
ĠIllegal StateException
W idget
prec ated
Ġn otification
Ġd i
E W
ĠByte Array
X T
Ġcommand Handler
u age
ing le
Le ft
NO T
Ġm Lock
L Y
B Y
ĠB oolean
st ring
P H
i as
f oo
Package Manager
Ġ1 000
W rite
g in
ook up
Re stric
ent ly
ĠT o
Contain er
ON G
Short cut
Ġh ost
B O
Ġget D
at ing
o tion
k ey
ĠUnsupported AppUsage
O K
ĠO P
I F
lec tor
ar ator
Ġhand ler
Ġ Y
Ġen c
Ġcon nection
VI TY
ject or
E ach
utof ill
ĠM E
w o
A U
c lass
Ġu i
ĠB inder
Ġattr s
ĠC OL
N on
CO MP
SS AGE
Ġhe ader
Ġla bel
Ġm G
ĠU SER
Ġapp ly
or al
En v
ix el
UM N
To uch
ĠI terator
Ġres ource
CT ED
B itmap
AC T
ĠA L
CON NE
O ption
ET WORK
ĠS e
Ġj avaparser
Ġer r
Direc tory
T race
Ġto p
Re p
Ġpre fix
QU EST
n ull
Ġst yle
In vocation
S dk
Ġsec ond
Ġext ra
h ot
Pa ir
B ind
Ġro bolectric
Ġo ptions
Ġp ost
ist ory
ST EM
Trans ition
ĠB uffer
Ġget Resources
Check ed
ID E
M od
R ender
L atch
M enu
Ġde lete
Ġde x
Ġ3 0
Ġcon vert
ĠIn et
n ing
VAL ID
LO CK
S urface
ABLE D
W N
J ob
Annotation s
Byte Array
S ample
Ġm A
4 5
m ain
Data base
C lock
y s
ĠP RO
FI LE
Ġmode l
ers ist
DE X
= =
k ip
ro p
ĠPar am
Con nected
Ġcont rol
ĠUn icode
ĠT arget
Ġs erial
ig h
s ert
ĠI D
B ER
L ast
De legate
Ġg ithub
A fter
form ation
qui red
lay back
Mon itor
oun ter
i e
m t
Found Exception
S uggestion
ĠVER SION
f c
C AL
Ġcan cel
Selec tor
Ġg l
AC TION
O pen
ĠS H
Ġadd ress
un k
Ġ right
ar m
St arted
Permission s
A SE
Vis itor
Sc ript
7 9
S uccess
Ġac cess
Ġp o
EN G
ĠM O
Ġv al
ĠView Group
Ġ and
ĠE C
RE S
ĠRec ently
Con structor
m er
Element s
Match er
ĠRetention Policy
D ay
Ġm User
Ġt able
Ġfin ish
Sc ale
T ree
er ator
OUN D
Pre fix
b m
CON DS
C ert
ĠT R
Ġn e
V ideo
s um
> "
Ġob tain
orrec t
AD D
Ġtest ing
j ava
' t
TIME OUT
r an
d u
AR Y
Cap ture
en tial
B roadcast
Ġset up
ĠD isplay
Back ground
Ġm I
ĠAccess ibility
u id
Ġac cept
S ync
r id
Ġfor Each
CO L
Sec ond
m ark
ĠBig Decimal
ĠObject s
Preference s
ĠP rint
Ġth at
F ull
Ġf ragment
Ġde legate
Ġin d
AT OR
ĠAn im
Ġd irec
Prog ress
Ġget Activity
G N
ryp to
AN T
Pro tocol
Ġd ate
ĠApp lication
Stat ic
TE XT
o in
Ġstat s
mpl ate
A ST
ĠO ut
Ġ Status
Event s
ĠA P
Ġ" .
P ull
TI FI
Callback s
R aw
ST ART
STR ING
Tag s
Operation Exception
ĠmL ast
Ġ" <
ĠN ame
g ed
a uncher
Par cel
gn ore
5 2
Ġt mp
en ch
Not FoundException
SH A
io us
Ġf rame
Ġr ule
LE D
Test s
Ġencode d
Ġs q
et ers
Item s
ĠDe precated
jec tion
4 2
F IN
Ġde scription
Ġu se
Ġm y
C ar
M em
Pre view
Ġm Listener
Ġcall ing
ĠChar acter
S witch
C odec
ĠN umber
Ġh ardware
U se
Ġi mage
ĠC ount
Ġre ply
lap sed
L oad
Per iod
Ġic on
M IN
ĠHash Set
Ġcan vas
Ġget Text
DI S
De lay
F inish
EL D
Trans action
Ġext ension
ĠBit Stream
ĠF or
Track er
d en
In struction
Change Listener
ag ger
I LI
ĠUtil s
C ALL
ĠSh adow
Ġb lock
\ \
in ary
Ġarray Out
Ġm ust
ĠA R
ĠLayout Params
Ġs uccess
Ġr ange
Ġm App
Ġw riter
Ġw indow
ĠS Y
Trans port
otion Event
ĠA tom
Ġl imit
x ed
C urrent
ĠgetSystem Service
Ġtime out
F unction
E C
Ġc lazz
2 56
I TH
Ġc ache
A V
B ACK
AR D
Ġa ss
A re
C ursor
ĠE rror
Ġf ailed
lo sed
V olume
ĠIN PUT
ri e
ĠUnsupported OperationException
6 8
Ġsh adow
Ġg wt
Ġe d
ial er
0 2
C RE
N UM
r en
Ġ3 2
Pa int
FF FF
M easure
P acket
Ġfil ler
Ġs ample
ix ed
ĠInter rupted
Constan t
Ġm ain
uc k
L ink
M L
Sub scription
M IS
ĠM S
B uild
I ST
/ /
que ue
Ġsc ale
Ġrec ord
Ġapp lication
ĠD OM
P AR
Ġf ound
Ġse lection
L en
NO WN
x ff
Ġtime s
OUR CE
Ġdest roy
g ment
m d
V er
En code
g r
Ġset On
ĠI terable
ench mark
ĠS SL
ĠF ragment
Ġrep lace
ĠSh ort
AT URE
D ocument
Ġth read
Ġex ample
U B
R ate
a de
Pre f
Ġsp lit
Ġi t
Pull Parser
N an
Ġ title
ĠP ath
Ġget A
Ġm State
Ġcl one
d uc
ĠS mall
ĠG L
Ġget Re
U rl
C S
r in
ick er
Ġst ub
par se
N T
Ġl ib
sp ace
ir on
P adding
ĠI ms
g uard
Ġre ason
Al igned
iron ment
IN TER
Ġ Ex
ĠF I
ĠPro cess
re s
5 3
L imit
ĠS ocket
S uch
Ġget Device
ĠIn put
Ġa uth
e k
mi tive
FI G
Ġgener ate
EX T
ending Intent
ĠLink ed
in es
B it
DI O
ĠG lobal
c s
0 4
ENG TH
af e
ff ect
sh ould
Ġe lements
lu de
P layer
Ġt otal
ation s
ĠInterrupted Exception
ra p
i ss
RE AD
Cont ract
el f
ĠD rawable
ĠJSON Object
Ġre port
Ġen able
of t
Column s
la xed
Ġp ass
Ġf ramework
Time Millis
IN S
er al
To String
Exp r
y ped
id i
ap p
ĠM ain
Ġb itmap
est ure
ĠSmall Test
Ġen abled
Ġf unction
ĠC O
Ġcap ture
D ER
ĠSec ure
J Unit
App s
V ector
Ġf ill
ĠC ap
7 4
ĠS ession
Met a
ac y
Code s
ĠMS G
6 9
Ġtest Get
al igned
li er
O wner
r inter
Se arch
ILI TY
MIS SION
ĠV I
TE S
red ential
ĠD ocument
Ġget In
ĠJ ava
K NOWN
Ġassert Same
Ġ Resol
Ġt v
n ess
M ain
en ded
li p
ĠNo Such
Ex act
O FF
G L
Ġon e
c omp
Ġresol ve
ĠgetC urrent
Ġsystem ui
C amera
Ġset S
DE FAULT
ing er
o pe
ĠS urface
Ġtest s
ol ver
d ata
ĠR UN
anag ed
ĠAtom ic
Con nect
Un aligned
Ġget Id
M A
8 9
F LAG
Ġc ur
ic ator
n g
Ġ Value
ĠAn notation
ap e
Ġdecode Per
Con vert
Ġre quire
Ġur l
l ta
ĠS ign
ĠXml PullParser
Env ironment
Ġre lease
CON T
Ġm Preference
pe ated
ĠTest Case
P RI
= \"
Method s
ĠSec urity
Ġorig inal
ĠC ursor
con t
Back up
ĠU i
yn am
Exp ression
Comp lete
w ait
ĠR o
vision ing
Ġin vocation
AR G
B E
Comp let
Ġ Stream
5 1
en ame
lec om
er o
ĠH e
Att r
Ġpre f
s With
A r
Ġm od
m a
Ġi bm
R andom
C ategory
Ġ: :
uck et
ynam ic
Ġp op
prec ation
o ord
Ġin valid
eth er
IN E
In flater
Ġ. ..
Ġcomp ute
Ġany Int
TE ST
i an
Ġdo Return
SI BLE
RO L
B its
ĠO ptional
ĠA N
ic ate
ent er
Sh ould
Ġo ff
r et
ĠP er
ĠCont acts
ss ible
ĠIn strumentation
Ġf actory
v alue
de precation
En g
Re ason
m ethod
ĠINPUT SIZE
n s
Ġd oc
Ġsc ript
ut om
Ġd raw
nec tivity
ĠKey Event
R ight
Ġarray In
S erial
ĠC om
ST ATUS
ac ity
ex pected
sum er
Ent ries
ĠH ttp
C Y
ach ine
main ing
Package s
Ġst ack
s b
ĠRecently NonNull
Ġj ob
File s
Re gion
W ork
im um
: //
ĠCOL UMN
ay er
b n
ĠC H
CHANG ED
O C
ublic Key
Pass word
Ad min
im ension
ay s
FI X
Ġex ist
Ġv ersion
and ard
Ġindex Of
LO AT
N ONE
ĠC ertificate
ĠM otionEvent
ĠE VENT
Enc oding
Encode d
p ol
n ot
Sign ature
ĠCON TENT
S UP
Head ers
Ġget Child
Format ter
Time stamp
Ġ2 00
D est
Ro ute
Ġ1 9
ĠI Test
Ġw as
ĠD IS
Ġsub string
6 7
re gister
Text ure
Run nable
T ING
M atrix
Ġm on
ĠV oid
Ġd ispatch
vers ation
w ard
Ġp ort
Ġm Data
ACTI VITY
Al pha
Prog ram
CODE S
ĠT IME
or ed
Ġj son
Ġd agger
lat form
0 3
ang uage
ĠConfig uration
K ind
m al
S upp
Ġu p
R et
Re mote
con nect
Date Time
Ġs uite
Ġ $
4 1
H istory
8 7
Ġind ent
Ġm View
MP TY
p os
Ġadd All
Ġcheck NotNull
Ġin ject
n ap
RI P
if ication
Sh ared
TH OD
Dec oder
AT CH
Extra s
O verride
Th e
Ġin sert
Ġb undle
Ġ" :
ĠAc count
Down Latch
at t
ition s
ĠA U
ir m
ul ate
Id le
Re move
ann ot
Ġchar At
ch eme
Ġsq l
Ġm E
RE QUEST
h ttp
i v
Eng ine
4 3
Exp and
ĠIn vocation
Ġb it
Ġhas Next
D raw
IN DEX
} "
Ġhe ad
Ġ1 1
Ġp a
Service s
A uto
lec ted
I TE
ĠP attern
a a
St op
d p
Ġf eature
Ġ| =
s To
Ġ Enum
Ġis True
as ic
p th
SU B
Detail s
er e
DE VICE
l an
d own
iz able
P S
b ers
Ġ" (
mo ved
M achine
ĠR S
ymbol s
hot o
Ġ4 2
Ġparam eter
6 5
Access ibility
NUM BER
ĠC ell
Ġcontains Key
st ra
ract or
W ait
File Descriptor
In sets
st art
a unch
re ment
Ġa udio
re g
001 000
Ġm em
ĠA d
ĠFor mat
Ġd ialog
t f
ook ie
w er
M AN
Ġb ottom
ĠB utton
rig ger
ĠT ree
L ooper
le ep
ĠRUN TIME
v ide
Sh ell
am l
Ġwrite Int
B G
Ġm Content
ĠE d
Ġlib core
Ġget PackageName
T RI
Ġimp l
Ġtest Field
Time Zone
E qual
Ġsub Id
Are a
j ust
ĠgetContent Resolver
ĠA s
Ġarg ument
ist ance
Ġ Resources
atch er
Ġp art
0 8
S a
Q ual
ag n
ĠS parse
Argument s
ĠPa ir
M AX
Policy Manager
Ġd uration
DE D
a ded
fer red
ĠP K
ĠI mp
I RE
z e
ĠContent Values
Sign al
ĠRe ply
V ar
pcode s
ĠmT e
Ġa pi
p ath
ĠM enu
LE S
ĠTelephony Manager
es c
Ġget T
Ġsign ature
able Future
D ATE
F E
ry pt
SY STEM
Ġn ow
ee p
ĠSQL Exception
ĠInet Address
ĠC ode
ĠI Binder
Ġre cei
op layer
ĠL ine
F R
Ġle vel
P rivate
B efore
Po ssible
ĠPar celable
ĠP rec
ĠN on
Ġset Visibility
V oice
if ic
Ġanim ation
P ixel
Ġa wait
Ġex oplayer
C alled
b ugg
B luetooth
ĠPro vider
e er
p n
lement ation
; \
VI EW
c p
Ġc ause
own load
H as
ĠP AR
Ġp attern
Can cel
Ġm ove
all y
Se lect
TIFI CATION
0 6
ĠD ialog
Info s
Ġm Key
ĠCount DownLatch
Ġa fter
Po st
p re
Ġbe gin
M ASK
ĠF unction
ĠM ulti
let on
ri m
FOR MAT
ĠGener ated
M sg
P ower
Re al
Ġd ig
eng ine
SE CONDS
ic c
En tity
SI GN
Ġla uncher
Ġ" [
Ġs ocket
Message s
UR ATION
Sp ace
M ask
Ġpro file
Ġget F
Ġvalid ate
r ation
Text View
ĠG wt
in ation
In stall
b b
7 2
Ġm odule
Ind ented
Ġm N
o per
us h
ing leton
Ġsc reen
Ġm Callback
Ġ2 2
Par t
Ġb luetooth
Ġcontrol ler
Test er
w w
Indented String
M M
p le
AT H
Te mp
Res ume
ĠDe fault
Ġa re
oo p
Hand sh
g l
Ġmatch er
Ġd st
UR L
ĠM anifest
Parameter Spec
ĠS I
ILLI S
cy c
Ġput Extra
ĠS erial
Ġn on
Ġkey Set
Ġnew Builder
All ocation
Ġpar cel
Ġr andom
J E
ĠAc tion
View s
Ġset Content
Ġm enu
Ġ Stub
m y
for ce
Ġget Next
8 1
Rule s
Ġ Result
Dig est
W ITH
ibr ary
er ge
Ġd ir
C AP
w ith
c t
ĠPro to
E AR
N ETWORK
over y
ĠBluetooth Device
ron o
ic le
O O
Str uc
ĠmS ub
Ġauto test
Ġcont act
8 4
g ency
LI ST
All owed
De bug
Ġac tive
AS ON
Record ing
ĠAndroid JUnit
Ġi ter
vel oper
Ġget Bytes
pol ator
s age
Read y
Ġ Executor
Ġss l
Ġextra s
l ative
Ġ2 4
ment s
ĠIn struction
Di ff
F lag
lus h
Ġcomp at
st at
M I
fl ate
Ġm O
7 5
Ġ1 5
n ers
Ġre cyc
ann er
i pe
Col lection
G ER
ĠgetB oolean
lit erator
RE EN
ab ility
Con dition
Ġresult s
Ġa vailable
Ġf d
Array List
C alendar
Ġsc an
C ell
C ATE
R otation
Ġget Tag
ĠU RL
EN CE
Ġb ound
p rint
S yn
Ġread Int
N S
FA IL
at as
p ackage
Ġs kip
ĠSub scription
sh ot
Mon th
id den
P age
6 1
Del et
ĠAss er
M D
Ġto IndentedString
ST ANCE
Stack Trace
Ġsettings lib
ifi ers
re ator
ĠM y
Ġcon nect
B C
stra int
Ġse lect
LO AD
Ġm On
L ENGTH
id ate
SC RIP
ĠA T
P ayload
og gle
ĠE MPTY
l ing
ĠTe mp
s i
ĠP ACKAGE
act or
ĠLog ger
ist ics
Ġall ow
Ġr s
Ġget Column
mer gency
ĠME SSAGE
ĠU Locale
Action s
Dis abled
ĠParam eter
e ground
ĠPar se
99 99
ĠmM edia
ĠCh annel
DOW N
Ġget Display
ĠS erver
nap shot
S ummary
ĠAttribute Set
AL LOW
Over lay
RE G
E VENT
Ġin Order
Ġh ave
As ync
C ause
Ġparam eters
Ġent ries
ĠP ER
C I
ub ble
ur al
ĠWindow Manager
Run ning
ce ive
and idate
Ġun register
chedule d
Ġall oc
ĠRE S
Ġ6 0
Ġm ay
ĠP RE
it eral
Ġen um
ĠData Type
ĠCap ture
Ġget Data
ĠMO DE
P K
Ġa st
pe ed
Ġh el
1 00
L ayer
CON FIG
la b
ĠBitStream Reader
EN ABLED
F ER
ĠD esc
ime Type
ĠArgument Captor
er min
TER N
In sn
Ġ engine
ĠSc an
Ġset Enabled
12 34
Ġb utton
Ġor der
resh old
er ies
r action
ĠG u
7 3
o ptions
ĠD ec
vid ers
2 00
arg e
Ġ unit
Recei ved
ter nal
ag ing
Ġcontain er
ĠTime Zone
par ator
Ġprev ious
M ILLIS
urr ency
S ms
arg in
ĠmD isplay
S ave
ĠWifi Configuration
M an
im er
ĠF ilter
Ġ3 1
ond itions
e ak
TI VE
Par celable
Par se
Ġad apter
ĠR andom
ĠBuffer ed
h er
Ġ" %
Ġlog ger
ĠByteArray OutputStream
C ipher
X ml
I ms
ĠB roadcast
ĠPrec onditions
S im
M ore
ĠC OM
Ġc ell
ĠmC amera
I Z
ĠD ATA
RE SS
iss ing
ĠU T
Ed ge
Set up
Ġ4 0
S upport
ch or
Al ias
ld r
Ġal gorithm
st ream
To Message
stan ts
Ġper form
ĠR ange
Ġre mote
Ġh older
\" "
Ġget Service
ĠI ke
Ġde lta
Ġ ti
TH ER
Ġ5 0
Ġget Application
Ġv er
c ard
Ġs upported
Ex ist
Ġerror Found
m od
ĠImmutable Set
FF ER
ĠSystem Clock
il ation
I gnore
p are
TR AN
AIL ABLE
l ish
ĠCom mon
Ġm ark
ĠF LOAT
ĠIN VALID
ar Down
Ġa b
Ġget Possible
ĠF ake
Contact s
Dest roy
D AY
ress ed
IN DOW
ĠDesc ri
Ġd et
avig ation
C lose
ĠI S
c at
s m
v ity
ch ive
ĠCall back
bugg ee
Ġto Array
ri ent
Ġmatch es
Ġde bug
ĠP RI
ir tual
SH ORT
l s
Ġs ort
iti ve
Ġin stall
in ner
p ing
Ġte arDown
First Tags
6 2
Inc omp
C R
Ġse lected
ol ute
f d
ĠP endingIntent
Ġsp an
A ssert
I p
IG HT
Call s
Ġthrow n
Ġ ERROR
Y ear
ra mm
State Changed
ĠO ption
ĠmC lient
ĠReply Codes
en c
la red
Ġf ull
Ġtrans port
VER SION
ĠgetPossible FirstTags
ul ar
SS L
ĠUser Manager
c opy
ramm ar
ĠN AME
Object Identifier
Ġt race
ĠRe quire
OR ITY
G ORY
Ġc rypto
og n
SC REEN
b oot
h e
Test Runner
NE L
Ġde sc
Un known
ĠRe quest
Ġre g
Res et
Del ta
P icker
et ric
Ġch ang
ĠR ule
ĠOut putStream
ĠAP P
bs olute
rient ation
A W
Con f
Out Of
E E
Ġsend Message
it Text
AT ED
TI AL
Ġf oo
8 2
Ġref lect
Trans form
Restric tions
Ġi p
Ġo ver
Run timeException
S PE
Ġ Resource
Hash Map
Ġencode Per
Ġne ver
O ptional
ra vity
Ġget Height
ER T
IN FO
Ġencoded Bytes
ĠPa int
Ġput Int
vo k
ĠString Buffer
B IT
Ġget Width
ĠC L
Finish ed
UN KNOWN
Ġdi ff
R AY
Ġf uture
g o
Car rier
Ġget Element
Ġb inder
ĠE GL
Ġs urface
Ġexec utor
S ensor
0000 000
ĠmC ar
l ong
J ava
Ġpro perty
-- --
m ode
ATI VE
L ite
ĠTR AN
A b
6 3
ĠUnicode Block
P ending
ler View
Ġpri ority
Ġs ave
Ġif ace
eg ative
ĠPrint Writer
ĠIntent Filter
ĠCON T
ĠInstrumentation Registry
G HT
at ible
ar ded
ĠAs ync
Ġm Log
ver se
He x
ess aging
Exec ution
ser vice
if y
Nan os
Ġget Count
Ġla unch
ĠA D
Content s
Te mplate
Ġappend Variable
Ġclass Name
ĠRun time
ĠappendVariable ToMessage
E ffect
Pri mitive
In it
Ġget Test
V al
erif ication
IDE O
7 1
Device s
Request ed
Ġv ideo
Ġentry Set
if t
ĠNumber Format
5 00
Ag ent
Ġtrans form
p ers
Ġm Notification
Class Name
Contact Id
s ub
Ġid en
an k
ched ul
S ingle
ir ror
CON TENT
D R
Ġs leep
B R
OU P
Inter action
CL ASS
D ispatch
Meta Model
Ex c
Ġget User
T P
ĠP oint
Ġget State
Ġtemp oral
En ter
Listener s
DI SP
ic ture
Wh en
Ġ ^
A IN
ĠCon stants
ĠL ooper
FI ELD
G ET
Ch ain
Ġpo licy
r ong
R at
P rint
f e
ĠLayout Inflater
c a
ens ity
ĠC ALL
W eek
B ottom
h s
Ex ternal
C opy
Ġj oin
Ġcurrent TimeMillis
ĠmB ack
ry ption
Ġre ference
Process or
Re quired
ĠD BG
T ab
Ġin struction
ĠM easure
AN NEL
Ġprog ram
or iz
S elf
Ġdo es
W ord
ut down
Ver ifier
ĠZ ip
S olver
ĠF rame
Manager Service
Ġget Action
0000 00
ĠU S
Ġwrite To
Str ength
lu ded
DI RE
V O
o aded
CON D
C oord
ĠPro g
C C
ĠRe f
Ġconfig uration
Ġmet adata
Ġsyn c
Enc oder
ic tion
Ġget All
ĠVI SIBLE
B ody
B I
Ġc b
Ġinitial ize
M AL
P C
ec h
Po p
ĠCon nection
Complet ed
i um
Ġse gment
ad i
ĠNon null
sc reen
s igned
Ġs ip
FI L
Al arm
Th eme
Call er
State s
Ġde veloper
d ma
ĠC lient
Multi map
Feature s
n ode
ĠN ative
ur ve
D o
F m
Calling Identity
Ġm anager
n el
ĠmC ol
A E
oc i
BY TES
OutOf Bounds
H int
0 5
ri p
Ġb l
Ġre store
Child ren
Ac tiv
Ġi ms
Ġattribute s
ĠF E
SET TING
B ug
Ġdeveloper options
l ang
Ġs lot
Ġo k
et ch
ch ar
B uf
ĠJ Unit
Ġro t
ĠApplication Info
ĠTemp oral
H O
Ġre gion
inger print
on ical
Ġw ork
Ġbe fore
r t
ĠBroadcast Receiver
C redential
ĠM ILLI
Ġs imple
Time Ms
MP LE
Ġc t
Regist ration
ĠS ET
r m
g reg
in ed
ĠSI ZE
N C
a z
LO G
w ays
Capab ility
M ath
ul ator
Ġs m
Ġd ialer
ĠB attery
le x
RE AM
G lobal
ĠV AL
C CESS
As User
all back
ak er
atas et
ric t
8 5
ve Info
AD ER
Ġstart sWith
Ġre al
Ġn ormal
ĠAnim ator
Bind ing
View Holder
Incomp atible
0 7
Ġm erge
L ookup
Ġtest Set
0 9
8 3
ĠContent Resolver
Ġn an
Ġad min
ran ch
PORT ED
ĠM od
e h
Ġh ttp
R SA
ĠZ one
ĠM ET
U uid
Wh ite
ĠD irec
ON TH
* *
Ġnew Instance
C ast
Ġget Long
ON ENT
ĠBit Set
b yte
Ġ1 4
Ġm List
st er
Ġtest ng
L S
ĠE ap
ME SSAGE
Auth ent
un er
ER O
ĠRe ference
F inal
ĠRES ULT
Con straint
Ġc p
ĠR aw
ĠmP hone
Ġget Target
Ġref resh
U I
val u
Ġm Audio
Ġf lush
oriz ont
WOR D
ĠmM ax
ĠT v
DISP LAY
C ounter
W allpaper
Ġget PackageManager
w k
Ġsh ared
ĠSystem Api
t able
ĠSecurity Exception
k i
Ġm Network
ee ded
ens ure
Ġerr ln
Ġr ender
Ch unk
ĠSQL ite
ĠST ATUS
Ġo ption
ic h
Ġm Adapter
qu are
De sc
chedul er
ĠgetS ub
UT O
ĠRo bolectric
ing Mode
Ġwh at
Ġstyle able
ra pped
l ow
ĠFile Descriptor
Direc tion
ĠA fter
ĠW IFI
ĠByte String
OutOfBounds Exception
ffff ffff
Ġ ensure
s ec
um my
Ġcompare To
n t
T wo
Ġtr uth
ĠTr uth
pend ency
Tr ust
Ġdata base
ĠJ ob
d mi
P h
Ġf ake
x c
0000 0
S lice
arded By
lic ant
A F
st alled
ĠLog Util
oc used
Pri ority
I R
Ġ queue
ĠL ONG
Rec order
avig able
ĠSign ature
Ġis False
ĠS ize
Ġtime stamp
Ass et
Ġget Time
ĠTo ken
Fm wk
or g
C ustom
ĠM atrix
Se ek
Ġtrans ition
Handsh ake
I LED
Ġv ol
Pre ss
AAAA AAAA
in ition
le m
P layback
Config Manager
M ark
Ġ 99
Ġget Parent
ĠN UM
Res Id
ĠU RI
Ġget Component
For eground
Ġtype s
L INE
ĠP O
Ġal pha
G raph
Ġset Value
orizont al
Sc ore
I face
ĠC ipher
ĠT able
ĠmS ession
Ġl ookup
Ġb enchmark
G esture
Ġto ByteArray
ĠComp arator
ĠL e
9 5
P LAY
ul ated
L ONG
Ġin flate
o v
ĠGu ardedBy
H AND
Ġs upp
Ġargument s
ĠS ms
ĠM em
Ġs ig
ĠSerial izable
12 8
ĠHe ader
ĠActivity Manager
M AP
x d
scri be
i re
Ġevent s
A Q
ĠIn dex
ĠByteArray InputStream
P lay
Ext ractor
ch annel
x b
Ġget Dec
Ġrun ners
Z ero
ĠTest Fmwk
ĠO N
Ġkey s
Exact ly
ĠArray Map
eh icle
M irror
AU DIO
56 78
yc lerView
Th reshold
ro ss
Pre d
m atch
L iteral
Imp ort
Sec urity
s wer
Ops Manager
SCRIP TION
ear ch
Ġget Method
9 7
ĠS earch
Ġs chedule
AB ILITY
M B
ub lish
x FF
Block ing
New Instance
P L
Ġput String
om ain
A IT
S te
Ġget Item
sh ort
Ġ Extension
ert Dialog
ĠM ATCH
001 00
Ġcopy To
P in
ĠB ack
F oo
AV AILABLE
En able
u de
Ġon Click
Ext ended
ĠS UP
9 4
oft Ap
Ġc lean
L anguage
, "
Re gister
o se
DE LAY
ĠS ER
ĠN ETWORK
ĠOn ClickListener
R adio
Ġen force
over age
in fo
ĠD is
L aunch
Ġd ocument
i mp
Pro p
Ġarray copy
W ID
ĠT yped
Ġ" ]"
Ġis In
Ġun known
V ID
u ser
per ator
Class es
ĠMet rics
Ġback up
P T
PER MISSION
Id x
set tings
ĠSparse Array
GR OUND
Pre v
State Machine
Ġget Preference
ĠCar rier
S end
ĠArray Set
m ount
i om
Ġe lapsed
ĠL A
ĠCan vas
ĠCOM M
ĠSt andard
u til
e ed
ĠB lock
Re g
ac ing
Ob j
A KE
ĠI C
Ġcopy Of
ĠCon stant
p ri
Ġch ange
Ġz one
ĠgetM ax
Size s
te mp
ĠT ag
Ass ist
Ġdef Style
ĠR pc
Ġget O
ifi able
e ight
B and
Ġz z
ĠDE VICE
RES ULT
in line
Ġget E
All oc
ĠShort cut
In jector
ĠMod ifier
ĠCh eck
Sh adow
Ġ" _
Ġap k
UR RE
Ġpar sed
ear able
Target Sdk
W P
ĠgetL ast
Ġis Valid
Point s
pp ing
Ġe v
Ġverify Results
Time s
CH E
S lot
i ted
ĠMILLI SECONDS
Ġ" '
in ator
Error s
M ARY
ĠMockito Annotations
Ġl p
ĠmH as
Throw s
D URATION
ĠFE ATURE
v ance
ĠTo ast
Group s
ar Layout
ĠSe quence
Delet e
Ġget Attribute
== ==
D ING
D ump
P ATH
Inter val
Data Source
adi us
Ġcontains Exactly
MO VE
Match ers
St mt
Ġm Input
Ind ent
Sub type
A utom
est ed
OR MAL
Check er
ĠMet adata
Initial ized
read y
Cap acity
ĠST ART
rin c
W atch
Ġ Stats
V ATE
Ġs w
ĠCont act
rinc ip
Ġassert Not
ert ical
F ixed
W IFI
rincip al
s o
9 2
ss u
ĠImp lementation
Render er
Ġchang ed
Ġsp y
c ent
Ġmay be
Ġw rap
nectivity Manager
Re moved
C urve
d ir
oc ity
ĠarrayIn V
CONNE CTED
re ation
Ġ" )"
G B
IF T
Real time
Ġm Fragment
Account Handle
ĠR ender
ĠmP ending
ĠN OT
ĠV ideo
Ġmon th
Not Available
Sp lit
c ol
f ield
ĠUT F
re qu
ĠEx if
Ġid x
Ġse arch
CH AR
ĠL ocation
Ġs i
Ġfilter s
ĠgetL ocal
ĠA uto
Ġre maining
lu gin
ĠKEY CODE
Ġnew Value
Exp licit
el ocity
Ad ded
I O
N ULL
Ġconfig ure
Ġb ody
Ġall owed
H ome
ĠD AY
sent ation
Pri mary
( )"
RE ASON
Ġcreate S
Ġget Path
ĠS ensor
Object s
Ġfield s
S orted
C OR
Changed Listener
D EN
o ff
Spec ific
ĠO pcodes
SI TION
Ġp ayload
ĠJ son
Access or
Ġde lay
Ġt rim
Ġz ip
ĠAl gorithm
i que
ĠF OL
And roid
Ġresource s
D P
ĠAsser tion
Ġ1 3
U ST
Ġd ay
ĠAudio Manager
Pa use
et ic
Ġre laxed
ĠmB luetooth
B ad
n ed
O B
S ink
ĠG LES
ss id
ĠF OR
L ibrary
Ġc md
Ġpro xy
G EN
N eeded
ĠS OURCE
Ġ qual
end or
Ġcol lection
B attery
rib ution
Ġcomp ile
ĠmW indow
VID ER
Ġfor ce
mod ifiable
Ġl ink
lo sing
R pc
Ġy ear
To NewInstance
Ġc odec
F C
Un der
ĠdecodePer Aligned
ĠdecodePer Unaligned
ĠCon current
Ġmet rics
C lear
mal i
Test Suite
E P
ĠU sb
Ġs ink
Ġd x
ann ed
ĠPro perty
19 2
Ġfile s
Ġt z
bo x
ĠT EXT
Ġfail ure
right ness
x f
ser ial
JE CT
Ġent er
ĠCommand Names
Ex it
t ml
Ġis Enabled
Ġsession Id
Imp licit
ĠL auncher
Ġdom ts
T LE
Ġpass word
ĠM ode
Ġp ush
on es
ĠResol ved
Ġp s
Ġde scriptor
no inline
An y
uff ix
9 3
ab c
TE GER
Ġs um
M ac
ĠT race
Valid ator
Ġcount ry
Key Spec
Ġm Rec
Ġm Next
ĠJ D
ĠPer mission
k ens
C LI
Compat ible
Add r
SP ON
SS ID
ĠAU DIO
ĠC Log
L ines
qui val
O VER
Update d
ot her
ent s
G en
Ġon Re
ĠI tem
Ġd ot
Ġen tity
Sc ope
Sc anner
ĠImage View
g ithub
Ġaccess ibility
Shell Command
Ġstart Time
SE S
ĠSc ript
Ġpa int
Ġm Event
Ġal ias
ĠCh rono
r eturn
Rat io
Ġs un
j avaparser
Ġiden tity
D one
Ac tual
Ġm Start
Ġalloc ate
fl ow
ĠDate Format
ĠArgument s
Ġrecyc le
N ullable
Ġm Target
Ġm Text
Ġm Default
Ġf lag
Ġobtain Message
u x
l ural
Ġu sage
Ġm Config
tp Server
s For
Trans ient
Ġget G
Ġm PackageManager
F T
um bn
umbn ail
T ON
b ine
t ax
ĠS AX
A ES
Ġget Window
Con sumer
OW ER
ĠC RE
Ġ Q
ĠSY STEM
Ġstart Activity
Ġpre pare
ĠComp let
File Name
ĠPER MISSION
B ig
ON LY
Ġm Active
FAIL URE
h ost
Second s
g en
ME THOD
con fig
Ġvis ible
SE LE
ĠSh ared
NotAvailable Exception
Ġlog Writer
Ġpri mary
Sec tion
Ġm Num
Mem ory
ti m
Ġpro p
ĠSequence Component
Ġget Calling
Sp i
ĠI p
Ġex c
Ġcreate From
ASS WORD
ĠImmutable Map
ac ade
U TE
LE TE
CHANG E
la sh
Inter polator
9 1
Ġc e
Down load
i se
ĠgetIn strumentation
O RE
Ġparse Int
at ile
PRO FILE
ann able
Ġchar set
ryp ted
Ġj f
Gener ic
ar mon
Ġdirec tory
ĠFI ELD
ĠF eature
Ġlog ging
ack ed
ĠC ache
ĠP ower
oice mail
_ _
eb View
Ġte lecom
ĠRuntime Environment
Ġc ipher
ra ms
ĠG ONE
Ġlang uage
s d
B AR
2 24
s ume
ast er
Count ry
Pro duc
Struc ture
ĠDevice NotAvailableException
er v
ake Lock
armon y
/ "
P ublic
P kg
Ġcon dition
PRE FIX
Ġis Null
Set ter
L U
ag er
ool bar
Create d
M anaged
Ġl ifecycle
Ġbind ing
De pth
ĠRS RuntimeException
Ġs QL
f ul
r un
Met ric
Ġmove To
Ġp adding
sc ape
lu ster
Dis c
Ġset Title
M ove
ĠgetS imple
Ġin flater
Text Bundle
NO TIFICATION
ra d
ĠDate Time
Enum s
d irec
ST ALL
Shortcut s
B ILITY
re f
re port
os ition
ĠMedia Format
At om
Ġm Status
Ġexpect Equals
Ġp lay
Ġinvalid ate
Un expected
M argin
S W
ĠC ert
i i
u ted
de vice
ĠG et
ĠF uture
al lable
eg in
Ġinc rement
Ġc ustom
r ant
ĠInter nal
UP DATE
PH ONE
C a
12 3
ersist able
Ġp h
ĠX ML
Ap n
ĠMethod Handle
Node s
Pro visioning
In formation
op t
Ind icator
uff ers
Ap k
SE C
R T
for med
Ġ{ "
it ude
ĠDevice PolicyManager
I me
H igh
L ower
vers ion
Ġ2 55
os ite
Ġl oader
F ACE
Ġget Package
Ġdisplay Id
p u
Ġm Ui
PK G
pe at
Ġk ind
SH IFT
Ġcon stant
IG N
Ġpre view
Ġob server
Ġne ed
Ġ ~
Ġraw ContactId
Ġrecei ver
Ste p
ĠDescri ptor
SETTING S
Ġtest Run
Field Element
S napshot
m an
Ġcall er
RO M
T ra
Ġ" --
i ed
ateg y
OFF SET
D U
I CE
T ermin
Dis miss
ĠUnicode Set
I ter
Ġinput method
De buggee
ĠC ustom
Ġfile Name
O G
Layout Params
t l
Ġsend Reply
Ġe ap
LO CAL
Multi ple
ĠT ask
Key board
C losed
ĠApp OpsManager
VALUE S
s id
rol ler
ĠPhone Number
lab ility
Frame s
Ġse q
F ill
x ml
Ġc ldr
Ġget Intent
ĠmMock Device
Ġb y
ĠIN STANCE
ĠRobolectric TestRunner
ĠL abel
ĠsetOn ClickListener
Det ector
Ġwh ich
Ġsc roll
I X
s ize
Ġp oll
ĠChar set
ĠTest Utils
P rinter
Un lock
Ġfeature s
Algorithm Exception
CATE GORY
F older
Ġs f
ĠResol veInfo
imp ort
Ġget N
Ġcon n
O rientation
il er
Suggestion s
Ġo wner
ate s
RO W
Ġstatus bar
Ġcheck Argument
Ġd im
Ġw m
Ġa bs
FA ILED
T ASK
Ġitem s
Ġget Property
Ġm ask
s ic
> \
b y
Ġv olume
ER A
Pro jection
De x
M T
ĠS UB
ob ile
ĠFile OutputStream
For User
ĠKey Store
ph em
Ġexist s
Ġextension Registry
ĠB U
v r
U tf
En ded
ĠNotification Manager
s a
ĠLe vel
ĠJD WP
et a
CE I
b ind
Failed Exception
Ġm Channel
Enc ryption
Ġ12 8
ĠParcel FileDescriptor
ĠD ER
Ġp eek
Ġ"/ "
ice s
ĠL ifecycle
BU FFER
ĠgetSimple Name
Ġname s
H ttp
in dex
ĠC AP
o us
P ublicKey
s l
Ġ" \"
UM ENT
D b
Ġp id
Ġp ending
Ġro und
ĠF actory
A ware
Ġ Res
SP ACE
Ġ[ "
Ġm Resolver
ĠL ock
Ġrec t
Ġmulti map
ME DI
Ġcal c
ĠGwt Incompatible
con nected
Att ach
Dig its
ec ond
ĠH as
CONNE CT
Delay ed
Ġcon structor
Record s
A w
Ġa utofill
Ġh armony
Se gment
ĠAnim ation
med i
Al g
ĠFOL LOW
Sa ver
Ġchar acter
ĠSubscription Manager
ĠLine arLayout
P riv
uc ce
Run time
ĠNoSuch AlgorithmException
Ġm Icon
Ġs ax
V erify
rup t
I TIAL
Ġ2 3
Inc orrect
C US
in stall
C D
Class Loader
ĠWifi Manager
Ġbenchmark s
or s
VE L
iom etric
ĠMet ric
Ġget Field
l ator
al y
Ġget Extension
Ġun icode
Ġh igh
Ġad ap
ĠT H
VI SION
PER TY
Ġreturn ed
ĠCON NE
T imer
l ate
us pend
Multi set
R S
ĠP o
St amp
MP ORT
STR U
ĠS witch
ic ro
AC COUNT
URRE NT
Ġl oc
SH OW
Ġdig est
GR OUP
ist ic
Ġparse From
R ST
FER ENCE
KE T
H our
am ing
RI GHT
rin sic
CONT ACT
Ġm ac
il ing
Ġmax TargetSdk
Ġret val
x a
ĠH T
ĠS orted
v is
Char s
Feature Provider
Ġtrack ing
Ġcalling Uid
ĠDialog Interface
I AL
ĠME THOD
ĠCOMM AND
Th is
ol og
Com ment
Ġm Connection
d f
OL D
Ġhead ers
p m
Ad just
String s
ens us
ĠC ore
ĠU Character
S in
T ile
UT F
e et
WID TH
a N
ĠFile InputStream
P ARE
ĠD ownload
iz ard
Ġr adio
cont ent
C P
ĠSE CONDS
com ing
il y
B ucket
SPON SE
ĠB ind
ersistable Bundle
Ġt ab
Ġc ounter
iction ary
LI C
l ight
Ġch unk
Ġse ek
riv er
F ULL
UT TON
Ġdec oder
For ward
O ther
T ABLE
Ġin te
l ink
Ġresol ver
C ENT
N G
Ġ10 24
Measure Spec
ug h
G EST
COL OR
enc ies
Ġnan o
Ġb its
Ġst orage
AS H
Ġcont acts
ĠTIME OUT
Ġl at
Mock s
Ġm essaging
ĠmS urface
ari es
D ynamic
FO CUS
70 7
Ġ" )
ĠSec P
SUP PORTED
Ġ' \
Log ging
ĠF IL
ir c
MAN AG
Ġw ord
Ġh ide
ĠEN D
bo se
Return Value
ĠAT TR
38 4
ron t
ĠmD is
ĠMedia Codec
rid ge
ĠCO DE
requ ency
ĠS lice
Ed itor
n d
lephony Manager
Ġon Start
OU BLE
ĠBluetooth Profile
ĠXmlPullParser Exception
Map ping
Ġ" @
ĠS TR
Buffer Exception
ĠF AIL
Ġprog ress
X Y
Ġc losed
Ġro ute
stric ted
ar ing
ĠN ONE
Key Store
55 3
ĠRE QUEST
Ġm Image
p ass
Ġm Id
P id
ĠgetDec lared
Ġm Name
AU TH
T rigger
With out
Ġbound s
Node Info
Ġdis able
V ED
ĠStatus Bar
< /
Ġadd r
an e
ĠA uth
S imple
ĠP ri
Ġin sn
Contain s
ĠM atcher
Comp arator
A MP
Dec ode
ari ant
ĠH OUR
Convert er
ition al
ĠUser Info
F tpServer
Ġb s
Ġm UserId
ĠI P
Socket Factory
ĠLinked List
ĠM on
NE W
I A
Ġc ategory
p r
D omain
Ġp i
ĠIn ject
S ymbols
IN PUT
Ġshort cut
Ġvol atile
x e
er ic
AR RI
ĠcreateS ized
AR RAY
DE FIN
vai lability
Ġset Data
C b
D rag
ĠH el
Ġp acket
Ġ5 00
ip ient
Ġlog ln
User s
Key Exception
Ġ Storage
Ġb ut
CR Y
Ġget View
P LY
Ġb inary
Ġutil s
Ġ1 7
ĠM ore
IN VALID
Ġper iod
MAT CH
r ate
00000000 00000000
i tem
Ġrequire NonNull
U LE
ĠAL LOW
ogn ition
SI BILITY
Ġf tp
Direc t
V IDEO
Ġuser Handle
FO RE
Ġp oint
ĠS ample
Sh own
Ġrun On
Ġint Value
ĠJava File
A K
Array Equals
Ġhe x
Un signed
ĠW eak
ĠAssertion Error
Se parator
Ġ2 1
ARRI ER
ĠV ector
Pop up
Ġm atrix
L at
ĠR adio
ĠO pen
ĠG ET
ĠCol lation
ĠN ULL
rivate Key
ĠAl ertDialog
Ar chive
ĠmS p
Task s
Ġm Settings
ĠS ource
DI AL
IL D
Present ation
Pixel s
jec ted
C annot
Ġget Selected
Expand ed
ĠArgument Matchers
Ġset Default
An swer
ĠgetA bsolute
U pper
ĠM odule
RE ST
C lean
Ġ QU
Ġm Sc
Float Float
Ġ", "
HE ADER
Com mon
d is
Ġst ore
An chor
ĠN ot
ether ing
COL UMN
olog y
Ġm easure
Con versation
ĠCO MP
M Y
b ound
Resource Bundle
ĠRef lection
A UTO
Ġm imeType
Dispatch er
OL U
Ġget File
L oaded
Ġfil ename
LE MENT
Ġvis itor
b it
is match
Base d
Ġcommon s
Ġchannel z
UN CH
Ui Thread
For ce
Ġrule s
ADD RESS
Ġon Resume
b d
ĠB l
F acade
Ġc alled
Ġs ummary
( "
Ġany String
Ġenc oding
EN S
ĠW ork
x D
Ġtracking Bug
TR Y
w idth
medi ate
Ġ" +
ang es
ssu er
x F
eth row
ĠAC COUNT
ĠP red
ĠF oo
RE D
m ax
AC H
Re peated
Or Builder
al th
ch em
COMP ONENT
Ġm Manager
Ġget Active
Ġs ingleton
Ġget R
ĠContacts Contract
IN D
ĠV ehicle
Ġb ar
ĠPackage Info
I mmutable
ĠS P
ĠB asic
Ass oci
Render Script
G E
R C
ĠList s
Ġupdate State
FOR M
D K
er ent
Pro viders
ĠParse Exception
p ect
Ġ Listener
Enc od
Ġmulti ply
CL U
Ġc andidate
pe x
Ġrep lay
Ġ2 5
RI TE
Ġp latform
Ref resh
Builder Factory
U sed
d o
ĠA utofill
Ġ \"
Dig it
ĠM AN
mb ient
rig inal
F RE
CO MM
Ġt ree
AT S
Ġc ertificate
H idden
Ġm Intent
Ġ ec
n ss
pri se
ĠGenerated Message
Ġc ookie
Ac cept
P icture
W ri
ĠDe x
N ING
en e
w h
U pd
er ation
D istance
S peed
Ġc annot
Version UID
Ġget I
de fault
Ġcontent s
ĠL AY
or ing
Ġpro tocol
ĠWifi P
Ġs im
ĠmActivity Rule
tifi ers
SE COND
t ag
ITE M
Prev ious
Ġi ke
not ated
C RL
D imension
Ġp eer
Ġin putStream
Ġ6 4
SPE C
ĠVAL UE
u icc
B g
ation al
Ġ Expression
Exception s
Ġchannel s
Ġsh utdown
EE K
all ery
ĠSp literator
Ġinvocation Record
ĠT E
Character istics
ĠC reator
ĠMenu Item
Ġm Call
ĠL E
All ow
it able
TI VITY
Ġs quare
ac er
Ġ69 54
Test Utils
Ġassert ArrayEquals
ĠFile NotFoundException
S QL
Ġin ner
Un til
Ġy aml
Ġhandle Command
F actor
ATI C
r r
Ġapplication Info
ĠwriteTo Parcel
T A
Ġat om
an ss
Ġdb g
Hex String
Ġopen c
du ce
ĠgetApplication Context
Ġb ranch
ĠU P
D O
ĠD uration
LO CATION
me ss
ON T
Nan o
Ġm an
f s
Ġs ame
Con ference
M IT
N ormal
For m
Ġs n
Ġ1 8
Ġpro jection
ĠInput Method
A utofill
L oop
ĠS ip
ĠO s
To Double
ra sh
Ġis S
ail s
Ġopenc ensus
ĠNotification Channel
S cheme
ed ium
Key guard
ĠmL ayout
ac tive
Ġm Scroll
L ow
for mat
B oot
C M
Ġr ethrow
to ken
ww w
Ġt wo
Ġ2 8
n et
Ġset Color
ĠGener al
ĠIN TEGER
LU ET
Ġsupport s
OO TH
LUET OOTH
D ial
Ġset C
CH ANNEL
am ily
ĠI con
ur bine
ĠS U
ver ti
LE VEL
Ġcar rier
ĠAU TH
M anifest
a e
ic ip
x C
Ġc s
Ġc ached
ĠS C
ang le
Ġauth ority
up lic
Exp ect
Str ategy
Half Half
Ġl ower
ign ment
I OException
v i
Ġdefault Value
S ymbol
Notification s
Ġ69 5
Build Info
al ed
Iden tifiers
Le g
ĠIC U
No tify
SI TIVE
Dec or
Trans lation
ĠSH ORT
d ate
e an
Ġb attery
pro cess
Ġc ard
Ġserial VersionUID
Ġexist ing
Re lease
ST ANT
* "
ĠsetContent View
x E
Ġa g
Ġct x
ĠAL L
RE CEI
Ġcontent Type
ĠFile Util
s ystem
IG H
In ner
Ġ" #
E lapsed
c d
Re store
Ġ" }"
Ġw allpaper
ĠZ en
U int
Pre par
FR AME
ĠFOR MAT
B ot
Ġd one
T M
Ġchar s
F il
Number Of
UL TI
Exp onent
o om
re ens
Ġnext Int
Ġde pth
sc an
PRO VIDER
ĠInstruction Constants
Ġs ymbols
Ġm De
Ġpro perties
SI M
T S
ĠITest Device
Ġm illis
C ould
ROL L
n ew
Supp lier
ĠPred icate
L auncher
W INDOW
Ġm Package
ĠO NE
an ts
ĠAssert FailedException
Ġd own
CRE ATE
Def inition
Ġ Execution
SU CCESS
ĠSe lection
ĠParam eters
Ġis Checked
ĠU ID
ĠCol lector
ĠUn known
AD ATA
Ġb ig
scri pt
Ġrequest ed
Ġm Result
Ġad just
5 12
Ġm Selected
ĠR IL
LI CY
mess age
L java
Activ ities
W H
Pre ferred
Account s
J oin
Ġte mplate
Ġget Color
er nel
Ġp rinter
Ġ> >
M ix
T ip
chem a
L ifecycle
ĠFile s
Ġs lice
Ġcon nected
ĠGwt Compatible
Ġd id
ACTI VE
? "
Ġvalue At
AB EL
Re maining
AR CH
Ġi m
Par tial
ĠTrans form
FIL TER
ENT ATION
Ġb ucket
Ro le
t c
B reak
um b
P hoto
T yped
C rypto
Ġname space
Ġm Screen
ist og
pe g
sc ii
Ġback ground
BO SE
gn ored
Ġm Type
S w
Ġc ould
ĠCon sumer
Network s
ĠAd apter
Ġpart s
ĠDOM Test
et ime
ĠClass Loader
oo se
By Name
Ġs ensor
ĠBluetooth Adapter
al le
TI TLE
ĠG ravity
Path s
ĠNumberFormat Exception
erv let
Data Set
Ġa i
ch ecked
lus ive
M issing
ĠP ass
R adius
Class And
Man age
ĠGeneratedMessage V
AR I
el et
ys ical
Ġf ocus
Ġin jector
Ġhel per
c um
State ment
D ist
Ġb b
Ġo verride
Ġj ar
N avigation
S chedule
V P
h and
le vel
11 11
c all
ĠList en
x B
ĠmRe mote
J son
ĠD H
Le ast
INT ENT
f rame
Ġr pc
Encod able
ARG ET
mit ted
PRO VISION
ĠgetD imension
g able
s In
CE S
S OURCE
ĠRequire s
un used
ĠgetAbsolute Path
Ġcheck ed
Ġ2 9
ĠDec imal
c m
Ġ12 3
Z en
Ġar r
Ġres Id
Device Info
et rics
Ġ' "
c n
re q
Ġ10 1
P tr
x x
In strumentation
ro ke
Syn tax
ĠIndex OutOfBoundsException
ul ation
Socket Address
Ġcomp arator
ĠG R
Ignore Case
OR DER
Autom ation
Re laxed
ĠN E
ĠInt Def
Ġc r
DEFIN ED
P rincipal
Ġin teger
ĠZ ERO
Ġext ract
ClassAnd Number
F raction
Ġex it
istog ram
c ts
Ġexecute ShellCommand
Ġfrom ClassAndNumber
R ing
Ġget Un
GR ANT
ALLOW ED
vok ed
ar able
Byte Buffer
Un able
C BC
alle l
ff ic
ĠNO TIFICATION
ĠM atch
Ġon ly
Show ing
Mem ber
ĠInvalid KeyException
Dialog Fragment
ĠW INDOW
1234 5678
Ġchild ren
stat ic
D OM
Ġm Preview
Ġg en
Ġassert With
P ersist
V erification
I ke
l one
Ġelapsed Realtime
st im
ĠParameter ized
ĠCL ASS
ĠProg ram
Ġg ot
Ġh our
Filter s
Ġ oid
oll back
ĠS im
oo d
CONNE CTION
a j
x is
s afe
Second ary
FIN ITY
h cp
Ġdis miss
ĠN avigable
Ġadd Action
Leg acy
Ġm PackageName
In voke
ĠCont rol
DIS ABLED
ĠComplet ableFuture
S M
byte s
Ġa m
lo or
Ġun modifiable
Ġtype Solver
Rep lace
B ASE
ĠmContent Resolver
D ot
Service Info
TERN AL
Ġanim ator
J ar
Ġprint StackTrace
Exec utable
Warn ing
ot a
Mod ified
o pped
Ġis NotNull
Ġmet a
ĠencodePer Unaligned
go ing
ĠG roup
ĠRec yclerView
ĠencodePer Aligned
ĠO FF
Ġclass file
ĠAccessibility NodeInfo
ĠGener ic
Channel s
Conf irm
Ġc enter
ĠM IME
on ed
la in
ĠmTe mp
B l
agn ost
Ġver ifier
S ent
l ocal
Ġh al
Date Format
Ġget Status
Ġre q
ĠgetS ource
IFI ED
Explicit ly
ĠInvalid Protocol
g oogle
Ġj d
Ġc alendar
g ra
Ġcomp ilation
Ġresol ved
Voice mail
Ġcom ment
g ener
Ġfrom Per
Sec ure
ss i
ĠJSON Array
ĠPAR SER
C AST
Ġc f
AA A
Ġcur ve
Ġunknown Fields
ĠRE AD
EN DED
ĠmUser Manager
ĠA p
IN K
Format s
Qual ity
Hash Code
I ON
t one
SIGN ED
T ED
Ġdirec tion
Ġs orted
Ġl ines
Ġd ownload
Ġdex lib
Al ert
Ġmethod s
AM ERA
ĠIN T
Head set
ĠCONT ROL
t ract
id l
ĠS IGN
ĠmL ocal
System Server
ĠCRE ATOR
ĠCommand Handler
ce ptor
D ataset
il ver
f irm
Ġset Field
ĠT ABLE
tt en
tec tion
ab ilities
sc rypt
ĠData base
Sh ader
ĠTrans ition
Ġ Response
S kip
ex ample
ĠSY S
29 553
Row s
B LOCK
oo ser
Ġresult Code
Ġanim ate
Ġon Changed
Ġre ps
Ġ1 707
ĠInvocation Record
Ġd t
Sub Id
ĠgetC ause
Ġget Network
Trans formation
Ġ1707 29553
ĠH E
ĠCON FIG
Ġaccount s
G ran
ĠElement Type
Ġempty List
Ġpa ir
ĠN at
comp onent
Ġre quired
im age
FFFF FFFF
T otal
ĠmM in
Ġtrans action
ĠLocal Date
Ġ12 34
st ate
Ġ" =
Ġb roadcast
ĠIN DEX
N A
ĠP H
Ġ Static
Ġcheck er
chron izer
EN TI
Ġc lick
ĠF ail
Restric tion
Uri s
Ġget Encoded
DIRE CT
F i
Ġv ariable
Ġadd View
Ġp layer
Ġfor Class
ĠOut put
Ġal ready
PORT S
IN FINITY
H i
Sdk Version
U AL
Ġget Drawable
Component s
Ġcount Down
ĠonRe ceive
Ġ ans
C ANCE
Ġget Error
Extension s
Ġt ool
ĠF ast
Ġp age
_ "
ST REAM
C A
Ġo peration
ug e
ĠScan Result
List View
Ġm Request
Ġremove All
ĠCon structor
sh eet
ĠmS ystem
SES SION
sh ow
Ġn s
Ġexp and
OLU ME
ĠInvalidProtocol BufferException
IT CH
Ġget App
y y
ĠPK CS
Z ip
Match es
Ġm Native
Ġm Parent
ur ing
ec tion
Ġass ume
Col lector
Report er
Ġftp Client
R out
Ġ( "
In stant
ers on
ross Profile
Pred icate
Ġout er
Ġ Expected
ĠC MD
ĠmL ooper
ĠgetChild At
P latform
Ġrecei ved
ĠP art
Ret ry
b utton
Ġnew ArrayList
Ġput All
Index able
ĠmTe lephonyManager
Ġadap tor
P I
Key Set
M ONTH
rad ient
Ġw earable
reens hot
ĠP ersistableBundle
r u
or ded
ĠBuffered Reader
urs ive
ĠSp annable
Ġ" ."
Ġget Object
Ġon Destroy
ĠVER BOSE
Interaction s
Sin ce
s ence
greg ation
D N
Private Key
ĠCapture Request
C reation
Ġset Checked
C enter
t xt
Ġo pcode
ret Key
Upd ater
L AS
Ġset Visible
Int Array
Ġ3 6
Ġo pcodes
Ġ& =
If Needed
IM AGE
ĠV ariable
DI R
B inary
S cheduler
ĠTest Description
ĠPower Manager
ĠR O
S uper
ĠM ED
ĠSettings Enums
W atcher
LI CATION
ĠMeasure Spec
B egin
d og
Input Method
ĠgetM in
White list
ĠPar ser
ĠY EAR
LI MIT
ĠPK G
Ġc a
Ġatt ach
ĠSAX Exception
Ġget Log
ĠA dd
OR AGE
Ġequals IgnoreCase
end ers
Mode s
Object Identifiers
Ġcomp lete
Ġformat ter
b c
Ġf ix
over able
Y EAR
tr ue
Ġto HexString
Ġreg ex
Ġcom mit
Al ways
ild card
ri ty
X ML
Ġm St
Ġget Resource
g es
o te
ĠC st
Ġl atch
ĠW idget
Sh ift
OP TION
I llegal
Pro vision
ĠmR oot
ĠcreateFrom Parcel
ar io
ĠM edium
T LS
Ġcalc ulate
ADD R
AT TERN
ct et
ĠS ync
Ġcon cat
Event Listener
ĠSQLite Database
in valid
Ġv ar
ĠS cheduled
ĠB Y
Ġis Log
E mergency
LE G
AME TER
ĠZone Offset
Ġm Action
Ġs ingle
ra se
Ġcomponent Name
or ld
Ġe gl
ĠmSub scription
al c
Ġserial izer
= '
Un supported
Struc t
C pu
en ario
N egative
ĠI MPORT
Ġ2 000
Ġdispatch All
av i
Ch oice
K eep
Re quire
ĠRect F
ĠMedium Test
ĠCollection Feature
ĠgetColumn Index
Ġs y
ĠShared Preferences
Th umbnail
W AIT
Ġ Stack
Ġc urr
ĠH dmi
pend encies
l en
ĠC allable
Ġo ptional
LE FT
Ġget First
ĠBack up
Ġm Time
Ġt ail
ĠS CRE
Track ing
STRU CTION
ĠSCRE EN
Ġre peated
Ġext ractor
Ġany Long
Ġscript Relaxed
ti tion
MEDI A
ser ved
ĠRe gion
Click ed
Class ifier
gra de
Ġp lus
ĠCode d
P ut
c ript
H ardware
Ġ ER
Ġprog uard
Ġrot ation
Ġverify No
ST OP
From SystemServer
Ġac quire
Ġun lock
gr pc
S ender
Ġb ad
oo g
Ġclass es
ĠE AP
er ror
lo ader
ĠPro xy
ĠRaw Contacts
par am
o u
Ġexp licit
ĠDOM TestCase
Ġrethrow FromSystemServer
Color s
Document BuilderFactory
d le
AN SS
At temp
S afe
Chang es
ĠCon nectivityManager
scri ber
Ġed itor
m ented
Ġm Message
ol ve
ĠAN D
ĠCon dition
ING LE
ava i
f ilter
Config s
Ġis Available
Ġmon itor
= %
ic t
ĠTest Suite
in c
ĠL ENGTH
Ġfield Id
Constraint s
Ġ} "
ri t
Ġre moved
Ġo pt
Ġde v
ĠCollection Size
QU IRE
ĠSYS Z
Install er
Ġdis connect
ĠmBack ground
ĠU UID
Of Week
Ġinc lude
Load ing
Pos itive
e en
Ġget Integer
ĠC lazz
x A
ĠAtomic Integer
Ġdest ination
Ġselection Args
REST RI
B uffers
S ort
e ded
x Restrictions
Str ong
Th an
ĠUN KNOWN
L L
h el
et ter
Ġtext View
ANG E
Ġget Raw
ĠName NotFoundException
H ER
Ġpro c
Dis able
vide s
AL ITY
ĠComp ilation
w rite
ase s
Ġget X
F ree
Ġb a
Ġa v
ĠAR G
N ORMAL
Sp inner
Reply Code
ĠS A
ĠIn sets
VI SIBLE
LO B
s Up
ient ation
Ġget Start
si red
Ġt m
Complet ion
Ġbyte Buffer
Ġde scribe
ĠDirec tory
Ġset Max
s ilver
ĠProto OutputStream
T oggle
Ġb est
Ġwrite String
Cancel led
ĠNode List
ĠisLog gable
de lta
c reate
Ġread String
ĠContent Provider
ĠCommon Tree
OW N
Ġu sing
ĠgetC om
avai lable
T ap
Ġid s
Ġdo Test
Ġ2 6
ĠP ort
Ġm Task
ĠH ost
Ġkey Code
P TION
re sentation
F ocused
Ġw rapped
Ġk eep
enders cript
ĠC lick
ress or
ĠCon st
Ġper m
ĠRecently Nullable
Ġget Notification
ĠNetwork Capabilities
Ġtest Handle
Hash Set
ĠCarrier ConfigManager
ĠU sage
10 1
CHE CK
z one
Inc lude
PO LICY
RE SPONSE
ĠmI ms
Ġpre d
ĠgetS erial
Priv ile
Ġal t
Ġand Return
Work er
Request s
Fragment Manager
ĠTr ack
Ġret rie
St a
ĠV ms
Pre p
B ubble
Ġm U
ut out
Al ive
Sh are
am c
Ġcl s
ĠListen ableFuture
L ive
O perator
Ġpop ulate
Ġr hs
Ġcode Point
ĠS dk
Ġd at
Ġinit Mocks
Ġb ool
Ġsh ift
Expand able
Ġr enderscript
M R
Hel pers
Explicitly Set
L A
Ġm Resources
ĠSER VICE
Ġrun Test
ĠgetP ri
Ġset Image
eng er
avi or
ad ing
Ġrequest Code
ĠdefStyle Attr
w p
ate gor
List Adapter
pd a
ĠActivity Info
en ing
Present er
quival ent
Ġget Address
k a
le ss
Ġm Helper
ĠSp an
ĠP du
ĠPreference Screen
d ot
ĠP ublicKey
Ġ2 56
Ġkey board
Restric ted
ĠTree Map
s ide
Al t
HAND LE
Be h
g roup
Ġany Object
C LE
ĠS IP
ĠmL auncher
aj or
Ġ oc
ĠgetP hone
Ġcheck State
ĠIN TER
xt ure
ĠmB attery
Ġshadow s
CLI ENT
IZ ED
O S
ENT ER
Ġthe me
Ġcopy From
ĠDIS PLAY
at ic
ĠM ONTH
Ġis ExplicitlySet
Ġse parator
P ASSWORD
il t
Ġl ow
A mount
Ġsc ope
ĠmCol or
G H
ĠP layback
re gor
regor ian
E p
P OWER
St age
ĠgetColumn Pos
ĠO pcode
Ġpackage s
ute s
Us b
PARE NT
C ached
Command s
EX P
up le
er nal
ĠEC FieldElement
Ġsub scription
Ġsub type
ĠCH AR
Ġm Host
Ġe qual
ank ing
Ġdim en
TH RE
ĠSt rict
ĠDescriptor s
P ager
or ary
ĠEd itText
stan ti
ĠMap s
Ġm Database
Ġmethod Name
D OC
ap k
Ġactivity Info
irc le
Access Exception
Disc overy
F d
State Listener
ĠUser Id
Back end
FE ATURE
D oc
um ented
EN AME
N e
Item Selected
Ġenc oder
par ent
C ec
Ġget Config
oc h
IST ER
Ġans wer
Re q
Ġse lector
Test Util
Ġget Host
ĠType Token
Ġcalling Package
Ġm Group
Time Us
Ġsign al
t ree
à ¤
Th ro
Ġ3 7
Ġed it
V irtual
Ġe valu
Count s
And Get
Thread s
End point
Local es
f ramework
Ġw arn
ĠNullable Decl
B al
L EN
P lan
Ġnew State
E sc
ĠTime out
AL I
Ġdirec t
Ġm Show
Ġs a
In te
BY TE
Ch ip
Ġch rono
Se q
Num bers
ĠCOL OR
an onical
Ġadd Listener
A v
B B
Ġshadow Of
Us ing
Ġ Style
Ġ Executable
la bel
ĠV olume
In set
ĠmC ached
Ġs uggestion
Ġclear CallingIdentity
Ġl ooper
Ġrun time
Exist s
C ookie
Ġm s
C overage
b um
ĠLO CAL
l li
Ġre d
ĠgetM ain
ag ed
ĠCh ecked
Ġno te
ĠCell Info
ĠV ar
re es
RE MO
SER VER
Ġgener ator
C URRENT
i ved
Ġ3 3
H ide
Ġget Entry
ĠF R
b ps
ĠmT itle
Ġget Event
Report Message
x er
ot ate
Ġth r
List Item
Structure d
at able
Ġm c
Ġp ool
Prepar er
ĠRequires Permission
C md
Ġin sets
g rity
Ġv m
Ġupdate d
uplic ate
Ġget Parameters
ĠA V
Ġerror s
ING ER
Ġm Profile
F D
Ġ" {
es Not
Mix in
Ġ layer
ified Name
H IGH
Ġj pda
Ġpackage Info
# #
ENS OR
ĠCollector s
Ġ ut
ĠM ac
EN SION
ĠmB utton
ĠmB itmap
Ġm Provider
ce p
ĠD IRE
UN SET
SC AN
id dle
ĠTest Class
R ound
Ġv ector
ist or
Ġz ero
Shared Preferences
Ġor ientation
Queue d
Ġdesc ending
I SH
Ġcap acity
Stats Log
Ġpref s
ĠS mali
Trans fer
p ad
PE CTED
Session Id
f loat
ST ORAGE
c ert
Ġfind Preference
Ġ3 5
ĠRe gister
ĠHe ad
V i
Ġget Title
ĠM idi
Ġdom ain
s ui
v ing
HE IGHT
ate st
Ġ4 8
ER IC
Ġcompat ibility
Per cent
Measure ment
al t
Ġrestore CallingIdentity
Invocation s
ĠJson Rpc
Ġapp Info
Component Name
ĠsetS ummary
ter n
a ff
Ġ Extended
Ġh ome
URI TY
Ed it
Ġover lay
Ġd istance
Ġs cheme
ĠD ynamic
Ġcolumn s
BO OT
Ġm Out
Ġfor Name
CI I
ĠBind ing
I CON
Index Of
Ġ8 0
ĠClass NotFoundException
SUB SCRIPTION
Lower Case
CO M
Ġget Y
ĠRE PLY
Pref s
B rightness
L D
l imit
Ġis A
Control s
Ġ Environment
ĠO ffset
L ight
ĠByte Order
ĠO b
ĠmMock Listener
ĠCH ANNEL
D rop
ĠmIn strumentation
K EN
h ing
ĠmW m
Ġm anaged
Ġ2 7
sp ot
Ġdis abled
Ġup time
ĠEd itor
INTER VAL
Executor Service
S ED
Ġm Tag
Hel lo
PAR ATOR
Prog rams
Ġto uch
Ġmem ber
Ġmerge From
oll ow
Ġg rammar
Ġad vance
ĠPo licy
G ATIVE
ĠComp arable
VO ICE
CRY PT
in put
Dis connected
ĠSE C
PH A
ĠIn stant
Ġresol ution
T int
ER Y
Ġrun nable
Ġm Uid
ĠCon versation
ĠDecimal Format
Ġst ep
ategor ies
ĠB idi
ĠIn stall
let ed
Qu ota
Not Supported
ĠR eturn
As String
TRI BU
M AC
med ia
AT TER
CT OR
.. ."
ĠgetChild Count
W eight
Ġ1 16
Ed itText
Ġreply Text
TI C
TO P
Ġm Receiver
Serial izer
ĠST REAM
az y
d ouble
Authent ication
rit ical
Re lative
To Int
To ast
Media Source
IN ITIAL
Ġdocument sui
AR K
W rong
Ġset Type
Ġcreate Temp
Ġpermission s
M gr
Ġm h
Ġdec l
ĠgetDefault Instance
O ID
ĠmB ase
Ġerror Code
Ġi v
Ġexp r
Ġ" ]
un nel
CO DING
Ġinternal Indent
MI SS
CES SIBILITY
8 00
G att
Ġstring s
lo s
ĠW allpaper
ĠassertWith Message
F ROM
ĠM ms
Ġcreate Random
ĠwaitFor Idle
Ġd ensity
Ġtext ure
DS A
AC HE
S MS
AS CII
ĠBitmap Factory
Com b
Ġp ower
B row
c ommand
Ġset Message
ĠKey guard
Ġm ime
Ġss id
ĠS ingle
Ġsymbols olver
B atch
ac oc
Dis connect
M ULTI
Update s
Ġ"< /
C UT
Ġg allery
Parameter Exception
D A
Ġm Buffer
Block ed
Ġ" :"
LAY OUT
ys is
h older
Ġnew Array
av or
ĠTRAN SP
all eng
O cc
T rie
Ġtest V
ĠExif Interface
Ġcould Be
ron ology
EX TRA
Ġti le
Spec ifier
ĠgetL ine
ĠTe lecom
stat us
acoc o
PO INT
Ġbit Field
rg an
ĠgetP adding
ĠCh ild
D F
m Lock
F Y
T ech
Ġl hs
c er
Ġdo Throw
ĠP rivateKey
AP I
Ġass et
ar ray
ĠgetCalling Uid
Info List
Blocking Queue
stim ate
Ġout putStream
ĠService State
V ertical
CAP ABILITY
2 001
G F
Ġcall Id
ĠDe bug
CONT ROL
ĠMED IA
L oc
S K
Ġc o
Test Activity
Z ones
Ġp du
Ġget Visibility
ĠAsser tions
LE AN
ash board
33 33
Sample s
Ġp layback
ĠD er
ST AMP
ĠPH ONE
ĠAss et
Ġconvert Float
And Set
Ġpo inter
READ Y
ĠmList View
ĠSH OW
TRAN S
2 34
ĠAC TIVITY
ĠLinked HashMap
AC CESS
ĠO VER
ĠmT mp
Ro aming
Ġnormal ize
Ġget Descriptor
Ġnode s
ĠTree Set
te x
ĠAR RAY
Ġset Name
Ġshould Throw
ĠS MS
chron ous
Ġg lobal
Ġapp s
ĠAl arm
ar se
ĠV erify
z ip
Num eric
F ake
a int
ce st
ID LE
ĠMessage s
Ġd ist
ĠO ptions
ĠS eek
ĠEvent s
ĠReference Type
T el
Inc rement
ĠCertificate Exception
R ATE
Ġadd Test
Enc rypted
ĠTr ust
D ictionary
Ġc n
ĠB i
Test Rule
ĠRE ASON
: :
ĠA pn
ĠR oot
ĠtestHandle Command
ĠA r
pect Ratio
Ġget Index
ĠO p
Ġget Uri
ĠD ialer
Ġsecond ary
Manager Internal
ĠPro perties
or es
32 1
Ġse ed
ĠMedia Store
Suite s
Ġget Position
Ġp k
Ġassert Throws
ĠmC ap
PRI MARY
Ġm TextView
etw een
Address es
IM ATION
C reator
Manage ment
Ġset ting
ĠTyped Value
Ġd er
Ġtr ust
Ġsplit erator
aa aa
ĠMET ADATA
ra in
Ġset Next
Ġs l
ar sh
Ġset Is
Enter prise
S uffix
Met er
ac cess
add r
Under Test
DIAL OG
Ġf ree
Ġget Offset
ĠEnum eration
Ġset Property
ST ATS
ĠPhone AccountHandle
6 17
R AD
Ġm ore
Ġget Call
g a
Ġget UserId
AL E
ĠW atch
ĠRec ord
ĠExtension Registry
G O
ti e
RE COR
ĠSET TING
V endor
Ġlog d
ĠSTR ING
ĠCert Path
ĠgetS p
Ġb and
ĠC ATE
ĠV ersion
ĠgetT otal
H orizontal
Ġgr ant
ĠTyped Array
C andidate
N s
Ġm Info
Ġpro viders
ĠmIn jector
ĠSE COND
B UTTON
OR I
RE MOVE
ĠHT TP
U SE
Ġcurrent Thread
INTER N
S ound
Ġp hoto
ĠS ome
f in
t d
SI VE
RO AD
SH OLD
ĠSU CCESS
Ġcon versation
Ġw ri
Ġon View
ĠTime stamp
RECEI VER
Ġname d
ĠPar sed
ĠSecure Random
ĠWeak Reference
Ġp ixel
AL F
Session s
ĠSearch Indexable
SPEC IFIED
alleng e
Ġget Size
R AP
ce ler
Ġt rigger
Ġv oicemail
ob lab
D en
Ġpro duc
ĠRe lative
ĠName d
if etime
LOCK ED
De ath
Ġexec SQL
Sign ing
mo val
ĠmC an
C la
om inator
Ġon Activity
r al
No tifier
ĠSH A
Seek Bar
Ġaction s
PRO PERTY
i ff
n c
Ġget Parcelable
ch eck
Ġs ms
S q
ĠL oad
ĠPRI VATE
ear ance
B asic
Ġon Pause
gr ation
er ence
Ġset ter
F ACT
UB LIC
agnost ic
Ġd c
Ġen queue
ĠgetC anonical
ĠFI LE
ic on
ĠF ont
Auth ority
Ġm Touch
Ġ10 5
ĠDOMTest DocumentBuilderFactory
Ġget Connection
ĠDevice Config
Signal Strength
F ace
P A
Ġon Bind
Ġ6 8
To kens
ĠH ex
ĠCALL ING
G LE
ĠState ment
ĠAuth ent
W RITE
Ġget Parameter
ot spot
F allback
Ġ3 00
no Exception
l ength
ss ue
Ġget St
Ġis Present
END ING
Ġc lock
Ġget Result
ĠP layer
ĠB ASE
em ap
ual Card
Over flow
ĠAccessibility Event
L AT
Ġs Instance
d m
ot tie
Ġtest Case
ĠDescri ption
r pc
Ġw tf
per mission
Ġerror Message
M utable
avor ite
ROAD CAST
l m
w eb
N ow
R anges
Ġf lat
Mark er
F ast
Z ONE
Ġn eg
ext ra
Ġon Stop
ĠSupp lier
OP EN
Ind ices
Ġm Output
ĠM utable
Ġch ain
Ġsub tract
j unit
ĠB y
ĠN AN
De que
Ġsb n
e mpty
Sub ject
Ġw eb
DE BUG
PRI VATE
VO KE
ĠR log
ĠC urrency
ĠAsync Task
ĠN EW
Ġext ernal
Ġinc orrect
ĠAR M
M aker
List ing
Ġtest Is
Mod ifier
Ġresolve Info
4 20
ĠLog Node
CHE ME
h as
Region Code
E l
Ġ1 10
ĠW AIT
LI SH
m ac
String Builder
ĠG rammar
Ġ9 0
Ġed ge
W ake
Ass ign
T x
Can vas
ir d
Ġro p
Button s
ĠOFF SET
L ABEL
ph one
Qu ick
SW ITCH
ĠCATE GORY
PO SITION
G U
TE MP
Ġnot Null
End ian
C B
S ucce
im ing
Ġwh ere
ĠmP ri
N ON
TO M
ĠmD rawable
ĠIMPORT ANCE
Ġ ri
st aff
al ysis
ĠTest able
Ġexception s
d b
Ġm Un
Ġservice Info
ATTER Y
Ġi ps
Ġget Available
oned DateTime
F ront
ĠgetM easure
irm ware
GEN CY
P x
Stream s
ly ing
ĠJSON Exception
Pattern Utils
ĠgetDimension Pixel
ute x
Content Provider
t en
Ġ1 11
All Types
pos al
Ġon Animation
TO KEN
Ġqu ick
M imeType
n umber
Ġu uid
Ġu pper
ĠMem ber
p ace
Ġg oog
Ġok http
ĠF ramework
ure d
G rid
K nown
ing State
DI FI
Ġb ug
FORE GROUND
Ġm ut
Ġm Values
Ġcomp ress
DOC UMENT
For Type
Comp are
ĠmD ialog
Server Socket
d ing
In sert
Con nectivity
Ġ1 20
ĠmS witch
ĠAC C
ibr ation
Z oom
Check Box
1 000
AR M
ĠImmutable Sorted
C lip
Ġget Invocation
Scan Result
d inal
Ġm Progress
Ġt x
Index OutOfBoundsException
Ġc i
s ys
v m
ĠAn notated
Ġnumber Of
ĠAtomic Reference
ĠI cc
ĠRe stricted
Or Interface
ĠAD D
ĠNative Crypto
Ġi gnore
Ġrun ning
Ġtrans ient
p ublic
Ġc c
ay ers
Element Exception
Rec ipient
Ġregister Receiver
Pro c
Ġlistener s
Ġmod ifiers
Is o
Ġget Channel
ĠAp k
U xRestrictions
m Tel
IN STANCE
iv en
ĠmM ain
ĠShortcut Info
D LE
Ġtrans late
he ad
O w
Ġcap abilities
PRE S
ki pped
VI G
le s
Ġm Entry
Ġis Supported
all ow
M y
Ġre gist
Tag ging
JE CTION
Ġget Arguments
Method Name
Ġret ry
NotSupported Exception
Ġrow s
C ARRIER
Ġget Root
F LOAT
I m
Ġm Value
ĠCL DR
ĠSdk Constant
ĠI den
ĠL arge
ĠType face
Phone Number
Full y
ĠChrono Field
ign ature
ĠUn it
ĠCan cel
ĠmKey guard
Ġm First
Ġput Boolean
R tt
U short
Ġ3 4
AP K
PO S
z ed
ĠB enchmark
ĠmAudio Manager
2 64
Ġ5 9
OUT PUT
More Interactions
Ġu sed
code s
al formed
Ġc oord
Ġtest Name
Ġservice s
Press ed
PRO CESS
Encoding Exception
b or
er arch
re st
ĠTrans port
==== ====
ĠmB LAS
struc t
R UN
Pro ps
CommandHandler Test
Ġcert s
C ERT
Ġf ont
mp t
Int rinsic
Ġ4 5
Vis ual
Ġset Option
ĠPO SITIVE
Ġm Use
ĠS oftAp
He alth
ĠJ ar
Att ached
D ensity
Resource Id
Ġ #
Ġcom b
ĠD ump
TI ES
ĠS yn
PROVISION ING
Ġs pi
rr noException
Ġ ends
Int o
Wait ing
T ool
\" :
rup ti
S ig
t n
ec ted
Par ts
1 99
R ollback
PE G
p ull
ER GENCY
Ġs elf
ĠE rrnoException
ĠgetS ummary
P R
Ġis Implicit
ĠS DK
Inter ceptor
Interface s
D OUBLE
Ġm d
001 001
er ature
Buffer Size
Resol ution
Exist ing
GRANT ED
. '
B A
De g
Op tim
Ġre ceive
Ġpro vide
fa il
ĠExecution Exception
Ġc rop
00 2
ĠKey board
d r
ĠA g
ĠN ORMAL
ĠScript C
P ATTERN
e of
ĠB reak
Touch Event
ki pping
ic a
it ory
T v
ĠrunOn UiThread
Ġm p
re ase
Ġin A
Protocol s
a uth
ĠO B
ĠRe g
C LO
W akeLock
Ġc lip
TO COL
ĠgetB ase
ĠEC Point
Beh avior
Ġget Or
IN STALL
Authent icator
r ac
Ġb lob
ĠSimple DateFormat
Ġget Identifier
T D
To Target
Ġm Size
88 88
an iti
ation Exception
Ġto LowerCase
Ġac tiv
Ġset Icon
MB OL
D rm
o ffset
Ġre stric
ĠIN FO
lan e
Ġjd wp
n um
Char sets
Ġad ded
Equal ity
C or
X X
ĠmListener s
op s
Ġlog e
Ġfrom Index
Reply TextBundle
Time d
Register ed
CD MA
Ġi gnored
Sh ape
Ph ase
A id
L INK
ID DEN
FF E
' "
F inder
ĠL oader
State Controller
gener ator
c ur
Handler s
Ġoffset s
D H
ĠView Holder
THRE SHOLD
S CO
ĠVar Handle
al k
Ġn c
Ġf allback
ĠgetC lient
Match ing
Ġ5 6
Ġget Logger
App Widget
Target s
ĠNetwork Stats
ĠgetCom ment
m ulti
Ġpackage Manager
PRE SS
ĠO r
Ġp in
Subscription s
0 30
S cheduled
ĠTest Data
Ġany Boolean
ĠNoSuch ElementException
ĠCONT ACT
G IN
P eer
Contain ing
t wo
ĠCh ange
i ases
Ġget Metrics
Ġre verse
Tag ged
BACK GROUND
ĠverifyNo MoreInteractions
A MS
T URE
ĠO f
Ġto kens
Ad b
Ġ' .'
UN DEFINED
US ED
ĠBl ort
Ġ" \""
An gle
Ġcode gen
ĠmV ideo
ĠRo ute
ĠgetM od
APP S
S sid
Ġ \
ĠmW idth
Ġcamera Id
Parse Exception
n otification
O k
lace holder
Ġv ts
Ġ" $
Ġget Node
ĠTh eme
Ġevent Type
ĠmDevice PolicyManager
E valu
Ġb cel
Multi p
Ġget Num
To S
ĠJava Parser
A PE
14 7
ĠFrame Layout
w ifi
Initial ization
ĠExtensionRegistry Lite
O ME
Ġh i
ĠRe al
W AY
w ay
Ġget Uid
AN Y
Ġsend Broadcast
Ġobject s
F ingerprint
Sh utdown
ĠCheck Box
col or
lec ode
Ġvis ibility
Ġconvert View
res ult
Ġm Error
Ġth an
icip ant
Ġp rec
Ġin B
Var Handle
RE PORT
tt ps
Ġal ways
Version s
V OLUME
vid ed
OU CH
Ġen v
Ġs uffix
Ġr and
Un icode
ĠRe ader
Ġx path
URL Connection
D im
ht ml
ĠRE G
MS G
ĠInet SocketAddress
Ġ Structured
Ġm Account
Pre set
emap h
ĠGR OUP
ĠUserId Int
los ure
Ġget Output
ĠM tp
Ġrot ate
er ged
LI GHT
fix ed
uggest ed
E ap
ĠC RL
ol ved
ex p
Destroy ed
i red
Ġset State
t u
ĠSystem Properties
V pn
Ġhost name
Ġget Length
ĠC lose
Ġse quence
ĠmWifi Manager
j ar
Ġp ublish
ĠD TM
ĠF OC
ĠgetS upported
cum ulator
Set s
Ġ9 7
lation Signal
ĠCamera Characteristics
ĠRender Script
s ummary
Ġf etch
ĠT ab
Subscription Id
ĠO ver
Run Util
Default Value
9999 9999
emaph ore
re ater
ĠI s
Ġon Error
Names pace
mb ed
SI C
ĠSc roll
SY NC
Ġd p
ĠF AKE
Test Data
ug ht
Ġbl ort
ĠAttribute s
ĠPdu Headers
G l
COMP LETE
ĠN aN
ĠUi Thread
Ġends With
Ġsub mit
ĠSUP PORTS
Ġsquare up
ĠUi Object
Handsh aker
amc rest
ĠisImplicit Tagging
Ġbyte Count
LI TER
ĠHandler Thread
ĠE mpty
AU SE
Ignore ReturnValue
VIG ATION
Ġb ox
Ġ"\ \
ĠStandard Charsets
W izard
ĠRe ad
Ret rie
ĠCAP ABILITY
ĠAUTH ORITY
B AND
Ġs ound
Key Event
ĠPreference Controller
Connect or
ĠPro visioning
Tr acer
Time line
ĠmM etrics
ĠFile System
Certificate s
ĠV alid
SE PARATOR
ĠDirec tion
man ac
Ġm Callbacks
Ġget Layout
ĠIN STRUCTION
ance led
U char
ĠMap Feature
ĠR cs
Attr s
Ġan chor
ĠLocal DateTime
Value As
CO VER
ĠMedia Player
Di vider
UST OM
) ;"
Ġro le
b uild
Exec ute
se lect
ĠC lock
ĠG rid
ĠJSON String
ĠMIN UTE
D ialer
al pha
ĠB inary
AC Y
ĠAccount Manager
ver age
L AST
ĠP ATH
Ġu sb
f ull
o ized
LI T
an ted
S END
ĠObject Animator
read sheet
ĠValue Animator
ess enger
Ġuptime Millis
C orrect
ang ing
Ġgener ic
ĠCan IgnoreReturnValue
I CK
M agn
In ject
Th rowable
DIRE CTION
Ġm issing
ĠNotification Entry
ĠmTest Device
c ap
Ġm Top
ver y
am bd
ser tion
APP LICATION
erarch y
Ġx sp
Ġphone Id
Upper Case
Ġs k
Call Service
Comp ute
ĠSet s
Network Type
mer ica
Fil ename
up date
Un checked
Content Observer
Options Menu
Ġs up
4 56
S ur
ĠI Device
Ġap n
Imp lementation
Ġ10 9
over ed
HO ME
Ab i
F amily
S um
v able
Ġget Algorithm
de scriptor
Ġres ume
OU S
Of Month
ak ey
ĠList View
Import ance
C ts
Ġj acoco
Configuration s
istor ical
Return ed
x ffff
SI ST
Head sUp
V elocity
ĠJDWP Constants
form ance
akey aml
S eries
Ġh amcrest
MANAG ED
Ġgoog lecode
Ġst arted
Ġitem View
ĠSocket Exception
mode l
ĠReflection Helpers
ĠgetDimensionPixel Size
4 00
Ġc v
Ġcode Attribute
N ested
ĠS ort
Ġtest util
Ġcreate Test
op codes
ĠmC lock
- >
app lication
vis ible
Ġcontact Id
ĠSubscription Info
ĠLarge Test
De pendency
ĠPK IX
v c
Ġtest Constructor
LOB AL
Ġ1 0000
upp licant
Ġinterface s
PRI ORITY
LA UNCH
Ġt ake
ĠV oicemail
Ġatom ic
B lob
EN CY
per i
f irst
Ġref lection
Ġm Count
Ġm Animation
CANCE L
ĠField Descriptor
Ġ1 14
im ited
ĠInter face
Phone Account
C utout
Ġin strumentation
Ġw rong
Ġoff er
Par sing
ĠComp at
Display Name
FFE CT
Ġl ibrary
Ġformat ted
ĠPoint F
HO ST
Gran ted
ĠFOC US
C N
Ġset Alpha
For Test
ĠEnum Set
A ka
s State
R ING
T oo
Ġget Top
Ġset Result
Ġis Connected
Window s
Ġt oo
NO DE
Be an
s r
Ġcan onical
b oolean
Ġr r
ĠmIn itial
ARE D
Ġm File
ĠIn jector
ĠTest AllTypes
Ad vance
Ġmin us
UR N
Ġs olve
ĠN fc
ĠX Path
Pass point
MANAG ER
Ġset G
ĠMIME TYPE
3 00
el y
Not hing
ĠgetTarget Context
Ġe mail
ĠSurface Control
Ġf loor
W eb
Ġsub ject
Ġips ec
b lock
Code Point
Accessor Table
W ARE
Ġm Paint
ub y
Ġset Time
Ġrun With
Ġset Min
ĠgetS ession
ĠIN STALL
inter face
Algorithm ParameterException
W O
ĠR OT
ĠTransform er
P ip
Ġt oggle
vel op
AG MENT
tr ans
ĠLocal Time
Ġxml pull
ADD ING
ĠNavigable Set
a ir
ĠW AR
Ġm Height
ĠgetAttribute Value
B ridge
User Manager
tr ack
DIS CONNECTED
A merica
Ġ Expandable
Ġex if
Valid ation
Ġm Transport
ĠmS ource
UL AR
ĠMulti map
u v
ch ange
ĠL IST
Ġcreate Mock
Per f
gn oring
ĠgetClass Loader
ch ild
ĠI gnore
int ent
Ġstate ment
ĠOr der
n i
leg acy
Start Time
Key Listener
ĠCall s
ĠDIS ALLOW
---- ----
Or Self
ĠmP ower
i et
In Millis
ĠI F
ph rase
ĠLAY ER
Connection s
Ġis Visible
ĠgetC ar
Ġis N
99 9
Ġsend ToTarget
Ġm Left
ĠI so
10 2
Process ing
vok er
Ġorig in
ĠMatch ers
Ġ>> >
c an
Ġi mmutable
ĠS S
ĠFI RST
ĠassertNot Equals
vailability Status
1 80
f b
Ġp ress
Ġget Icon
IT S
Ġmet ric
W EEK
m art
peri ment
Ch ooser
Ġcreate d
Ġinter val
z er
Ġe ffect
ĠG raph
L TE
ĠVAL ID
out put
Audio Focus
ĠAudio Attributes
ĠPRE F
ol ated
in it
Ġm anifest
Pro posal
Ġdisplay Preference
C alc
is c
OT TOM
Assign able
Ġset CommandHandler
ĠTest Util
Ġlocal es
P ED
G PS
T y
ĠAccess Mode
2 55
Ġp ersist
RO P
C ASE
32 0
In stalled
ĠT ile
AL G
Ġold Value
V M
Ġm Child
Ġf older
Ġtrans formation
Pre c
SC ALE
ĠAC CESS
Packet s
In coming
Ġis Same
Ġget ID
Scan Results
ĠNUM BER
Reference Type
ĠInvalid AlgorithmParameterException
Ġm Builder
ro ot
RES OURCE
** **
a udio
oun ded
Ġto Millis
ĠProg ress
regorian Calendar
S UR
ĠM OD
Ġevalu ate
S ingleton
Ġset Action
Pro tection
Invocation Listener
ĠPer iod
ĠServer Socket
ĠmStatus Bar
ĠBU FFER
ar ter
e lement
t arget
ĠR ound
ĠV ts
ĠmC ur
F ont
St opped
Success ful
ĠD O
Ġfor ward
Ġbe en
Access Mode
START ED
Ġdescribe Contents
d ec
ĠC ard
Ġout State
ĠIp Sec
ĠD o
Ġis User
ĠN ormal
Ġtest Add
ĠOption Setter
v en
on ly
A pex
Ġslot Id
Te lephony
Ġgener ated
Ġnormal ized
Produc er
LITER AL
Ġget End
Ġmax imum
ĠCapture Result
m ask
Ġm Program
Ġs napshot
Ġt ermin
ĠPRO CESS
R ANGE
b uffer
Ġb r
Ġevent Time
Ġ>>> =
T ry
W E
Ġp lugin
Ġv erification
ĠMethod Type
Ġadd Child
Ġlast IndexOf
ĠExecutor Service
Ġj ca
os itory
Host name
ĠAndroid TestCase
Rep resentation
/ '
U long
Ġf ixed
Profile s
ing tone
Ġon Preference
Sign er
Auth or
Call Session
TYPE S
Ġmin Sdk
Ġneed s
m ock
re laxed
test s
Offset s
S aved
ĠH AND
ĠEX PECTED
direc t
Ġor dinal
RO T
ambd a
Ġa mount
Variable s
ĠTR ACE
ĠPRI ORITY
ĠgetMeasure d
ĠCol lator
Ġrequire s
REG ISTER
ĠSorted Set
o bject
St rict
ĠmS econd
ro g
Ġ4 6
US AGE
Qu iet
ĠC ached
Ġbyte Array
Valid ity
Fi xture
P atch
[ ]
ĠN ET
ĠgetClass Name
Ġsn akeyaml
ĠFail ure
ĠU pdate
Ġas ync
Ġal arm
ĠY aml
INTERN AL
P oll
w d
Ġpre ferred
Codec Config
Rout er
Ġ5 3
s k
Ġf s
ĠD ATE
li ed
App ly
Ġpkg Name
Live Data
Ġ{ \
EX TERNAL
Ġhandle Message
Ġsingleton List
O ld
d ialog
Block Size
A I
Ġw in
ĠType Element
ĠmT otal
Exc luded
ĠP ASSWORD
Ġh istory
ĠV IDEO
Access Point
pr eter
MA IN
ĠB L
inish ed
Mod ifiers
S ide
Ġm Overlay
Comp osite
Ġt urbine
Ġget Configuration
ER TIFI
Ġfilter ed
ERTIFI CATE
C ACHE
Ġs ent
EN ER
Calling OrSelf
Ġreplace ment
Con s
ĠgetL ooper
ĠAudio Format
Cert s
Ġreply TextBundle
ĠtestV FE
z en
FLAG S
ĠmCar rier
F requency
ĠB ACK
ĠC ldr
Ġd rop
Order ed
Ġprocess ing
Ġphone Number
N av
Ġw eek
Ġtest Class
Ġ' /'
Ġ; \
AC TER
Ġkey At
ĠRaw Contact
ĠJavaFile Object
vi k
D ns
Ġp ause
ĠL AST
Ġnano Time
Associ ated
Ġset Style
ĠI M
ĠVI EW
ĠUS AGE
S R
s ample
al vik
la st
file s
ĠTRANSP ORT
ra ft
ĠIn itial
ĠgetInt Extra
FI RST
Ġthrow able
A bstract
U Int
ad line
EN ABLE
Ġextension s
E AP
Ġrun Device
et ails
ms g
QUIRE D
o sed
ĠO R
Ġint s
Comp ressed
Ġ": \
ov ie
ane se
C ycle
D B
Ġd r
State List
OU TE
Ġmake Text
G GEST
d ay
ce led
Ġset Attribute
Focus able
att ribute
nt k
Ġb oot
Ġset Duration
p g
Ġun ique
Ġhel p
SELE CT
ĠPri mitive
D river
Ġ \""
ĠA UTO
Ġadd Flags
Ġ3 8
PRE FERENCE
G uard
ag ram
ap anese
Ġclean er
b l
Ġget H
QU ALITY
Menu Item
Ġv elocity
ĠA LI
ir ation
ar ly
ĠR SA
Spec s
As pectRatio
COMM AND
Ġba os
Ġn fc
OR ITH
App earance
Ġrequest Id
Api Client
b a
Ġinter rupt
1 10
f alse
Ġm Stats
ĠAss ist
ĠC ts
Ġuser name
Ġ12 7
ĠD at
Test Helper
G GER
f p
Ġs afe
Ġw eight
Ġis Directory
ĠAtomic Boolean
Ġm Storage
lo ud
C luster
ac count
ĠT ARGET
Test Base
Diff erent
ĠAuto Value
F L
ic u
Ġc st
Ġde sired
Data Manager
Un ique
TH READ
Or Throw
Meta Data
ĠG esture
pro visioning
Ġcreate Typed
ĠPRO PERTY
Syntax Exception
Ġm Delegate
Ġr at
State Change
SCRIP T
M o
ĠV Card
System Feature
C dma
ĠF ROM
ĠInputStream Reader
ĠF IN
MO DIFI
Ġab sent
ĠmoveTo Next
s pec
Ġget Provider
Status Bar
Ġdig it
ctet String
Brow ser
L ayers
ĠD OUBLE
ĠAdapter View
ĠmV er
ĠMET A
and by
Ġon Success
F etch
Ġt uner
Ġget W
Ġw rapper
HE AD
quival ence
Big Integer
Ġdisplay Name
I V
L ib
Ġm Con
Per m
Ġf mt
cep ted
TRIBU TE
O PER
s ome
ĠS uggestion
Ġlong Value
Ġend Time
ĠActivity Record
Broadcast Receiver
ĠIn stance
fa iled
mm etric
S UM
ST AND
Ġz Off
Mem bers
A ff
m etic
w atch
Ġcon scrypt
E mail
Ġm Search
Ġget Extras
ĠT imer
RO ID
Ġtag s
File Path
Ġm o
ĠS IM
Al m
Ep och
ĠsetOption Value
s ource
ĠD ig
Ġis Active
ĠNE GATIVE
> <
P acked
ĠN ON
TI CAL
Ad verti
ĠSwitch Preference
G MT
ĠDe pendency
B LUETOOTH
ĠB LUETOOTH
Ġadd To
ĠPhone Account
Cert Path
aint y
Ġelement List
Hour s
Ġm End
ate way
ĠR AW
Ġis o
ĠU I
Encoded Value
ĠExif Tag
ACH ED
ac tivity
Ġre lative
Ġtest type
Intent s
30 8
Ġexp ression
Pass ed
Ġ Struct
Uid s
Ġdi vide
ĠJavaFile Objects
pe ech
ol id
IS O
Ġ4 00
Ġin st
ent rant
36 8
Syn chronizer
scan pos
Ġo w
ĠmLog View
s able
ode l
Res p
AL ERT
ĠTable s
ĠgetPreference Key
elet on
Provision ed
s w
Day s
ĠMain Activity
v ideo
am odel
() :
L arge
P ADDING
ul a
AD MIN
ĠX MP
Ġhand sh
Lat ency
P ublish
ĠO RI
Ch ronology
ĠgetA vailabilityStatus
Bal ance
ĠROT ATION
B enchmark
th is
Ġal ts
ĠOP TION
Coord s
o ti
ur er
Ġsh are
NE SS
P B
Key Pair
Resol ved
ĠmV olume
I I
ĠO peration
ĠB LOCK
Ġm Filter
Ġset Current
He ap
mpl ing
ĠR ow
ĠIterable s
OB JECT
Unlock ed
12345678 90
Ġe lem
Ġd rag
ĠLA UNCH
ĠP h
CONT IN
BI LE
1 12
ĠO THER
En roll
C ore
T ether
Ġget Format
LE ASE
Asset s
3 64
ĠmM enu
ATION S
2 11
P endingIntent
Ġrender er
i per
mergency Number
Exc lude
Ġi me
Ġadd itional
ĠY ear
ĠFormat ter
U UID
AL SE
And Assert
ĠApp Mode
ĠmMock Context
ĠMath Context
ĠmSub Id
Ġs in
W AKE
Ġm icro
On ce
Ġcheck Completed
hel lo
U tc
Ġe mit
Ġlog ical
AM ING
HT TP
ĠmMedia Player
ĠD IR
rig in
ĠStatusBar Notification
M IME
ĠSEC URITY
LI P
ĠApn Setting
en ti
ĠP ASS
ĠContent Uris
Cast Exception
IN IT
ĠBlock ing
Ġc rl
it er
ĠmA uto
f r
ĠSec retKey
ĠAsync Result
Ġfor eground
Ġtime line
ĠSE LE
PK CS
Hint s
serial ize
ser ve
op le
ALI AS
b ody
ĠJSON Value
7 20
Ġcheck VarHandle
Ġaccount Type
ĠcheckVarHandle AccessMode
Ġde buggee
Pre pare
amp ler
F low
Ġun der
Return Type
Ġd en
Ġw atch
all et
Watch dog
: \
L te
R cs
Ġre peat
Ġpre sentation
Update Listener
ĠImage Format
p ack
in itial
ĠD FA
ht able
M obile
er is
Ġt s
lap se
Ġmem oized
Field Builder
Resol ve
T iming
Ac quire
Icon s
ĠIden tity
Ġmessage s
ĠKey Properties
ĠmL abel
F req
Ġlist With
ĠBluetooth Map
ĠP anel
Ġis Initialized
urr ence
ep ler
Ġpass ed
Assert s
ĠTv Input
Ġm Flags
Main Thread
O ICE
Ġ Entity
ti p
Call State
sc ale
AC KET
App Info
Display Area
No tif
ew rite
ĠN et
Logging Enabled
Ġsy m
C ARD
Ġset Selected
Add itional
ĠmB inder
Ġsec tion
Dis k
Min Value
an tity
ĠPrint Stream
p o
Ġinter n
16 0
Ag greg
Ġapplication s
Ġget Handler
Ġis Tag
ĠIn d
ĠmW ork
ĠLAY OUT
Ġm Executor
ĠT uner
ĠA pi
ĠWINDOW ING
- "
C F
Ġun install
Inc luded
Ġp lural
Ġv oice
ST Y
ĠResolved Type
Produc t
Tagged Object
ĠC lone
comp at
Math Verifier
ĠCore MathVerifier
ri th
Pa used
ĠKey Pair
x im
Ġf ocused
Inter rupt
Position Us
ĠNAME SPACE
Print Writer
c b
t x
Ġget Wifi
Audio State
f rom
en abled
Rec overy
Ġcol lector
C ED
ĠS M
Ġh tml
ĠgetP ort
pro file
Rep ository
ĠConfiguration Exception
Ġm Children
Ġe scape
Ġis Optional
ĠCONNE CTION
Ġcon sume
Ġ6 7
And Verify
Source s
ĠmR ow
Read Only
Wri table
Ġd ynamic
ann otation
ĠgetString Extra
AAAAAAAA AAAAAAAA
rith metic
Termin ation
ĠOpen SSL
velop ment
ĠClass OrInterface
ĠmWifi Metrics
Link ed
ĠMetrics Event
Ġc redential
Ġget Qual
Ġset User
ĠB ar
pen ded
Job s
C KET
} \
ĠL INE
PRE F
Ġlat in
Ġm Item
In voked
12 7
ĠWifi Scanner
COMP LE
Supp licant
CAP TURE
C rash
n on
Ġp riv
Stream ing
ĠW eb
R tl
Ġin line
Ġ5 000
Ġle xer
ĠFIL TER
B i
G P
N eg
Ġm All
R IDE
Ġal g
ĠZ onedDateTime
Ġw ill
R Y
T ex
Ġp ad
Ġ6 5
Log s
Rec ognition
bo ve
Ġti mer
Ġget Row
EN U
Ġ3 9
Ġsecond s
Ġsample s
ĠRS AP
ĠRandom Access
n a
p ose
Ġm ismatch
Ġt rie
Ġre boot
Ġan other
Ip v
Encodable Vector
cest or
AT T
Access ible
phem eris
ĠAdd ress
Ġt c
Ġis Assignable
Out going
ĠM ime
With in
ĠIllegal AccessException
Ġcap ability
PS K
D er
Ġm Header
ent ry
String To
Re boot
ĠP LAY
d a
Ġcon f
ST ATIC
li te
One of
Ġdet ails
Ġm Uri
DE LETE
ĠmBLAS Data
E ra
ĠIN ITIAL
ĠOn e
IP v
Ġ"/ /
ĠB iometric
57 6
Capture Session
Ġm k
Ġv ec
ĠB UTTON
ĠALLOW S
A xis
id ing
Ġd ummy
Ġtest er
ME D
ĠmScroll View
ĠlistWith RegionCode
ur l
D ONE
Ġc u
ĠI o
ON Y
DI TION
Det ection
H OUR
Ġm New
con tain
Ġ20 12
ĠIP V
t ableFuture
Ġget Header
Stat istics
Ġid ent
ĠPro tocol
Order ing
return s
ĠCompilation Unit
Managed Profile
R AW
b ing
Device Manager
App ro
ĠColor Space
Ġg o
th row
ĠE uicc
ĠW ebView
Trust ed
ĠSms Cb
N eed
S INGLE
Ġshould Show
Initial izer
C rop
test Convert
ĠAccess Point
al ive
ec urity
C AMERA
Ġset Background
Ġ2 50
Ad ap
Ġcall s
N et
R ating
arg s
Ġsub Map
En force
cess ary
ĠObject InputStream
Ġp ub
Ġdouble Value
ĠDate Utils
limit er
A scii
M ismatch
Ġm id
ing Class
Ġhas More
56 7
Char set
Ġpri mitive
Ġstr uc
ĠgetDisplay Name
b i
J K
T ethering
H old
Transient Exception
Ġassume True
er D
Ġget Number
Ġset Adapter
ĠF ULL
op ed
pd u
mbed ded
P ASS
k o
Ġget Request
Ġh idden
ĠmC odec
ĠmG lobal
Ġscan Result
Ġ" ="
ĠIN TENT
ĠcreateRandom Allocation
Ġget Description
In Background
Ġgroup s
Effect s
Pin ned
ĠVerify Error
N orm
S ite
d iv
ĠD oc
Ġhas SystemFeature
IM UM
Database Helper
ĠDateTime Formatter
E stimate
R M
Ġn egative
Ġis Not
TestSuite Builder
Ġm utex
Pro be
Q UE
ent ral
Ġa Number
ĠMem ory
Security Exception
Ġm Index
Ġm Script
Ġh int
ĠgetInt rinsic
Ġget TimeZone
ĠString Writer
str umented
IFI CATION
Raw Contact
ĠITest InvocationListener
Ġm Popup
Ġk s
Ġdo Answer
16 8
Ġget Float
Ġv irtual
Ġreturn Type
Ġdata Provider
00000000 0000000
ALG ORITH
Ġ Handshaker
Ġpar tial
ĠEN CODING
Ġspec ified
U ce
Ġb idi
Ġon Service
ĠAbstract PreferenceController
Archive Entry
B ssid
St andard
Ġget Group
ĠSe lect
ĠImp lements
Do esNot
t ics
re move
Ġget InputStream
Source Lines
ĠRec ognition
ĠService Manager
ĠZen Mode
ĠreplyText For
B L
E q
M ime
Ġd ial
Ġwrite Byte
UN AVAILABLE
Ġtool s
ap ps
Instance s
ĠmR ender
Target Exception
Projection Map
T one
ĠS ingleton
View Controller
Ġhas DefaultValue
Ġdata Source
Token izer
D st
Ġin stant
PAR AM
wh en
P lugin
m f
Data Connection
Map s
ĠHead set
Ġs ucce
ĠC ARRIER
V ARI
At Least
Ġb asic
Ġset System
e mp
ĠA t
ĠConcurrent HashMap
m aster
Ġm Connected
lo ser
ĠType Mirror
TEXT URE
Associ ation
1 30
Ġp ow
arg ing
Ġ* =
Ġ10 3
Ġ10 8
ĠWifi Network
e a
OR D
On Screen
Fail Cause
ĠgetComponent Value
ĠisTag Implicit
S rc
Ġg anss
Ġb d
ĠClass CastException
ĠRemote Views
Ġfinish ed
ĠInvocation TargetException
sub mit
S av
f iling
h c
De pendencies
ME TER
Ġcreate Bitmap
Ġconfig s
EX CE
ĠVts ReportMessage
S oftAp
Ġm Stack
Ġic icle
ĠmR ight
g mt
ER S
Connection Exception
Ġstub FtpServer
b uilder
ad oc
Ġset Key
av adoc
Ġuser s
EL L
Ġ200 8
Ġup stream
ĠgetApplication Info
ĠfromPer Unaligned
o le
Ġm Should
ĠS ound
Ġtarget s
DIS ABLE
ĠcreateTemp File
S mall
Ġset Device
Ġ^ =
Ġset ToNewInstance
Ġclient Id
SY MBOL
ĠDisplay Metrics
ĠfromPer Aligned
d Type
Ġp name
Ġb ec
ĠS ENSOR
Start ing
Ġnext Element
Input Buffer
EX CLU
ĠUiThread Test
ĠW H
ĠComp osite
ĠSorted Map
ĠT urbine
ĠU p
Ġcallback s
WAY S
oun ted
AT TR
ĠG regorianCalendar
UN DLE
Ġsec ure
Ġtask s
Ġinte gration
Ġget Annotation
ĠP osition
By Tag
Transient ConnectionException
O THER
j ce
iz ing
Ġde limiter
ĠIn c
Event Logger
Ġpos itive
I terable
RO OT
Ġmulti set
Ġdef ine
Registration Info
ĠBattery Stats
ĠmUi Bot
G A
e vent
Ġd f
ĠP hoto
ĠArray Utils
36 0
ĠPAR AMETER
Ġbl ue
() ;"
lic ies
Ġs z
ĠRegister Spec
' s
S ENT
e ople
ĠO k
Map per
Sp literator
OL L
ĠTimeout Exception
A vailability
12 0
ĠW earable
ph ab
ĠSet tableFuture
ĠAudio System
Ġauth ent
Privile ged
G sm
f ragment
Ġread Long
External Storage
Ġfor SourceLines
Ġ' %
Max Value
Ar t
ĠPRE FIX
ĠAppMode Full
O rgan
Ġexpect ing
D BG
Ġsp ace
Route s
ĠgetMain Looper
CallingOrSelf Permission
b ad
Ġm at
16 4
Ġbytes Read
FIL L
ĠP PC
Ġbegin Transaction
Ġcontroller s
ĠPlayback State
Ġext ended
ĠLO CK
ĠmBack up
V ol
In iti
Ġ legacy
Ġm Alarm
ĠgetS erver
ĠCh unk
ĠSSL Engine
Form ula
List ening
Ġ4 3
oogle ApiClient
ĠmD ut
ĠAbstract Stub
C AN
om m
S i
Ġget Elements
Type Name
Ġtime Zone
AY LOAD
EM ERGENCY
Platform Api
Equality Group
Ġtest String
Ġal ert
L TA
M icro
h ash
Ġd y
ĠmW allpaper
Chang ing
Ver bose
I t
P IN
Ġm Position
re quest
ĠG uid
Ġuser Info
Mock ito
ĠBluetooth CodecConfig
Ġcap tor
ert ype
ĠCount ry
ĠExecutor s
ĠMode l
Ġp anel
Ġe m
Ġto UpperCase
Ġ4 7
TE M
ĠmC ursor
Cap able
Session Callback
Ġclean up
ĠM essaging
ĠR op
ĠF ork
Ġadd EqualityGroup
erD uff
C o
In line
ĠD IAL
ĠEC Curve
T er
Ġto Index
Ġ"' "
ORI ENTATION
Ġadd Item
ĠgetL abel
Dest ination
Play ing
Ġb ssid
ĠSeek Bar
g ers
ed s
F OUND
en able
Ġf raction
Ġget Image
ĠT ra
Ġd pm
Al tern
ĠMessage Digest
ĠDis connect
0 10
Ġs eries
Ab sent
2 20
Ġ4 4
Trust Manager
T oolbar
Ġget Short
ĠAn swer
Ġz en
ĠSp anned
ĠTelecom Manager
cur acy
M ARK
Ġm ean
Ġan aly
ĠSh ell
utom ator
L AN
Ġ1 50
Data Kind
ĠMethodHandle s
Con st
Ġtest Info
ĠFile Utils
con dition
ĠTRAN S
F ind
is m
Ġassert Equal
pon der
ĠApp Widget
Iter ation
s ign
w ork
st rap
Ġf m
Ġcolumn Index
ĠMac Address
lm n
G RESS
[ "
s ync
Ġh c
Field Set
Ġwait ing
Ġempty Set
Ġm Selection
Ġo ps
Ġdevice Id
lus ion
Transition s
ĠSP AN
ĠB ound
Pro tected
Gener ated
ĠHas htable
d isplay
Ch allenge
ĠArray Adapter
ibr ator
Vi ol
Ġhandsh ake
D V
ĠC lip
ĠD i
App ended
Ġread Object
ĠActivity TestRule
ĠmPri mary
s Contract
Ġget And
DE S
Ġsh ape
Ġann ot
ĠJ P
Save InstanceState
Ġjca jce
c u
ans ion
NAME S
ĠNotification Compat
Ġass ist
ri ers
gorith ms
ĠBluetooth Gatt
Surface View
d n
Ġ1 12
ĠD rag
Spec ification
Fail s
Ġth ree
ot ype
Res ize
ĠWork er
n ext
ro zen
ec tive
ĠB ad
us pended
Min us
ĠDOM Exception
p lane
Ġset Test
CH ILD
ĠTrans action
at ural
EN TIFI
Ġfield Number
Animation s
tl r
Wri tten
) :
M AIL
Ġtest Create
phem eral
Ġn ist
St roke
ĠBase PreferenceController
Ġm Frame
Ġtest Read
SE ARCH
Ġ7 0
Hel p
Ġ9 8
C AR
lo p
Format Exception
Ġpred icate
Ġd h
Ġset Scale
ĠM anaged
ĠClass Name
ĠmL ocation
55 5
rc p
FIN ISH
W ildcard
Ġpar sing
Ġkey store
ĠPro duc
AS N
Y X
Ġ" ;
os ure
Preference ChangeListener
1 50
g b
TRI GGER
T ARGET
ĠP rinter
ak el
Ġ4 9
ĠPro vides
ĠmD b
rog ate
lic es
Ġget Selection
p kg
Ġm Focus
St rip
ce d
Ex port
L F
Ġget Bounds
un known
Ġhal f
5 80
Ġch oice
ĠmS ensor
KEY S
test ing
Ġtrack er
ĠC AMERA
Ġadd On
us age
em on
ĠCell Broadcast
B AD
j ob
Ġa utom
Ġset Has
11 1
he ader
ĠgetSerial Number
ĠI Configuration
File System
ĠmE gl
Ġtestutil s
akel ock
Ġdevice s
ĠTR UE
Ġget Op
ĠC odec
Image View
W ebView
y go
Ġg ms
Ġget Task
Ġwh ite
ygo te
tor ies
L String
M ms
ĠC LI
ĠP ixel
ĠSparse IntArray
ĠC URRENT
Resol veInfo
Ġtask Id
BO ARD
ĠMO CK
iv ot
Persist ent
ĠC ategory
ĠSY NC
Ġ"( "
Ġprogram Class
To Save
Rec ents
Ġread Line
UN IT
ĠVehicle Property
- '
Ġm Update
AA AB
66 66
Mod ification
ĠSign al
ĠUsage Stats
CLE AR
Ġ1 80
ĠSurface Texture
Ġb g
Ġstart Index
GR AM
ran ts
Ġb t
Ġsign er
Ġa a
ver ted
AN IMATION
ook s
ĠFork Join
t otype
th etic
TI FY
54 9
ĠTrans literator
ĠsetData Position
NA VIGATION
G o
R ULE
Ġl oaded
ĠP ayload
Service Connection
RT UAL
ĠP ip
all owed
AN E
Ġchannel Id
Bluetooth Device
ĠCore PlatformApi
ĠrunDevice Tests
ĠW riter
Ġ6 3
ĠmC ell
Ġview s
H istogram
I TER
h i
Ġ Resolver
ĠR EST
ff f
Wh ile
ĠUN SIGNED
REMO TE
ĠJsonRpc Proxy
ĠM sg
Ġreply Code
In v
Ġan alysis
Ġwrite Long
ĠmB ound
def inition
W ARD
Z X
ĠR ET
ĠP ending
ĠArray IndexOutOfBoundsException
yn chronous
ĠResource Bundle
Pre sence
ĠIN VISIBLE
Ġmatch ing
Level s
Ġback ing
ĠC HE
el ine
UT C
Output Buffer
ĠSoftAp Configuration
O riginal
P ad
Ġm Interface
Rec ent
Ġremove Callbacks
ĠAudio Track
Invocation Context
à ¸
Ġn ullable
000 1
UM MY
Ġcolor s
Ġdig its
Ġ Queue
at ar
Ġget Input
ĠU id
10 9
ĠgetM edia
F ramework
Ġt w
Ġl oop
Ġis M
ĠOP EN
Ġpost Delayed
H z
at is
Ġst andard
ĠA B
ĠF A
S oft
u zz
Ġset Widget
Ġis System
AL PHA
n etwork
ĠLog ging
Ġpri me
Inte grity
p Manager
Ġd ataset
ĠF ixed
Ġ5 12
Ġcomp iler
ĠSignature Exception
Notification Channel
ĠWindow State
PR INT
B etween
Hand over
ug mented
TRI C
GU ARD
E K
N V
e ad
Ġs peed
Ġ6 6
ĠmF ake
ĠAV AILABLE
ap i
Session StateMachine
Ġpoint s
MY TEST
Thro tt
M ER
S quare
et s
ĠC opy
M U
v b
Ġb ot
ĠC bor
To Long
RE SET
User Handle
test Native
losing Future
Hi erarchy
V ari
ĠWindow Insets
I STR
L ER
Ġis Array
Data Type
Ġpar allel
ĠmD raw
Ġmap ping
Client s
Ġ69 4
vers al
ĠUP DATE
Ġget Code
Ġset Re
Ġtest Remove
Ġas Map
Click Handler
Label s
INTER FACE
ĠRO OT
C anceled
r ange
ĠR ED
ĠMedia Metadata
ĠInter polator
ĠmNotification Manager
vis or
Forward ing
B OUND
L P
h ip
uil t
ĠmC ache
MYTEST STRING
ST ORE
10 4
Profile Owner
Ġobj ToSave
AF TER
Rec ursive
Ġthread s
SIGN ATURE
Call Log
IF ACE
u ro
ĠP BE
TIME STAMP
atis f
ĠS ymbol
ser vable
ff ective
Ġ5 4
' '
J o
An aly
Ġread Unsigned
Ġg c
Ġ1 17
ĠD ummy
Th en
Ġ6 55
Char Array
ĠgetMod ifiers
B T
ST AL
ĠData Source
add ress
Ġflat ten
P lace
ĠA rithmetic
Sh ard
Char Sequence
Character istic
Ġmark er
a fter
Ġb i
up ant
Di v
ĠAlgorithm ParameterSpec
CONTACT S
Ġr b
de scription
Ġat temp
ĠCommand Result
Ġresource Id
U V
Ġf ace
Ġr ad
DI AN
ANG U
Ġenc ryption
Ġnan os
ĠOs Constants
M V
Class ification
LO T
From String
EXT ENSION
Ġab ort
SELE CTION
ANGU AGE
R x
r ans
ĠT LS
Ġto List
LE PH
ĠgetS ample
LEPH ONY
R GB
ĠS W
ith er
ĠRe port
Sec ret
Ġgl ide
ĠgetRe peated
ĠmO riginal
Confirm ation
ĠAuthent icator
Ġas Binder
Ġsign um
Close able
ĠNormal izer
F lush
a emon
Ġp ack
Ġg ov
Ġan tlr
ĠmWifi Native
ĠBY TE
H IDDEN
Ġ1 15
Ġset Display
Ġput Long
c lient
Ġd rm
Connect ing
fin ity
V ia
it al
ue st
Ġpro ps
Ġ9 6
RESTRI CTION
Ġh it
H AS
p lace
Ġm Mode
Ġint ers
hand le
ĠPort erDuff
R ssi
b la
Ġcheck Error
Ġcurrent Time
Up stream
Dir s
Ġm ms
ĠP ORT
RE T
And Wait
Ġcontains All
Operation s
Serial ization
eof ence
ï ¿
Ġ Handshake
ia utomator
16 6
ĠJP DA
ur st
ĠP lural
ĠH al
Ġmy UserId
Activ ated
ĠTemporal Field
Ġc orrect
Ġm Scan
Ġle ss
Te lecom
Break point
Ġm utable
ĠB eta
Track s
ĠService Connection
Ġn av
Ġl b
ens itive
56 0
ĠST AND
Ġwith Appended
ĠRpc Parameter
DIRECT ORY
Ġc ast
Ġclass Loader
ĠContent Observer
ĠMulti set
so le
ol er
lement al
Ġinfo s
ĠReturn Type
ĠG ANSS
ĠW EEK
76 54
SU F
Ġop eng
ĠCamera Device
N ER
a W
Ġr x
Ġis Instance
RE QUIRED
Sp ans
Duration Ms
Ġmanaged provisioning
Ġtest Started
Inter rupted
ĠMedia Session
17 6
ĠNotification Record
FR AGMENT
ĠHT ML
Enterprise Config
Ġget Attributes
Ġre w
Test Device
ĠW ID
ĠH ALF
App Data
Ġat Least
Ġ7 6
Ġex pi
CON TEXT
Sub channel
ĠEX T
arse Array
D p
F ollow
j o
u dd
Ġp at
AT ING
Ġclear silver
type s
ĠAlgorithm Identifier
Debuggee Synchronizer
ĠJPDA DebuggeeSynchronizer
or er
Ġu iautomator
Type Data
eter ed
I ES
P LEMENT
V ariant
Ġd imension
og raph
Ġde pendency
Ġx Off
Ġfile Path
Ui Automation
Ġhel pers
8 40
Ġc urrency
Ġe quivalent
ĠS aved
Ġw ear
Ac cumulator
con sume
SH OT
ĠDis c
f w
p ings
ĠL azy
Ġtest Parse
Reg ex
ĠHel pers
ĠAutofill Id
2 70
G CM
Ġview Holder
Name d
ĠE quals
By Type
ĠTime line
ĠGu ice
2 60
ĠS ys
ĠCar UxRestrictions
ĠApplication Provider
ĠFor ward
th e
ir plane
Config Store
ĠOrder ing
S ervlet
ĠmM atrix
Ġsub List
ĠSupp ort
Ġm Expected
Ġassert No
ĠH orizontal
lu g
ĠmS im
ĠPri ority
ĠUnknown FieldSet
4 80
N one
Timeout Exception
ĠgetPreference Screen
c ase
ĠCall Log
ĠPRI MARY
p red
Ġget Version
An notated
Ġbinary log
STY LE
en ess
Ġc or
ĠS END
Ġfield Name
Unknown Fields
T L
Ġ art
76 8
ĠgetCanonical Name
Ġn l
Th umb
Ġnetwork Id
ĠFAIL URE
Ġf our
Ġcon straint
ĠN ATIVE
For Result
ĠCoded OutputStream
Ġset Active
Ġtest Write
Out er
Ġsc ore
TR ACK
Sta Iface
ĠMOD ULE
Ġmk dir
Par tition
KE EP
Port al
Sq l
ĠC anned
Ġset ReplyTextBundle
ĠmB ubble
Back ed
ĠgetContent Type
Credential s
AP H
ĠCoded InputStream
E V
W as
US B
ĠUtil ity
BO X
E LEMENT
Ġtest Re
Sc enario
Ġrecyc ler
Ġlaunch Activity
Ġ ul
in voke
Th ree
Spec ial
ĠKey Factory
ĠType s
h z
w ipe
Ġf actor
Key Manager
Ġon Complete
Listener Adapter
Sc al
SC APE
Ġwith out
CHAR ACTER
s v
Ġget Thread
Ġget Annotations
Ġset M
ĠW RITE
Return s
W D
Ġif d
ĠL anguage
RE F
Ġs mall
Min imum
, '
Ġi ssuer
Ġn one
ĠD al
RE TRY
ID s
IC AL
main der
C orrec
Ġ"[ "
Ġexplicit Cast
Enforce d
c urrency
Ġ Info
ĠPro file
Ġfrom String
par ser
Ġass oci
P lus
Value Pair
Ġexpected Exceptions
Ġmin ute
Ġlocal Name
it z
AC CESSIBILITY
Ġsupp ress
ĠPass point
d t
k bps
Ex ample
ĠE OF
16 7
Block s
IF D
ĠLinked HashSet
Ġdiff erent
0000000 1
I OD
DE SCRIPTION
ĠmD rag
PERMISSION S
b az
Ġm Shadow
Ġs uspend
Ġt ri
ut ation
ver ser
Ġd isp
ĠgetS urface
IST ORY
t mp
Ġinter rupted
Ġstart ing
Ġun expected
MO BILE
ĠmoveTo First
11 3
NOT ATION
ĠParse Position
ĠSA MPLE
ĠALI GN
> </
m anager
Ġm Open
Ġt d
Ġst mt
Ġcon struct
Ġtest Equals
Ġio e
Ġar chive
Sp y
Sub scriber
ĠPre view
Ġstatus Bar
ĠmI ke
Ġg reen
Rep orted
ĠStructured Name
at tr
Ġj silver
icip ants
Ġset Component
Ġset Flags
ĠContext ualCard
Ġer a
Ġparse Long
ex ception
Positive Button
S uspend
oo led
ĠD SA
ĠUn safe
Cipher Suites
T OUCH
Ġinter polator
riter ia
ĠmTest Info
ĠApplication sState
CONFIG URATION
ĠAD MIN
eed back
SEC URE
pass word
ĠCOMP ONENT
ĠCHE CK
B ool
Ġget LayoutParams
Re m
En ab
AP ER
Ġunmodifiable List
J SON
P ush
s ig
Ġsub title
ĠMedia Source
comp ressed
SHORT CUT
ĠMsg Key
ic ast
te ch
Ġ1 60
ĠM AP
88 8
END OR
Select able
Ca ption
w rap
Ġ roll
ĠB OO
RE N
Ġres p
Ġkey guard
ĠRe gist
Ġ5 7
Ġpre sent
Ġgl Get
value s
Coord in
M at
ĠC AN
ĠI d
ĠMedia Item
EXT ENDED
6 16
Bound ary
Card s
Ġunregister Receiver
Ġretrie ve
Y W
ĠT wo
ĠV DBG
ME M
Un available
Ġun used
PAR AMETER
Connection Service
ĠmP ersist
Move ment
ĠgetCar rier
ro t
Ġe qualTo
Ex if
Par sed
lect ing
Ġ10 2
ĠScheduled Recording
ĠS O
lo aded
ĠK M
Prep ared
SK IP
ĠPATH NAME
ĠDat agram
o ard
Ġs mali
Ġv endor
Ġthrow If
Ġcal iper
ĠSurface Holder
Qual ifier
Ġsip Stack
cert ainty
Ġmessage Id
OF T
Ġ{ }"
id ent
SI L
at al
E MPTY
ĠA SS
ĠR ewrite
BU CKET
ĠSerial ization
ĠgetItem Id
B ag
m as
For Uid
ĠmWifi ConfigManager
Ġsuite builder
bb b
Meter ed
El se
ĠgetMetrics Category
ĠDisconnect Cause
c ar
qu ery
Cap s
30 4
ibr ate
avorite s
E F
u ally
Ġm Application
Ġs r
Ġd ays
20 4
EX EC
Video Call
ĠTH READ
arsh all
b luetooth
se ud
ed i
ĠCon firm
avigation Bar
avigable Map
n ow
ĠU ResourceBundle
Override s
ĠForward ing
ro pped
ĠV irtual
SI G
ĠgetL ocation
ĠNo tify
ĠSSL Socket
S l
Ġe p
CE LL
Ġmatch ed
lit eral
26 3
ARE NT
6 50
q p
et Address
Ġsyn chronizer
y mmetric
Empty Message
Ġ"- "
E m
L etter
s im
en se
Ġin Array
Ġget Values
Hand ling
User Info
rib uted
IZ ATION
GEST URE
Ġag ent
orded Program
ĠBOO LEAN
0 22
F ade
d c
a que
l v
Ġset Input
Type Solver
Delet ed
ĠUnsupported EncodingException
Gener ate
cont roller
Autom atic
Ġ Query
ĠD vr
ĠAN Y
Ġreference d
ĠStorage Manager
ss ion
Ġid le
ĠgetS ignature
G LOBAL
S ome
ĠD agger
if orm
CT URE
ĠEN G
M gmt
Ġl o
App end
Ġinc X
Ġdis c
IP S
Ġare All
ĠZone Id
Illegal ArgumentException
c r
De v
ar ms
ĠM ark
Ġ5 2
RAD IO
W AR
Ġm Path
Ġm Token
ĠB IND
Ġis Done
ĠObject OutputStream
Style d
Ġlabel s
ĠTarget Api
ARG E
1 54
id s
LI CE
Sub class
Ġbuffer Size
Ġwidth MeasureSpec
b r
Ġ oo
Ġf os
it tle
Ġkey Store
ĠM issing
DE ST
ĠW RAP
All Messages
ĠmD est
Ġexpand ed
ĠSS ID
1 32
ack list
ĠD hcp
ang ed
For Package
Get ter
. \
Ġtest M
Tr an
Ġkey Type
ĠmT ab
ĠMain Thread
et ry
ĠM MS
ĠTest App
Ġwh o
ĠMeasure Unit
ĠArguments FloatFloat
ĠmWm State
l in
r atch
Ġget StackTrace
ĠBitmap Drawable
Conf lic
ĠZip Entry
In jection
12 4
ĠSet up
Ġas m
Ġsession Info
Ġi terable
Ġis G
Ġh ilt
Ġcontent Values
Ġas Interface
Initial ize
Sa Record
ogn ized
oose Lock
ĠNAN O
Quiet ly
I cc
Ġs Service
Ġreturn s
Ġl i
Ġk lass
EC Parameters
ĠPo inter
ĠHdmi Cec
1 16
2 000
E FFECT
e f
is on
Ġset Target
Ġcreate New
inger Mode
Coord inator
J OB
Action Bar
ĠLocal Services
Ġinvoke Exact
Zen Mode
uro pe
2 37
H tml
T ri
oo ze
ĠTest SSL
Par allel
BIT S
Ġto Builder
Ġch rom
ĠPar sing
14 4
VER S
2 32
Al iases
ĠG l
ĠmS ummary
56 3
Ġintent Filter
FIX ED
Ġm Extras
Ġget Stack
Ġon SaveInstanceState
CODE C
pro vider
ĠFragment Manager
Ġh ad
AC CE
Ġremove Messages
Click able
Ġwith Field
Ref lection
I MS
Q P
ĠF ingerprint
Ġpro visioning
ĠmP m
Ġdecode d
ĠmF ull
ĠTE THER
H mac
L ifetime
Ġr af
ĠWifi Metrics
Ġmem ory
Ġver bose
ĠAr chive
Ġ Exp
Ġm e
Ġm Accessibility
UN SPECIFIED
ĠmB ottom
Bit rate
ENTIFI ER
Ġget Native
Al ignment
ĠNetwork Request
SU GGEST
Ġprocess or
Ġimage View
Country Code
n ology
Ġin stalled
ĠV er
AS URE
Anim ating
ĠLink Properties
ĠKeyStore Exception
ĠDIRE CT
ĠSETTING S
S chema
Anim ated
O pt
Ġd ns
Ġde p
ĠG O
ĠmP adding
Ġmin imum
ĠUi Device
2 39
p a
st orage
ĠC ounter
Al ready
Ġ4 1
Period Id
ĠAlarm Manager
4 24
T uner
Ġc mp
Ġm Contact
Ġd alvik
Ġpre load
Ġop ts
Attemp t
ALGORITH M
S V
U TES
ĠC redential
Network Info
ĠgetString Array
C UR
G ain
G SM
a ption
Ġm Password
ul us
ĠS end
ĠI me
Up grade
Rep lier
B ROADCAST
Comp lex
Ġ5 5
Rec yclerView
Item Info
ĠonCreate View
Resume d
ĠRewrite Rule
b ly
Ġget List
AG ED
Error Exception
ĠmL ifecycle
NE XT
ĠPre submit
26 5
Assist ant
CONTIN UE
G V
Ġst d
ĠM ask
Var int
Adjust ment
Calc ulator
G ATE
Ġm Usb
Ġn orm
ip s
RESTRI CTED
R U
et d
ro ugh
Ġset N
DE F
li es
10 8
GR APH
Switch er
g Alloc
Ġt a
Ġb ump
Ġre st
Ġset Id
UN I
Usage Stats
Ġregister ed
ĠEN ABLE
Ġpk cs
Ġm v
Ġset Selection
AL ARM
ĠgetS bn
Ġtrans fer
ALL P
ĠClick Handler
In Progress
Ġtest Ended
CH ED
10 5
UM B
ĠNetwork Info
H w
St ored
Ġget Scroll
ĠI fd
ĠIn Order
Ġpar tition
Ġis F
Ġto ASN
Sub title
Ar r
econd s
script ing
S il
T ick
ar ison
UN CTION
Regist rants
duce d
Ġ' -'
Trans late
Ġtrans lation
ĠChar Buffer
ĠFast Math
l l
l ated
ã ĥ
Ġin Value
EN DIAN
ann ing
AC ITY
ĠG nss
Character Iterator
Ġtransition To
ĠSC AN
6 56
H otspot
S n
Ġis Device
ĠST ATIC
Iden tification
Ġret ain
Ġobject web
Ġexc lude
ĠgetQual ifiedName
r ary
Ġf lip
ĠF ocus
RI L
ĠgetC ertificate
Ġdex File
In visible
ĠT O
ĠS oft
AD J
Ġtime zone
ĠAtomic Long
S k
ĠD OWN
Ġadd Header
Ġrequest Focus
Tree Observer
ĠAR GB
Termin ated
xim ity
W ATCH
Ġ Ext
ĠP UBLIC
ĠgetC ell
ĠmWifi Info
ĠHttp URLConnection
CRY PTION
Prec ision
ALLP APER
S CHEME
Ġc la
Ġset Length
ĠB ubble
ĠTest Information
ach able
Ġt oolbar
ĠM in
Ġformat s
QU ERY
ĠSocket Address
ĠNoSuch Method
ĠHel per
ĠOver lay
ĠArithmetic Exception
Ġm Previous
Ġf ast
ĠdefStyle Res
Host Exception
H ARD
Ġm cc
Ġm Running
ĠR OUND
Ġw s
ĠE lem
CON ST
Ġ7 2
ĠFragment Activity
ĠgetRe mote
ï¿ ¿
v nd
Ġt uple
Ġ1 24
able s
By pass
ĠRE SPONSE
Property MetaModel
SA MPLE
ĠIS O
Band width
Ġf requency
Att ribution
ĠgetRe quired
CONNECT ING
filter ed
Con sume
ĠDocument Builder
ĠRadio Button
Ġman y
C USTOM
Ġ" ;\
ĠI Remote
Ġassert All
ĠF ill
ĠW ire
Function s
White space
ĠmCan cel
1 34
L ATE
N R
Ġget Constructor
fa ke
ĠRE PORT
33 6
ĠgetL ocale
If d
Ġraw Contact
et te
St andby
ĠL aunch
Process es
should Return
DOWN LOAD
sec ond
ĠtestRun Started
ĠRecord ing
a idl
Ġm Queue
Ġin voker
Ġpublic Key
ĠC LO
ĠP OWER
ĠAP K
V r
in u
Ġr anges
av ac
ĠP ool
Ġstring Value
ĠMO VE
ĠLE FT
Ġdat amodel
Ġtest On
AN S
ĠAP I
reg o
DEN TIAL
ĠFIL ENAME
H ub
id er
Ġset Package
Sh ade
ĠEd it
Repeated Field
ĠSome Args
v oid
Ġr m
Exp iration
Ġim g
S ip
Ġm X
ur i
ĠT OP
ĠD ay
Ġstate s
57 8
ĠALLOW ED
WH EN
rupti bly
ĠDig est
d ump
ĠT HE
56 5
14 0
Ġop tim
: '
T V
Ġm Foreground
end Mode
ĠH istory
Ġlock ed
CALL BACK
ĠLinked BlockingQueue
Ġexc luded
Sw ipe
ĠM alformed
ĠLine Number
ĠassertNot Same
Ġ2 40
ĠSER VER
+ +
P lural
Ġb ubble
ĠM an
EN SI
Pattern s
Ġpop ulated
ĠFunction Type
ĠRound ingMode
Ġstruc ture
Ġ1 76
Test String
Ġcheck Convert
ĠX SL
ĠmR adio
ĠrunOn Main
Ġbump tech
se ssion
ĠSp lit
Ġsq rt
ENTI TY
et adata
ĠL eg
ST RE
Ġserial ize
ĠCONNE CT
ĠFramework StatsLog
G ANSS
Ġa f
ĠS INGLE
ĠB O
Ġcontent Resolver
ĠCar Ui
ĠverifyResults Convert
[ @
Ġg iven
Ġprint f
PER IOD
ĠSp inner
rac ted
k er
ĠS eg
ĠJ apanese
struc ted
Ġinc all
Ġiden tifier
Ġ2 20
Entry Set
ĠSQL State
=\" "
Ġwarn ing
pt ic
PRE VIEW
ĠAg gregation
S lop
r and
um an
uff le
Ġuser Manager
ĠIms Feature
GH Z
In Bytes
ĠC reate
Ġl iteral
ĠIN VOKE
ĠmT v
Ġgr id
ĠDateTime Exception
h at
Pro b
Device State
12 5
Ġlist View
ĠgetDeclared Method
Ġhex StringTo
Ġrad ix
Ġget FragmentManager
ult icast
Table s
ĠUN I
ĠTo uch
le v
Con current
Dec lared
Ġread y
10 6
I B
Q Q
z h
Ġt er
Ġget Params
Ġ1 44
Un certainty
Ġquery Intent
Ġdoes n
Ġdecl ar
B ATTERY
C lone
C ategories
re ating
Ġv ariant
Ġ1 99
Ġassert Has
Ġon Key
56 6
Pool Executor
o ted
RE E
Ġdec omp
Ġawait Termination
LIP OP
D pi
P ENDING
Ġg esture
ĠApp Entry
22 2
Desc end
Clean er
ĠClick Event
Ġ Start
GR A
ĠEvent Log
ĠAlgorithm Parameters
aring Aid
Ne cessary
ĠAbstractStub CommandHandler
Z Z
a uge
Ġget Duration
Word s
ĠArguments HalfHalf
st ack
ĠCell Identity
ĠPhoneNumber Utils
ĠEditor Info
C MD
ĠB T
ĠD UMMY
Ġcreate With
App Ops
Ġput Parcelable
Ġun bind
00000000 0000
Mod ify
Ġa fe
ĠA SC
ĠL OL
Event Callback
OUN DS
Ġprocess AllMessages
ĠNavigable Map
ĠLOL LIPOP
2 16
Ġs ymbol
Event Handler
Connection State
ĠByte s
Ġexp onent
Ġ_ _
Di ed
ĠEx o
SIGN AL
Ġare a
ĠmO rientation
C allable
Ġget Audio
Array s
Ġload ing
Ġget As
Ġon Draw
Po licies
Ġserver Socket
Ġheight MeasureSpec
Ġcountry Code
OWN ER
ĠSeg ment
B SSID
E urope
Ġget Byte
ĠSc ale
Ġmulti ple
ĠTv Contract
ĠUnknown HostException
atisf ied
E scape
ĠU Script
ble m
Decode d
ĠmV oice
Ġ"= >
2 54
C os
ĠP L
Manager Factory
test ation
Ġprovider Id
Bad ge
Thro ugh
Ġsucce eded
D NS
O ctetString
Ġapp Widget
Service Impl
Ġfilter fw
ĠCertificate Factory
SPE ED
H IDE
Ġs dk
Ġl ook
Ġ2 34
Ġres Bytes
ĠV oice
ĠmM on
ĠJ oin
Play list
er os
Ġm Run
Class Definition
ĠgetS upport
Display Id
Ġend Index
Ġ>> =
O ST
{ "
Ġm Params
Ġs mal
Ġa wt
Ġex port
Ġfield Flags
ake up
ĠData OutputStream
Ġq b
Ġprocess Name
Ġcomponent s
ĠImp ort
TRAN SITION
u o
Ġf i
Ġin sertion
Ġb os
ĠTh row
ĠgetB uild
1 57
A AC
st ep
Ġcon ference
Session Info
Reason Info
F lash
ĠRun ning
Inter active
Ġno tif
Gener ation
ISTR ATION
irplane Mode
m enu
en um
ĠC D
Ġcon sumer
Ch at
LE EP
PRO GRESS
ĠLO CATION
Module s
ĠModifier Key
FRE E
1 37
T ONE
ue l
ĠmB undle
PO ST
Ġphone AccountHandle
ĠDec oder
ĠDal v
le ft
Ġget Token
ĠIn line
Col lation
Ġroot View
ĠHeader Field
ĠVolume Info
phab et
D pp
f inished
Con version
00 3
ĠR OUTE
oun ce
ĠG rpc
Sc reenshot
arn ing
PH AB
Shell Permission
Author ization
Bi Map
Ġm Y
ĠV M
ĠMock Response
Off er
Segment s
I SE
Z ERO
Ġm Items
Ġon Change
Image s
ĠInt Range
ĠMon th
Ġd s
Ġadd Preference
Action Mode
Window Manager
ĠOffset DateTime
W eak
Dec ision
Ġad j
Ph ysical
ĠTransformer Exception
E lem
y m
SER T
fl ated
ĠCom ment
ĠComplet ion
SCRIPT OR
A f
G rant
w ise
Ġv h
ĠI mpl
th ree
12 9
PRO JECTION
ĠMethod Descriptor
EC DSA
res ource
ĠmU icc
ĠClose able
Ġhas Size
serial ized
ĠgetOr Create
Sur rogate
1 38
B iometric
I E
Ġn ested
ap ed
00 4
Compat ibility
Ġenc rypted
Ġconvert To
Ġim mediate
Ġp laceholder
Ġr adius
me m
Ġar ch
Ġsc anner
64 8
33 3
Ġnative Get
C atch
E DED
R otate
h ttps
Ġn v
Ġget Response
Ġth reshold
ĠString s
ver sed
Ġtest Update
own er
Ġic c
Ed ges
Setup Error
KeySpec Exception
D ummy
IN TEGER
ST ACK
DI G
ĠSc ope
Ġ16 8
Ġlayout Params
1 56
ree ment
Ġengine Get
Prop ag
B IN
H R
an ion
Ġc os
Ġd vr
Ġis Cancelled
ĠF ALSE
ĠG rego
ized Size
ĠmT ile
Sw ap
ĠgetSp an
rease Indent
6 57
Ġm Thread
Ġpreference Key
ĠMon itor
ashboard Fragment
Ġm Enabled
String Value
Ġis Re
Or Empty
Dir ty
O rigin
P U
T ls
ĠI O
rol led
DE SC
ĠmB roadcast
Ġsend er
59 0
ĠPAR AM
ĠgetSub scription
Tra ffic
ĠHorizontal Panel
o ugh
Ġf ade
Sc ene
Ġ7 3
Sub tree
---- -
id ence
Ġget Filter
ĠB AND
Ġ8 3
tive Portal
Ġqu ote
Ag gregation
Ġconvert er
ĠIM AGE
M otion
W LAN
ĠT oggle
Ġset LayoutParams
ĠCon nect
ĠAtt r
ĠBY TES
Tech nology
ĠWH ITE
F loor
s witch
Ġin set
Ġout Array
Util ity
34 8
ĠCON STANT
ĠInetAddress es
Desc ending
ĠgetPri mary
gAlloc In
H D
Ġg ravity
Ġon User
Keep alive
in ned
Pro mpt
ĠE mail
Sp acing
BACK UP
s rc
Ġre start
Ġset View
Ġwri tten
c f
ĠAc tive
20 48
Det ached
Ġallow s
Always On
ĠCertPath Validator
ittle Endian
2 14
5 17
Ġset Progress
ĠP age
ĠI Wifi
Ġis Static
PRO XY
ĠmDisplay Content
he ight
Ġm Texture
De precated
ĠAction Bar
ĠCompat ibility
Ġc d
ri end
Ġis Open
ĠUn signed
24 0
Ġcandidate s
C rossProfile
Ġg reater
Ġset X
ĠIn Call
ĠTest Result
Ġ5 1
64 0
70 8
Ġblock Size
i mpl
Ġsc ene
ĠmP layer
Ġ12 6
APP ING
Write Lock
Ġenter prise
ĠPreferenceController Mixin
Ġopeng l
Ġm No
ShellPermission Identity
or View
Ġl ottie
ĠO K
Ġset Tag
Index Provider
Out line
Network Suggestions
Ġmax Size
OK UP
C ue
Ġp ick
Ġp endingIntent
Ġst age
Ġset Button
ĠU icc
ENT RY
Or Null
ĠClass Constants
res olved
t z
Ġin v
Ġtype Name
Valid ate
ĠLink Address
pre ference
ĠTest Api
per and
Ġdo Nothing
ĠmW ait
Ġmath test
ĠDIS ABLED
Month s
NumberOf Invocations
Ġr tt
Ġset Status
ĠG ame
Provider Exception
ĠSc reen
ĠmBluetooth Adapter
ĠSIGN ED
P du
o ser
w indow
ĠS afe
Data Element
Ġkey word
ĠRe entrant
RO SS
ĠMedia Route
FOR CE
Surface Texture
D C
el ow
Ġcreate Injector
Ġ7 8
pos ition
ĠBack ground
ational Number
x fc
Ġc ue
Ġt yped
Ġtr an
17 2
Block list
IC RO
Ġed itText
Ġannot ated
8 22
I PE
T s
W rap
b efore
w idget
à ¥
Ġnew Config
00 5
Ġtest Data
RE LEASE
Pre condition
Ġkey Size
20 6
ĠActivity Task
SC ROLL
iss ed
Temp erature
ĠQU ERY
Den ominator
Ġplugin s
ĠonPreference Change
R UP
Ġm Enable
Ġm ajor
ile ged
15 9
oll ing
ĠDocument sContract
Ġcb or
Ġsegment s
an cer
St ride
ĠmD et
Ġelement At
Ġmodule s
Ġph ysical
EXCE PTION
f ps
in sn
And Value
ĠAbstract Module
ĠInt Buffer
ĠInd ent
Ġm idi
ĠS emaphore
ĠP op
ĠN an
Ġh old
ath er
Declar ator
ĠColor StateList
Ġsimple Method
ĠEap Sim
ĠUp lo
ĠObject Stream
Ġcomp leted
Ġdis k
ĠInvalid KeySpecException
ibr aries
Ġchang es
ĠDIRE CTION
g pp
Ġ" |
Ġo perator
RE PLY
At an
ĠgetSub ject
ĠgetError Code
Attached To
Enab ler
E qualTo
ĠC oder
Day OfWeek
Foo ter
Comb ination
STAND ARD
C ircle
Ġc ycle
Ġs cheduler
ĠUn til
Exp ansion
ĠChannel s
Bot h
ĠhasMore Elements
a uto
p f
Ġget Map
Ġa sc
Package Info
Inter cept
PACKAGE S
PAR AMS
ĠAd b
OR IZ
ĠInt Stream
WID GET
ĠBreak Iterator
Ġn atural
Ġget Enabled
Ġres ize
With IOException
12 6
Ġas Set
inter nal
Ġcal lable
ĠmO ld
ĠVideo Profile
DP AD
1 0000
Ġp erson
ĠO UT
es is
order ed
po licy
p lay
ĠgetM em
ĠPass word
ĠNoSuchMethod Exception
I gnoring
Ġprivate Key
Ġchrom ium
d ocument
ĠL ABEL
Ġ5 8
ĠmS ync
ĠEX P
Ġdex gen
Document s
ĠGeneral Name
ĠD IG
Ġch oose
ĠH AS
Ġtype Builder
ĠmB ar
Ġmethod Type
Link s
inc orrect
1 39
O ES
in stance
Ġadd Algorithm
ĠIn te
Context Menu
Se en
11 7
Ġinput Id
ĠK ind
Ġrec order
FACT OR
E B
Ġs ome
ĠN ested
Ġread ing
Handle d
DataKind s
C ERTIFICATE
a h
32 7
Ġ10 4
Ġtarget SdkVersion
37 6
Over view
ĠwaitForIdle Sync
RE SU
Ġsend EmptyMessage
ĠData Usage
ĠTarget SetupError
ĠmI p
Ġsq lite
Ġneg ate
STAL LED
J peg
Ġsyn tax
ĠComp ound
ĠgetC amera
ear er
Ġspec ial
Ġorder ed
Esc row
CLO SE
I ssuer
Ġd uring
Ġset D
Se ed
ug report
Ġmedia Source
Loc ator
ĠImmutableSorted Set
Ġ StackTrace
Ġtest Invoke
ME T
AB C
ĠDateFormat Symbols
ĠRandomAccess File
l ocation
Ġs Replier
ĠD op
Ġ' ,'
Provider Info
Start s
WH ITE
5 21
Ġm Feature
mo ving
ĠAC CESSIBILITY
ĠmG rid
Ġsample Rate
cont rol
ĠUT C
ĠMatrix Cursor
ĠHE ADER
c al
er tion
Ġs kipped
Ġtest B
Ġlast Modified
Post al
ĠgetExtension Components
ĠLeg acy
U pon
al one
Ġ" *
ri l
Ġset Use
Ac k
Ġread From
DI C
20 8
Ġper cent
Ġur is
Ġle ast
Audio Mode
Com mit
ĠDAY S
Ring tone
ĠgetObject At
ĠMime Types
ĠFA ILED
SUGGEST ION
C urrency
S sl
Ġfinal ize
Ġsub channel
ĠmR ect
Ġhead Set
TRAN SP
ĠRecognition Exception
I MPORT
Ġp acked
Ġget SharedPreferences
ac tiv
ĠPackage Installer
ret e
Ġup grade
On Write
Ġdo Final
Ġverify One
Storage Info
IC C
lan k
Ġtransform er
ut ing
Ġset Expected
OT A
Min utes
Full screen
ĠEd itable
Im mediate
K ernel
Ġf ingerprint
Mode Manager
He aringAid
LI BR
ĠNoSuch ProviderException
Exc lusive
ĠgetPackage Info
ĠExecutable Element
Ġactiv ities
Ġtype Parameters
Ġ7 5
Ġparameter Index
ĠDec ode
Ġp RS
ĠR PC
Ġcheck Permission
Ġread Byte
Status Changed
SET UP
CI AL
ã ģ
Ġc nt
re ference
Ġsh a
Text Changed
Exp osure
Check sum
ĠCommand Packet
ĠonBind ViewHolder
Deg rees
A mbient
N ED
O pp
P M
Re moval
Ġkey Spec
Ġas Type
ĠMethod Declaration
60 8
elet e
Ġbec ause
C ach
Ġm Observer
urn al
sh a
QU ENCE
ĠWID TH
riend ly
2 33
H ave
l im
Ġm Element
30 9
ĠRE COR
Qu antity
Annotations Attribute
Dimension s
Norm ally
1 36
H A
ĠP riv
LE T
User State
Ġse en
Bit String
ĠReference Entry
G e
I gnored
T uple
Ġm Shortcut
Ġs ys
Ġre duce
Exception Handler
DE P
10 3
ĠType Literal
Ġsort Order
Priv acy
Ġbug report
f lags
Ġm Res
Ġset P
Ġde li
Tr acing
ĠmS erver
Del imited
Ġreplace All
agn ification
ĠUnit test
Ġdebuggee Wrapper
G radient
Re ceive
Ġcheck Native
Ġinput Buffer
50 4
Media Player
ĠIms Call
Ġsw ap
ux er
Precondition s
m odule
p art
Ġm Available
Ġis Default
10 7
17 0
Ġget Flags
ĠC ENTER
ĠR IGHT
Ġ8 8
20 7
ĠText Classifier
Ġend Tag
Read able
ĠContent Capture
ĠCommon DataKinds
Cla use
t op
Ġg e
ĠT ER
ĠS GN
ĠClass Symbol
Serial izable
COM ING
ĠsetNext ValueAs
RECOR D
om aly
ĠI BuildInfo
ext ension
Ġsc al
Spec ified
29 6
sp ect
IP HER
Ġinitial ized
ĠEN ABLED
I ED
us ic
Ġread Fully
Ġhand led
ĠType Variable
ĠSER IAL
GEN ERIC
Ġder ived
B order
N I
n ormal
Ġm Animator
Ġd uplicate
ME TA
Mode Enabled
IS upplicant
c ome
i vider
x ffffffff
Ġget Profile
In Call
Ġstart Service
Preference Fragment
Ġ7 7
ĠmW akeLock
ĠText Box
Options ItemSelected
ĠService Info
Ag reement
ĠmG esture
ORIZ ONT
n egative
Ġm Add
Ġs chema
ul k
ĠC rypto
mo us
Instance As
ĠRule Based
2 19
G ING
P ipe
p age
Ġp icture
Ġm Track
Ġapp ro
ĠgetB undle
SP LIT
Ims Service
ĠtestRun Ended
ĠSGN L
3 34
D HE
n e
Ġi e
Ġ2 30
ĠIterator s
BE FORE
ĠJDWP Commands
ĠRoute Info
3 32
B ranch
M AG
P AGE
P AUSE
s uite
u gle
St aged
ĠA F
ĠmD own
Ġend Key
ĠMedia Recorder
ĠLocal ized
H over
L ook
T ail
V ENDOR
r ule
Ġ Qu
il i
Log ged
ĠSub ject
ĠPRO TOCOL
Man y
Ġchecker framework
Ġs el
ĠmMock I
MAN Y
m aries
Ġd ue
ĠD rm
ĠRe stric
action s
ĠNetwork RegistrationInfo
ĠmCap ture
A bs
c dma
Ġnull ness
Ġcon firm
Ġtest Result
AL WAYS
Ġ3 60
op en
Ġsc aled
Ġof Float
ĠmL aunch
ĠXml Serializer
lain text
Ġvm Mirror
Test Class
Per mitted
ĠActivity Stack
Ġwait Until
ĠCar riers
Ġiface Name
Ġget Background
ĠIn strumented
ĠW IRE
File Channel
Ġun safe
11 9
ĠSupp licant
ĠgetL anguage
Def in
ĠhexStringTo ByteArray
4 64
b ap
ĠC ookie
Ġl arge
Sc orer
TE CH
FI RM
Ad j
ĠUn ix
17 9
EX IST
Ass istance
2 30
Ġ" >"
Ġw alk
With Null
Ġwrite Object
ĠWifi Native
Track Info
Ġload Class
FO O
Ġstr ength
> >
L ambda
ĠgetRe gister
ĠF orm
Data Exception
Ġsh ader
Navigation Bar
1 55
6 80
k it
st rip
ĠmM odule
Window Container
ĠWifi Info
Checked ChangeListener
ĠverifyResults Native
Ġ Stat
Ġm Al
ĠT ool
Ġch ip
Comp ressor
res pon
st op
Ġget Adapter
Comp ound
Ġ' :'
Throw n
SHIFT ED
Adjust er
Ġi x
Ġm Process
de cess
Ġl ight
ĠCon nectivity
ĠmR o
ony mous
ĠverifyOne DataElement
U MP
s yn
ĠT ethering
Ġset Listener
Ġadd TestSuite
ĠmS ign
ĠgetS cheme
Ġsub Set
Screen On
Ġcode point
USER S
D Q
Ġ1 22
Ġis Running
ĠmC ustom
Ġmap Field
Ġchild Count
Ġpop up
Serial Number
Diff erence
orary Folder
ĠMask Enum
L azy
ĠV OICE
TE THER
ĠmB uild
Ġ9 1
Ġmap Entry
40 8
PRO TOCOL
ĠSSL Context
SYMBOL S
G ood
o ap
ti ties
and alone
ĠIn ner
Al gorithms
ĠList Preference
tifi ed
15 8
UB LISH
ĠCode Attribute
Ġperform Click
Ġpriority Str
Ġcharacter s
5 34
Ġm Q
Ġv ertical
Ġset Interpolator
ĠF ull
Ġapp Context
ĠV erification
RO GATE
Di agnostic
IC U
BE GIN
FER RED
F INGER
P ane
Ġm Scale
Ġt icker
de st
Ġd rain
time out
AA E
con nection
Target Preparer
Draw ing
OVER LAY
Ġrestric tion
3 30
n b
Ġm erged
Ġassert Int
ĠmC ommand
IL L
Instrumentation TestCase
MET ADATA
P UBLIC
Ġto CharArray
Ġuse s
Ġdet ail
MULTI P
D uplicate
m ul
Ġstatic Data
View Model
88 59
Ġvalid ation
old en
ĠJob Status
ĠSpannable StringBuilder
x FFFF
Ġin verse
Ġget Video
ed Action
ĠA mbient
50 2
Input Manager
88 6
LOCAL E
COLUMN S
F unc
L T
Ġs ervlet
ĠA nal
ĠL ayer
Ġcol l
ĠType Solver
ĠgetComponent Name
Composite CommandHandler
ORIZONT AL
C tx
Ġm Packages
se arch
Key frame
Ġexpected Value
50 8
ĠmD o
ĠmP h
ĠActivity InstrumentationTestCase
Imp ression
Ġrecord ing
Ġtail Set
ĠP rivate
Det ected
ĠTE MP
H eld
M e
ĠS eries
ĠM ON
ĠB E
IN CLU
38 7
Ġwifi Configuration
ĠAndroid Manifest
Max imum
Ġdelete File
SECOND ARY
. *
T w
est ing
ĠR B
ĠF ace
Par ty
Ġon Call
Ġbytes To
Ġphone Util
Ġreal Run
ĠHOUR S
contain er
In Order
Al manac
Sc aled
Col lator
EW ITH
Ġbinary Search
ĠMAN AGE
Decor ator
oler ance
arshall er
H Z
h ist
un expected
Ġon TouchEvent
Ġsh ard
Ġtag Name
PO SE
ĠS pec
ĠS uite
Ġ1 90
ĠL ive
ĠV pn
ĠArray Deque
Message Lite
Network Callback
ĠmL ine
Long Array
14 8
ick y
P ACKET
Ġp si
Ġget Double
View Id
Class Declaration
RO AMING
ĠLAUNCH ER
z y
Ġtest Log
lo y
Ġon OptionsItemSelected
Application s
FULL SCREEN
PB EWITH
E v
W S
ro s
ĠmB lock
Ġinternal Get
Ġclose Quietly
Ġjob Id
Altern ative
Ġb uffers
Con n
ĠI Supplicant
ON D
ĠmM ulti
Ġuser State
Ġtoken izer
ĠENG LISH
2 12
I o
ar eness
ist ent
Ġassert Contains
ĠmC ard
Account Type
Ġenc rypt
ARI ES
ĠmSubscription Manager
M mTel
f inal
SI P
Ġse p
Holder s
Inc lusive
ĠParcel Uuid
ĠSaved State
6 00
B UNDLE
S leep
Ġset PositiveButton
ĠB ATTERY
Network Specifier
If Absent
rid den
Current User
Reg ular
ĠRes Table
Ġcharacter istics
ĠIndent ing
2 80
Z eros
Ġ Extractor
Ġs aniti
tr l
Wh ere
ĠmClient Callback
ĠRender er
D Range
P ss
p attern
Ġget FileDescriptor
ĠLog DataType
ĠmD uration
AM IC
ĠAL PHA
ĠChrono Unit
ĠSA VE
7654 321
v rcp
Ġ1 13
ib ling
Ġnotify All
Ġlat ency
ĠGeneral SecurityException
Ġr ename
Ġde g
Ġ8 7
Ġ8 9
34 0
ear ing
par cel
33 8
Ġtimeout Ms
ront end
ĠNot Null
Bg NV
ĠContext Menu
Ġdevice Name
14 9
Ġstream Id
Ġut c
udd hist
Ġp ull
Ġn r
Ġget Track
Ġde velopment
Values Holder
Unit s
37 0
Num erator
ĠCO MPLE
Ġrat io
2 99
o tive
Ġm Pre
Ġf r
Ġis Closed
Work ing
+ "
4 32
S kipping
ĠM IPS
Class Runner
ĠpackageName s
39 0
ĠTRAN SI
Ġcp u
Literal Expr
ByTag Name
Ġsize s
Ġverify NumberOfInvocations
ĠData Class
33 7
ĠCipher Suite
3 80
D id
h a
Ġ Encoded
Ġc luster
Ġm oblab
PE AT
11 8
Ed itable
Ġtimeout Millis
Clean up
ĠSyn chronized
P ick
w ide
} '
Ġg ps
Ġd ict
Ġtest N
Sub Map
ĠPackage Setting
ĠColor Drawable
Digest s
ĠgetParcelable Extra
2 38
D D
Ġget Constant
om eth
Ġset Error
Ġadd Callback
ĠST ATS
ĠTemporal Accessor
ĠWAR N
ometh ing
z ero
Ġget Settings
ĠS ES
ĠB LE
Content Resolver
16 9
uf act
14 1
ĠSES SION
M ig
Ġget Full
ra h
Ġset Size
Ġtest Id
Lock Utils
ĠPar sable
Configuration Changed
22 6
Period ic
EC B
ĠUsb Manager
Ġmeta Data
ĠCLI ENT
Ġa id
ĠS PE
Ch arging
Ġor Else
Of Year
Com ments
Rout ing
ĠScroll View
L i
V ec
Ġ angle
re m
ver ify
ĠM ASK
Field Map
ĠSE ARCH
BO OL
Ġrefresh Ui
PL ACE
G nss
Ġm m
Re d
Ġj peg
Ġ1 001000
Ġon Attach
ROW S
ĠWorker Thread
D uring
F ib
Ġget Left
ĠF P
Ġwifi Info
ĠRo le
Signature s
COVER Y
s end
ur a
ĠS CHEME
Ġth ird
ap t
ĠB ROADCAST
Ġis Wifi
Server s
Ġtra il
Bind ings
ĠID LE
her ited
Transform er
Replace ment
ĠStrict Math
3 56
Ġb atch
Ġset Header
Ġtest No
To Death
Ġ2 001000
ath Recipient
Ġ3 001000
Ġ4 001000
Ġ5 001000
Ġ6 001000
TE L
Ġexpected Result
Ġ8 001000
Ġ7 001000
50 7
37 8
Boolean Array
DIS MISS
TRI E
CLI CK
Ġrecycler view
L w
d ays
Ġst rict
ĠC losed
ĠP I
ĠXml Utils
AV A
ĠIms ReasonInfo
ĠDIAL OG
Ġ1 36
Ġset Start
Ġset Auto
User Restriction
Ġ6 2
ĠPar ent
Ġnode ArrayList
ĠField Position
FIN AL
iom etrics
Dist ribution
1 88
Ġv ehicle
Ġh w
ĠU SE
34 5
ĠCOM MA
0 20
b f
Ġget Lock
In flate
Ġe mergency
Ac curacy
Ġ2 24
Time Zones
Ġan cestor
Att rib
ĠAl ert
ĠmIn stall
ĠITest NG
Ġrecyc lerView
Iter ations
ĠmSecond ary
K epler
Ġ Endpoint
Ġm Force
Ġboolean Value
ĠmS ample
Ġnum Bytes
END AR
AttachedTo Window
6 54
Z IP
Ġm Headset
Ġe sc
ĠP ack
Ġon Post
19 8
eter min
ĠmBack end
Pred iction
ToS peech
re w
ut ter
Ġ3 000
32 8
Impl Base
Bit mask
Playback State
l ocale
er mal
Ġm Map
Ġm Model
ĠS n
Ġ1 84
Ġset Bounds
Log Proto
17 8
ĠCamera CaptureSession
ĠWifiConfiguration TestUtil
Incompatible Exception
ĠDOMTest IncompatibleException
aaaa aaaa
ĠisAssignable From
loy ee
8 000
c i
Ġg att
Ġget Shadow
Ġpro vided
Window Insets
ACTION S
Radio Button
ĠrunWith Caller
Ġt y
Ġint o
ĠC OUNT
ĠmP lay
ĠEx ample
Region s
ĠBuffered InputStream
Ġa ir
ĠM ULTI
ive Mode
Byte Channel
Ġend point
Ġmod ifier
Atom ic
ĠVALUE S
ĠFR AME
' ,
D Y
L ANGUAGE
e igh
x FFFFFFFF
Ġm Allow
Ġf is
Content Values
ĠWifi Aware
18 4
37 4
ĠPreference Manager
ĠError s
Ġenforce CallingOrSelfPermission
2 36
2 57
6 96
: %
Ġp r
la m
Ġl l
Ġre m
ĠR out
ĠH i
ld ml
sec ure
Import ant
ĠSdkConstant Type
ĠisN aN
ĠClassOrInterface Declaration
MU SIC
g y
Ġget AsString
Ġset E
Ġpre sence
ĠCache Builder
bit rary
Sta Network
Ġfor m
ĠE F
Ġon Finish
ME TRIC
Element Value
Le ading
ĠCall AudioState
cont acts
OPTION S
SUF FIX
Ġ( %
Ġtr unc
ay ment
ĠData InputStream
ogn izer
3 15
N ET
le ared
Ġm Description
re sent
St arter
ĠN EXT
Ġx y
50 6
Query Parameter
HER E
Ġoc c
Evalu ator
ĠisSame InstanceAs
bla h
ĠNotify Manager
H it
ĠRe q
irec t
Ġsource s
ĠJob Info
Ġclean Up
OVER RIDE
ĠDownload s
G u
b in
ti st
Ġm Container
Ġget Owner
ER E
For Value
With Maps
DI FF
Ġz f
CODE D
Ip Address
GO ING
ã Ĥ
Ġm Expanded
Ġh orizontal
up ertype
Ac celer
Index es
Log ic
Ġfind Object
Ġbe an
ĠText ure
54 0
19 0
Settings Proto
ĠWire Format
C l
D AT
k y
s List
Ġb ridge
ĠString Reader
ĠP latform
TH E
Up time
ĠCar Property
Pair s
ĠITest Result
12345678 9
param s
Ġroll back
2 88
5 24
Ġt ls
ĠS UN
Ġh ere
NO RE
Back Stack
18 6
ĠZ EN
2 78
M ON
Ġget V
RI CT
34 7
Display Info
54 7
NG TH
S igned
S ENSOR
Ġc reator
de bug
Ġon Device
back ground
ĠW rite
ĠH tml
TE CTION
Le ase
QU AL
ĠZ ONE
ĠgetB itmap
28 7
M ID
r ar
Ġm Apn
Ġs cheduled
Ġin MinValue
Ġin MaxValue
cei ver
14 6
ĠAbstract Test
Cla mp
F eedback
Ġin coming
Ġget Connected
Ġ2 26
us c
ĠK ernel
17 4
3 99
Ġc id
Ġm Pro
Ġm Shared
Ġf req
Ġr ate
RO Y
Ġnext Token
14 5
Rect angle
Ġmod ified
Dex File
Dataset s
M otionEvent
IN STALLED
Resource Parser
ĠCoder Result
n n
Ġde leted
User Data
ĠDisplay Content
Ġcell Info
ĠFeature Factory
ĠIso Type
C al
c ustom
Ġget Mode
Ġth umbnail
ĠM oblab
Ġ2 32
Not In
Ġregister For
Ġqual ifiedName
Si pper
4 29
H EX
L o
ar row
ing Details
la v
00 6
ĠP rincipal
Command Set
Ġdec imal
ĠData Provider
Ġ19 2
ĠAUDIO FOCUS
CANCE LED
ENSI TY
Ġb m
Ġmin utes
ĠUN SUPPORTED
RIGHT NESS
REMO VED
Ġvector X
W orld
c ache
s Info
ut s
Ġset Body
AT TRIBUTE
ĠgetP ublic
Reply Text
Ġn stant
Ġ" &
Ġprint Job
Ġfile System
Enc rypt
Ġpath s
Ġparameter Name
ĠmCol lector
AUTH ENTI
ĠContentProvider Operation
ĠIfd Id
M iddle
t mf
Ġm Offset
Sc roller
Ġ7 9
Ġper f
ĠmLock PatternUtils
ĠDER Sequence
m strip
ti t
Ġv card
ĠF ore
Audio Manager
Media Manager
stat s
ĠCommon ClassDefinition
ĠOb servable
Ġsup l
on etic
ĠC dma
Re definition
ĠS uspend
Service State
ĠMIN UTES
Failure s
ĠmA m
Accessibility Event
Parsing Exception
EXCLU SIVE
l p
Ġget Char
ur pose
ĠL ottie
us p
Ġ6 1
ĠgetB roadcast
Sample Rate
ĠgetIn stalled
Y ES
i pp
Ġt E
ĠS upported
16 3
ĠThread Local
Ġinitial Capacity
4 57
A bove
U DE
V oid
Ġin stanti
Ġview Type
Ġ' }'
56 9
46 7
ĠmG L
Inner Class
Ġdirect Executor
Ġconversation Id
M APPING
ro ken
Exp i
pend ent
SUP PORT
200 8
n one
Ġre mainder
Error Code
34 9
ĠHash ing
ĠInter val
Ġip v
ĠSM ALL
l c
r CommandHandler
v ar
Ġa e
de v
Status Listener
TR AS
Is Mutable
FOR WARD
Ġframe s
Ġone of
ĠgetCurrent User
PRI VI
Ġprec ision
G G
der r
lean back
Activity Manager
17 7
Ġgroup Id
REG ION
Ġregion Code
ĠKeyPair Generator
A ge
f sp
un e
Ġis Within
SE LF
Ġbuild Upon
36 7
18 7
METER ED
2 58
T Z
ĠV OLUME
Ġclose able
38 9
Pri me
Can onical
ĠmHandler Thread
ĠConstant Instruction
Ġrpc Proxy
ĠJsonRpc Callback
INITIAL IZED
Ġrew ind
W IDE
r s
Ġm obile
ĠDe legate
Double Array
Ġmem bers
ĠCode Block
99999999 9
h d
Ġset Layout
end able
ĠmC enter
ĠmM y
30 7
Ġobj Array
Ġshow Error
ĠIms Exception
ĠonActivity Result
Enroll ment
ĠCopy OnWrite
C OUN
f eature
se at
qu ared
ĠN def
20 9
End Of
ĠPreference Group
Ġpo ssible
Ret ain
Ġsignature s
AQ AA
Atom s
ĠMAN AGED
ĠORI ENTATION
f usc
Ġm Transition
ro ker
DE LI
Handle s
80 5
Local Variable
Ġdiff erence
Prop Value
C TIVITY
er ate
ic ated
la unch
Ġreturn Value
ĠS ink
ED IT
Ġnet ty
Padding Exception
ĠgetO pcode
Mac Address
ĠLock PatternUtils
ĠSC ROLL
PHAB ET
B OTTOM
M MS
Ġp tr
pe ating
ĠW rapped
11 4
78 9
Ġhour s
Ġinters ect
S AP
W ALLPAPER
Ġst ill
ĠE VP
Class Redefinition
op ied
Sub component
UR POSE
Qu ote
ĠmAlarm Manager
5 37
ĠP ublic
ĠV ertical
32 4
18 9
Gener al
Line age
bn b
2 50
ĠB OTTOM
Ġis P
Ġpro be
ĠmL ocale
If Necessary
avig ator
ĠPrint Job
ĠPKCS ObjectIdentifiers
PRESS ED
b ook
Ġf ire
Pro vides
Ġlist Files
Ġregist ry
ĠString Res
ĠI InvocationContext
ser ted
AD DED
ĠPackage Parser
ĠDisplay Manager
ĠICU ResourceBundle
3 14
ch anged
ĠI KE
ĠmS lot
ĠmP layback
Ġtransaction Id
Ġ" ;"
ĠR ational
Ġfind Item
Wifi Entry
ĠShadow s
Search IndexProvider
s imple
Ġget Runtime
Ġset Source
Map pings
36 9
Cell s
Ġpush Follow
ĠFuture s
Ġhigh er
ĠCLDR File
Ġair bnb
Ġm Attach
ĠI face
Type Exception
Log ical
Ġuser Data
ĠComp act
19 7
Ġqu it
IP V
ĠAccessibility Manager
d x
in ject
ti ary
ĠAn chor
Ġmin or
Det ect
Reference s
Carrier Config
Ġg ood
Re st
Window ingMode
Ġed ges
AW ARE
Ġqual ity
ĠPermission s
ĠRestricted LockUtils
ĠgetSupport FragmentManager
ĠITestNG Method
+ )
D riv
Ġm Record
ĠE LEMENT
Time Stamp
Ġiter ation
Ġsw ipe
Ġcertificate s
ul ian
Ġl r
State ChangeListener
ĠSign er
ca ught
Ġinstruction s
ĠTestable Looper
lemental Data
b ms
Ġm Set
Ġm Policy
ĠT RI
ĠD ist
ĠN S
Ġhas Message
VI RTUAL
29 0
Ġswitch To
Failed Error
ĠVis ibility
dmi Cec
ĠZen Policy
3 88
S m
Ġr d
ĠP HO
Key Value
AB ILI
UN K
def ined
ĠPhone Lookup
Ġaccount Name
veloper Options
ĠgetBoolean Extra
AE P
Whitelist ed
ufact urer
Ġm Options
ĠAbstract CommandHandlerTest
Ġday OfMonth
Http Client
ĠPixel Format
Ġ2 22
ĠgetS QL
24 8
As List
ĠApp Info
Ġdt m
Ġattach ment
Ġuninstall Package
HARD WARE
Ġget Stream
Ġset Parent
With DataSet
Ġinput Digit
34 4
54 8
Ġ12 1
H INT
Id To
Ġis C
RE CENT
Request Builder
001 0000
44 4
ĠAtt ributed
Ġtelephony Manager
More Keys
Ġautofill service
ĠCancel lationSignal
Ġget Non
ĠS ORT
ĠR AD
Mode Impl
Ġx x
ĠgetS im
CH ARG
AAAA B
ĠLocale List
Del i
ĠSymbol Reference
c lear
Ġs alt
Ġadd ClickHandler
Ġrequest s
Display ed
59 8
PH O
Bug report
sec urity
Ġparsed Message
dis abled
Ġwrapped Node
ĠReg Ops
5 20
oo ts
ot o
IN SERT
Al Q
ĠG sm
ĠW HERE
Ext ender
ĠmS ocket
Feature NotSupportedException
AND OM
Ġass ign
ĠAnimator Set
ĠAnimator ListenerAdapter
PI CK
Fetch er
Ġis Ext
os en
Ġlist en
Sp arseArray
80 8
ĠSimple Callback
Ġlock s
CENT ER
Vendor Hal
Sav ings
ĠEOF Exception
PHO TO
M erge
v p
Ġset Client
Ġtest A
Comp osition
Ġwrite Utf
16 2
Change Event
SA VE
Ġdi vider
IRE D
rupti ble
3 55
ĠT WO
ĠO ther
ĠB AD
Ġpermission controller
mall Icon
ĠFragment Controller
L R
T AL
j rah
Ġj avap
ĠH OST
US P
19 6
yc ler
Ui Visibility
76 7
ĠmE ap
Gen ParameterSpec
ĠOB JECT
SCO RE
ĠASS ERT
STRE NGTH
ĠassertInt Equals
ĠRB BI
3 57
E arly
p ng
Ġin formation
Ġget Generic
Ġset ReplyCode
ĠLog View
ld own
Notification Row
Server SocketFactory
Ġblock ing
Ġmod ify
ril ldown
1 33
s B
Ġm Configuration
Ġput Edge
EX IT
Enc ap
ĠSettings Activity
PRO TO
Ġrep resentation
Use s
Fil led
seud o
ĠmapField Info
3 12
Ġget Depth
ĠC ANCE
ĠC losingFuture
ĠF avorites
Ġpro b
34 6
Ġinstall er
full y
ĠNANO SECONDS
C nt
G ravity
P BE
ing Type
ri tory
ĠP si
Ġtest File
Ġap is
ĠColor Int
Supp ressed
ĠScript Intrinsic
ĠValid ation
ĠgetElements ByTagName
o ption
al ette
ĠC AL
ĠP lay
View Group
arg est
Per formance
Ġoutput File
39 8
Ind ication
Te lephonyManager
Def s
ĠPRO FILE
Files Dir
ĠSI MPLE
ĠPop up
H ALF
R anging
d iff
s Lock
ĠS K
Ġ1 52
Ġset Group
Un ary
Session Params
ĠmR aw
Ġmap ped
70 9
ĠAss ume
SUP PLEMENT
Ġlevel s
ĠScan Settings
ĠputAll FieldMap
5 16
M ajor
U mm
Ġt t
Ġis Le
Ġdo Main
37 7
Switch Preference
ĠInput Type
Right Vector
Part icipants
ĠgetTarget URI
olid ay
ĠBlocking Queue
H H
S OL
Ġget Command
Ġset W
Ġk ernel
Ġappend To
Action Listener
pr one
Lifecycle Event
ĠFail ing
ĠVersion Info
ĠonAnimation End
Styled Attributes
AlQ ura
Ġc reation
Ġm Results
Re peat
App Op
ĠCol umn
Number Format
\" \
ĠWifi EnterpriseConfig
ĠLayout lib
Ġbit Length
ĠAssertion FailedError
F ling
R OUND
j dk
t rigger
Ġs oft
Ġget Delegate
ĠgetNext ValueAs
ĠgetDeclared Field
Hmac SHA
Umm AlQura
Ġm Permission
Ġ" ==
ĠV ibration
Ġappend Path
Ġwrite Short
Exp ired
Output Size
ĠFLAG S
ĠCalendar Contract
47 9
Timeout Ms
Ġretrie ved
SUR ROGATE
Mat erial
Ġget NumberOf
Ġset B
ĠL ex
Ġ2 16
Ġ4 56
ĠmC ategory
ĠmS upported
32 9
ĠmP rivate
As Stream
58 9
Ġq s
HT ML
ĠSSL Session
ĠIo Utils
ĠDocumentBuilder Setting
D ark
Ġm Calls
ĠB lob
am ma
AC ING
TE CTED
No Tag
22 8
ĠDecimalFormat Symbols
Magn ification
entral Directory
5 36
B r
me ga
ĠT ether
De p
ay be
ĠActivity Options
Root Impl
Ġunit s
abc def
14 2
COMPLE TED
o et
Ġc overage
St all
ER IES
64 7
30 1
28 9
Ġobtain StyledAttributes
Ġblock ed
ĠgetChild ren
FRAME S
Ġcenter X
ĠWifiMetrics Proto
ĠJoin er
3 10
Ġa idl
Ġe queue
oo st
us able
em ant
ĠList Iterator
Long Press
57 9
Timeout Millis
Ġproperty Name
Exc lusion
LIC IT
ĠAND ROID
ĠatLeast Once
3 16
Ġin Off
Ġget Timestamp
ul se
Ġr Bytes
Ġd os
OL ER
Ġerror prone
57 0
Ġrec ipient
Selection Status
ĠStream ing
MODIFI ED
ĠGrego UmmAlQura
ĠGregoUmmAlQura Map
3 54
S O
Y DV
ĠN oop
ĠTest Run
ĠgetS uper
55 4
MIN UTE
CONTENT S
ĠNot FoundException
ĠgetPri ority
V C
re ply
ss ist
Ġset Request
AA Q
Status Callback
SER IAL
37 9
Ġslot Index
3 17
M ust
re set
Ġr ank
ĠT IT
Un used
24 9
Position s
ĠFIL L
on ts
Ġget Proxy
ĠP FLAG
row se
Ġsuper class
ĠTh is
ĠXml ResourceParser
ĠUN DEFINED
Ġrange Set
00100 16
00100 14
00100 17
H AL
s u
Ġm argin
la d
ĠST OP
58 7
ĠZip File
Ring ing
arsh al
GP P
ĠDoc umented
I LE
v ac
in ct
il led
Ġcount s
Api Level
PO INTER
OD Y
periment al
5 56
G MENT
P m
S N
z ing
Ġget Frame
Ġst ored
ĠS CAL
ĠmR ule
Ġrec over
39 7
ĠmMedia Recorder
H y
H ASH
Ġi tr
FA ST
Anim ate
Float ing
ĠDownload Manager
ĠStrict Mode
Pip eline
k ely
Ġm Stream
View Type
Input s
ĠcopyOf Range
ĠSensor Manager
Ġcenter Y
F LOW
s cheme
Ġp lace
Ġt ap
Ġget New
Ġ1 18
ĠV cn
40 4
ĠEN CRYPT
CALL S
Reason s
ĠgetE lapsed
Lat in
ĠgetColumnIndex OrThrow
F irmware
S aniti
Ġm ISupplicant
te p
Ġf ollow
ag raph
ĠS ave
30 6
Descriptor s
ĠNotification Backend
Translation Y
ĠChecked Runnable
S ys
Ġtest Start
ĠView Debug
ĠClass Info
Default s
ĠK eep
19 4
Enc losing
ĠmF oo
Page s
00100 12
Ġapk sig
ĠChrono Local
Expect ations
DataSet Changed
w izard
Ġf irmware
ĠB IT
To Remove
Data Stream
Ġpar a
59 7
Ġab i
ĠcheckCompleted Normally
ĠPHO TO
Ġjavap oet
st yle
Ġm Hal
Ġf air
Ġin iti
th read
Ġhas Focus
ĠCh ooseLock
26 7
Ġlayout lib
ĠPRO VIDER
Open ed
ĠWork Source
emp tion
ĠisInstance Of
Ġj avac
For w
Util ities
Method With
56 8
ĠmL ink
ĠMedia Router
Ġ20 8
ĠTR ACK
Static Info
ct xt
ĠCOMM ON
Ġword s
ĠCancel lation
S ending
Ġs igned
ap ing
Ġset Audio
ĠI ME
Ġis On
AL T
ATI O
Update Monitor
Wifi Configuration
Measure ments
G ap
d ig
Ġp p
Ġm Started
Ġf p
Ġget Alpha
ĠW OR
Ġun filtered
40 9
ĠSimple Instruction
ĠmG oogleApiClient
Ġplay list
overable KeyStore
ĠsetImage Drawable
Multip lier
Ġattemp t
2 17
Ġp fd
ĠP AYLOAD
ĠP olling
ĠL T
ĠF TP
ID S
Stream Listener
Null PointerException
Ġbuilder ForValue
Ġremove View
Ġ9 5
Compat Activity
ĠSt dType
Fill Response
ĠStdType List
ut er
Ġw orld
ĠE P
ĠmS ms
TER MIN
Bar s
Calling Uid
RES OL
COR RE
G AIN
Ġm Logger
oo ps
To Index
Ġold State
Touch Listener
Ġserial ized
EVENT S
ĠWAR NING
Ġm Visible
Ġm isc
Ġ1 000000
uff ic
Per form
27 9
ĠAN IMATION
ĠgetMeasured Width
Consume d
P an
c alendar
ot seat
Int s
To Add
AG ENT
ĠG radient
ĠG ENER
ĠPath s
ĠgetA utofill
ĠInput Device
Ġce iling
OPER ATION
D om
Ġm ul
In Picture
Ġr ssi
26 8
her it
Ġmkdir s
T rim
Ġth umb
Permissions Util
ĠAT T
Ġtrace End
Ġzone Id
F ix
M ute
st ub
Ġm Quota
Ġget Level
Ġh istogram
ĠDevice Policy
Ġcompare AndSet
ĠCamera AccessException
ĠFormat ted
Ġwork er
L ost
Ġm Caller
Ġget OutputStream
36 6
CRE DENTIAL
ĠmKey Store
Ġdet ect
ĠPredicate s
S LICE
Ġm Editor
ra b
Ġset Position
Ġset Output
ĠI Ims
Ġcomp act
OL DER
Check box
QU ARE
ĠBefore Class
ĠCell SignalStrength
Ġsimple CompositeCommandHandler
ĠEapSim Aka
2 59
Ġto ast
AB ASE
33 9
ĠEX ACT
Ġfunction al
ĠDis k
Ġdisp ose
WAR NING
H ooks
Ġs Test
Con nectivityManager
ĠE OL
DE SCRIPTOR
Ġstart Tag
Content View
Ġz e
Configuration Exception
BO O
1234 5
Ġph ase
ItemSelected Listener
ĠDer Value
ĠgetUri For
Ġincall ui
s uper
u ous
PE CT
Ġx ctxt
DI M
Ġper mitted
Ġservice Name
dis able
ĠInputMethod Subtype
lli j
ĠRelative Layout
Ġsk eleton
can cel
OLER ANCE
D ROP
ver b
Ġd fs
ens ible
Cap t
Version Code
ĠmRe gion
RET URN
EXEC UT
5 88
P ol
W rapped
Ġf amily
Ġis String
ĠmL oad
Channel Id
Ġbuffer ed
15 1
26 9
Line ar
Ġcap s
ĠSQL Non
Ġtrace Begin
ĠgetCount ry
Cast ing
Wake up
2 76
5 99
5 14
N r
R ank
R ATIO
V AR
e ign
at ype
Ġm ag
Ġin Stream
ap d
ĠR tt
ĠTest Map
Ġdo Common
Ġof Hours
VER SE
ĠgetP eer
60 9
ĠMessage Format
ĠUN AVAILABLE
WAIT ING
Candidate s
lad ium
2 10
ac ent
Ġadd Field
Ġbuild Info
Ġmax Width
Back off
ĠmMock BuildInfo
Ġnetwork Type
Off load
ĠIke Payload
ĠProg rams
ĠSpannable String
4 17
L int
Ġc loser
Ġt p
Ġb rightness
is ode
ĠF lex
Field Id
Ġwrite Lock
Ġ8 6
ex ec
ĠsetContent Title
ĠExpandable NotificationRow
6 32
ra st
Ġset Accessible
ĠB ugle
Ġu icc
Ġtest Manager
Ġcreate TestSuite
Length s
ĠBluetooth Headset
OP S
Day light
ga uge
C TIVE
P r
Ġp t
Ġf uel
Ġt ether
Ġst opped
Add All
ĠAn y
ĠgetB ody
Local ized
ĠPhone StateListener
Ġengine Init
Under lying
H I
p rivate
Ġm Pos
Ġv ladium
ĠC sm
Rec overable
55 8
Ġwith Features
ĠRes p
Ġinte llij
verti se
3 59
M ost
T C
l f
Re ached
Ġset Parameter
AA B
ĠgetS econd
ĠIntent Sender
24 6
Color Filter
40 7
00000000 0
utom atic
ĠstartActivity ForResult
ĠmImage View
ĠBL ACK
SUM MARY
4 78
B us
ap ex
IN STRUCTION
Ġcomp ressed
ell Checker
PreferenceController Test
ĠAs ynchronous
Ġ99 9
irc ular
ĠMAN Y
ĠASC II
ĠCANCE L
BOO LEAN
5 32
Ġm Component
Ġr c
ĠString Prep
Ġset Span
ĠL ookup
To Be
Byte String
Ġann otate
Col lapse
Extension Lite
35 1
Ġ# "
on nect
Ġget Exception
Ġset Callback
ĠP IN
ĠTest String
ind ing
ĠmC lick
Of Day
CON F
Image Reader
ĠUsb Device
Ġsuggestion s
LAT ENCY
ĠSys ui
ĠWIRE TYPE
Ġf t
ĠL at
Entry Point
Ġcheck Not
Network Request
22 7
Ġphone Account
B ut
M il
c md
â Ģ
ĠB le
Ġ2 14
Ġdata Spec
ĠFloat Buffer
ĠLine ar
pre p
ĠJob Scheduler
RS SI
St able
ĠP os
Ġ2 27
12 1
Ġsp annable
QU ENCY
39 4
ĠSH ARED
ĠgetDisplay Metrics
STOP PED
D atas
S o
SE phemeris
ĠRe lation
Ġy et
Sub mit
Ġz oom
ĠCommand Status
GR AN
ĠEx ternal
ĠMET RI
ĠItem Info
ĠgetMeasured Height
Z ED
p Device
Ġi ssue
le st
Ġc rc
Code Test
Ver tex
Init Data
BR ACE
ĠLocalized Formats
M ENU
Ġf c
ĠD URATION
ĠN av
Ġadd Edge
ight Mode
ĠUN SPECIFIED
Power Save
Global s
High light
2 18
6 36
S DK
Ġj c
ĠgetS ecurity
Dec omp
Capture Result
ĠSUP PORTED
ĠInputMethod Manager
ĠPool Cleaner
ĠLayoutlib Delegate
ĠTIT LE
p Iface
s uccess
ĠT ensor
ĠSet ting
ĠCall Options
b g
Ġget Date
Ġr ing
Ġ2 48
Al arms
24 4
ĠgetB ottom
29 8
Ġsystem Id
ĠAC TIVE
ĠHe alth
ĠmRec yclerView
Ġwhite list
Ġm Comp
ĠT oolbar
Data Item
Listener Service
By Default
ĠSystem Service
ĠmB l
64 4
54 4
ĠgetP ixel
49 6
ĠCap ability
3 18
I cu
e ps
l uc
Ġm At
Ġset Log
ĠonCreate OptionsMenu
OC I
col umn
Require s
ĠAsset Manager
Ġfree ze
in stalled
ĠS ervlet
Ġ6 00
Ġun wrap
Ġbuild Partial
Block Cipher
Ġle ad
Ġregister ContentObserver
Ġmake MeasureSpec
Ġbind Service
pre f
ĠBuffered Writer
ĠgetItem Count
Ġzz Off
ĠDex Backed
ĠMoblab Rpc
G rpc
d oc
l ision
w rong
Ġs d
Ġset A
Ġset An
ĠI FACE
ĠI TEM
Ġapp Id
AA AC
Ġ7 4
55 7
Sec retKey
ĠAndroid Package
ĠSE VER
Ġcomb ined
Ġunder lying
D at
G ot
er ated
Ġp c
and box
ĠP ooled
Ġpar celable
DE LTA
Un install
Or Default
ĠUn modifiable
ance d
1111 1111
3 50
Ġt ko
11 5
Session Manager
Ġline Number
Subscription Info
3 19
A INT
C e
S fixed
In s
ĠI CON
ĠD I
With SHA
ĠgetName space
38 6
Ass ignment
Monitor ing
Attemp ts
lev ation
2 15
N AIL
RE PORTED
Ġy ou
Change Handler
ĠgetB est
Ġjob s
ĠmWindow Manager
Percent age
ĠDIRECT ORY
ĠgetSQL State
N ATIVE
v d
Ġst rip
Ġimp lem
ĠM ICRO
ĠP R
IN AL
State Callback
Ġdata Size
Ġtime d
Ġwork ing
ffic ient
fail ure
Ġcon nectivity
ĠN ew
ĠCon vert
Sh a
Controller s
ust ed
13 5
01 00
Report ing
ARE A
ĠsetS mallIcon
Java Parser
ru Cache
ĠE M
ator y
SE QUENCE
Reference Time
char acter
ĠgetSub Id
Organ izer
Ġcom ments
Ġdo InBackground
AS SI
Met ers
64 9
Bar rier
ĠMedia Controller
Ġq Name
pre fix
agnost ics
throw s
3 58
6 12
N AMIC
c lose
Ġ Quick
Ġm Admin
Ġget Q
ap pe
IN VOKE
Ġ2 36
Resource Exception
ĠX sd
ĠCont ain
Draw er
MB CS
RT L
ĠWifiNetwork Suggestion
4 18
6 39
Ġm Proxy
ĠR GB
Ġk ill
Ġannotation Type
Ġla zy
17 5
ALL ENG
ĠSh ader
29 7
Dump Proto
local host
ĠProduc er
ĠIndenting PrintWriter
ĠisExt ensible
F it
c ategory
Ġc losing
In jected
Ġe asy
Ġre versed
ĠI G
ide a
Ġk nown
ĠH ardware
Buffer ed
ĠPro vision
Ġremove On
\" ,
Qu eries
57 7
Ġ12 5
60 1
ĠmClient Token
cap ture
ĠisNot EqualTo
Correc tion
T AIL
i ring
Ġi mi
ro tt
Ġget ByName
ĠS RC
ĠP eer
Ġis Showing
per f
Ġfloat Value
Window Focus
Bound aries
ĠSuppress Lint
ĠRawContact Util
LIBR ARIES
R am
et ype
an im
Ġread Only
From Window
Node With
Ġfilter show
Ġprocess ed
ĠSSL Parameters
Pager Adapter
Ġimplem ented
E quivalence
l b
n av
Ġm ig
Ġm iddle
ĠA bsolute
Ġset Index
ĠP lugin
Ġ2 44
Ġde s
55 9
22 9
Ġaccess Point
ĠgetDisplay Id
Incomp lete
Ġelapsed Time
Ġrpc Call
ĠProgress Bar
VERS ATION
# "
th ing
Ġ2 29
Un re
UN SUPPORTED
par ate
AND ROID
EL LY
ĠShadow Application
ĠDocument Info
SELE CTED
Ġseek Bar
Comb in
P ow
W ire
ĠR FC
ĠB ridge
Type ID
Mode Changed
Ġsub Builder
Ġaddress es
ere o
Ġsupp lier
ĠgetFile System
s q
t as
Ġ" *"
Ġget Interface
se s
ĠC RC
En h
ine se
LO C
Ġcommand s
SERVICE S
ĠSSL SocketFactory
ĠUi Automation
BE AN
Assist ed
ĠPart ner
PBEWITH SHA
Ġfuel gauge
G rammar
c rete
Ġset App
Device Owner
Sc oped
ĠLog Record
Ġatt ached
ĠThread PoolExecutor
pre sent
LET TER
ce ed
Ġa scii
Data Enabled
ick name
Ġok io
======== ========
ĠPriv ileged
J P
r w
Ġ" ..
Ġget Prefix
ĠT ar
ĠI TYPE
Ġ10 6
80 1
Ġposition Us
Regist rar
60 7
ĠAccess Network
ĠInt s
ĠRegion Code
Descend ant
4 99
5 28
L ess
g g
00 7
ĠD x
Ġapp Row
Ġdevice Info
Ġnum eric
ĠShort CodeTest
ĠMetrics Logger
Assist Data
ĠmSp y
ĠDo ze
ALLENG E
T X
s Count
Ġr v
AA AD
Ġ10 7
ĠType Parameter
Short String
46 9
IX EL
4 10
4 37
c ise
e fficient
Ġ" }
ĠB ER
ĠB ip
For SubId
Ġon Prepare
RO LE
ĠmL oader
Ġoutput Builder
Executor s
ĠTemporal Unit
00100 10
hand led
000000000000000 2
ĠSK IP
3 11
U dp
t race
Ġset Negative
Ġadd Value
ĠW ait
UN SIGNED
ĠmP age
ĠData Item
BU IL
Ġparameter Types
Payload s
ffffffff L
ssu ers
GEN ER
bit Field
Ġcf g
uffic ient
N fc
Ġm Sh
Ġm agn
Ġset Last
Ġset Padding
Ġtest Method
Ġun ion
Ġ/ =
Ġold Version
PARE N
D raft
F s
P erson
Ġc rash
Ġpro totype
ĠFile Channel
Ġsub scribe
Le xer
ĠSIGN AL
staff NS
Ġ leanback
Ġn f
Ġsh ell
Ġcreate Socket
Package Names
ĠView Configuration
Ġinc ident
Op aque
Left Vector
Ġserial Number
L ang
Ġm Format
re peated
ĠM obile
Ġtest Send
Ġfield Values
no tify
Ġsaved State
ĠCalendar s
Ġmy Uid
ĠFragment Transaction
ific ant
DEN IED
Ġoperation s
4 16
c amera
Ġtest ed
ĠJ PEG
TR UST
Ġdevice Address
com m
Ġresponse Info
Port s
USER NAME
Pool Size
ĠPrint Attributes
Bluetooth Manager
Ab ort
ABILI TIES
4 36
5 39
Ġm Extra
Ġm etered
ue ss
Ġ2 11
ĠE mergencyNumber
ĠCon nected
Ġout Off
Ġwrite UInt
Ġread Boolean
13 1
Ġiter ations
Ġperform Test
Ġtermin ate
ĠmVer bose
Conflic t
RESU ME
Casting Generator
ĠP erson
Ġread Lock
Ret rans
ĠMem bers
ĠOVER LAY
ĠParsable ByteArray
ĠEXACT LY
luc ent
4 66
B earer
D isp
D RI
Ġget Right
Ġget Actual
Ġd dm
Call Count
MAN AGE
Ġsm art
ĠgetIntrinsic Height
ĠmRender er
ĠMissing ResourceException
Ġf unc
Ġg sm
Ġget Url
ĠR ollback
Type CastingGenerator
Ġadd Element
Service Manager
DI FY
32 6
Ġuid s
pro g
Remote Exception
5 19
O id
S int
ĠC aption
ĠD etails
Ġis AtLeast
RE FERENCE
Ġ8 00
ĠSh ape
ĠmMock RunUtil
ĠLong Stream
Ġnon ce
TRAN SI
Succe eds
Proc State
4 19
Ġp be
Ġre order
ĠWindow Container
service s
Ġproduc er
ĠUnsafe Util
U icc
V R
Ġget Services
ress o
AA D
ib ly
ĠmP rint
39 6
Auto Value
Could n
Ġeasy mock
P ersistableBundle
Ġt ensor
Ġget From
Ġget UiAutomation
ur able
ĠC luster
Ġon Layout
sc roll
CON FIRM
Pa iring
sp resso
Ms r
46 8
Ġdump Setting
ĠAnnotation Expr
att en
Dist ro
ĠGroup s
Ġset Arguments
ĠI m
ĠTest Activity
Ġwrite Boolean
Ġy Off
Ġpkg Setting
ĠmRe gister
Ġblock s
ĠmPreference Group
Ġmac ros
( \\
D ST
D hcp
al sing
Ġm Ch
Ġset Un
ĠP ATTERN
Message Size
Log in
12 2
Up load
ĠMedia Device
upport s
If NotNull
Ġopen jdk
Ġresponse Observer
Sync Adapter
Ġsl f
Tv Input
exp ression
initial ized
B IND
L ATIVE
O pcode
S quared
Ġget Run
and scape
Ġre load
ĠIn formation
ATION AL
24 7
Ġstatus Code
DIRE CTIVE
Pred ic
ĠmSc roller
ĠgetI ssuer
Zen Rule
ĠmPopup Window
4 54
Ġm Internal
St d
List s
Transaction Rollback
ĠAT TRIBUTE
Ġreal Compute
Dismiss ed
C ACHED
M C
M AS
P ACK
e quals
Ġc ritical
Ġb eta
Re start
Ġl etter
ĠArray BlockingQueue
Se p
BU ILD
Render ing
ĠIp Prefix
Viol ationException
b ed
Ġget Rule
In CallService
ch o
Ġu ce
as ing
Array Type
ĠWindow Configuration
Refresh Rate
PI CTURE
Front end
ĠHi jrah
4 40
al ic
Ġf g
Ġ" !
Ġset Wifi
ĠM mTel
ER ED
Ġ3 20
Text Color
Ġmock Listener
Rec omm
Ġparse Delimited
Animation Controller
Ġregister Callback
ĠLocal Variable
Recoverable Exception
N IGHT
S low
T urn
Ġp lease
ĠL OW
Ġ' \\
ĠmController Helper
SUP L
ĠmTe lephony
wd CommandHandler
Ġassoci ated
4 14
5 29
B F
W allet
ĠO PER
ĠD ictionary
ĠmR otation
Ġopen Connection
Encoded KeySpec
ĠAuthent ication
F ps
L ING
Ġm Parser
Ġt b
To File
Key word
Ġto k
Ġcreate RawContact
Ġ8 5
Ġ7 1
ĠmD ivider
UT DOWN
Qu it
MODE L
Zone Id
Ġfill In
BR ATE
Ġpadding Pixels
Ġkeep Alive
E A
S CHED
ic Calendar
Ġget Xml
Ġ2 54
Ġext end
Context s
ight Display
TH ING
Ġaction Bar
ĠmService State
ĠParameterized Type
Ġ"= ?"
Succe eded
4 34
L AP
Ġi l
Ġm Conversation
ĠT y
Ġadd Property
RI X
Ġatt rib
list ener
ĠgetComponent s
loud StorageInfo
ĠEndpoint Pair
C i
H ISTORY
I KE
M ean
P SS
Re direc
od ay
Un ion
Spec Exception
Invalid Authorization
ĠSt op
hot os
IST IC
Part icipant
with RSA
Constraint ViolationException
Syntax ErrorException
ĠSearchIndexable Resource
Integrity ConstraintViolationException
TransactionRollback Exception
InvalidAuthorization SpecException
a u
Ġp icker
Ġm i
de lete
Ġ2 39
Ġon Session
ID ATE
ard own
ĠJ ELLY
88 7
Ġdisplay Content
27 7
Ġinitial ization
cont act
Ġfoo ter
ĠBattery Tip
Ġ'" '
ĠBi Function
Ġe ffective
Ġ1 98
if ted
Sh aper
Ġcontent Uri
64 6
Ġcontains Value
80 2
Token Stream
Direc tories
Query Builder
Restric t
ĠLocation Manager
147 48
O TE
Ġp ipe
To Bytes
AN CED
ĠKey Chain
Ġfind First
30 3
Access ory
End Time
Store Data
ĠRec overy
ĠCount ing
Ver ified
SUP PORTS
Ġday OfWeek
Ġchunk Size
Pixels Allocation
HEAD SET
ĠgetIntrinsic Width
B uddhist
E uicc
Ġf l
ĠIn stanti
Call Expr
Al ts
ĠG PS
ĠW ildcard
Ġhas Extension
KEY BOARD
ĠgetC ached
ĠmT uner
Output s
48 7
Ġresource Name
ĠAnim atable
Ġzip File
Ġretain All
j i
an y
Ġnew File
ĠC USTOM
ĠR ingtone
OR IG
Ġdata Item
mpl ar
ĠClass Path
54 6
ĠState Machine
Ġfeature Id
ĠCHAR S
ĠChecked Recursive
Ġrestric tions
5 11
S IDE
s Test
mp loyee
Ġset File
Ġ2 28
EN CODING
ĠV OID
And Type
80 9
Store Exception
ĠVis ual
Character s
Main Activity
Camera Id
ĠHttp Servlet
ĠAPP LICATION
multi ple
celed List
Ġdeclar ations
U ARY
e mplar
ic ense
Ġm Empty
Ġm Events
Ġm EditText
Ġg p
Ġget Factory
Ġadd URI
Sc anning
TH UMB
PRO GRAM
ĠMetrics Proto
Ġsw ing
Battery Stats
Aw areness
A bsolute
et to
Ġget Initial
Con structed
ĠM ENU
ĠB IG
ĠObject Identifier
Ġsp ans
Ġvalid ator
ĠImage Decoder
Ġdate Time
Ġrecord s
Temp oral
URRE N
Ġproduc t
PRIVI LEG
p ool
Ġm SeekBar
Ġn pe
Ġs kipping
ate lli
ĠC urrent
pe aker
De leg
And Port
ĠmL atch
Frame Rate
Def ined
Draw n
ĠgetSelected Item
do esNot
vi ation
atelli te
4 88
N AN
O IN
O mega
Start Index
ĠgetM on
44 9
Ġstr ategy
ĠProto InputStream
CHAR S
Signing Block
Ġcoord s
Enforced Admin
ĠAccessNetwork Constants
P ART
P eek
Ġm gr
Ġget Writable
De adline
Ġarg That
ĠmS erial
ĠgetC urve
Ġdec ision
Ġnotify DataSetChanged
ĠmApp s
Exact Type
CAP ABILITIES
Week days
Ġregist ers
Ġcomb ination
ĠVertical Panel
F our
I SS
I ssue
Ġget Kind
RE Q
Ġcomp osite
10 10
AND IDATE
Ġmedia Player
Len ient
Big Decimal
sid er
Ġpoll First
ĠClone able
ĠEquals Tester
5 27
L TR
Ġ ERA
ĠC al
Ġto Path
ĠG oogle
ĠClass Parameter
No te
44 8
LAY ER
Ġhost s
Ġind ices
Ġrs a
ĠUS B
Ġsupp licant
SEC URITY
anking Map
ĠGuid edAction
FINISH ED
ĠPolling Check
L AND
Ġi ae
le y
Ġr cs
ĠI Methods
og ar
Res ort
set up
con text
ĠgetC ache
PER SIST
for ms
ĠAL PHABET
SUB TYPE
MAN UAL
Language Tag
ĠmMon itor
L ibraries
m un
Ġ ×
st it
la uncher
ĠP ick
Ġtest Builder
Ġ2 15
Ġtry Acquire
Ġrequest Layout
ĠRet ry
ĠDevice Admin
49 8
ĠgetD ay
ĠsetValue Range
Ġdelay ed
ĠWork space
component s
4 90
5 18
D ream
D ict
Ġv pn
Ex change
Ġset Notification
Ġ4 80
Ġnet Id
ANG LE
ie ce
ĠCached BluetoothDevice
SIL ON
ĠTETHER ING
S B
Ġi de
ing uo
Ġget Declar
Ġre stricted
Ġo is
ĠW rong
lu ding
28 6
Observer s
COMP RESS
ĠLock screen
Aw ay
Ġupper Bound
ĠPARAMETER S
X ED
b is
Ġm Entries
Ġv s
ĠC AR
ot ential
ĠF inal
ĠassertEquals ExactType
str al
AP N
By User
Pointer Id
ARG S
ret ty
Ste ps
ĠgetMax imum
ĠmHas Feature
ĠStats d
ĠTE LEPHONY
ĠgetEvent Type
C losure
D ATED
K bps
Ġ Encrypted
Ġb Number
Ġcreate Element
Ġob served
inter ruptibly
ook ies
Ġ16 1
ĠmI cc
Temp orary
200 7
ĠTRAN SL
Tra iling
CM AS
Ġjar File
rgan ization
1234567890 1234567890
5 10
R W
W RAP
Ġset Network
ĠD rop
Ġ2 10
ĠTest NG
ĠG CM
On Mock
20 1
Ġdec lared
ĠZ File
48 9
pro duc
ĠNo tif
ĠgetCurrent State
RESULT S
ĠVehicleProperty Ids
5 50
Call Id
ĠmS uggestion
Ġtime Stamp
ĠText Paint
Ġtag Id
ocus Id
ĠField AccessorTable
Fill Request
ĠLifecycle Observer
RECOR DING
F g
S uspended
c annot
u k
er cise
Ġc dma
se lected
ĠP icture
ot lin
ĠLog ical
ĠgetP ublicKey
PreferenceController s
5678 90
ĠPermission Info
Ġallocate Direct
ĠftpClient Connect
VOICE MAIL
CLO SED
ĠmGlobal Lock
S ensitive
T cp
T unnel
y list
lic and
om b
ĠP ost
ĠB OND
ted Graph
RI T
ĠMock FtpServer
NO TIFY
ĠmL ong
ĠgetP rivate
ĠFloat y
Ġcapture d
ĠPer f
LOAD ER
ffffffff ffffffff
-> .
B urst
Ġg uard
Ġ" ^
Ġset Video
ĠR anging
49 7
ĠmV elocity
Ġstub Socket
method s
orded Programs
Emergency Call
Ġm Job
ĠC ase
Ġ1 96
Ġset Show
up iter
Argument Captor
Ġitem Count
Ġempty Map
IF Y
Ġdraw Rect
ĠSparse BooleanArray
P no
d Options
ec ure
Ġfor k
Ġon Request
ĠDE LETE
ĠTh ai
Ġservice State
ĠAudio Effect
Wifi Manager
ĠmApp Ops
Release d
FACT ORY
Ġem ulated
ĠClip Data
ĠInformation Element
p b
ä ¸
la ky
ĠS l
Ġis Package
ĠL ambda
Null s
ph an
Ġexpected Values
Ġend Of
Ġwith Id
Ġstream Type
58 6
ĠField Type
Ġreg s
Dynamic Shortcuts
ĠImmutableSorted Map
Modification Exception
N M
Ġget Theme
Ġget ReturnType
Ġnew HashSet
ĠC S
Ġ1 19
Ġtest Map
Ġde ep
Ġcreate For
Ġ6 90
ĠmS aved
Ġexec ution
59 6
ĠPreference Category
35 2
IM AL
Man ual
Ġnamespace URI
ĠNfc Adapter
5 26
o pping
16 1
let ion
Ġsc enario
Connection Event
ĠText ToSpeech
Rep lies
Launch ed
ĠConstant Pool
ĠProperty ValuesHolder
ĠFIN ISH
Coordin ates
Kepler ian
$ "
al an
Ġres id
Ġfind Fragment
Input Event
Record ings
ĠRemote Input
ĠgetB egin
Ġgroup ing
Idle Controller
ĠgetResource Id
inc lude
P ID
W R
f x
ĠT OT
Ġj upiter
Ġ2 25
Config ured
Ġsc reenshot
Ġun supported
Network Suggestion
CT X
Ġparse WithIOException
Ġal bum
Ġsp inner
Ġsp readsheet
Ġvis ual
57 4
Ġmake Shortcut
ANT S
LIST ENER
ĠSIGN ATURE
ĠmLauncher Apps
ĠHAND LED
ĠBL UE
ĠYear Month
Ġenterprise Config
w b
Ġ om
Ġget Tree
Ġset Focusable
ĠM AIN
am a
IN DIC
ĠmP du
44 7
ĠmIn flater
ĠCertificate EncodingException
Ġup load
PC M
0000000000000000 0000000000000000
celer ate
Ġrotate Left
ĠOR DER
5 38
C ross
G auge
Ġm gl
Ġn avigation
tion Component
Ġnew Data
ra it
os ing
30 2
AAAA E
Ġnotification Manager
field AccessorTable
ĠGame Object
l anguage
p in
Ġre serialize
ĠU Property
Ġ2 12
Ġ8 4
14 3
ĠRE MO
Ġdec rypt
ending Map
Threshold s
Discovery Session
5 22
p icker
ĠD EST
Ġ2 33
Call Screen
Event Time
Ġdata Type
VI OUS
Ġsc ratch
NE GATIVE
Ġchannel Count
Slot s
Ġcountry Iso
MEM ORY
ĠStackTrace Element
Resort Watchdog
A H
G oogle
P AN
Ġget CommandHandler
Ġb in
Ġst roke
Ġl atest
ĠL IT
Channel Exception
ĠType Spec
Ġmethod Str
Ġshow Dialog
ĠgetDefault Adapter
ĠmN etd
Ġssl Parameters
MI TER
' ..
te mplate
Ġget Only
Ġset ClassName
Ġadd Method
Ġadd Row
Al ertDialog
Field Updater
ĠmS end
99 8
Settings Activity
ĠBase SearchIndexProvider
Ġorder ing
Specific Exception
ĠmCon nectivityManager
Neg oti
ĠWOR K
6 37
S at
S ibling
W akelock
f ont
Ġ Encoder
ar der
un able
Ġtest All
Ġkey Event
88 9
Media Period
ĠSp readsheet
Min ute
ĠImage Reader
ĠgetContent Uri
ĠBuffer Info
Tree Click
ĠHttp Response
Part ner
ĠmCached Device
Incoming Call
**** ****
lug ged
ĠReentrant Lock
Ġ'\\ '
ĠgetWritable Database
P ING
S LEEP
Ġi i
Ġget On
Ġget Mock
Ġset DataSource
Type Param
Data Usage
15 3
Testing Runner
Di agnostics
ĠAndroid TestingRunner
Ġcert Path
ĠOP STR
F UL
x es
ĠN F
SER VED
AS Y
Exp l
ĠmP ort
22 22
ĠAudio DeviceInfo
ĠVis itor
ĠmF ingerprint
ĠVER TICAL
ĠResult Set
Country Iso
Ġlower Bound
Skip List
Increment al
Ġin Denominator
Ġin Numerator
Ġget Access
Ġv ari
Ġb etween
ĠP DU
Id ent
Ġinter cept
ĠRemote Callback
ĠRec ents
ĠMethod Info
PER M
ĠPRO JECTION
ĠgetNext Arg
ĠPO ST
ĠBlock ed
B LAS
b inder
r p
Ġm Runner
Ġget Permission
Ġget Entries
Ġd n
Ġset Extension
App Id
With No
Match ed
ĠgetUser Handle
Ġ"_ "
VP N
Nav Bar
ĠUNI CODE
T rip
Ġ Engine
Ġp ing
Ġm Checked
and atory
ĠD ENSITY
Ġde adline
Ġcall Options
Le ak
Ġentry Name
Ġal iases
ĠChar Array
ĠgetM enu
Ġrec ursive
Ġextension Component
Remote Input
Mask ed
ĠgetO riginal
ĠmRec ent
ĠsQL Non
Margin s
ĠFoo ter
Ġ1234 5
; '
J ump
Ġm Prev
Ġget Optional
ĠD UMP
Ġh otspot
Ġac c
34 2
name s
ĠgetL aunch
COMP ATI
Surface s
ĠStream Observer
ĠProto Log
Dismiss Listener
ĠVehicle PropValue
Fraction Digits
'.. '
F UNCTION
Ġ Reset
Ġm ZenMode
ĠS LOT
Ġset V
Ġis Zero
Ġtest E
Ġadd Expected
ĠgetS ingle
ĠThread Group
76 6
58 4
EM AIL
Termin al
TRANS FER
Ġddm lib
P OR
S ized
Ġm Array
Ġm Handle
ĠC ue
Ġ2 38
Ġon Measure
ĠByte Ops
Ġ9 2
ĠgetM ulti
min us
Calling Permission
ĠError Manager
ĠAN IM
ĠgetMethod Name
ĠSip Delegate
DITION AL
A ugmented
in ity
Ġp ip
ĠS a
ĠR uby
ĠF ailed
Ġ2 37
Ġ8 1
ĠmW rite
Base Test
Ġ69 55
ĠFilter ed
DR AW
Ġpdu DataStream
Aggreg ator
Analy tics
Ġoo s
G uest
Ġm Option
ĠM essenger
ĠI Car
Ġon Result
LO OKUP
ĠmS upplicant
Ġwrite Parcelable
KEY GUARD
ĠmP hoto
Ġnetwork Info
WITH OUT
FRE Q
Retrie ver
ĠwithAppended Id
5 30
L atest
f lag
en v
ĠH EL
ĠSc anner
SA MP
ĠCamera Manager
Ġradio Proxy
cest ors
4 000
D ock
S QUARE
T d
Z h
f iler
Ġm Timestamp
Ġget External
ĠB IO
ĠW E
Lock screen
17 3
Ġelement Name
ĠPreference ViewHolder
ĠmStart Time
ĠgetCalling Pid
Ġ'\ ''
Ġautom otive
ĠTOT AL
L M
l ines
an a
Ġa bsolute
il ename
Ġcom bine
Ġon Notification
ump tion
Ġrec ents
76 9
98 4
ĠDialog Fragment
Do ze
Require ments
EXECUT OR
ĠLIT TLE
F B
S USP
d uration
Ġm ant
ĠA M
Ġd up
Ġtest Empty
Ġtest Put
ĠF ib
Ġ2 35
im fs
Size Changed
Item ClickListener
Ġread Parcelable
ĠCont roller
ĠmR andom
Ġwith Value
Codec s
ĠAnnotation Mirror
ĠShortcut Manager
ĠFast Native
ĠTRANSI T
) ,
u w
Ġm String
Ġm Timeout
Ġr w
ĠA E
Ġw ake
ĠCon scrypt
ine Patch
Ġnext Bytes
Ġrep orted
ĠSurface View
ĠReply Packet
DOM AIN
Ġvariable s
ĠgetResource AsStream
Ġcn av
ĠmProgress Bar
notification s
Thrott le
ACCE PT
Defin itions
B oard
ĠT ONE
Ġvalue Type
Ġcreate User
55 55
Det ach
Ġline ar
77 7
Ġdet ach
Specific Info
Ġfailure s
ĠExtended Mockito
ĠMOCK APP
RESTRICTION S
ĠIRemote Test
T an
c ould
Ġm Query
For k
Tr unc
ĠFile Writer
\" ]
19 1
ĠME ASURE
ĠIms Registration
CAP ACITY
Ġti d
Expect ation
Optim ization
Ġ"== >
B RE
h n
Ġto Half
ĠIn voke
Activity Info
ĠmS ecurity
ĠDE X
ĠData Kind
Receiver s
Ġsign ing
ĠSimple TimeZone
Invalid ate
ĠAccessibility ServiceInfo
ĠmCol umn
Bug Report
ĠResolved ReferenceType
Ġcharacter istic
yy yy
ĠAsset FileDescriptor
ĠRECOR D
14748 364
K AT
ti Alias
Ġm Address
Ġm Owner
ĠS CO
Device Admin
Ġexpected Output
ĠgetS ocket
Ġread Bits
ĠSystem Util
ĠmB iometric
ĠClass Visitor
use s
Direc tive
Pointer Tester
ĠOutputStream Writer
Attach ment
ROT ATION
ĠPrimitive Type
4 12
4 50
Ġm Property
Ġ" }\
ing Call
ĠS uper
Ġre fer
Ġis App
Ġtest Copy
Element Type
15 2
ĠmH ide
NOTIFICATION S
Ġman age
ĠInputMethod Info
B est
I TION
st one
Ġf lash
In fl
ag inator
Ġw eak
De mo
Ġhas Value
ĠKey master
ĠK NOWN
ĠRec ursive
mb da
ĠgetType Parameters
ĠEC ParameterSpec
Static Field
ĠgetRe al
ĠCRE ATE
Normal ized
ĠIpSec Algorithm
E Q
E quivalent
Ġm Decoded
In verse
Ġst ride
ĠN IST
Device Config
Ġread Bytes
ear Down
PO OL
Ġver tex
Trust Agent
ĠResolver Style
| '
Ġ" >
ĠB C
To Array
EN E
AR ATOR
ĠW akeLock
ĠST ABLE
ĠMedia Columns
ex ist
26 6
Ġhead Map
Ġbackup ManagerService
Ġsim ulate
ĠBi Consumer
impl ified
ĠMockFtpServer Exception
s ms
Ġis W
IN F
Ġto Nanos
Ġkey Pair
Ġcheck For
CON STANT
40 6
ĠgetP age
76 5
ĠNode With
69 7
ĠAccount Type
ful ness
FRE SH
Appro ved
4 70
B UM
B ODY
f uzz
Ġm Recorder
Ġa xis
By Admin
20 2
Down loader
ĠY DIFF
ĠAN NOTATION
SPE CIAL
Ġseek To
ĠStack Frame
Adverti sing
ĠReq T
æ ľ
om ial
Sp am
Ġbase Name
ĠCall er
Ġdi v
Constructor s
ĠDatabase Utils
## ##
Ġself Change
ĠTra ffic
ĠEP SILON
URREN CY
D tmf
s ymbols
Ġs ix
ce eded
ĠC ERTIFICATE
ĠS implified
ĠN avigator
Ġtest Runner
Ġon Test
Ġon Set
miss ing
16 5
IT AL
80 7
17 1
Algorithm Parameters
Ġmy Looper
Condition s
Ġinstall Package
ĠRout ing
F ar
Ġm ComponentName
ĠB P
CH ALLENGE
Run On
SH ARED
ĠHash Code
Parameter ized
Ġactivity Name
Complete TextView
ĠgetMin imum
ĠTrack Group
Disconnect Cause
L oops
n ative
x fe
in ate
Ġre ject
Ġtest List
Ġnext Index
Ġal tern
Ġgl Tex
Wait ers
ĠWidget TestUtils
Ġe ar
Re ject
Ġl s
ĠB ucket
Ġmatch ers
OT D
Power State
Syn thetic
ĠgetPhone Id
APE X
Ġtw ice
i vid
Ġm nc
TH ROW
Ġcall F
Ġtime Us
Ġ8 2
No Padding
ĠEN CRYPTION
SA FE
DIS CONNECT
Ġfuture s
REST ORE
Changing Configurations
ĠConfirm ation
ĠA scii
32 3
Host s
Local Only
Ġvisit Method
:// "
Carrier Privile
Cor ner
ĠBACK UP
S ORT
V ING
d et
Ġp lot
Ġs ide
ĠC ASE
ĠString Tokenizer
RE AL
Ġcontent Length
20 3
Ġinput s
Ġintent s
Source File
30 5
Scroll Listener
ĠCamera Metadata
ĠURI SyntaxException
ĠPO SITION
ĠVariable Declarator
ĠRcs Contact
Ġimmutable Entry
edi ator
ĠmRegister ed
celedList Slice
M ARG
Ġm Version
Ġm Include
Ġt int
Ġj dk
Ġset As
Ġinter action
Ġrequest Builder
ĠApp CompatActivity
Ġbits ize
ĠDatabase Helper
ĠLOCAL E
Ġquick step
ĠRegisterSpec List
ĠLive Data
s ip
Ġ und
Ġr t
oc ator
CO GN
ĠLauncher Settings
ĠmDis abled
OLU TION
ĠgetSerial izedSize
ĠREG ISTER
DEST ROY
Ġhad Error
ptic Curve
ĠP Expression
Ġadd Or
ĠG RE
ĠView Node
Sub tract
Ġgr anted
ĠInter preter
Ġnetwork Suggestion
Min or
Ġjson ToString
Exit Info
ĠPart icipant
Ġut f
ĠOffset Time
Ġinst ead
Sk eleton
Keplerian Set
A ID
M nc
V OL
Ġc as
Ġm Requested
Ġm Decor
Ġget Transport
Ġget Authority
Ġb c
Lock Screen
Ġcall Session
And Log
Ġro aming
PER CENT
Capture Callback
ĠSecurity Test
Work space
ĠmN fc
Alloc ator
Tra il
SUR FACE
I ps
P Y
on Create
Ġget Packages
ver ity
Ġd sa
Ġset Long
Ġtest ers
Ġadd Category
Ġapp compat
Ġinter ceptor
Ġwrite Text
ĠSec ret
REQUEST ED
rip ts
Trust Anchor
wh ite
6 24
Z ygote
a o
in ess
Ġi llegal
Ġ2 19
arg er
ĠDE LTA
Ġarray Size
Token Type
ĠDevice JUnit
ĠNO TIFY
Ġdid n
fin ite
-------- --------
[] ,
RIT ORY
ĠBIO METRIC
) \
4 28
f ree
t v
Ġp b
re et
Ġget Volume
Ġint To
om eter
Ġapp Name
Config ure
Sh im
ĠKey Mgmt
ĠmT able
29 1
ĠComponent s
IFI C
IF EST
Last Call
Ġab c
5678 9
Sorted Map
PublicKey Info
ru ption
DEP TH
ĠResp T
f ra
j pg
Ġget Controller
Ġget Stats
Ġe spresso
Ġtest Un
Ġtest App
ĠType Id
ĠApp State
EX TRAS
SP AN
ĠPreference s
ĠSSL Exception
Ġduration Ms
Since Boot
Bal ancer
Numeric Address
C leared
N AV
j a
Ġget Password
Ġ1 30
Th ermal
ĠH istorical
Thread ID
Client Service
Ġthe Socket
ĠCommand s
25 3
Bluetooth Adapter
ĠMediaCodec Info
Ġprotocol s
Translation X
DRI VER
4 59
T AP
o use
s Adapter
Ġget Pro
ĠA X
Ġd ut
Call Manager
Time Suggestion
Display Manager
44 6
TimeZone Rule
ĠConcurrent ModificationException
ĠDH CP
amc order
ĠReg ular
ĠmBound s
4 39
= >
S af
p an
q l
Ġget Manager
Ġset Password
TE X
VI SIBILITY
Thread Pool
As ia
Stack Event
MODE S
Ġbit rate
ĠForkJoin Task
MULTIP LE
ĠsetNegative Button
4 22
Ġ eng
in sert
or ig
ĠC E
ĠM ovie
AL IGN
Ġevent Id
ĠType Name
Settings Helper
Ġ20 1
ĠNull PointerTester
98 7
History Arguments
ĠgetLine Number
SCO PE
Ġarch i
o ptional
Ġm Perf
ing Cache
is o
ĠD et
Table Attribute
CALL ING
Auto Fill
Cell Info
ĠEGL Config
Sorted Set
PRIVILEG ED
INDIC ATOR
R adi
p acked
te l
Ġn n
Ġget Contact
In bound
un istic
ĠA hat
ĠM Y
Ġclass Path
ĠRun ner
Ġatt ribution
Uri Permission
ĠApp endable
Ġ/ >\
TO O
ĠmActivity Manager
Work Source
ĠProvider Info
ĠVms Layer
ĠHal f
riendly Name
ĠRAD IO
ĠThai Buddhist
6 26
B uff
H J
S z
Ġget Digest
ĠD ONE
Test able
IL Y
Is Initialized
Client Auth
ALL BACK
Feature Id
ĠmH igh
PO SITIVE
Ġenc losing
ĠParam s
ĠsendMessage Delayed
ĠBreak point
REGISTER ED
Associated Layer
ĠmAttach Info
( %
N avigableMap
f g
r Code
s kip
Ġ1 40
Ġset Connection
Ġcreate File
LO OP
DI GEST
ĠDe flater
Ġ9 3
ĠgetL ink
pro c
ĠDouble Stream
ĠID NA
ĠGO OD
ĠStringPrep ParseException
G Y
M ixed
P ONE
Ġc m
Ġget Protocol
Ġh df
to String
ĠmS rc
Is olated
22 33
ĠCar Audio
vers ations
sing le
Ġdef s
2 35
S mart
Ġt ng
ĠS mart
Ġset Mode
ĠU rl
Ġ2 46
ED GE
Ġac cum
Object Exception
Ġall ocation
Ġ20 2
Parent Node
Ġlocal Variable
Ġdex fuzz
Ġreport Error
ĠmTe lecom
ĠBind s
Ġdescending KeySet
ĠObservable Property
ĠConvert er
ĠAX IS
A u
Ġm Reader
Ġb tn
il mstrip
Ġis Alive
Ġex act
LE TED
ID Type
ID ENTIFIER
ak a
AR ING
Ġlist Of
80 3
Ġoutput Buffer
78 7
Ġcolumn Name
Async Task
ĠmCamera Ids
ĠmNum Columns
Emergency Number
Ġsubscription Id
Ġreceive Message
ĠCancellation Exception
n l
z A
al ias
Ġk epler
CO MB
Ġlog cat
Ġ20 9
ĠService SpecificException
ĠmA r
rin ted
ĠProcess ing
Expr MetaModel
ĠCH ANGE
MI UM
A pdu
F inger
e el
o k
ĠS sa
ĠS OFT
ĠM inguo
ĠN FC
Ġpro ject
ore ograph
ir med
Ġfield Type
Content Description
MO RE
As in
ĠEX TERNAL
TRA IT
Media Device
ĠInt Array
Ġversion Code
WP A
Ġca ption
ĠHdmiCec Message
ĠonPost Execute
ĠSUN DAY
d i
Ġp ol
Ġf n
Ġget Expression
Ġb ag
Ġnew Child
ĠC JK
Ġ2 31
Identity Utils
ĠDIS ABLE
ĠMon key
ĠUnittest Proto
M id
h ardware
Ġm Theme
Ġm Assist
ĠA bs
ap tive
ĠP in
Ġ2 17
Sc ores
At Time
54 77
Ġdef ined
ĠCALL BACK
RECEI VED
ĠSplit ter
H oliday
P OLL
ĠA pex
Ġ1 82
av ing
end ation
Ġex ercise
Context ualCard
ex c
ĠSc enario
SY S
ĠmDis c
ĠVms AssociatedLayer
AndWait For
4 55
T mp
ub e
ort unistic
Ġb iometrics
ĠC EN
ĠT OUCH
Ġw ant
Ġ2 53
ĠTest Base
ĠW h
ail y
ĠLog Wrapper
Comp iler
Ġappend IfNotNull
Ġhas Remaining
Content Type
Group ing
Ġ7 20
Finish ing
Ġover flow
Working Directory
P ast
r ink
Ġm Post
Ġb p
Data List
ĠFile Reader
Ġmax Length
Long s
Ġload Label
ĠCALL ER
Ġsupp ressed
Bl acklist
ĠCanned FillResponse
usp ension
ĠCheckedRecursive Action
E mbedded
b and
w arning
Ġp ivot
Ġget Style
Ex periment
as er
Ġon Get
ĠW AKE
Ġ20 6
70 6
Ġstub bing
should Not
ĠStream Configuration
ĠsetContent Text
ĠSms Manager
Ġwri ting
ĠonView Created
Ġri l
Ġmicro s
Detached FromWindow
etermin ate
ĠSecret KeySpec
A DED
T z
y ear
Ġt urn
ĠG ANS
ĠmM an
ĠIN TERNAL
Vis it
ĠKey Value
Attribute View
ari ate
Ġ20 11
Range Set
Ġstop watch
Ġjob Object
Shell Permissions
Qual ified
ĠIcc Card
H MAC
et est
Ġget Fragment
Ġget Dialog
Int Value
Time In
Un bind
Ġcomp ound
Ġcomp ose
Lock Task
Us ability
Task DisplayArea
QU ERIES
39 2
ĠXml Suite
Op acity
ĠVoid Visitor
Ġmeasure ment
ĠRelative Unit
ĠwithAppended Path
4 58
Ġa Bytes
ĠS TY
ĠF rontend
IN STANT
Ac os
Ġon Package
Ġon Load
Comp act
ĠRe peated
Ġx mp
ĠmS m
ĠmS wipe
And Validate
Ġload Library
60 6
ĠAbstract Map
ĠmI face
ĠStub FtpServer
Activ ation
Ġpixel s
Optim izer
ĠRSAP ublicKey
Ġdeg rees
oreograph er
M N
or ities
Ġm Resource
Ġget Ims
Ġis Type
ĠKEY GUARD
Ġcalling Pid
ĠmApp OpsManager
ĠProcess Stats
Ġwork Source
ĠSUB SCRIPTION
AK A
scriber Id
ULAR ITY
COMPLE X
ĠexplicitCast Argument
ï¿¿ \
Ġm Ac
ert ices
Ġd river
Ġassert Stored
Group Id
ool s
Ġclient Host
48 6
INTER RUP
Ġfunction s
ĠsetContent Description
ĠSUP PRESSED
Ġadap t
ĠGeneric Visitor
ĠsetImage Resource
Ġdensity Dpi
Web Server
Der ived
amcorder Profile
4 27
5 33
R ename
Ġ 999999999
et ched
Ġm Check
Ġimport ance
Re verse
ĠN A
Un interruptibly
ĠG LOBAL
Inter pol
Error Message
Read ing
Sequence Number
Ġnative Set
44 44
STR AINT
Ġelement Type
ĠDirec t
ĠmDis miss
ĠBackup Manager
ĠOVER RIDE
ĠSound Trigger
ĠmMockI Device
D aemon
St ar
oun cer
ĠE AB
ID ENTITY
mi se
RO KE
Log Filter
Ġtarget prep
IT OR
ĠMessage Only
Ġinc lusive
Elements In
ĠScan Detail
rt c
ĠonRe store
ĠmDb Helper
ĠCertPathValidator Exception
ĠMessageOnly LogFilter
( '
( ?
4 60
i versal
w ap
Ġa Sign
ac ted
00 8
ĠB rightness
ĠD IST
us ing
Display Names
ĠText Appearance
Window Info
Qu oted
ĠNetwork Interface
ĠNetwork Template
ĠgetD ocument
ored Network
Sa mpling
Registration State
BLOCK ED
LEG ACY
ĠgetParameter Types
Ġpub Key
4 38
B IG
L ng
P AYLOAD
t ls
ut f
la s
Ġj ump
Ġ1 78
Ġtest ToString
View Manager
Ch ap
Ġon Message
Al ign
AR ROW
ĠmD irec
Ġparse NumericAddress
ĠgetC ard
80 4
ĠmMock Looper
Ġnum Of
Wifi Info
Ġcancel lationSignal
ĠTRANS FER
T B
Ġ End
Ġs oftAp
Ġd riv
Ġ1 77
00 9
ĠIn sn
Ġon Failure
Ġon ConfigurationChanged
Inter act
Ġun signed
Return ing
19 3
ĠAbstract CommandHandler
Backup ManagerService
ĠAssist ed
ĠSELE CTION
E c
U D
d s
Ġm To
Ġm Alert
Ġb mp
ĠS ummary
Ġset Y
ĠD UP
Ġadd Node
ĠH ilt
App Focus
Ġcontext s
Preference ClickListener
ĠTh e
Ġremove Listener
ĠText Watcher
33 1
Ġmode s
ĠsetText Size
Ġssl Context
ĠSerializable Tester
Cons ist
ĠShell IdentityUtils
Ġcla mp
ĠgetSubscription Id
ĠCopyOnWrite ArrayList
Chap V
P sk
Ġs id
Ġget Global
Ġv ogar
Ġadd RepeatedField
ĠTest Rule
Ġrun ShellCommand
Item Count
ron et
ĠComp lex
name d
37 5
Ġ12 9
ĠmI me
MIS MATCH
ĠmE ffect
Wait For
ĠmDisplay Id
Split ter
Ġloc ator
Occ upant
Aggreg ated
ĠPLAY BACK
Daylight Time
ĠI V
Or Create
32 5
Ġun til
Le ad
PRE VIOUS
ĠgetAll Values
Bucket s
4 77
B oost
E OS
R uby
[ '
en esis
re stric
Ġa pex
ĠT ls
Ġis File
ĠF AST
Ġ2 18
Ġ2 47
Ġpro vision
Key Management
ĠG P
Ġcurrent Index
Audio Track
Link Speed
ech an
ĠTv TrackInfo
FFFFFFFF FFFFFFFF
Ġdescending Set
Ġtrust Anchor
ĠgetNode Name
Ġsaniti ze
Br acket
ĠmVerbose LoggingEnabled
R ew
U ATION
p lus
en de
Ġget Reference
ĠS chedule
ĠA ES
Ġ1 34
Ġis B
fo ur
ĠG oogleApiClient
Ġsh uffle
Add ing
ĠUn ary
TR ACE
Ġsub Info
Ġinput Len
ĠmD pm
ĠKey Generator
Ġend Column
66 6
Ġss a
Carrier Info
Tile s
AUTH ORITY
ĠRO AMING
Succe ed
Ġprimitive s
Forw arder
ĠMETRI C
Ġs Lock
Ġget Expected
ĠC A
Ġset Intent
ĠB SSID
ĠD SAP
Ġpre decess
VER IFICATION
SC D
36 5
Ġnum bers
ĠCall State
ĠmRe stric
Broadcast s
ĠAP N
CI ENT
Ġip w
ĠmLog Node
Printer s
U X
b attery
Ġs ock
Ġ1 64
ĠN sd
Test Result
Ġon Item
li pping
ĠW ord
ĠH IGH
TE LEPHONY
Ġview Group
Sign ificant
STR UMENT
ĠMAX IMUM
Ġinc Y
Custom izer
Queued Threads
ĠsetStyle Name
ĠZenMode Config
Prob ability
ĠAnal y
0 60
4 11
W ISE
s From
Ġget Ref
up d
ST EP
ĠgetDec orView
COMPONENT S
Ġdimension s
Ġnv ae
THUMB NAIL
ĠSTY LE
( \"
M ut
on ded
id en
ĠC ec
Ġset Class
rec ord
ĠmB ssid
ĠMedia Extractor
Ġparent Object
Ġdocument Id
ĠAUTO FILL
LString LString
TRANSI ENT
S el
T WO
U t
y e
Ġget Buffer
Ġget Options
ĠC OUN
Ġre l
ĠM ILLIS
Test Shard
Ġadd File
With Id
Out bound
50 1
98 7654321
Ġsensor s
Ġdecl aring
ĠNan o
GRAN ULARITY
S kipped
h ib
Ġj m
Ġ2 13
ĠE FFECT
ends On
ĠgetP ending
25 2
Progress Bar
Score Card
Ġcarrier Id
FieldBuilder V
( \
M essenger
Ġi mm
Ġm Env
Ġm Preferences
Ġm Actions
Ġre voke
Ġw atcher
Data Repository
back up
Comp oser
ĠDe lay
NE ED
ĠmIn Order
rop ri
Ġaudio Manager
Ip Configuration
PLAY BACK
Ġdown Time
4 30
6 10
8 64
l and
String Literal
Ġ1 79
ĠO perator
ĠB IN
Ġde precated
Key Generator
Ġinter preter
Ġcontent View
Filter ing
18 1
Ġnotification s
Shortcut Info
ĠmA mbient
Prefix es
Ġ200 7
NETWORK S
xd b
Ġpointer Index
track ing
Outgoing Call
Soft Input
) ;\
4 26
L ittleEndian
U SH
Ġa verage
ĠO rganization
Ġte x
Ġac cepted
ĠPhone Constants
ĠVI SIBILITY
ĠStream Util
Ġdraw Bitmap
ĠPO LICY
Ġsig Alg
ĠmTemp Rect
Ġadj acent
Lo ss
ropri ate
/ %
Ġget Caller
Ġnew Length
Ġ1 88
ĠL AT
ĠmC lose
ĠmD ot
ĠByte Buf
ĠmW atch
QU ICK
add ings
Read WriteLock
ĠTe mplate
ĠinV Double
ĠSession Info
ĠarrayIn A
ĠarrayIn B
ĠDIS MISS
ĠAction Mode
short cut
Reg State
ĠDER BitString
ĠTestAllTypes Nano
FINGER PRINT
H dr
ss d
Ġtest Obj
Comp lication
ĠmTest Looper
Ġwindow s
Ġsim aka
Ġag greg
Require ment
ĠonActivity Created
REN DER
ĠRegist rant
ĠParsing Package
ĠVibration Effect
O SE
R ot
] [
Ġp e
Ġm Constants
Ġm aster
Ġnew Started
ĠT ry
ĠT ts
Ġ1 86
ĠP ersist
Ġcon s
Ġac cumulator
Message Key
Per Second
AB IC
ĠAl ignment
System User
PER TIES
ĠmIn ner
fc n
FIL ENAME
alk er
ĠAppWidget Manager
LAND SCAPE
ĠnewStarted Thread
F P
G GLE
S OUND
x ee
Ġs at
Ġget Events
Ġget ExternalStorage
Ġa ff
oc ated
ĠP eople
ĠF ORE
Ġ2 45
TI MER
AN K
li pped
ĠmS ave
Ġ' ='
Ġstring Builder
Session Context
Enabled Setting
fl atten
TO GGLE
38 5
Ġnative Ptr
TestCase s
Ġca ught
ĠREG ISTRATION
Ġsound trigger
ĠClassOrInterface Type
RECENT S
6 34
B ook
Ġ" -----
Ġget Scale
Ġstart Animation
32 2
Sub tag
Ġ9 4
Ġz s
Ġcurrent User
Response s
Ġexpect LastCall
Ġ16 9
Process ed
Ġwindow Index
Ġtail Map
ĠmBattery Stats
ĠFIN AL
ĠgetOp PackageName
ĠmGrid View
A UT
F rag
c rt
Ġr gb
Ġnew Entry
Ġis Interface
ĠG allery
Ġcreate XY
Ġstart Offset
ĠmC alendar
Ġcheck Gl
Ġy uv
FIN E
ĠInput Source
Ġps k
ĠAutofill Value
ĠVirtual Machine
ĠmFoo ter
echan ism
C ANDIDATE
M d
M ake
W W
s ymbol
ĠC F
Ġis Success
Ġ2 70
unit test
CH AP
Ġ20 7
ĠField Info
Touch Mode
CRE MENT
NUMBER S
bugg ing
xx xx
ĠStatic DataRepository
ĠProvisioning Params
ĠSELE CT
Adap tive
ĠrunDeviceTests AsUser
ĠappWidget Id
Ġdeli ver
YDV QQ
ĠgetMon th
A verage
C TR
E gl
M arshaller
T UN
in s
re ason
Ġget Argument
Ġr ating
ĠD T
Ġpro tection
ĠDE F
com mon
Ġwith in
ĠonCreate Dialog
ĠImage Button
ĠMenu Inflater
Ġcontact Uri
ĠgetTime InMillis
ĠonService Connected
ĠPip ed
Subtree Stream
ĠAbsolute Unit
4 76
6 19
M ail
r ub
s ave
ĠM bms
Ġu pd
Ġis Focused
Ġch at
On Display
ĠCol lecting
Ġla mbda
Ġparse Id
18 5
Invalid ated
Sample Size
Ġscan Results
Ow ners
Organ ization
ĠRewriteRule SubtreeStream
/ *"
E ither
S IN
Ġc rypt
Ġm Class
Ġm ix
Ġf ps
Ġs ending
ĠM icro
Ġw anted
Ġ2 21
EN CRYPT
Result Callback
ĠJ AVA
ĠBuild Info
ĠAccount WithDataSet
ctet s
Ġav g
ĠKeyguard Manager
TRANS FORM
Multip licand
P OL
k s
Ġm J
Ġin voked
In stanti
Ġset F
ĠD ashboardFragment
ĠIn spect
ĠRe place
Ġx pp
ĠmC alled
Ġlist Iterator
From TypeParam
ĠNull FromTypeParam
Decimal Format
Widget s
ulated Commands
ĠQU ALITY
ĠsetColor Filter
ĠStructured Postal
ĠmMetrics FeatureProvider
720 368
Export er
B az
B RIGHTNESS
C rc
N aN
c o
Ġ( '
Ġm En
Ġm Number
re a
Ġset String
Ġset TimeZone
IN COMING
Ġadd Response
ĠIN etwork
39 5
90 9
ĠBattery Manager
00100 11
FOCUS ED
ĠScheduled ExecutorService
ĠCompletion Stage
ĠSysui TestCase
s put
à °
or ner
Ġc ategories
Ġm Valid
ĠB oot
Ġ2 57
Ġde pendencies
Ġadd Message
ĠJ avadoc
con st
ĠmB g
50 3
ĠmW h
ĠmR il
Ġsend Data
33 5
Ġvisit Insn
ĠPRO P
Ġdet ected
ĠRO LE
Ġweb kit
Ġsmal idea
ĠThrow ing
DRange To
K DF
Ġn m
se lf
Ġ1 89
ĠR otation
Ġcon verted
ĠRE MOVE
IT KAT
ĠNetwork Callback
Ġparser s
Ġattribute Name
Visibility Changed
Duration Millis
ĠSub channel
ĠMain TestShard
Setup Wizard
ĠImmutableSet Multimap
Subtype s
zed Instruction
Movement Method
SUGGESTION S
B tn
Z W
Ġclass ify
State Locked
rol lable
Ġ3 65
ĠW ORD
Ġmessage Type
Ġdata Set
000 2
Network Types
cei ved
Ġhe ap
Ġqu eries
96 7
67 2
ĠUP PER
Ġmc def
Ġmut ate
lim inary
Enh anced
ĠNIST ObjectIdentifiers
C trl
p lain
Ġget Rules
Ġa go
ĠO ID
ĠM B
ĠP SS
Ġu m
til l
ĠL OWER
Ġde serialized
Al bum
Sc rim
Comp ilation
SET S
imit er
Ġshow Toast
Ms ChapV
Ġrep resent
Scroll ing
96 2
\\ .
Ġtotal Bytes
Ip Sec
Adverti se
ĠLockscreen Credential
P ack
P AD
t os
ĠS PAR
Ġset To
qu ential
ĠL ight
Call Response
Ad der
And Run
ĠDE LAY
Ġro uter
Ġle x
Ġ20 3
Ġ16 7
Scan Detail
Be en
DEVICE S
ĠgetParent File
ĠJson Reader
Ġp rincipal
ro ut
Ġg zip
Ġimp lementation
Ġassert Get
ĠF laky
Ġon Cancel
ph ers
User Service
ĠmM etadata
LI F
ĠDe athRecipient
mpl itude
ĠmD ownload
VER TI
Ġrec overy
Calling Package
Ġnotify Change
EC DHE
ĠValue Type
Asset Manager
ĠcreateNew File
respon ding
ĠsetAn tiAlias
i Fi
Ġm Transaction
Ġn avigableMap
Ġ1 32
Ġ1 00000
ĠD fp
Ġis Video
ĠL IM
Ġexpected Size
Ġ' ;'
ron os
Ġad b
Ġshould Be
ĠSec tion
Ass ertion
ĠmTest Activity
.. ..
Ġfiles ystem
Ġ36 00
ĠFailure Description
ĠClone NotSupportedException
ĠLINE AR
6 14
Ġget Extra
Ġst eps
Ġ1 70
Ġcreate NotificationChannel
Group Info
SU ITE
Ġwifi Manager
ĠNo te
Ġsuccess ors
ĠInvocation OnMock
Ġreg ular
BIT MAP
RING TONE
Ġboot strap
ĠmIke SessionStateMachine
6 28
A head
R oots
ĠC ARD
ĠP RES
ĠB ody
Ġde queue
Ġinter pol
ĠmP kg
Task Info
54 5
class es
ĠmKey board
DO CK
Ġtrust ed
ĠOpenSSL X
ĠmAt m
S LOT
W cdma
Ġm Stub
Ġ1 81
Ġon Connection
AC ROSS
ĠmC reate
Ġbreak point
Run s
20 5
ĠmD vr
55 1
Ġsession s
Ġend Section
Ġmap per
name space
Dis allowed
37 3
78 4
ĠmWifi VendorHal
stant App
ĠmTest able
Ġmod Count
Execution Exception
ĠBU GLE
Ġ"# #
Strong Auth
emant ic
N F
T T
Ġm Field
Ġm Decoder
un supported
Ġset Stroke
ĠD ns
Test Listener
Cont inue
Data Path
ĠW izard
Ġview Id
sh ard
ĠPar celedListSlice
56 4
Ġinstance s
Back ward
Back Pressed
22 1
Over lap
ĠBuffered OutputStream
DR AG
Self Loops
ĠmSession Id
Slot Index
ĠgetLocal Port
ĠConcurrent SkipList
ĠRSAP rivate
currency Level
ĠRewriteRule TokenStream
ĠNav Model
ivid ual
Ġm Impl
Ġm Reporter
Ġg lo
Ġget Is
Ġassert Valid
ĠR N
ak en
Group Index
50 5
40 3
Ġ20 5
Screen Off
Ġmenu Item
Ġ40 96
ech o
Ġaccessibility service
STRU CTOR
ĠgetEvent Time
ĠForkJoin Pool
S OFT
ro me
Ġs lices
ĠT otal
Ġ1 46
Ġ1 83
ĠD iff
Ġch allenge
ĠV P
ĠG e
TER RITORY
ĠgetC ursor
ĠK ITKAT
ĠMedia Type
Frame Size
38 1
Ġ20 4
Ġlen ient
ĠmUser Handle
ĠPer formance
ĠCipher Parameters
+ '
C p
E phemeral
Ġn i
Ġf ive
Ġget Range
Ġget Voice
Ġ1 87
De ad
Ġpro filing
ĠList ResourceBundle
App State
Sh ot
rec ognized
Trans parent
vel ope
\" >
ĠSec ond
ĠMethod Spec
59 2
If Not
02 00
Accessibility Service
ĠParse Result
ĠgetConfig ured
ĠReferenceType Impl
ĠPASS ED
Saf ely
Ġm ovie
Ġget Instruction
Ġnew Size
Ġset Entry
Ġis Playing
From File
ĠAl manac
ĠChar Matcher
Character Map
ĠAC CE
ĠAnnotation Value
Ġincrement AndGet
TRIBU TES
ĠTvInput Manager
ĠmSensor Manager
Attribution Tag
P ac
S ING
an ity
Ġget Internal
Ġnew Call
ĠS peed
Ġ1 58
ĠP ublish
Ġis ReadOnly
Ġac k
ĠmC lear
Ġinput Format
vo ice
ĠPre fix
Dialog s
Ġtmp File
Ġexample s
HAND LED
HAND OVER
Ġcached Device
ROLL ER
param eter
Bubble s
WHITE LIST
720368 5477
H OLD
Y ou
t w
Ġi ts
Ġm Read
id x
Ġs o
ĠC R
ĠA NT
ĠIn flater
Ġstart Key
ĠmM ethod
UN CT
80 6
ĠApp s
utor ial
Ġdisplay Info
ĠLong SparseArray
Line Number
Auth Token
ĠmF ace
ĠEC PublicKey
Ġpattern s
URL Exception
ĠmMedia Controller
hand ler
ĠgetRepeated Field
Ġexpi re
IMPORT ANT
ĠhasMessage That
ĠFlaky Test
Ġ Str
Ġg ain
Ġis Public
TI L
Ġun flatten
ĠmT ethering
Ġnode List
ĠOn PreferenceChangeListener
Ġaccess or
ĠAnim ated
Ġunregister For
ĠmAction Bar
ĠNAN OS
Micro s
RU LES
ĠCAL ENDAR
M idi
P k
p adding
in struction
ti tions
la pping
ĠA ST
om etry
Ġ1 72
Ġ1 75
ĠD ataset
Ġtest Decode
Ġ2 49
ĠFile Columns
Ġ' ['
ĠDE CRYPT
EX IF
ĠURL Connection
Year s
Ġvideo State
ĠMET ERED
ĠSTAND BY
SEphemeris Delta
C mas
R anking
Ġm Connect
ro bolectric
Ġ1 85
Ġw ebView
Ġon ce
Ġdata Length
Ġcheck That
Filter ed
Case s
Ġdevice info
SC RI
ĠforEach Remaining
ĠIms Phone
ĠmN eed
ov ing
AAA AC
Ġpresentation TimeUs
Ġinsertion Order
ĠFlex Table
I AN
b ined
List en
Ġis Object
ĠTest Status
ĠH AL
ĠRe ason
ĠmR etry
SH ARE
ĠBluetooth A
yc lic
STR ACT
ĠAudio Record
Ġqual ified
ĠgetUn ique
LEG AL
ĠProvisioning Manager
VARI ABLE
ĠPrivileged Action
; }\
Ġget Info
Ġget Array
Ġe st
ol ation
ĠP E
State Preference
EN UM
Method Declaration
NO RED
ĠText Style
Raw Resource
duc tion
ĠResult Type
Do es
FRE QUENCY
Ġclock s
Utc Millis
ĠSTAND ARD
ĠexplicitCast ReturnValue
S lash
Ġc ss
Ġn b
ul ative
Ġe phem
ack bar
pe ak
Ġis Rtl
Rec ognizer
Attribute Set
Client Transport
36 1
57 3
27 4
Ġrow Index
Ġmake FieldId
cont inu
Ġ19 4
Var args
ĠFunction al
Ims i
HAND LER
Ġqual ifiers
Ġidentity HashCode
Ġscroll To
Ġcarrier Config
ĠmSign al
tit ude
' +
A m
T OLERANCE
c enti
i er
Ġget Rotation
Ġset Integer
Ġis Low
Ġtry Advance
ĠgetL ifecycle
Ġvalid ity
PL U
ĠAnimation Utils
AUTO FILL
ĠNet ty
ulian Day
Dom Test
ĠEM ERGENCY
6 29
M ediator
P ix
Y S
t ask
Ġ et
Ġin etAddress
Ġe stimate
Ġadd Service
Mode m
Ġrun DomTest
ĠmR out
ĠApp Row
ĠgetP ayload
ĠmIn Call
Cert Store
ĠgetRe g
ĠmPreference Screen
Backup Data
Ġ19 1
Accessor s
ĠBl ue
Cts Activity
ĠREMO TE
H EL
t ab
or ation
Ġm HeadsUp
Ġget Storage
Ġset Level
Ġis Data
Ġis Layout
An cestor
Ġout line
ĠW M
con firm
Ġun par
56 2
ĠmL ayer
Ġfrom ByteArray
19 5
57 1
57 5
Ġdecode Resource
ĠAss oci
ARG UMENT
Ġ19 7
ĠmCamera Device
Ġcustom ization
Ġband width
MARG IN
R B
i put
p Group
Ġm Attrs
ĠC MAS
ed ition
Ġset Int
Ġis Compatible
Ġis ManagedProfile
Key Factory
LE AR
Ġout Stream
Ġupdate View
64 2
34 3
UP DATED
40 5
ĠmWifi P
MEDI ATE
Decor ation
ĠDynamic Table
Tint List
ĠtestInvoke On
AUTHENTI CATION
ĠmDecoded Proto
CANDIDATE S
Ġunflatten FromString
Q DN
Y es
h ronos
p ersist
Ġm Override
Ġm Thumbnail
Int ensity
Ġis After
Ġadd Widget
Ġel li
ĠLog File
Ġcontent Description
Att ention
Ġremove Preference
ĠmW ebView
ĠChar sets
OUT GOING
Enum erated
Ġ16 2
ĠAccess Controller
Ġpass point
rossProfile Apps
ĠHex Encoding
Ġsin ce
Ġimmediate Future
H ook
g f
Ġget Pre
Ġget Java
Ġ1 49
Ġset Priority
ig et
Pre Draw
Ġk f
Stream Volume
mon th
EX PECTED
ĠgetP layback
ĠAccessibility Action
ĠAsync Fib
Free ze
ĠTrust Anchor
ĠJar File
Members hip
ĠSW ITCH
ĠtestInvokeOn Pool
C IMAL
st h
Ġm Instance
Ġm From
IN ET
Ġto Instance
Ġ3 3333
Ġappend Value
Ġmock Callback
Inter n
38 2
70 4
28 4
ĠY UV
Ġsample Size
BI TR
ĠmIntent Filter
ĠOB EX
LAUNCH ER
Automatic ally
ĠMalformed URLException
ĠInspect able
Ġget Button
Ġget Overlay
ĠC alled
To Network
Comp arable
By AddAll
VER Y
ĠmKey Event
PL ANE
ĠmBluetooth Device
uplic ates
finished Message
syn pred
A IR
g ram
h al
p x
p ared
Ġ Handle
Ġst andalone
Ġset T
Ġto Immutable
raw types
Sub scribe
59 4
Ġbytes Written
Ġtemp File
ĠmRe al
Sample d
ĠID ENTIFIER
Ġwindow ingMode
RT T
Virtual Display
ĠExo Player
I MP
V o
a head
Ġ Values
Ġd m
ĠO rientation
row ser
RE COGN
Un iform
Header Controller
Ġshow Message
Ref s
90 2
Ġwifi Config
35 3
process ing
ĠExpected Key
ĠOf Int
ĠmQuota Controller
ĠcheckGl Error
/ .
Ġb le
Ġst ri
Ġj ce
DE CL
ĠH idden
Device Test
App ropriate
TION S
Ġpre set
ĠView TreeObserver
ĠmM at
99 7
ĠST RICT
34 1
ĠUser Data
ĠgetM odule
Output Receiver
ĠmWifi PermissionsUtil
If Present
47 4
ĠCH ILD
Ġ19 5
gration Test
ĠOf Long
Ġpriv Key
6 20
D TM
V ibration
q dn
re aded
Ġj o
Ġkey frame
Ġappend QueryParameter
ĠmC i
ĠgetS ign
Ob b
18 2
Ġopen DataConnection
27 5
Ag g
Background Color
sec tion
SW IPE
Ġ"# "
Ġproc State
ateway Connection
Immediate ly
Ġs System
Ġget Metadata
ĠS chema
Ġis First
Ġk hronos
Device Name
Control Port
And Start
Is Not
90 5
MI TIVE
ĠmAdapter Service
ĠgetPreference Count
Bl ue
ĠmRoot WindowContainer
ĠCLO SE
D UP
Ġm Setting
Ġm Recording
Ġget Widget
ĠM AC
List Preference
Ġde select
Ġon Finished
99 6
Ġevent Handler
Check s
36 2
ĠCommand Exception
Enum eration
STATE MENT
Application Info
Phone Type
Ġdi ag
PRI SE
FR ONT
Val s
Download s
auth ority
ĠrunOnMain Sync
ĠDalv Insn
Ġallows SelfLoops
Cach es
POR TRAIT
6 30
C ritical
Ġc opied
Ġm PreferenceController
Ġm StaticInfo
Ġ" ?"
Ġv ia
Ġe s
Ġw ide
Ġis Ready
Le ash
Window Id
Window Index
Ġqu antity
Ġinc reaseIndent
COMP ARATOR
Period s
ĠServer Call
TRAN SL
ĠgetUser Info
Normal ize
atable Code
AAAAAAAAAAAAAAAA AAAAAAAAAAAAAAAA
ĠgetDeclar ingClass
H id
I mm
d river
Ġin jection
Ġin LeftVector
Con cat
Ġassert Shortcut
ĠP UBLISH
ĠB A
Ġres ponder
Ġto Bytes
Th ere
Ġdo Callback
Ġof Epoch
Target Info
Access Points
57 2
ffff fff
Ġconnection s
class ifier
Space s
Foreground Service
ĠmRec overableKeyStore
ĠmTarget Context
Lower Bound
Ġinte grity
ĠHel lo
ational Prefix
WINDOW S
ĠmPackage Info
ĠCD MA
DIG ITS
ĠTER MIN
L ARGE
b ig
m ing
t ra
Ġd ow
Ġcon st
ĠF older
Ġ2 42
Ġresult Data
ĠG en
Ġcreate Default
Inter actor
55 2
ĠAl bum
ĠTime Utils
88 2
Ġoutput s
ĠgetDefault Key
Unsigned Int
Ġmicro edition
Au stral
L ater
Ġ Encryption
Ġm Object
Ġm Showing
Ġin RightVector
St icky
Ġv r
oc d
Ġset Orientation
AT ype
Ġfor All
ĠTest KeyStore
Th ird
ph en
Ġtype List
ĠPro c
24 5
18 3
29 2
39 3
ĠPackageManager Internal
Ġinitial Value
ĠmH ome
ĠFI XED
TimeZone Suggestion
When Ready
ĠConcurrent Linked
ĠOb server
ĠDi agnostic
ĠExp orted
) .
g rammar
Ġget Process
Ġtest Failed
Type face
em i
Class Def
He ur
ary ing
Extra Field
Icon View
Print able
617 66
PA USED
ĠMan age
4 33
Ġp lain
Ġ1 41
Ġon New
Content Rating
10 80
Ġdouble ToLong
sp ector
28 5
Ag ain
Measure d
ĠSocket Option
Chunk s
match ed
ĠPri mary
Ġbattery Level
ĠgetUn checked
LIMIT ED
ĠRoot Info
ĠmPower Manager
WE IGHT
ĠMark er
Ġasc ending
Ġarchi vers
( [
6 38
C op
R OUTE
Ġs ad
Ġget Wh
For Key
ĠmC lip
DI STANCE
Ġun pack
29 5
28 3
90 8
ĠPackageManager Service
ĠmService Connection
ĠNo Op
Ġand Stub
Link Layer
Ġreport er
1234 56
ĠBlock Stmt
ĠCONNE CTED
ĠMore Types
ĠRead able
2233 7203685477
# '
B idi
C IPHER
I x
c l
Ġget ter
Ġr ingtone
Ġst amp
ĠC at
ĠD AT
Pro vided
Run Time
Ġun link
64 5
\" >"
TO TAL
ĠRemote Animation
77 9
ATOR S
Accessibility NodeInfo
Ġallowed KeyManagement
Ġce il
Ġlibrary Class
ĠGl ide
celerate Interpolator
1 00000
C reating
D rain
T W
h ide
y g
Ġm iss
ver ified
Ġset Clickable
List Fragment
Ġis Started
De sired
ĠgetS ync
Ġread UInt
AS ED
Ġtarget Class
ĠRE CEI
ex pr
29 4
Ġcore media
Ġ16 6
27 3
ĠmH istory
Ġdi visor
ĠSe ven
ĠSH IFT
AIN ER
bind ing
ĠHel p
ĠExpected Exception
access ible
ĠreadUnsigned Short
Coordin ate
GRA DE
G one
p ot
Ġm Alpha
Ġm SharedPreferences
Ġget Assets
Ġnew HashMap
Ġis Multi
Ġh idl
RE JECT
Ġadd Frame
Map ped
Out side
RI ES
Ġmock Drawable
LO ST
Ġread Data
ĠDe buggee
System Service
37 2
Sign ers
EL DS
Pass phrase
77 77
Duration s
ĠSe lector
ĠValue Range
200 70
bind ings
now led
ĠrunOnMain And
a ssert
d raw
Ġm Debug
Ġm External
In voker
Ġb oard
Ġre served
Ġ1 73
Ġh s
SE CTION
ĠCh oice
ĠCh ronology
Ġun s
Ġmax Sdk
Ġfrom Hex
ALL Y
Ġhandle Preference
Ġdraw Text
ĠAd vertise
ĠAfter Class
Ġph on
ĠIP PROTO
Ġunmodifiable Set
T tls
f v
Ġin strument
Ġget Animated
Ġd ark
ĠB ugreport
ĠL IGHT
To RegionCode
ĠG E
99 4
ĠgetL atest
Ġstream s
log ging
Ġstack Trace
Enter ed
Press ure
ĠSms Message
ĠgetCalling UserId
ĠCst Type
Ġoc t
ĠDist ribution
ToRegionCode Map
B elow
G ame
G uid
N FC
Ġm Factory
Ġa mbient
Ġb order
Ġset Boolean
De ep
To Test
Data Map
Ġcheck Valid
ĠmM em
ĠSet Multimap
54 3
Delet ion
0000000 2
ĠmInput Method
Av ail
ĠDO ZE
ĠSSLEngine Result
ximity Sensor
ĠAttributed CharacterIterator
K ill
W alker
Ġm Level
Ġget Debuggee
Ġre direct
ĠI v
ĠF lags
Al phabet
Ġkey Info
On ClickListener
Ġx alan
Log Saver
ĠmD ate
54 2
Ġret Val
ĠmState Machine
Insn Node
vok able
ĠMore Objects
Ġenv ironment
ĠOne Camera
ĠCompound Button
caught ExceptionHandler
ĠKeymaster Defs
g raph
on al
Ġm Future
Ġg uess
Ġd ock
ap ache
ĠB atch
Ġis Group
Ġis Hardware
Ġtest Has
Ġ2 41
Ġadd Account
Ġout Rect
Event Type
Ġmock Device
Ġexpected Exception
Ġcomp lication
Ġcomp osition
Ġverify ReplyCode
And Finish
Ġ' +'
Ġuser Type
ĠmB roker
Stats Entry
80 211
Settings Fragment
88 1
Ġobj Loaded
Style s
Ġjj bit
ĠStatus Updates
Ġsa mpling
ĠTrust ed
RAD I
RUN NING
ĠActivityTask Manager
ĠImsCall Profile
ĠdoubleToLong Bits
Ġjjbit Vec
B D
M j
Ġp l
ĠM argin
ĠD river
Ġ2 23
Ġorg an
sc dma
App Transition
Sh elf
Ġtype face
sh ared
ĠmL at
ĠData Spec
38 3
ĠIms Manager
ĠEnum Map
Ġinstall App
Split Screen
Ġvolume Uuid
ĠgetI cc
lm ns
ĠOf Double
Ter m
ĠCLO SED
F n
M m
_ '
h iding
m k
ti g
Ġget JSON
In finity
ĠC lear
Ġ1 47
Ġ1 74
Ġ1 71
Comp arison
Byte Count
ĠgetS lice
ĠST ACK
22 5
Sec tions
ĠVis itable
Keys Keyboard
ĠNO DE
Ġback tracking
Ġthread Id
node Types
ĠConcurrent Map
ĠtestCase s
TEMP LATE
PIN NED
Ġunbind Service
ĠmDet ailed
ipp le
F ONT
R R
le ms
Ġm Keys
ĠO WN
For Accessibility
Ġac t
Ġdata Id
Col lapsed
LI B
Ġ' |'
AD A
Ġformat Duration
24 1
Ġdec reaseIndent
22 3
ĠSp rite
Ag AA
Ġenable Service
ĠResult Receiver
ĠProperty MetaModel
ĠgetG anss
Ġprop ag
ĠmPri ority
ĠDatagram Socket
M essaging
O EM
U CENT
] '
al Unit
Ġs aw
ĠC amcorderProfile
List Box
Ġtest Check
Ġ2 51
Un changed
TH ROT
Ġfrom Key
Ġno tifier
Audio Route
Ġlocal Address
ĠSe q
Constructor Declaration
AK ER
Super class
ĠSIP Header
Ġmemoized HashCode
Ġdefine Tag
ĠREST RI
ĠInspectable Property
D fa
I TI
S OC
Ġget Visible
Ġd l
th eme
Ġclass path
To k
ĠU TRIE
RE C
set ting
DE TAIL
Run Listener
Start Offset
IL ATION
NO LOG
mb ig
Cache Size
Ġmerge UnknownFields
Gran ts
ĠcreateTemp Dir
PRES ENT
ĠSignal Strength
StringLiteral Dfa
D nd
K at
R CS
a ult
Ġ En
Ġf ence
Ġs er
Ġget Methods
Ġ0 0
ĠH ls
Ġ' _'
ĠActivity NotFoundException
Car Service
Support s
ĠParameters With
ĠDer OutputStream
Jo urnal
Analy zer
ĠmDest roy
TECH NOLOG
ĠCalled By
K D
O OM
ĠS ite
Ġis Set
Ġis Annotation
Ġadd Attribute
int s
Ġon De
ĠH ISTORY
Ġpre par
Ġstate Machine
ĠData Map
26 2
Ġ16 3
ispatch er
ĠSt age
ĠmClient ModeImpl
Ġag gregation
Persist er
COUN TRY
; }
c v
| "
Ġm Async
In Use
ĠS IG
Ġset Comment
Ġis Boolean
ĠE ffect
Ġadd Error
Ġ3 33
Request Info
Ġ' #'
TR AL
99 0
64 3
ĠText Classification
Bound Class
sp inner
48 4
ĠmWifi Injector
ACTI V
Ġflatten ToString
MmTel Manager
DY NAMIC
ĠgetOnly Element
A sc
Y CLE
le e
Ġm Received
Ġ" ()
mp eg
se lection
ĠS ampler
Ġ1 001
ĠN AV
56 1
ĠgetC ategory
ĠgetC urrency
Ġmsg s
Ġprovider Info
59 1
ĠPRO VISION
Protocol Exception
ĠProcess Record
SUP ER
Ġpart ner
Ġprofile s
card s
Counter s
ĠStorage Stats
ĠmWm Service
ĠgetConnection State
Ġpin ned
ĠqueryIntent Activities
6 18
M UTE
N l
s mali
Ġc w
Ġm Auth
te lephony
um ulative
ĠTest Env
ĠW ith
Exp osed
ĠDevice Info
ASS OCI
49 2
pro f
pro xy
Ġsurface Texture
Ġlookup Key
Ġev t
Battery Saver
ĠCONNE CTIVITY
ĠDex File
ĠFileSystem Entry
ĠVoicemail s
Ġmemoized IsInitialized
ĠRET URN
ĠPriority Queue
Sl ider
ĠgetStackTrace String
Tw ice
Mig ration
R ATING
b enchmark
h ome
Ġi r
ĠT rie
Ġassert Long
Ġas pectRatio
24 3
OP T
27 2
Ġmulti p
Ġop mode
Volume Group
ĠAtomic File
Ġfull Name
Authent icate
ĠFOL DER
abc d
ĠLE VEL
Ġplural s
Ġtran script
ĠTool Tip
Ġm Preferred
Ġ1 39
Ġset Activity
Ġset Parameters
ĠM ax
Ġto Pattern
ab ling
99 1
24 2
ĠMath Utils
Ġroot s
Delay Ms
ĠmOn UiThread
Picture InPicture
Ġav ail
Magn itude
Ġbot s
ĠContain er
ĠhadError Containing
ĠNA VIGATION
% %
6 22
7 46
C as
Ġb o
il ight
ĠS uggested
ST IC
RE SP
Ġlong s
SI CAL
UN LOCK
ĠKey Spec
Check ing
ĠMedia Size
Ġsource File
Local Device
pro to
ĠExtension s
ĠSUB TYPE
ĠSTR U
ĠmTag Info
Ġcrl s
Der iv
ĠPasspoint Configuration
ĠSa Proposal
SIN CE
ĠBody Declaration
: ]"
C ATED
v ariable
Ġm ute
Ġm Prefs
Ġs ay
Ġt ick
In Window
Ġset Server
Ġis Current
Ġadd Event
Command er
ĠmL ight
Width Dp
36 3
PRO PERTIES
29 3
yc led
Ġ16 5
Duration Us
68 7
Ġ19 3
ĠTIME STAMP
Ġprofile Id
ĠSim Info
Ġdist inct
ĠDialer Call
Ġsolve Type
ĠTestSSL Context
TRANSP ORT
SubMap EntrySet
ĠPlay list
ĠmCameraIds UnderTest
M NC
Ġm Edge
Ġs erv
Ex o
ĠS um
Ġ1 38
Ġset Locale
Ġis Any
Ġtest New
Ġtest Clear
Ġ2 43
Ġon StateChanged
im etype
Comp ression
Builder Initialization
Ġ6 40
Content Capture
ET TER
Ġro un
ĠSQL FeatureNotSupportedException
Full Screen
Ġframe Rate
Ġmy UserHandle
Wait er
Area Id
Processor s
Cast le
Ġshared Preferences
Ġmaybe Force
Ġoptim ization
produc t
ĠmaybeForce BuilderInitialization
M ulticast
S DAY
d rawable
j k
t oo
Ġget ListView
Ġget FilesDir
ĠS EM
Ġset Filter
ĠB its
Ġis Before
AN NOTATION
ĠLog Fragment
Col lision
Ġlist ening
From Resource
NAME SPACE
ĠST ORE
ther net
54 1
40 1
ĠMath RuntimeException
66 7
Ġpreference s
Ġnetwork s
FFFF FF
ĠAnnotated Exception
M X
M CC
M GF
s ite
Ġ} \
an ti
Ġc tor
Ġs uggested
Ġb uff
Ġd hcp
ad a
ĠR BB
Ġ2 52
RE SIZE
Controller UT
99 3
Values Accumulator
Ġmax Height
ĠgetC odec
ĠmMock TestDevice
59 5
Ġ69 52
ouncy Castle
Ġjob Status
Ġpart icipant
Ġbegin Section
Ġensure Capacity
ĠSCAL E
ĠChronoLocal Date
E CE
F ALSE
N PE
Z I
b ot
ĠC ACHE
Ġ1 55
ĠD OT
For All
Ġtype Declaration
Display s
QU OTE
Icon Drawable
60 4
Storage Manager
Ġspec ific
Link Properties
CONT ROLLER
ITE MS
Ġinstruction Offset
Ġblob Data
Ġden ied
Uce Capability
ĠPlaybackState Compat
Ġ"| "
Li ke
SQUARE S
SinceBoot Millis
TECHNOLOG Y
V T
ĠC ast
ĠA vrcp
Ġ1 33
Ġset Num
Ġset Application
ĠR OW
Ġh m
To Float
LO P
LO ADED
Ġannotation Class
Ġview port
ĠmB and
ĠmR ing
Char Nodes
ĠEX CLU
39 1
Ġgener al
order ing
ĠcommandHandler s
Ġui Automation
79 7
ĠDisplay Info
Transport Type
Ġdraw er
ĠInstruction Handle
Man ip
ĠmRoot View
Keep Alive
ĠJar Entry
Patch Level
ĠassertEqual CharNodes
Ġassist ed
ĠCounter Impl
ĠmHeadset Service
etest s
STRUMENT ATION
S atisfied
W ear
Ġ EnforcedAdmin
Ġc at
Ġset Custom
AC QUIRE
Ġsh own
Intent Sender
read cr
Code Points
FI ELDS
vel y
Account Manager
Ġline To
Ġtra verser
Ġresource Bundle
Ġdoc Type
Sa Proposal
Ġresolved Type
NetworkSuggestions Manager
ĠmDo ze
ĠANT LR
ĠandStub Return
' )
C riteria
l ac
an alysis
ĠS ide
all Time
IN ATION
Ġ2 14748364
Ġcontext ual
ĠmD elete
Ġhandle Get
over Art
ĠCertificate ParsingException
Ġ"[ :
Drag ging
ĠReflection TypeSolver
ĠgetStack Logger
H ORIZONTAL
b ottom
Ġi gnoring
Ġm u
ar b
Key store
Ġon Data
im s
Ġtime Unit
As pect
49 4
25 1
ĠGL SurfaceView
Ġduration Us
Cancel Listener
ĠQ Name
Ow ned
ĠHistory Token
Ġsmal lest
ĠTexture View
ĠFore ground
C rt
f actory
in ates
Ġp lan
Ġc utout
Ġget Builder
Ġte ch
Intent Filter
Ġfield Index
Status Reporter
Node MetaModel
Channel Builder
88 5
Feature Factory
37 1
Ġrep ro
Ġinit Cause
ĠSearch Manager
FEATURE S
ĠgetPadding Top
Hostname Verifier
ĠmWait ing
ĠTestRun Result
7 55
P urpose
re at
ĠC LEAR
Ġ1 35
ĠM CC
ĠL Z
ST ICK
For eign
ĠmC m
ĠmS lice
From Xml
Ġlog Debug
Integer Digits
Parameter Types
ĠmT oggle
Ġnode Equals
ĠCON ST
Regist ers
Ġ20 10
ĠSc al
ĠArg s
Ġcalling FeatureId
MAN IFEST
Sensor Event
Score Cache
xf b
Db Helper
E MP
g s
s Enabled
Ġ1 57
Ġis Selected
Ġtest Device
Ġadd State
99 5
ram er
ĠmP anel
Ġz os
Ġall Of
Usage s
Ġreal time
ĠsetBackground Color
CELL ULAR
ĠDIG EST
C CE
R y
T ake
W F
p ower
v irtual
on fig
lic a
Ġget Option
Re jected
Ġ1 31
ĠD raw
Service Controller
Ġrun s
ĠDE LI
Sub List
ai red
ĠActivity Thread
gr al
iv ariate
Primitive Type
Zero Interactions
RS AP
ĠAutofill Manager
ĠTvInput Info
SCD MA
continu ity
O AEP
er r
Ġf ling
ĠM cc
ĠI Bluetooth
ĠI ssue
Ġw ere
Ġtest Layout
ĠIn jection
FI CIENT
ĠContext Hub
ĠJ AN
con structor
ĠCh ooser
000 4
No Throw
76 1
58 5
ĠmDevice IdleController
ĠTrans formation
ĠGlobal SettingsProto
ĠAnnotation s
Ġsignature Algorithm
ERO ctetString
ĠmNum Rows
WAKE UP
COMPRESS ED
d etails
f i
m etadata
ar er
Ġre moval
ap pend
ĠD elete
Text Size
Ġexpected Type
And Values
Status Code
Pa ired
Thread Handler
At testation
Ġal ign
Integer Value
78 6
59 3
00000000 00
ĠNetwork Stack
GR P
Ġip Address
Ġconstant Pool
ĠMore Executors
ĠCondition Variable
ĠSECOND ARY
Ġauthent icator
ĠOPER ATION
R ON
Ġi h
Ġm Report
Ġget Callback
Ġget Account
In sertion
Ġset s
ĠF low
AN CH
ĠRe peat
Log Message
Ġindex es
By Signature
ob j
Line arLayout
Op Flag
ĠSY MBOL
CRE TE
Ġcompute Convert
White Balance
Ġlink ToDeath
Ġpoll Last
Ġproduc ers
BlockSize Exception
sw ers
ĠgetSelection End
ĠregionCode Set
22337203685477 580
H uman
Ġget Feature
Ġa ware
Ġset Volume
List Filter
ĠR sB
ĠI RunUtil
Ġclass ID
Pre load
Ġput Next
Ġexpected Message
ĠmS cheduler
ĠMethod CallExpr
44 3
Ġinvoke All
Join er
ĠWallpaper Manager
reater Than
ĠmStorage Manager
Ġreferenced Class
J PEG
M echanism
u int
Ġp d
Ġr nd
ĠT er
RE START
Ġde serialize
Ġon AttachedToWindow
Time Nanos
Time zone
AR RED
ĠW rapper
Thread Factory
ĠmW ord
Ġcurrent State
Down stream
Proto Util
ĠUtil ities
ĠEvent Kind
ĠAccessibility WindowInfo
ĠOut Of
ĠStream OpFlag
Xml Parser
BIT WISE
stim ated
ĠgetHost Address
Sound Model
ĠgetOr Default
ĠCRL Exception
C AUSE
S OR
S till
Ġm Zoom
Ġm Visual
Ġs Context
Ġis Bound
Ġon Connected
AN IM
Ġresult Receiver
ach ability
99 2
Ġinput Type
ĠmL ow
\" ]"
Ġle ase
Frame Number
40 2
Ġparent Builder
ĠMessage Nano
Ġexpect Message
Ġjj Move
ĠEN TRY
Option Source
ĠgetDevice s
ĠgetNext FillRequest
ĠReference Queue
LINE AR
Specific Part
direc tive
xx x
Den ied
LAT ER
PRES ENTATION
ĠHAND LE
ll ig
ĠClosed ChannelException
ĠmPrivate Flags
ĠmPdu Headers
I ENT
L MBCS
e ff
p ost
} ,
ĠT C
Ġset Feature
Ġis Network
ĠLog Maker
ĠKey Set
Ġparse Boolean
OM ATIC
60 5
Ġwait er
ĠmF inished
Di vide
ĠmApp Context
Ġcell s
IDEO GRAPH
ĠgetView TreeObserver
ĠRIL Constants
Instant App
ĠMED I
ĠRelative DateTime
ĠPlural Rules
SecretKey Factory
ĠSeq Of
Ġm AccessPoint
Ġset Preview
ĠB UNDLE
ĠL ibrary
Key Down
An onymous
Log o
Ġtime Ms
ĠIllegal BlockSizeException
Ġob serve
Ġshould n
Ġdi agnostic
Ġcompilation Unit
ĠTRANSP ARENT
ĠJavaParser Facade
ĠTwo StatePreference
ĠonFinish Inflate
6 11
6 27
B ED
à ¨
Ġs v
Ġs Result
Ġget By
Ġget Args
ĠS N
ĠP URPOSE
ĠL ib
Ch art
AN A
yst race
ĠList Multimap
Not Found
LO OR
Ġ' ]'
Response Code
ĠPre sence
Ġattr Name
Invalid Parameters
Video Provider
CRE T
Ġauth Type
Draw Sync
Part Data
IZ ABLE
LOG V
Uuid s
ĠcodePoint At
ĠINTER VAL
ĠFR AGMENT
ĠmSim ulatedCommands
Sil ence
ĠPooled Lambda
ĠrunOnMainAnd DrawSync
ĠRsB las
7 57
F ading
Y uv
c rl
n eg
z i
al ert
Ġm Pref
Ġg nss
Ġnew Name
ĠA b
Ġis Number
ser ving
Type Map
Ġto Key
ĠV vm
And Release
AP PE
map ping
urs ion
ĠmD ump
ĠK IND
ĠmWifi Scanner
Ġtrack s
Ġparameter ized
Cancel lation
Ġrender ing
Ġconfigure d
Need s
ĠPrintJob Info
) (
F resh
G RE
H ard
Y NC
Ġin Exponent
ue s
Ġ1 45
Ġto Local
Data Call
Un register
ĠG REEN
File Size
ab e
Ġwrite Message
CO PY
UL ocale
ĠPro jection
ĠTime d
ĠCON CRETE
ĠSc ene
76 2
Ġcalling UserId
ĠVI RTUAL
ĠOption Class
Metric Collector
DU MP
ĠHE AD
=' "
SeekBar ChangeListener
ĠSort Spec
QUE UE
INCLU DE
Less Than
W CDMA
] ;\
r er
String Buffer
ĠO C
Ġu s
Test Object
ound Trigger
UN DER
ĠmP in
44 5
serial ization
ĠgetFirst Child
Tool Tip
LP r
Named Curve
Compound Drawable
Ġrepro cess
A MO
B SC
g p
p anel
t rees
Ġm otionEvent
Ġget Progress
ĠC ERT
Ġcon sider
Ġw ildcard
ĠD ash
Res ponder
Ġbyte Value
ĠU Resource
ĠList Builder
Length Exception
ĠmT ether
Inc Supp
96 8
JE CTED
Under flow
Big Endian
ĠAnimation Frame
ĠSHORT CUT
Ġul p
prog ress
llig ence
C AC
T im
T earDown
Ġf tpServer
ĠT V
Ġset Initial
ĠB R
im ap
Un i
Un resolved
Ġfield List
OU GH
ĠMessage Data
PRE MIUM
Ġinc omp
ĠSub title
ĠMore KeysKeyboard
Upper Bound
Ġmaximum Size
Ġconstraint s
activ ate
Expi ry
Mil li
B Q
E H
E ver
E GL
M BER
U TRAL
h igh
u Z
Ġs UiAutomation
Re l
ad b
ĠP ARENT
En ough
Ch oose
ĠU se
Ġde l
Ġto Remove
Ġch ooser
ĠCon sole
ME ASURE
mo b
User Switch
ens i
Ġcomp lex
ĠJ S
ĠIN TO
88 4
58 3
Ġapply Pattern
ĠCODE C
ĠDialer Impression
ĠDalv Ops
ĠEncoded StringValue
MethodWith ShellPermissions
7 22
f right
m argin
Ð ¾
Ġ1 37
De ferred
RE CT
Ġpro mpt
Ġto Json
Ġadd Str
Array Size
Ġ6 50
Ġtype Arguments
ĠmS ingle
Ġlog analysis
20 17
Ġaction Id
70 1
ĠContent Type
49 3
ĠFragment TestUtil
Ġoff line
bugg able
ĠCert Store
ĠmSurface Control
Ġlayer Drawable
Ġbot h
ĠCbor Exception
ĠsetClient Data
ĠGENER AL
ĠHEL P
) '
ĠS EL
is y
View port
Ac rossProfile
Value Reference
Ġverify ZeroInteractions
Ġlog s
ee se
ĠgetB luetooth
over lay
ĠmWifi NetworkSuggestionsManager
Ġdet ector
ĠBattery Saver
SM ALL
ĠZoneOffset Transition
Deg ree
Retrie val
Mismatch Exception
ĠmTv View
ĠPartner Config
- %
M aster
b roadcast
t ether
Ġm Stop
Con scrypt
Ġj avadoc
Ġ1 48
Ġtest Long
Ġde ad
Ġcreate Params
Ġdata Map
Ġwrite Bytes
Ġsub Sequence
Thread Executor
Ġal ignment
No ise
Ui State
47 5
ĠUN SET
86 9
Ġselection Manager
ĠAs ymmetric
Called On
REG ISTRATION
Ġpreview Size
ĠmSurface View
Ġcard s
Ġdown stream
Choice s
ĠDirectory Entry
command er
ĠmSwitch Bar
PROCESS ING
ĠLoader Manager
ĠInitial ization
ĠInterpolator s
ĠIv ParameterSpec
Q os
re place
Ġget FileName
Ġ1 51
Ġtest Contains
Ġext racted
quest ion
SE AT
Ġtrans lit
UR NS
ĠmH idden
98 9
Ġuse Msg
Car Mode
Conf idence
PL US
Singleton s
ĠCldr Utility
ĠXMP Exception
ADJ UST
Deli very
DIM ENSION
ĠFunctional Interface
I v
L icense
T olerance
ing To
Ġset Item
ĠB ranch
Ġis Last
ĠF UNCTION
Ġput Float
Ġput Short
User Restrictions
ĠmS kip
10 24
Ġservice Class
Stack Frame
Ġclient Context
Style Name
ĠCall Super
58 2
Ġregister Listener
Reply CommandHandler
Phone book
Ġfragment Controller
FR ACTION
Ġover lap
ĠwriteTo File
Ġround ingMode
Ġunmodifiable Map
Stage fright
ĠHead ers
permission s
, \
g anss
id le
Ġget Animation
Ġl argest
Ġj commander
Ġtest Serialization
ĠF lag
IN ode
Info Map
Ġ3 50
Ġcol lapse
70 5
ĠmF ocused
ĠmV ertical
Ġdump Debug
SUB JECT
ĠgetService State
ĠSU GGEST
ĠGrid Layout
ĠLIST EN
ĠORI GIN
Rem inder
Offer ings
ĠmTexture View
ĠWildcard Type
UNCT UATION
ĠmBroker Service
ĠRBB INode
> '
H dmi
er gy
Ġm edi
In side
ĠO LD
Ġset Description
Ġis Held
ĠN avigation
AT TEMP
RE PEAT
Comp anion
Sh aring
Ġinter mediate
Ġ6 6666
ĠgetC ert
ĠMedia Browser
UR AL
26 1
ĠLOG TAG
Ġsuccess ful
Print Job
direc tory
Ġshortcut s
Ġtemplate s
Ġtexture Library
ĠonService Disconnected
ĠDOWN LOAD
ĠSubject PublicKeyInfo
Ġmig rate
Radi ans
P lain
Y et
Ġm Paused
Ġget Conversation
Ġd raft
ĠI f
ĠF etch
Type Declaration
Data Elements
Un handled
mo ji
Ġarray Offset
ĠmL ength
Ġad opt
ĠThread Factory
Ġdis card
Ġengine Generate
Alarm Listener
ĠmSc reenshot
Ġbucket s
ĠmMain Handler
ĠSerialization Test
ĠcountryCode ToRegionCodeMap
Ġmagn itude
M a
S omething
st CommandHandler
Ġc ircle
ti mal
Ġm Args
Ġl n
ĠG EN
Rec urrence
Trans lucent
ĠData Table
28 1
INT S
Ġquery Args
Ġexecute AndValidate
ĠStats Event
Adjust ments
ĠmNative Ptr
ĠInsets State
617 46
ĠCellBroadcast s
Ġtensor flow
ĠLAT IN
ĠjjMove StringLiteralDfa
4 15
f ound
re lease
Ġe e
Ġ1 42
ĠR TL
Ġu xRestrictions
yte st
ĠE quivalence
Ġto BigInteger
Ġx la
Ext ract
ĠPro tection
ĠSettings PreferenceFragment
PO CH
ĠmCurrent UserId
Ġtrack Selector
Ca Cert
Dial ing
ĠgetRaw Offset
WE B
lav or
ĠDAT ABASE
5 15
M ah
P IXEL
Q rCode
re ader
Ġget Accessibility
ĠC ritical
Ġ1 54
ĠD OC
Ġh dmi
ĠF tp
ens ation
Ġread Utf
Content Uri
Long ClickListener
Ġle af
xy z
IG NORE
OP LE
PRE FERRED
Scroll View
Ġmulti dex
COL ON
ĠPRE VIEW
PL AC
ĠQ S
PAN EL
= ="
K ILL
R X
j oin
t g
Ġf out
Ġa in
ĠC rash
il ence
Ġd ictionary
Ġassert Is
Ġassert Read
Ġcon currencyLevel
ĠU ce
ĠTest Name
li pper
Config Builder
Ġ6 88
Stub bing
Request Id
Ġread able
000 3
Ġsub component
UN TIL
ĠmD el
58 1
Ġcolumn Key
Ġui Mode
Ġalgorithm Name
ĠmDis able
ĠExtended ListBox
ĠgetPreferenceScreen ResId
apt ic
symbols olver
2 13
T CP
Ġs ir
ut ral
Ġnew Map
ĠC overage
Type Variable
Ġto Append
Ġan qp
ĠJ Diff
Ad n
ĠmMock PackageManager
90 1
90 7
IFI ER
ĠBase Adapter
ĠName Expr
ĠProcess or
Work Profile
ĠCode Point
ĠPRE FERENCE
Ġab out
ĠMetrics FeatureProvider
ĠFTP Client
centi le
C losing
M PEG
Ġp f
ĠS sl
ĠL ast
Ġclass Def
App List
ĠmM ime
Error Identifier
Ġsub class
Ġfind Node
ĠgetC ustom
Ġfrom Element
ĠgetP rivateKey
60 3
ĠInvalid ObjectException
ĠwaitFor Device
ĠNoSuch Field
ĠInvocation Context
ĠHeader Set
pri ority
Bl endMode
ĠHdmi Control
attribute s
Aff inity
ĠmBroadcast Receiver
ĠSeries Recording
ĠIsoType Reader
ĠSPAR C
8 44
I tr
J it
W ipe
Ġget Zone
Ġset Allow
ON ICAL
Ġtest Module
EN SITIVE
Ġ3 66
Ġappend Text
imple mented
Frame Layout
ĠMockito JUnit
Ġswitch User
ĠgetD ummy
Bitmap Drawable
RES OLUTION
Wallpaper Info
ĠSample Elements
Ġjd i
Since Last
CONTROL S
Ġweb rtc
, ,
M alformed
P laintext
m anaged
s File
Ġin vert
Ġget Alias
Ġget Scope
Ġset Layer
AL BUM
fer mode
DE EP
ĠPro viders
\" /
VER TICAL
78 5
ĠCharacter Iterator
Ġresolve Activity
Ġver ified
EE E
ĠZen Rule
Ġconf idence
ĠProtocol Exception
Vari ance
ĠCommands Interface
ĠLIM IT
readcr umb
P ts
S id
o verride
Ġg radient
Ġe ach
ĠC oding
Ġtest G
Info Item
ĠTest Closeable
Par a
ĠmS oftAp
And Offset
Error Handler
Ġnext Long
PRO C
ĠgetP h
Ġuri String
Ġparent Id
Ġresponse Code
47 3
ĠmV irtual
79 4
NUM ERIC
Ġsample Queue
Ġpop ulation
ĠMulti ple
Global Layout
Import s
Send ers
ĠQ os
Ġec Spec
Fast boot
ĠBad PaddingException
ĠFixed Size
Vari ation
mem ber
ĠgetNextArg Required
O rig
s ignature
Ġm Inter
Ġg ame
Ġget Valid
ĠB ox
ĠL D
Pro vide
ĠG OO
Text Style
Ġtype Element
Ġwrite Event
TR UE
Ġas ReferenceType
Ġformat Date
Ġper ms
ĠgetDefault Display
Phone State
ĠsetText Color
Ġaccess ory
Ġscale X
Supp ress
ĠAd aptive
ĠFrame Type
DU CTION
Trigger ed
Elapsed Time
ĠRouting SessionInfo
7 37
v ec
Ġl ive
Ġj ust
Ġ1 59
TI M
On Failure
NO THING
ĠmR ole
As Map
ĠData FailCause
eter ing
ĠAudio Focus
ĠStub Socket
PK IX
Print Service
Ne ver
Ġbox es
ograph ical
ĠAE AD
Consist ency
V ACY
c or
Ñ Ģ
or tion
Ġm Notif
Ġe uicc
able View
Ġis Secure
Ġtest Build
IN ACTIVE
Ġon BackPressed
ĠmC ircle
ric a
Ġfile Contents
Ġwait AndAssert
IC LE
Ġlocale ID
Eng lish
ĠHttp Cookie
ĠFrame d
LOG GING
ĠLauncher Apps
Ġbar rier
ĠsetType face
xffff ff
ĠDrag Event
YX Zh
ĠRole Manager
ĠmCalls Manager
D ashboardFragment
H W
b its
in ite
Ġs dp
Ex emption
ĠS m
ĠA utomatic
Ġset Call
ess ager
Type Parameter
Ġcreate Window
Text Classifier
Ġ6 89
Ġdata store
ĠInteger Value
ĠmM sg
Ġarray s
Ġtext classifier
Node Id
ĠKey s
NE VER
PRO P
sp an
Ġvisit Var
pro p
Del imiter
79 2
Voice Interaction
Ġscan Details
Ġbl ack
ĠEap MsChapV
ĠgetPath Segments
ĠBU G
ĠmTask Id
-> :
ĠPreview Programs
Ġinstanti ate
ĠgetElapsed SinceBootMillis
ĠDx TestCase
arb age
B le
P c
Ġ" ?
ĠT tml
Ġre jected
Ġre write
Ġd N
ĠI FD
up lex
To Wifi
Ġout Value
Col s
Format ting
ĠX POS
Ġcontain ing
ĠmD rop
ĠComp lication
Ġexp iration
ĠmMock ViewGroup
Ġbuffer Index
gn or
Build Helper
ĠFunction s
ĠTemp erature
Ġdelta X
Ġdoes Not
CLI P
ALI VE
ĠGraph ics
ĠonKey Down
ĠTextClassifier Event
BgNV B
ĠPROVISION ING
6 33
Ġb w
ac cept
Re entrant
ĠD ROP
Ġadd Text
ĠTest Set
Text Box
ĠmS chedule
Ġas String
Interface Name
ĠmT imer
Ġhandle s
Ġsb as
78 1
ĠAudio Device
ĠAbstract List
27 1
APP WIDGET
ĠInput Connection
Ġare Equal
BR ATION
ĠZip ArchiveEntry
pri mary
ĠTag Context
Dial pad
ten na
Ġwatch dog
Viol ation
Through put
ĠIO Utils
n ight
v ariant
Ġn avigable
Ġs Debug
Ġl ifetime
Ġset End
ĠD RI
Ġtest Install
Ġstart Id
ĠmS ip
ĠClass Reader
Values For
Ġ9 00
Rule Set
par ated
88 3
70 3
Host View
Proto Enums
ĠImage s
Subscription InfoList
Serial ize
Conf irmed
Template s
Battery Level
Metric Data
ĠmSp lit
Ġbox ed
ĠRead Only
ĠOk HttpClient
ĠGuid ance
ĠgetSelectedItem Position
ĠTraffic Stats
tig uous
CCE EDED
ĠJAN UARY
ĠvisitVar Insn
R il
g lobal
St ores
Ġt xt
Ġget ResourceBundle
Ġr an
Ġe f
ation Type
ve al
Ġtry ing
Activity Result
Ġarg Name
ĠComp ressor
Block er
Audio Format
96 9
Ġerr no
ĠDrawable Res
ĠmView Pager
Syn chronized
SSL Parameters
Archive InputStream
Dim s
Mo ved
ĠgetSelection Start
CHARG ING
CarrierInfo Manager
F G
L p
N L
T AB
Z EN
t ools
Ġn Set
Ġimp lement
ĠM EM
am F
ot Type
Ġh dr
Ġadd Link
Col lecting
Float Array
ĠMockito Exception
70 2
Setting Launcher
ĠImmutableList Multimap
ĠmI Wifi
CR ASH
Blocking Deque
host name
Ġroute s
hel per
ĠgetPadding Left
Ġpersist ent
ĠUsageStats Manager
ZX N
Jo hn
ĠPage Range
ParentNode Of
E AA
Ġn Get
Ġget Shared
ĠC T
ĠT rigger
Ġfin der
Ġis One
Ġclass ifier
one Generator
File Attributes
Message WithMaps
Size Bytes
ĠJ Commander
Trans formed
Action Button
Ġsyn pred
ĠRE PEAT
unc tu
ĠAbstract Fake
ĠTrans A
Ġaccess Flags
EC YCLE
Backup Task
stra ined
BIT AES
Tab View
MPLE MENT
ĠmConnection Service
TRANS ACTION
ĠMtp Constants
ĠSmsCb Message
ĠgetRequired Parameter
Ġhold sLock
Opp ortunistic
MID DLE
ĠConfirmation DialogFragment
ĠonRestore InstanceState
7 00
B ATCH
Ġ Store
lic able
Ġget Queue
Ġget Condition
Ġb is
Ġnew Msg
Ġd ashboard
ĠO ld
Ġh ref
Ġde mand
Ġto Epoch
Par agraph
Cap tivePortal
Ġsec ret
ĠmW in
Ġany Of
Color izer
Track Selection
90 3
avig ate
Ġmod ulus
TEST S
Ġhome page
Ġwri table
ĠDateTimeFormatter Builder
ĠcreateFor SubscriptionId
STICK Y
0 11
B uilt
i vely
s get
Ġc losingFuture
Ġm Condition
Ġm Indicator
Ġget Previous
Ġr sn
ĠB ITS
ĠH ORIZONTAL
ĠJ OB
64 1
At End
ĠType Declaration
Ġbase line
Available Listener
28 2
90 4
Double Tap
Ġnetwork Request
Certificate Chain
Phone AccountHandle
ove ment
Subscription State
Ġ") :
ĠINTER ACT
Im g
Ġsup ertype
ĠisAssignable By
Ġesc aped
yg on
O dd
S nap
Ġm ost
Ġm Op
Ġn otation
Ġget DateTime
ĠB AR
Ġto Element
Ġadd Target
Sh eet
Ġstart Y
Node Map
ĠmD im
Ġbe h
Display Cutout
ĠgetB attery
ĠTr an
66 8
Local Address
45 3
ĠJava ssist
pre view
Ġhave Ids
ĠJob Parameters
Tra versal
Visual Effects
ANE SE
rab ic
S d
Ġ echo
in ux
Ġf low
ing ular
Ġget To
Ġset Short
ĠD ops
ĠF OO
ak ing
Ġout File
Ġhas Permission
ENT RIES
Ġcheck Reply
Instance Of
Ġ8 64
ĠTh umbnail
Mock Context
Float Value
QU OTA
66 1
Ġgroup Name
Ġmet amodel
key s
MM TEL
ĠDec lared
Ġiface s
ĠmUi Device
ĠParser Exception
ĠSpan Context
Vi able
Ġden ominator
ĠMessaging Style
ĠRuleBased Collator
B in
m ts
Ġm TimeZone
Ġget Year
and on
ĠC ut
ter ance
Ġ1 53
Manager Test
ĠE ab
Cont rast
Ġon DetachedFromWindow
li est
Count down
ĠmC T
Ġremove User
ĠEX CE
SU I
ĠCamera TestUtils
Ġcell Identity
PLAY ING
channel z
Pkg Name
ĠsetC lip
ĠFramework Method
Ġtri al
ĠEventLog Tags
ĠInstanti ationException
ĠRecursive Action
P laceholder
Ġm Conference
Ġget J
Ġget Handshake
ri able
ĠM anager
Info Data
Ġon Progress
Service Wrapper
ĠG EST
Log cat
Start up
Ġas ymmetric
Session Config
ĠgetC alendar
ĠBluetooth Share
ĠRet rCommandHandler
77 1
Admin User
ĠResult Unit
Ġover ridden
Ġph aser
MARK ER
ĠisLe ap
ĠsetAs ParentNodeOf
Ġdriv ing
ĠGEST URE
v olume
ec ar
ĠP ing
ĠB ottom
Service Callback
With InnerClass
rec overable
ĠmS sid
ĠX Object
Command Name
ailed State
60 2
ĠEvent Listener
45 1
CI SE
IZ ER
Ġpolicy Flags
ĠFrame Format
ĠClient Call
MISS ING
ĠDump er
ĠTRANS ACTION
ĠCanned Dataset
Bus y
Q PE
W ide
s ame
Ġc ross
In strument
Ġnew Index
Ġ1 56
Ġ[ --
ĠD ial
Stream Tracer
Method Info
Ġ' )'
CON FERENCE
Ġcol lator
ĠmW rapped
44 1
77 4
ĠmDevice Config
ĠTelephony Constants
SY R
86 2
Day OfMonth
Ġind icator
ĠEx perimental
Main line
MESSAGE S
Ġoption Name
ĠLauncher State
Af rica
Restrict Background
ĠMoreKeysKeyboard Params
N CH
Ġ \\
Ġm Contacts
Ġs Is
ĠC ELL
ĠA vailable
Ġ1 43
Ġtest Type
For Subscriber
Handler Thread
ĠView Pager
Ġlog Wrapper
Ġconfig Builder
Exec uted
ĠSh ade
ĠUri Matcher
Ġwith Text
FILE S
Ġserial izable
Capture d
ĠError Code
Subscription Manager
ĠInstrumentation TestCase
Serial ized
Msg Id
Disabled ByAdmin
ĠgetN ormal
RGB A
GRA VITY
MessageLite WithMaps
Ġjo urnal
O s
a ac
x h
y es
Ġg ap
ac o
ĠS UM
ra pping
Ġset Provider
ig ible
Ġis Primary
Ġtest Sort
Ġbyte code
ĠE DI
Ġ4 000
Field Value
Ġen ough
Ġrun Command
ĠmS pec
Error Action
ĠSh are
Ind eterminate
STR ONG
ĠmWifi Network
46 5
ĠField Container
ĠSE PARATOR
86 8
ounter ed
ĠPattern Matcher
Ġclosed Open
DataSet Observer
COM MENT
ĠTrust Manager
Signing Enabled
ĠPreferenceController TestHelper
ĠGesture Detector
Ġtc pi
Go ing
wizard lib
E phemeris
K B
p k
s And
z d
ed Value
Exception ally
Ġw e
ĠN FA
To Raw
RE FRESH
Data Provider
Ġcontent capture
ĠmC urr
Ġcheck Thread
From Intent
ĠDe que
Input Port
ĠmP ublish
ĠCommand Set
ĠmH dmi
47 2
ĠSub SettingLauncher
ĠEN CODED
ĠRUN NING
rement al
ĠmContent View
Iface s
Disc over
ĠVehicle Area
call s
hel p
ĠUsage Events
ĠIcc Utils
ĠmLocation Manager
Driv ingState
ĠChooseLock SettingsHelper
x v
Ġ Enable
Ġm Extractor
Ġget Read
ĠT cp
as ure
Ġ2 88
Ġon Display
ĠH uman
Ġkey Value
ĠMedia PeriodId
Ġitem Id
Ġrec ent
ĠmF ast
ĠError Queue
Ret ries
ĠAction Listener
Debug Config
Playback Exception
Watch Face
PA IR
ĠCalledBy Native
% "
Ġm Preparer
Ġn il
Ġb cp
ĠT op
Ġw izard
ĠD ST
Type Element
Type Arguments
ST ile
ĠV ibrator
ĠH ASH
File Object
Ġstart Pos
ug ar
Ġinput Offset
BU F
ĠLong s
Selected Listener
96 5
Ġprefix Length
Ġcancel led
Ġcondition al
Ġman ual
ĠgetRaw Type
PRES ENCE
ORIG INAL
D ue
Ġget Importance
Ex ceeded
Ġd fa
ĠR ops
ĠP AGE
ĠI PackageManager
ĠN OP
Pro blem
Set Observer
ĠG MT
ĠLog Level
ab s
AS SIGNED
SU CCEEDED
ĠField Declaration
ĠInvalid ParameterException
ĠDisplay Cutout
VO CATION
Ġcipher Suite
ĠBi Map
ĠApk SigningBlock
Const s
ĠWorkspace ItemInfo
ĠStatsd Config
C at
C DATA
S D
S upertype
b asic
p id
w all
Ġp rinted
al gorithm
Ġin File
Ġget Out
ĠS TEM
Ġis Hidden
ĠTest Looper
time stamp
ĠH istogram
ATE ST
ĠView Model
ĠgetS uggestion
ĠisE mergency
qui v
ĠmP lugin
Permission Group
ĠImmutable Multiset
Ġmin SdkVersion
Ġlast Index
Compat Builder
77 5
ĠAL WAYS
Ġsetup wizardlib
Ġ"< "
74 3
Ġdispatch er
Ġdir ty
Ġlaunch ed
ĠFOR CE
MATCH ER
Ġauthent ication
ĠBound Type
Ġep och
ĠmVelocity Tracker
ĠRcsContact UceCapability
ĠAbs ListView
6 35
M cc
Ġm t
Ġget Shortcuts
Ġset Primary
ĠP OLL
Stream Type
Ġput IfAbsent
ĠIntent s
VER IFY
ĠApp Filter
Ġnetwork Capabilities
77 3
ĠColor Filter
ĠInputStream Source
ĠCOLUMN S
requ encies
Ġ"@ "
Based Table
Ġvar s
ĠAg ent
ĠEXT ENDED
ECParameters Holder
Logical Channel
ĠLex ical
ĠtoAppend To
ĠCommandSet ID
H ot
L ASH
t ar
Ġm Usage
Ġget Tests
ĠP B
ĠD em
ĠF ree
Ġadd Device
Handler Action
Ġhas Same
AA g
lu ent
Ġuser Account
Ġof Seconds
ĠmD ir
ĠKey frame
Ġfind Static
Ġerror Msg
Ġvalid Values
SA VER
bb re
CC F
ĠSQLite QueryBuilder
Ġprop Value
ĠmSp an
Tool tip
Initi ator
dump sys
Ġpopulated Queue
ĠreadFrom Parcel
BUIL DER
d at
q YXZh
t oggle
Ġn ear
Ġget Hash
ver ifier
Ġis LoggingEnabled
ĠRun Util
OU LD
Channel Count
ĠRE SET
Ġmin PatchLevel
76 3
Ġtrack Selection
Ġcontrol s
ĠmN avigationBar
Ġtransport Mock
Coord X
Adjust ed
ĠgetStart Time
ĠSingle FieldBuilderV
ĠsendBroadcast AsUser
Advance d
ĠsetMin imum
Atoms Storage
F ALLBACK
h our
m eta
Ġ" **
In active
de sc
ĠIn strument
es h
Ġcreate Instance
Sh ifted
Ġcomp aring
ĠmM otion
TH O
Ġparse Double
ĠRec ordedPrograms
Hash er
ĠFloat Range
OK IE
Non ce
Ġscreen Layout
Ġdesc end
Ġenter Alt
ĠNdef Record
ĠSeven Z
Ġcontextual cards
E U
s upport
in v
Ġp laintext
Ġm An
Ġm Response
Ġm Provisioning
Ġm Editable
Ġget Job
ap ply
ĠM ARK
Ġtest Access
Test Fixture
Ġto Be
Ġadd Capability
Ġon Dismiss
Ġsuper Class
LI TE
con vert
Ġcontain ed
ĠmR et
Fragment s
Ġle ading
Ġclear Field
ĠMessage Type
FOR MED
Row Adjustment
Ġopen RawResource
ĠDouble s
ĠMet a
Protocol Versions
Transaction s
INTER ACTION
Limit er
ĠgetComponent Type
Ġlat itude
ĠnotNull OrEmpty
CallSession Stats
ĠRestric tion
ĠCOMPLE X
onetic Name
DELI MITER
: \\
I W
T ty
V m
Ġm Control
ap ers
Ġset Should
List Activity
Ġcon stants
th ers
Test Run
ang ul
Ġon Scroll
ĠW IDE
Ġmock s
Col lect
Channel Config
Ġdec or
ĠWifi Entry
90 6
Ġdis allow
ĠmService s
46 1
46 2
49 5
ĠXml Util
Ġdef in
Constructor Ljava
Ġreport File
0000000 4
ĠAuto Closeable
ĠDecimal Quantity
ĠmLeft Keys
ĠgetAnd Increment
Ġrest ored
ĠRBBI Rule
ĠgetSuper class
ALIGN MENT
LinkLayer Stats
F acing
M AR
Î ¹
Ġm Utils
Ġm Node
Ġset RepeatedField
Id For
ID I
Ġcreate And
ĠmS n
Ġal igned
Position Ms
ĠLong Array
Ġchannel Uri
Ġrep lica
66 9
Report s
Ġaccount Handle
68 9
ĠDefault Session
ĠTemp oraryFolder
Ġwork space
Stmt MetaModel
Ġmeta State
POS URE
bl ue
Div By
ital ize
ĠSERIAL IZABLE
rott le
ĠDeclared Type
7 99
P addings
S ock
Ġm Accounts
Ġget Preferred
Ġd u
ĠR n
ĠD c
ER ATURE
Ġis Right
ĠL iteral
Ac AAAA
Ġadd Observer
time d
AA I
Inter net
Network Id
Ġremove Child
ĠEX IST
Ġnative Order
ĠmH ttp
Post ed
ĠmN av
ĠTemporal Queries
ĠSUP PLEMENT
peat Count
ĠmSc ene
Dist raction
ĠmRight Keys
ĠDay OfWeek
ĠTEMP LATE
Ins ensitive
ĠmZenMode Helper
ĠmOption Setter
ĠBIN ARY
ĠCritical Native
C r
s Provider
Ġa bove
ĠD omain
To Check
RE SPON
RE ACH
Ġadd StyleName
EN CRYPTION
For App
AL TERN
Ġcreate Message
Package Private
ĠmC oord
From Key
ET CH
Ġparse Float
Ġtrans formed
Client Mode
Uid Runner
Ġchild Index
Hal Service
PRE DI
Ġrow Key
ĠSimple Name
ĠEN TER
98 5
ĠAccount ManagerService
dp Service
ĠmEvent Facade
ĠmText Paint
ĠmU m
ĠmTop RowAdjustment
CAN NOT
Look Up
G iven
M ul
N itz
t rip
or CommandHandler
Ġm Legacy
Ġget Foreground
Ġnew Count
ch arge
Ġset PackageName
Name Index
ĠmC om
Ġremove First
pi Float
pi Half
Button Text
ĠCON F
Ġnative Test
Ġdisplay Metrics
ĠThread Utils
ĠThread Reference
Ġtra iling
49 1
MAT RIX
Ġpkg s
ĠTrans fer
Ġbind ings
ĠgetContent s
Ġextra Info
ĠEC PrivateKey
ĠUi Selector
Qual ifiers
Upd ating
ĠmLocal MediaManager
param eters
Ġadvance dOptions
ĠWatch UidRunner
++ ++
ĠLayer Drawable
ĠLogical Address
ĠOWN ER
ĠonDe veloperOptions
* '
U OUS
s ol
Ġp ts
Ġm Int
Ġget Requested
In Parent
ĠR b
ĠR anking
ĠD pm
Pro filing
ab ab
Ġarg i
ĠByte Streams
Sub Info
ĠmR cs
Response Info
ĠgetL ower
ĠGener ate
ĠmRe move
ĠmA utofill
Ġdestroy ed
Var s
Rat ings
AQ UE
ĠBack ing
TargetSdk Version
Ġusage Stats
ĠGeneral Names
Ġbattery tip
ĠNE VER
Drop Down
ĠgetNode Value
----- \
ĠGradient Drawable
ĠgetDefaultKey CoordX
RADI US
ĠmDetailed Listener
B ON
H S
M OUNT
c ing
c lock
x FE
à ¦
Ġimp licit
Ġset Count
Type Parameters
State Monitor
Data Length
ĠG if
ĠG ZIP
Sc ans
With Default
ĠCh inese
ĠmB ucket
Ġparse Partial
ool tip
Ġsp arseArray
ĠCON TEXT
Ġload AndRun
ĠPreference Fragment
ĠgetD ynamic
Ġhandler s
ĠPrint Document
Url s
Power Manager
ParameterSpec Exception
Ġscan Detail
Cell ular
Ġperform Command
BIT MASK
ĠgetAction Masked
ĠBattery Sipper
Ġcomb in
urrence s
Ġdial pad
ĠDi ag
ĠreadUnsigned Byte
MoreKeys Of
ensi tivity
A Z
F OLDER
I CH
t otal
y b
Ġm Parameters
In Range
Ġif Present
Ġset Thread
Ġw akeLock
EN DE
Ġapp Op
Call Site
With HmacSHA
Ġcontent Equals
Start TimeMs
ĠmD ay
Input Connection
MO D
No tified
Ġ20 48
44 2
Ġuid State
Ġtotal Time
ĠDateTime Rule
ĠCOMP ARE
Factor ies
Cpu Abi
Ġ"{ "
[...]
