{"<s>":0,"</s>":1,"<pad>":2,"<|UNKNOWN|>":3,"!":4,"\"":5,"#":6,"$":7,"%":8,"&":9,"'":10,"(":11,")":12,"*":13,"+":14,",":15,"-":16,".":17,"/":18,"0":19,"1":20,"2":21,"3":22,"4":23,"5":24,"6":25,"7":26,"8":27,"9":28,":":29,";":30,"<":31,"=":32,">":33,"?":34,"@":35,"A":36,"B":37,"C":38,"D":39,"E":40,"F":41,"G":42,"H":43,"I":44,"J":45,"K":46,"L":47,"M":48,"N":49,"O":50,"P":51,"Q":52,"R":53,"S":54,"T":55,"U":56,"V":57,"W":58,"X":59,"Y":60,"Z":61,"[":62,"\\":63,"]":64,"^":65,"_":66,"`":67,"a":68,"b":69,"c":70,"d":71,"e":72,"f":73,"g":74,"h":75,"i":76,"j":77,"k":78,"l":79,"m":80,"n":81,"o":82,"p":83,"q":84,"r":85,"s":86,"t":87,"u":88,"v":89,"w":90,"x":91,"y":92,"z":93,"{":94,"|":95,"}":96,"~":97,"¡":98,"¢":99,"£":100,"¤":101,"¥":102,"¦":103,"§":104,"¨":105,"©":106,"ª":107,"«":108,"¬":109,"®":110,"¯":111,"°":112,"±":113,"²":114,"³":115,"´":116,"µ":117,"¶":118,"·":119,"¸":120,"¹":121,"º":122,"»":123,"¼":124,"½":125,"¾":126,"¿":127,"À":128,"Á":129,"Â":130,"Ã":131,"Ä":132,"Å":133,"Æ":134,"Ç":135,"È":136,"É":137,"Ê":138,"Ë":139,"Ì":140,"Í":141,"Î":142,"Ï":143,"Ð":144,"Ñ":145,"Ò":146,"Ó":147,"Ô":148,"Õ":149,"Ö":150,"×":151,"Ø":152,"Ù":153,"Ú":154,"Û":155,"Ü":156,"Ý":157,"Þ":158,"ß":159,"à":160,"á":161,"â":162,"ã":163,"ä":164,"å":165,"æ":166,"ç":167,"è":168,"é":169,"ê":170,"ë":171,"ì":172,"í":173,"î":174,"ï":175,"ð":176,"ñ":177,"ò":178,"ó":179,"ô":180,"õ":181,"ö":182,"÷":183,"ø":184,"ù":185,"ú":186,"û":187,"ü":188,"ý":189,"þ":190,"ÿ":191,"Ā":192,"ā":193,"Ă":194,"ă":195,"Ą":196,"ą":197,"Ć":198,"ć":199,"Ĉ":200,"ĉ":201,"Ċ":202,"ċ":203,"Č":204,"č":205,"Ď":206,"ď":207,"Đ":208,"đ":209,"Ē":210,"ē":211,"Ĕ":212,"ĕ":213,"Ė":214,"ė":215,"Ę":216,"ę":217,"Ě":218,"ě":219,"Ĝ":220,"ĝ":221,"Ğ":222,"ğ":223,"Ġ":224,"ġ":225,"Ģ":226,"ģ":227,"Ĥ":228,"ĥ":229,"Ħ":230,"ħ":231,"Ĩ":232,"ĩ":233,"Ī":234,"ī":235,"Ĭ":236,"ĭ":237,"Į":238,"į":239,"İ":240,"ı":241,"Ĳ":242,"ĳ":243,"Ĵ":244,"ĵ":245,"Ķ":246,"ķ":247,"ĸ":248,"Ĺ":249,"ĺ":250,"Ļ":251,"ļ":252,"Ľ":253,"ľ":254,"Ŀ":255,"ŀ":256,"Ł":257,"ł":258,"Ń":259,"Ġ.":260,"Ġ(":261,"Ġ)":262,"Ġ;":263,"er":264,"in":265,"on":266,"at":267,"et":268,"Ġ,":269,"st":270,"ic":271,"Ġp":272,"or":273,"en":274,"al":275,"Ġ{":276,"Ġ}":277,"an":278,"Ġi":279,"le":280,"Ġc":281,"Ġ=":282,"ti":283,"Ġm":284,"re":285,"te":286,"ro":287,"id":288,"ub":289,"Ġn":290,"ss":291,"Ġf":292,"lic":293,"Ġg":294,"Ġs":295,"Ġin":296,"St":297,"Ġ\"":298,"ar":299,"ublic":300,"ce":301,"ing":302,"Ġpublic":303,"Ġt":304,"mp":305,"Ġget":306,"ur":307,"In":308,"ate":309,"ent":310,"Ġa":311,"tion":312,"ew":313,"Ġint":314,"ec":315,"ag":316,"ri":317,"ul":318,"ort":319,"Ġv":320,"it":321,"Ġr":322,"Ġb":323,"Ġst":324,"ion":325,"and":326,"ac":327,"ut":328,"Ġimp":329,"me":330,"de":331,"Ġimport":332,"urn":333,"eturn":334,"un":335,"se":336,"ring":337,"Ġe":338,"la":339,"Ġreturn":340,"Ġnew":341,"ue":342,"String":343,"ĠC":344,"Ġ0":345,"Ex":346,"Ġ<":347,"ĠT":348,"Re":349,"Ġstat":350,"ed":351,"Ġfin":352,"oc":353,"ption":354,"il":355,"Ġstatic":356,"xt":357,"ation":358,"ĠS":359,"Ġ@":360,"ist":361,"Ġfinal":362,"oid":363,"Ġl":364,"ĠA":365,"Ġvoid":366,"ull":367,"om":368,"ert":369,"Ġif":370,"Ġ+":371,"Ġth":372,"ra":373,"age":374,"Ġre":375,"roid":376,"ĠString":377,"ble":378,"android":379,"Con":380,"oo":381,"riv":382,"Ġandroid":383,"ception":384,"rivate":385,"is":386,"ack":387,"ver":388,"Ġd":389,"Ġprivate":390,"Exception":391,"ad":392,"el":393,"Ġj":394,"ter":395,"est":396,"Ġ1":397,"ssert":398,"Ġ>":399,"ĠO":400,"ap":401,"ch":402,"Ġo":403,"pp":404,"Ġset":405,"Ġassert":406,"00":407,"Ġ[":408,"av":409,"ĠM":410,"Ġnull":411,"Ġ]":412,"List":413,"ame":414,"ĠR":415,"ig":416,"lass":417,"able":418,"pe":419,"qu":420,"ode":421,"ol":422,"ĠP":423,"row":424,"ĠB":425,"am":426,"ment":427,"ĠI":428,"ock":429,"ted":430,"end":431,"ype":432,"Ġcon":433,"ON":434,"Ġu":435,"Ġte":436,"Ġcom":437,"ot":438,"ice":439,"yte":440,"Ġw":441,"ava":442,"all":443,"alue":444,"ĠD":445,"ile":446,"iew":447,"Ġthrow":448,"as":449,"vice":450,"Id":451,"ect":452,"der":453,"Ġtr":454,"ER":455,"Int":456,"Ġjava":457,"ide":458,"iz":459,"til":460,"Ġis":461,"ser":462,"qual":463,"th":464,"ey":465,"ĠL":466,"ity":467,"ess":468,"og":469,"ĠN":470,"ff":471,"oun":472,"Ġ!":473,"ult":474,"ow":475,"ata":476,"Name":477,"text":478,"lean":479,"Ġtest":480,"Ġclass":481,"ride":482,"if":483,"Ġh":484,"fo":485,"verride":486,"dd":487,"quals":488,"ĠF":489,"De":490,"anag":491,"oolean":492,"AT":493,"um":494,"ĠOverride":495,"up":496,"anager":497,"View":498,"En":499,"ray":500,"uil":501,"Manager":502,"od":503,"Res":504,"ackage":505,"Type":506,"IN":507,"Pro":508,"ase":509,"ve":510,"Ġbyte":511,"Ch":512,"Ac":513,"lo":514,"Ġboolean":515,"ST":516,"To":517,"ĠU":518,"Info":519,"Ġ==":520,"Test":521,"Ġ2":522,"ler":523,"Ġ:":524,"put":525,"ject":526,"ang":527,"ure":528,"Ġ-":529,"RE":530,"Ġpro":531,"omp":532,"Ġfor":533,"atch":534,"Ġde":535,"ener":536,"alse":537,"Ġres":538,"eth":539,"State":540,"ong":541,"rray":542,"Ġor":543,"ext":544,"ĠE":545,"Key":546,"eld":547,"act":548,"ize":549,"Ġto":550,"ield":551,"Value":552,"Ġadd":553,"ĠIn":554,"Equals":555,"Cont":556,"fa":557,"Set":558,"AG":559,"essage":560,"lec":561,"ĠTest":562,"Ġch":563,"Ġex":564,"Ġ!=":565,"bject":566,"int":567,"Par":568,"ence":569,"Ġutil":570,"ime":571,"ount":572,"Ġthis":573,"ĠassertEquals":574,"EN":575,"uilder":576,"For":577,"es":578,"Ġorg":579,"ry":580,"ers":581,"arg":582,"ervice":583,"Ġon":584,"Ġthrows":585,"AL":586,"Tr":587,"Ġfalse":588,"lay":589,"im":590,"Ġapp":591,"us":592,"ĠCon":593,"ator":594,"ith":595,"time":596,"TI":597,"OR":598,"Hand":599,"ann":600,"fig":601,"Th":602,"stan":603,"Ġtrue":604,"ream":605,"our":606,"LE":607,"tiv":608,"pec":609,"Ġcont":610,"Data":611,"em":612,"fer":613,"Call":614,"eng":615,"vent":616,"art":617,"dex":618,"Po":619,"tivity":620,"Pre":621,"ger":622,"ource":623,"tif":624,"lement":625,"Al":626,"An":627,"ĠV":628,"Ġpar":629,"ength":630,"ID":631,"Ġvalue":632,"ference":633,"Time":634,"ore":635,"reate":636,"ir":637,"ain":638,"sc":639,"Ġpackage":640,"AN":641,"str":642,"ME":643,"Ġ&":644,"ath":645,"cess":646,"rol":647,"Ġlong":648,"ak":649,"Ġk":650,"Service":651,"ifi":652,"Ġ3":653,"Stream":654,"set":655,"back":656,"ethod":657,"Listener":658,"Ġel":659,"DE":660,"Ġelse":661,"eck":662,"per":663,"Ġext":664,"ress":665,"que":666,"out":667,"ay":668,"tor":669,"AC":670,"ute":671,"Null":672,"ly":673,"Ġresult":674,"ork":675,"li":676,"yst":677,"Ġout":678,"AR":679,"ĠRun":680,"uff":681,"ystem":682,"one":683,"Map":684,"Context":685,"ader":686,"ition":687,"ED":688,"ings":689,"upp":690,"mat":691,"ument":692,"Un":693,"ĠG":694,"mand":695,"ans":696,"Ġtry":697,"mo":698,"Ġac":699,"ind":700,"otation":701,"Stat":702,"loat":703,"SI":704,"Ġsh":705,"ĠW":706,"tt":707,"Ġcreate":708,"ph":709,"Util":710,"ĠH":711,"ĠArray":712,"ine":713,"Handler":714,"quest":715,"teger":716,"ail":717,"stance":718,"File":719,"ocal":720,"urr":721,"uffer":722,"ĠObject":723,"Intent":724,"TY":725,"Device":726,"Config":727,"Se":728,"ĠList":729,"Sc":730,"face":731,"Ġ</":732,"Message":733,"io":734,"čĊ":735,"Array":736,"Ġlength":737,"ach":738,"Ġ4":739,"ror":740,"CE":741,"vid":742,"tem":743,"ĠLog":744,"tific":745,"Ġfield":746,"Param":747,"Class":748,"Ġkey":749,"uc":750,"Ġ?":751,"Ġcase":752,"rom":753,"ory":754,"Ġcatch":755,"scri":756,"pected":757,"Ġ&&":758,"PE":759,"ial":760,"Event":761,"ast":762,"ty":763,"op":764,"App":765,"Ġ|":766,"SE":767,"ht":768,"Ġput":769,"ends":770,"ber":771,"und":772,"lable":773,"gle":774,"uper":775,"ive":776,"ession":777,"tec":778,"urrent":779,"Comp":780,"isp":781,"Text":782,"ĠException":783,"ard":784,"With":785,"Mode":786,"yn":787,"Sh":788,"Ġextends":789,"vider":790,"ĠTAG":791,"Ġappend":792,"tected":793,"Control":794,"ign":795,"ule":796,"Count":797,"0000":798,"OU":799,"os":800,"On":801,"Ġsuper":802,"Ġcontext":803,"Ġprotected":804,"Result":805,"rec":806,"Builder":807,"ord":808,"Size":809,"User":810,"fault":811,"Activity":812,"ĠRe":813,"rg":814,"ocation":815,"Index":816,"tings":817,"nec":818,"etw":819,"Ġ++":820,"Ġinter":821,"Ġhas":822,"ens":823,"mi":824,"oogle":825,"Ġsize":826,"rint":827,"timeException":828,"lection":829,"etwork":830,"True":831,"ound":832,"arget":833,"pd":834,"Ġname":835,"Ġx":836,"Field":837,"ts":838,"ia":839,"Ġstart":840,"umber":841,"rite":842,"Out":843,"Ġ5":844,"read":845,"AA":846,"ING":847,"alid":848,"Ġ6":849,"Ent":850,"Per":851,"Package":852,"Code":853,"Ġgoogle":854,"ab":855,"Ġwh":856,"to":857,"ĠRuntimeException":858,"Stub":859,"TE":860,"He":861,"RI":862,"Ġcontent":863,"isplay":864,"are":865,"SS":866,"erif":867,"Byte":868,"ĠmC":869,"Chang":870,"uild":871,"ENT":872,"Ġio":873,"Callback":874,"ATE":875,"Of":876,"rib":877,"Ġmock":878,"ib":879,"Ġid":880,"ax":881,"TION":882,"Ġmessage":883,"uration":884,"leg":885,"Ġ*":886,"nal":887,"Ġdata":888,"unit":889,"ilter":890,"pdate":891,"Inter":892,"putStream":893,"lient":894,"own":895,"Ġen":896,"ommand":897,"Ġpre":898,"Controller":899,"Ġdo":900,"Not":901,"All":902,"edia":903,"lock":904,"roup":905,"Ġlang":906,"Ġarg":907,"ight":908,"tification":909,"Ġann":910,"KE":911,"ĠInteger":912,"ĠassertTrue":913,"!\"":914,"FI":915,"mple":916,"OException":917,"Entry":918,"lu":919,"Preference":920,"Ġan":921,"Ġexpected":922,"erify":923,"Ġcheck":924,"otification":925,"Ġequals":926,"onent":927,"ĠContext":928,"LO":929,"Instance":930,"ffset":931,"annel":932,"raw":933,"ĠView":934,"That":935,"ary":936,"RO":937,"Ġannotation":938,"Object":939,"Utils":940,"ĠtoString":941,"Arg":942,"ĠIOException":943,"Col":944,"Log":945,"orted":946,"Ġcomp":947,"Ġrun":948,"ms":949,"ĠmM":950,"Ġview":951,"Ġtype":952,"ribute":953,"ĠAc":954,"LI":955,"Rec":956,"ric":957,"miss":958,"ated":959,"ĠJ":960,"uble":961,"Buffer":962,"ĠFile":963,"Ġmeth":964,"ĠassertThat":965,"sh":966,"mon":967,"ip":968,"Method":969,"ĠstaticInt":970,"ĠfieldInt":971,"TH":972,"iti":973,"Lock":974,"Item":975,"ask":976,"Ext":977,"Ad":978,"rag":979,"ature":980,"ild":981,"reak":982,"Ġverify":983,"ized":984,"Ġjunit":985,"Add":986,"ĠCol":987,"ATI":988,"ix":989,"abled":990,"ĠmS":991,"Ġfloat":992,"ative":993,"ĠgetS":994,"con":995,"Ġwrite":996,"VI":997,"CO":998,"undle":999,"AB":1000,"Ġcall":1001,"UL":1002,"rror":1003,"Format":1004,"ug":1005,"orm":1006,"gist":1007,"And":1008,"Ġprint":1009,"ility":1010,"ill":1011,"Request":1012,"Ġ'":1013,"12":1014,"Tag":1015,"AD":1016,"Ġlist":1017,"indow":1018,"ĠCh":1019,"actory":1020,"CH":1021,"nection":1022,"ner":1023,"pt":1024,"Ġ||":1025,"EST":1026,"Dec":1027,"AME":1028,"Ġuser":1029,"CON":1030,"Ġbreak":1031,"AP":1032,"onNull":1033,"Ġtime":1034,"ible":1035,"ayout":1036,"ost":1037,"ĠSet":1038,"map":1039,"Ġar":1040,"erver":1041,"mission":1042,"Ġread":1043,"lag":1044,"Resource":1045,"Content":1046,"cel":1047,"Run":1048,"lect":1049,"ud":1050,"From":1051,"Ġindex":1052,"KEY":1053,"ite":1054,"Provider":1055,"Status":1056,"ĠIntent":1057,"ragment":1058,"By":1059,"Att":1060,"Ġlog":1061,"ĠisE":1062,"ded":1063,"Ġat":1064,"DI":1065,"of":1066,"ash":1067,"Trans":1068,"Paramet":1069,"Element":1070,"mpty":1071,"ĠArrayList":1072,"ĠX":1073,"16":1074,"Number":1075,"Or":1076,"32":1077,"idth":1078,"ron":1079,"file":1080,"Ġse":1081,"Ġ8":1082,"Path":1083,"move":1084,"scription":1085,"ton":1086,"ache":1087,"10":1088,"ito":1089,"ĠmContext":1090,"upported":1091,"utton":1092,"ĠUn":1093,"Cap":1094,"Ġcol":1095,"udio":1096,"ATION":1097,"get":1098,"Pos":1099,"oul":1100,"pc":1101,"ould":1102,"let":1103,"port":1104,"ĠIN":1105,"Error":1106,"FF":1107,"Group":1108,"ĠSystem":1109,"ken":1110,"ĠDE":1111,"000":1112,"ĠDe":1113,"Handle":1114,"Ġsc":1115,"TR":1116,"Ġcommon":1117,"Ġun":1118,"ĠPro":1119,"Ġent":1120,"test":1121,"Ġos":1122,"SER":1123,"stract":1124,"AGE":1125,"rawable":1126,"Start":1127,"ake":1128,"bstract":1129,"Ġbuild":1130,"count":1131,"sed":1132,"ocale":1133,"Action":1134,"TYPE":1135,"IL":1136,"ĠPar":1137,"Ġsub":1138,"cy":1139,"Return":1140,"Ġas":1141,"legal":1142,"Ġla":1143,"mm":1144,"20":1145,"Ġarray":1146,"llegal":1147,"Network":1148,"Factory":1149,"UN":1150,"ĠMock":1151,"uf":1152,"Ġof":1153,"Spec":1154,"ml":1155,"hone":1156,"Command":1157,"apter":1158,"Ġtext":1159,"Ġ7":1160,"Le":1161,"tive":1162,"Ġcontain":1163,"mage":1164,"MP":1165,"ĠTh":1166,"11":1167,"atter":1168,"Argument":1169,"56":1170,"Ġparam":1171,"pon":1172,"ln":1173,"AY":1174,"ĠNonNull":1175,"99":1176,"ust":1177,"Bytes":1178,"ĠBuilder":1179,"ET":1180,"AS":1181,"utable":1182,"Ġbuilder":1183,"red":1184,"lags":1185,"ooth":1186,"Exp":1187,"mpl":1188,"Met":1189,"Ġstring":1190,"ibility":1191,"Node":1192,"Ġupdate":1193,"ange":1194,"Address":1195,"rame":1196,"Ġro":1197,"Vis":1198,"ullable":1199,"FA":1200,"etooth":1201,"luetooth":1202,"licy":1203,"ĠmB":1204,"vel":1205,"ĠIllegal":1206,"Ġob":1207,"ft":1208,"ulti":1209,"Session":1210,"unch":1211,"irst":1212,"Ġinput":1213,"Ġer":1214,"struc":1215,"ual":1216,"Hel":1217,"Pa":1218,"form":1219,"50":1220,"ocket":1221,"TER":1222,"Ġinternal":1223,"Ġevent":1224,"urs":1225,"NAME":1226,"ps":1227,"Ġfail":1228,"Ġ10":1229,"irec":1230,"cei":1231,"Enabled":1232,".\"":1233,"ĠmD":1234,"Resol":1235,"mote":1236,"ptions":1237,"Ġsec":1238,"ĠClass":1239,"CTION":1240,"Ġchar":1241,"Ġpos":1242,"Ġintent":1243,"ink":1244,"Changed":1245,"Ġfile":1246,"ponse":1247,"Sp":1248,"Ġremove":1249,"lements":1250,"Ġy":1251,"ample":1252,"Us":1253,"Ġformat":1254,"Connection":1255,"Ġic":1256,"ĠByte":1257,"amer":1258,"sg":1259,"bo":1260,"Thread":1261,"Ġconfig":1262,"ension":1263,"Ġnext":1264,"Values":1265,"urity":1266,"Ġsyn":1267,"amera":1268,"ĠAn":1269,"eature":1270,"Filter":1271,"Default":1272,"ĠMap":1273,"64":1274,"ĠmW":1275,"NO":1276,"VAL":1277,"terator":1278,"ialog":1279,"UT":1280,"uth":1281,"Ġhe":1282,"ptor":1283,"ke":1284,"itmap":1285,"ĠST":1286,"UM":1287,"ĠKey":1288,"Unit":1289,"server":1290,"At":1291,"Is":1292,"itch":1293,"CT":1294,"Ġfind":1295,"Ġatt":1296,"ursor":1297,"Sub":1298,"Stats":1299,"Input":1300,"False":1301,"ĠCont":1302,"Ġwhen":1303,"ĠTEST":1304,"lication":1305,"ACK":1306,"Anim":1307,"ABLE":1308,"Ġany":1309,"itor":1310,"Ġparse":1311,"MO":1312,"ĠNullable":1313,"Ġnot":1314,"Ġcommand":1315,"ĠmL":1316,"ĠComp":1317,"Source":1318,"ĠCollection":1319,"34":1320,"chron":1321,"Ġbe":1322,"ĠmR":1323,"Ġargs":1324,"Ġmax":1325,"ĠgetC":1326,"witch":1327,"Params":1328,"Record":1329,"Ġhand":1330,"ram":1331,"Ġandroidx":1332,"Ġrequest":1333,"Ġcontains":1334,"ULT":1335,"valid":1336,"ture":1337,"ĠAssert":1338,"Ġentry":1339,"qui":1340,"Attribute":1341,"UE":1342,"SH":1343,"Adapter":1344,"ee":1345,"ersion":1346,"ĠmP":1347,"Ġfrom":1348,"Ġ9":1349,"\\\"":1350,"reen":1351,"Helper":1352,"ait":1353,"riter":1354,"umn":1355,"cast":1356,"OL":1357,"older":1358,"Ġz":1359,"Ġprintln":1360,"inder":1361,"lick":1362,"Ġcurrent":1363,"mmutable":1364,"SION":1365,"idget":1366,"Ġstate":1367,"code":1368,"Offset":1369,"Case":1370,"Ġdefault":1371,"Long":1372,"Ġinfo":1373,"Channel":1374,"ree":1375,"ved":1376,"Display":1377,"Char":1378,"Policy":1379,"Layout":1380,"oad":1381,"Ġtarget":1382,"ply":1383,"30":1384,"yle":1385,"Permission":1386,"Ġal":1387,"ond":1388,"ĠText":1389,"Target":1390,"inter":1391,"55":1392,"Configuration":1393,"pi":1394,"Access":1395,"lose":1396,"Ġdevice":1397,"sn":1398,"ob":1399,"NE":1400,"ell":1401,"Fragment":1402,"24":1403,"ther":1404,"Ġsession":1405,"Ġ->":1406,"ony":1407,"Task":1408,"lear":1409,"iled":1410,"ĠAl":1411,"gister":1412,"VE":1413,"ĠType":1414,"Recei":1415,"Ġ\"\"":1416,"Component":1417,"As":1418,"Ġdouble":1419,"No":1420,"ai":1421,"opy":1422,"Ġnet":1423,"ume":1424,"Position":1425,"ĠUser":1426,"leph":1427,"scriptor":1428,"14":1429,"chronized":1430,"pen":1431,"ĠRE":1432,"Button":1433,"ĠK":1434,"led":1435,"Ġcount":1436,"lephony":1437,"Ġend":1438,"ĠBundle":1439,"Ġmethod":1440,"Uri":1441,"aw":1442,"Ġinstance":1443,"ool":1444,"Iden":1445,"erty":1446,"ĠArrays":1447,"Length":1448,"Ġper":1449,"gor":1450,"ld":1451,"perty":1452,"Up":1453,"IT":1454,"Ġexp":1455,"Ġdec":1456,"ery":1457,"Check":1458,"ORT":1459,"AX":1460,"Bar":1461,"tity":1462,"Ġcan":1463,"ONE":1464,"80":1465,"Ġshort":1466,"Ġtrans":1467,"action":1468,"Ġmap":1469,"itial":1470,"ouble":1471,"ĠActivity":1472,"Ġur":1473,"ending":1474,"TIME":1475,"Constan":1476,"Ġmsg":1477,"Child":1478,"Ġsynchronized":1479,"ĠassertFalse":1480,"load":1481,"Profile":1482,"ailed":1483,"Exec":1484,"ari":1485,"ZE":1486,"Window":1487,"ĠChar":1488,"ĠImmutable":1489,"notation":1490,"ear":1491,"ĠMedia":1492,"Ġsource":1493,"US":1494,"Ġsend":1495,"Integer":1496,"17":1497,"Client":1498,"Notification":1499,"Mock":1500,"ArgumentException":1501,"quence":1502,"Float":1503,"Rule":1504,"VER":1505,"ace":1506,"ĠApp":1507,"unc":1508,"Ġproto":1509,"Ġtag":1510,"ALL":1511,"erial":1512,"Next":1513,"ĠHash":1514,"Ġsp":1515,"54":1516,"ĠWifi":1517,"OUN":1518,"=\"":1519,"urface":1520,"Ġimplements":1521,"attern":1522,"ish":1523,"Ġerror":1524,"Back":1525,"Match":1526,"Click":1527,"rig":1528,"vai":1529,"Parser":1530,"ex":1531,"ync":1532,"UP":1533,"fl":1534,"22":1535,"Change":1536,"VICE":1537,"Block":1538,"ĠTime":1539,"qualTo":1540,"oot":1541,"ĠData":1542,"par":1543,"Down":1544,"19":1545,"Width":1546,"ĠgetName":1547,"Color":1548,"Sec":1549,"Create":1550,"illis":1551,"Settings":1552,"mary":1553,"33":1554,"Ġvalues":1555,"Impl":1556,"System":1557,"Interface":1558,"ĠIllegalArgumentException":1559,"imple":1560,"use":1561,"raph":1562,"Ġservice":1563,"Get":1564,"Ġoffset":1565,"vocation":1566,"Parameter":1567,"Ġother":1568,"Ġabstract":1569,"ance":1570,"End":1571,"MS":1572,"Ġ+=":1573,"Ġinterface":1574,"BU":1575,"88":1576,"Feature":1577,"Ġmin":1578,"ĠEX":1579,"ant":1580,"ĠPackage":1581,"ender":1582,"Ġle":1583,"Ġhash":1584,"FAULT":1585,"Ġ/":1586,"Str":1587,"Ġsettings":1588,"enu":1589,"Ġclear":1590,"Ġoutput":1591,"ĠKEY":1592,"gorith":1593,"ĠSh":1594,"Height":1595,"UR":1596,"Receiver":1597,"fore":1598,"Stack":1599,"QU":1600,"EX":1601,"ĠmT":1602,"Ġall":1603,"Ġnode":1604,"Ġlistener":1605,"Resolver":1606,"OW":1607,"Ġclient":1608,"SC":1609,"NotNull":1610,"Version":1611,"Ġmockito":1612,"supported":1613,"Response":1614,"Ġad":1615,"Descriptor":1616,"arn":1617,"AND":1618,"rics":1619,"ics":1620,"ertific":1621,"ertificate":1622,"ĠisEqualTo":1623,"ĠgetString":1624,"SET":1625,"uto":1626,"Update":1627,"IS":1628,"Ġobj":1629,"vo":1630,"Bound":1631,"acter":1632,"Ġshould":1633,"gorithm":1634,"Order":1635,"Ġitem":1636,"oader":1637,"uture":1638,"igned":1639,"QL":1640,"Selec":1641,"utor":1642,"Ġdest":1643,"Ġvis":1644,"uite":1645,"ĠTY":1646,"round":1647,"36":1648,"vailable":1649,"Ġ>=":1650,"TO":1651,"ĠpackageName":1652,"Date":1653,"Qu":1654,"Frame":1655,"OUT":1656,"ĠTYPE":1657,"Point":1658,"Ġparams":1659,"Resources":1660,"ĠBig":1661,"ĠgetM":1662,"ĠmMock":1663,"Ġserver":1664,"val":1665,"ook":1666,"tual":1667,"ĠCON":1668,"Ġinstanceof":1669,"Enc":1670,"ugg":1671,"Ġmatch":1672,"ĠSupp":1673,"ĠUri":1674,"Uid":1675,"Extra":1676,"unction":1677,"Ġno":1678,"VALUE":1679,"Ġicu":1680,"name":1681,"Millis":1682,"ency":1683,"Ġchild":1684,"Usage":1685,"com":1686,"Socket":1687,"lit":1688,"Flags":1689,"Dis":1690,"ript":1691,"Ġsecurity":1692,"Ġclose":1693,"Parameters":1694,"ifier":1695,"LAG":1696,"Ġpw":1697,"Track":1698,"tom":1699,"Ob":1700,"line":1701,"18":1702,"Ġbuffer":1703,"Ġwhile":1704,"alend":1705,"URE":1706,"fix":1707,"alendar":1708,"Ġbase":1709,"Table":1710,"ĠNotification":1711,"40":1712,"Reader":1713,"ĠZ":1714,"Token":1715,"ark":1716,"37":1717,"ttp":1718,"Ġwith":1719,"57":1720,"ground":1721,"ĠisEmpty":1722,"add":1723,"min":1724,"ĠuserId":1725,"Ġthen":1726,"Icon":1727,"38":1728,"uch":1729,"Read":1730,"Ġap":1731,"ĠBluetooth":1732,"ge":1733,"Ġ12":1734,"current":1735,"odule":1736,"ĠgetL":1737,"layer":1738,"Names":1739,"ocument":1740,"ump":1741,"Sequence":1742,"nect":1743,"OutputStream":1744,"SIZE":1745,"adata":1746,"lob":1747,"ĠSettings":1748,"Contact":1749,"lete":1750,"PRO":1751,"ĠRemote":1752,"Short":1753,"Ġfilter":1754,"Ġ_":1755,"fter":1756,"ATA":1757,"Ġexec":1758,"ĠgetB":1759,"ĠSec":1760,"Audio":1761,"adow":1762,"CK":1763,"CODE":1764,"ale":1765,"001":1766,"Ġnative":1767,"Account":1768,"29":1769,"ting":1770,"Store":1771,"Sign":1772,"ĠTr":1773,"race":1774,"ideo":1775,"OM":1776,"InputStream":1777,"Header":1778,"ower":1779,"Ġhandle":1780,"view":1781,"ical":1782,"Ġthe":1783,"ave":1784,"Image":1785,"Writer":1786,"Ġmode":1787,"Ġrec":1788,"tifi":1789,"pper":1790,"Ġposition":1791,"Ġgr":1792,"roll":1793,"Warn":1794,"Regist":1795,"Output":1796,"SP":1797,"ocus":1798,"Ġ%":1799,"Style":1800,"Hal":1801,"ĠUnsupported":1802,"ĠTe":1803,"Ġnum":1804,"ĠgetP":1805,"Ġsb":1806,"Ġ20":1807,"ĠRet":1808,"ract":1809,"sent":1810,"ĠPre":1811,"Que":1812,"Ġstatus":1813,"yc":1814,"nable":1815,"ention":1816,"ĠthenReturn":1817,"over":1818,"Annotation":1819,"Ġdisplay":1820,"oder":1821,"TRA":1822,"struction":1823,"MODE":1824,"ĠMockito":1825,"ĠCommand":1826,"Gener":1827,"Dialog":1828,"Constants":1829,"Server":1830,"Options":1831,"ĠRec":1832,"Property":1833,"Drawable":1834,"ĠLong":1835,"ched":1836,"Ġstream":1837,"ĠMethod":1838,"ĠACTION":1839,"Ġprovider":1840,"Ġcallback":1841,"Column":1842,"39":1843,"efore":1844,"Ġload":1845,"ities":1846,"Ġ\",":1847,"ĠLO":1848,"Ġuri":1849,"First":1850,"ĠgetInstance":1851,"andom":1852,"ĠAS":1853,"amp":1854,"legate":1855,"Screen":1856,"Ġchannel":1857,"ware":1858,"Ġcore":1859,"Ġactivity":1860,"imit":1861,"60":1862,"vert":1863,"Ġaction":1864,"inal":1865,"15":1866,"sp":1867,"rc":1868,"SON":1869,"Ġparent":1870,"70":1871,"Ġpath":1872,"quire":1873,"rowable":1874,"ACKAGE":1875,"Queue":1876,"upport":1877,"uccess":1878,"Ġlast":1879,"Decl":1880,"Ġref":1881,"Ġswitch":1882,"Extension":1883,"PER":1884,"Det":1885,"oint":1886,"ared":1887,"road":1888,"Valid":1889,"ĠRetention":1890,"roadcast":1891,"log":1892,"Holder":1893,"ĠContent":1894,"Direc":1895,"AAAA":1896,"ĠCall":1897,"Enum":1898,"Locked":1899,"Ġencode":1900,"Types":1901,"xy":1902,"ties":1903,"ĠAsn":1904,"44":1905,"Dir":1906,"mb":1907,"abel":1908,"Animation":1909,"ick":1910,"Ġcopy":1911,"LAY":1912,"ient":1913,"its":1914,"ariable":1915,"ĠOn":1916,"ĠMessage":1917,"ater":1918,"AM":1919,"izer":1920,"STATE":1921,"eas":1922,"Cache":1923,"orage":1924,"def":1925,"ĠSuppress":1926,"strument":1927,"peration":1928,"Ġqu":1929,"Ġjavax":1930,"78":1931,"Reference":1932,"Ġwidget":1933,"EL":1934,"Level":1935,"base":1936,"prec":1937,"--":1938,"ector":1939,"easure":1940,"59":1941,"Host":1942,"Ġcode":1943,"kg":1944,"Ġcar":1945,"Ui":1946,"tify":1947,"cut":1948,"Ġbuf":1949,"Warnings":1950,"Ind":1951,"Prog":1952,"Base":1953,"26":1954,"Multi":1955,"eter":1956,")\"":1957,"Failed":1958,"Executor":1959,"ĠgetValue":1960,"Found":1961,"Ġeq":1962,"ĠThrowable":1963,"ĠASN":1964,"ĠMath":1965,"perties":1966,"Ġ\"\\":1967,"type":1968,"ĠAll":1969,"STR":1970,"Loader":1971,"ĠInter":1972,"buf":1973,"stall":1974,"layout":1975,"aved":1976,"ĠJSON":1977,"ĠSuppressWarnings":1978,"Ġbytes":1979,"ĠDEFAULT":1980,"Ġelement":1981,"ĠSc":1982,"Ġwait":1983,"ority":1984,"Ġshow":1985,"voke":1986,"OT":1987,"Available":1988,"Ġgraph":1989,"ason":1990,"Line":1991,"ĠThread":1992,"Zone":1993,"tory":1994,"Fail":1995,"ooper":1996,"stric":1997,"ById":1998,"Ġcursor":1999,"ause":2000,"Ġfirst":2001,"ĠLayout":2002,"Active":2003,"28":2004,"ĠMAX":2005,"strumentation":2006,"anel":2007,"oice":2008,"ateg":2009,"tifier":2010,"Ms":2011,"ision":2012,"Range":2013,"FOR":2014,"Ġsystem":2015,"Inc":2016,"Proto":2017,"ĠEXTRA":2018,"76":2019,"00000000":2020,"Ġret":2021,"Ġvalid":2022,"Testing":2023,"Bundle":2024,"ies":2025,"uggest":2026,"ANG":2027,"Ġgrpc":2028,"Ref":2029,"Ġcap":2030,"imal":2031,"ĠNetwork":2032,"Contain":2033,"Expected":2034,"TAG":2035,"Native":2036,"Ġwidth":2037,"rup":2038,"ĠSQL":2039,"Description":2040,"Ġattr":2041,"Ġold":2042,"nected":2043,"ĠElement":2044,"Mon":2045,"BUG":2046,"48":2047,"ĠAudio":2048,"58":2049,"ĠAbstract":2050,"90":2051,"Num":2052,"Ġrep":2053,"Ġflags":2054,"IG":2055,"ĠStringBuilder":2056,"tle":2057,"WOR":2058,"ĠDevice":2059,"Row":2060,"ĠmActivity":2061,"OP":2062,"lobal":2063,"Ass":2064,"ication":2065,"LOW":2066,"ĠRunWith":2067,"ĠVis":2068,"ĠmWifi":2069,"INT":2070,"EM":2071,"Model":2072,"nown":2073,"Hash":2074,"Ġmedia":2075,"Declar":2076,"lace":2077,"Ġexpect":2078,"Pointer":2079,"ĠDate":2080,"CommandHandler":2081,"Bounds":2082,"Ġprotobuf":2083,"rier":2084,"New":2085,"Ġdecode":2086,"odec":2087,"PackageName":2088,"GR":2089,"If":2090,"Focus":2091,"Observer":2092,"ass":2093,"ĠRemoteException":2094,"wt":2095,"Ġinit":2096,"Ġuid":2097,"Ġregister":2098,"URI":2099,"ERR":2100,"rix":2101,"ecked":2102,"ĠSTATE":2103,"ViewById":2104,"dk":2105,"uncher":2106,"olume":2107,"Ġconcurrent":2108,"ffff":2109,"atrix":2110,"structor":2111,"word":2112,"ĠCar":2113,"ummary":2114,"for":2115,"CATION":2116,"Ġresol":2117,"gion":2118,"Ġopen":2119,"eg":2120,"Ġ16":2121,"27":2122,"PRE":2123,"adding":2124,"ĠHashMap":2125,"Process":2126,"ptional":2127,"ĠfindViewById":2128,"Api":2129,"Ġlayout":2130,"ĠAllocation":2131,"stant":2132,"Capab":2133,"Ġrow":2134,"itle":2135,"SU":2136,"lectric":2137,"bolectric":2138,"Future":2139,"ĠPreference":2140,"Parent":2141,"Ids":2142,"ĠmIn":2143,"ES":2144,"alled":2145,"Ġ<=":2146,"DS":2147,"ĠAccess":2148,"Compat":2149,"Ġfinally":2150,"no":2151,"ensor":2152,"title":2153,"right":2154,"ĠLocale":2155,"icode":2156,"Ġline":2157,"pher":2158,"Ġ69":2159,"vas":2160,"13":2161,"OUNT":2162,"bar":2163,"PUT":2164,"Half":2165,"be":2166,"ASS":2167,"cept":2168,"ĠFLAG":2169,"Ed":2170,"ART":2171,"ries":2172,"ĠConfig":2173,"Internal":2174,"sets":2175,"66":2176,"son":2177,"Te":2178,"ĠPackageManager":2179,"ĠHandler":2180,"Operation":2181,"ĠgetContext":2182,"tr":2183,"arch":2184,"ForTesting":2185,"Ġpreference":2186,"ĠBitmap":2187,"Ġobject":2188,"Suite":2189,"Wifi":2190,"resh":2191,"Ġheight":2192,"Ġparser":2193,"Ġanim":2194,"otal":2195,"ep":2196,"Ġinc":2197,"Ġcts":2198,"Ġpm":2199,"Ġreset":2200,"ome":2201,"Pri":2202,"Ġdis":2203,"UserId":2204,"Ġnumber":2205,"Ġtra":2206,"avap":2207,"Double":2208,"gn":2209,"ĠmService":2210,"Ġq":2211,"Storage":2212,"FO":2213,"ERROR":2214,"Ġtoken":2215,"Declaration":2216,"uggestion":2217,"ipher":2218,"ftp":2219,"ta":2220,"list":2221,"roy":2222,"ĠsetUp":2223,"bug":2224,"ĠonCreate":2225,"Results":2226,"ycle":2227,"chedule":2228,"ĠmRS":2229,"Application":2230,"Algorithm":2231,"Ġactual":2232,"ution":2233,"Ġgroup":2234,"rapper":2235,"ftpserver":2236,"ĠCollections":2237,"Ġmockftpserver":2238,"Locale":2239,"Ġgraphics":2240,"Local":2241,"attery":2242,"Ap":2243,"Selected":2244,"ĠComponent":2245,"ĠDEBUG":2246,"ĠBit":2247,"Ġexception":2248,"Ġvisit":2249,"Ġpermission":2250,"Ġgener":2251,"Metrics":2252,"ĠByteBuffer":2253,"Ġcl":2254,"Calling":2255,"lus":2256,"Ġsign":2257,"ĠmIs":2258,"Ġprocess":2259,"ottom":2260,"Ġmake":2261,"ĠPhone":2262,"ĠmTest":2263,"PACKAGE":2264,"Pass":2265,"arser":2266,"ached":2267,"ĠhashCode":2268,"Auth":2269,"Registry":2270,"Ġattribute":2271,"Ġ100":2272,"ĠmF":2273,"..":2274,"ouncy":2275,"avaparser":2276,"IP":2277,"stamp":2278,"Visibility":2279,"Ġ<<":2280,"Setting":2281,"vers":2282,"ĠLOG":2283,"Ġsaved":2284,"ĠVisible":2285,"Ġtemp":2286,"eme":2287,"01":2288,"46":2289,"Media":2290,"af":2291,"ĠArg":2292,"asy":2293,"ĠVisibleForTesting":2294,"Ġnetwork":2295,"77":2296,"iod":2297,"Throw":2298,"49":2299,"COUNT":2300,"ization":2301,"ategory":2302,"toc":2303,"ĠParcel":2304,"SERVICE":2305,"Variable":2306,"Iterator":2307,"Ġdrawable":2308,"ĠUtil":2309,"pro":2310,"Del":2311,"Ġlocal":2312,"tocol":2313,"tial":2314,"ĠAtt":2315,"ĠRect":2316,"Ġwifi":2317,"Same":2318,"ĠassertNotNull":2319,"APP":2320,"zz":2321,"ĠgetClass":2322,"35":2323,"ilities":2324,"Panel":2325,"ithub":2326,"ĠColor":2327,"ĠField":2328,"ĠVER":2329,"ĠSp":2330,"InstanceState":2331,"ustom":2332,"castle":2333,"Args":2334,"ouncycastle":2335,"ĠEntry":2336,"PreferenceController":2337,"TENT":2338,"509":2339,"known":2340,"ramew":2341,"ox":2342,"IFI":2343,"ramework":2344,"ĠXml":2345,"Identifier":2346,"Ġbouncycastle":2347,"ui":2348,"OUR":2349,"Wh":2350,"acket":2351,"Ġ\"/":2352,"pha":2353,"Visible":2354,"mit":2355,"ĠNo":2356,"Ġnio":2357,"Ġraw":2358,"Ġmet":2359,"END":2360,";\"":2361,"Supported":2362,"DATA":2363,"Ġmath":2364,"eek":2365,"Title":2366,"ANCE":2367,"lib":2368,"Report":2369,"ryp":2370,"Ġcollect":2371,"lation":2372,"Di":2373,"Ġinitial":2374,"Label":2375,"Off":2376,"HE":2377,"IM":2378,"HT":2379,"ITY":2380,"Ġnotify":2381,"ĠAnd":2382,"IC":2383,"25":2384,"flater":2385,"Properties":2386,"ĠSimple":2387,"ĠNull":2388,"ĠBigInteger":2389,"dition":2390,"Ġapache":2391,"ĠAndroid":2392,"Ro":2393,"ĠLocal":2394,"ispatch":2395,"ĠEvent":2396,"ĠArgument":2397,"VENT":2398,"PORT":2399,"Ġlen":2400,"ĠgetInt":2401,"ĠmDevice":2402,"Ġxml":2403,"ĠSE":2404,"Certificate":2405,"MAT":2406,"ĠUserHandle":2407,"Ġjj":2408,"Pattern":2409,"ĠmH":2410,"()":2411,"ĠInputStream":2412,"Ġannotations":2413,"uard":2414,"Ġcert":2415,"ĠBase":2416,"Captor":2417,"Head":2418,"AIL":2419,"ĠasList":2420,"Binder":2421,"ĠBefore":2422,"Ġiterator":2423,"ardware":2424,"lease":2425,"Over":2426,"Can":2427,"ĠEasy":2428,"celable":2429,"ĠCalendar":2430,"Selection":2431,"Fields":2432,"Ġrunner":2433,"Ġresponse":2434,"Op":2435,"PO":2436,"defed":2437,"ĠTelephony":2438,"jec":2439,"Only":2440,"ĠWindow":2441,"ĠGener":2442,"47":2443,"Min":2444,"ĠImmutableList":2445,"sing":2446,"BLE":2447,"ĠBuild":2448,"ified":2449,"Generator":2450,"ymb":2451,"21":2452,"ymbol":2453,"Ġlock":2454,"Ġpkg":2455,"Query":2456,"ĠEasyMock":2457,"Keys":2458,"bel":2459,"Scan":2460,"Port":2461,"ACE":2462,"ression":2463,"pcode":2464,"ClickListener":2465,"Identity":2466,"vision":2467,"Dig":2468,"Ġreader":2469,"ĠNode":2470,"ĠassertNull":2471,"Boolean":2472,"OD":2473,"inue":2474,"OF":2475,"Ġroot":2476,"eb":2477,"Ġquery":2478,"Ġinvoke":2479,"UID":2480,"Scroll":2481,"USER":2482,"cc":2483,"aper":2484,"Ġexecute":2485,"Duration":2486,"Max":2487,"Metadata":2488,"store":2489,"ĠinV":2490,"SL":2491,"Ġpri":2492,"oding":2493,"Reply":2494,"Ġorig":2495,"Show":2496,"ĠCharSequence":2497,"Wrapper":2498,"Runner":2499,"ĠUN":2500,"ĠFloat":2501,"Ġtradefed":2502,"Top":2503,"bs":2504,"ĠmCurrent":2505,"ĠImage":2506,"IME":2507,"lice":2508,"Proxy":2509,"Ġsrc":2510,"ULL":2511,"Ġmulti":2512,"Ġss":2513,"ĠDouble":2514,"Ġfil":2515,"Imp":2516,"Ġ-=":2517,"ont":2518,"ĠMet":2519,"mall":2520,"ĠSub":2521,"lot":2522,"Ġsupport":2523,"ATUS":2524,"ĠmHandler":2525,"ĠState":2526,":\"":2527,"Ġstr":2528,"Ġtrack":2529,"ĠEN":2530,"ĠSlog":2531,"Logger":2532,"SA":2533,"ĠNO":2534,"98":2535,"96":2536,"Ġcomponent":2537,"31":2538,"ĠgetKey":2539,"StateException":2540,"Attributes":2541,"Ġtelephony":2542,"arted":2543,"pend":2544,"acts":2545,"]\"":2546,"ĠPa":2547,"ĠInvalid":2548,"CESS":2549,"ayload":2550,"SY":2551,"ĠmRe":2552,"Ġlocation":2553,"Empty":2554,"Ġcontinue":2555,"ĠService":2556,"Ġasn":2557,"Ġ\"-":2558,"Decimal":2559,"ented":2560,"ĠRunnable":2561,"ĠTrans":2562,"tions":2563,"ĠgetDefault":2564,"ARE":2565,"Ġleft":2566,"Ag":2567,"Def":2568,"Rect":2569,"Com":2570,"Ġbind":2571,"ging":2572,"ĠsavedInstanceState":2573,"oll":2574,"WORK":2575,"rl":2576,"ĠgetType":2577,"ody":2578,"ĠmController":2579,"PointerException":2580,"Ops":2581,"wner":2582,"Be":2583,"adio":2584,"Root":2585,"NonNull":2586,"old":2587,"owed":2588,"ibr":2589,"ĠLink":2590,"tp":2591,"Ġdom":2592,"Timeout":2593,"Invalid":2594,"One":2595,"board":2596,"Initial":2597,"Pool":2598,"CL":2599,"pped":2600,"ĠComponentName":2601,"DOW":2602,"lap":2603,"Ġop":2604,"Location":2605,"ĠTextUtils":2606,"Character":2607,"core":2608,"lazz":2609,"Ġback":2610,"used":2611,"ĠmV":2612,"Ġcolumn":2613,"Ġ--":2614,"TestCase":2615,"ifec":2616,"ĠgetContent":2617,"ifecycle":2618,"ĠInt":2619,"ĠAC":2620,"allp":2621,"ĠTextView":2622,"RL":2623,"Ġcompare":2624,"86":2625,"ĠMIN":2626,"Ġaccount":2627,"order":2628,"ILLI":2629,"ĠCamera":2630,"Card":2631,"unchecked":2632,"rupted":2633,"ĠSt":2634,"Ġlocale":2635,"Ġprev":2636,"CHANG":2637,"Ġtask":2638,"Ġcolor":2639,"23":2640,"Phone":2641,"Ġdump":2642,"orrec":2643,"inish":2644,"Ġcamera":2645,"Ġempty":2646,"ormal":2647,"ĠgetSystem":2648,"ORY":2649,"avig":2650,"mail":2651,"Detail":2652,"point":2653,"anif":2654,"ĠgetMessage":2655,"Present":2656,"ASK":2657,"ĠAss":2658,"anifest":2659,"Span":2660,"tain":2661,"licit":2662,"allpaper":2663,"Box":2664,"MENT":2665,"Ġdb":2666,"Module":2667,"Ġauto":2668,"Ġdef":2669,"ove":2670,"Ġphone":2671,"ĠvalueOf":2672,"ĠCan":2673,"ĠNullPointerException":2674,"ped":2675,"Capabilities":2676,"Failure":2677,"med":2678,"ĠTimeUnit":2679,"ĠwaitFor":2680,"AppUsage":2681,"ACTI":2682,"utof":2683,"Animator":2684,"Ġprog":2685,"Ġstop":2686,"lat":2687,"terable":2688,"ĠsetText":2689,"ĠAttribute":2690,"Ġspec":2691,"Ġcal":2692,"ĠIllegalStateException":2693,"Widget":2694,"precated":2695,"Ġnotification":2696,"Ġdi":2697,"EW":2698,"ĠByteArray":2699,"XT":2700,"ĠcommandHandler":2701,"uage":2702,"ingle":2703,"Left":2704,"NOT":2705,"ĠmLock":2706,"LY":2707,"BY":2708,"ĠBoolean":2709,"string":2710,"PH":2711,"ias":2712,"foo":2713,"PackageManager":2714,"Ġ1000":2715,"Write":2716,"gin":2717,"ookup":2718,"Restric":2719,"ently":2720,"ĠTo":2721,"Container":2722,"ONG":2723,"Shortcut":2724,"Ġhost":2725,"BO":2726,"ĠgetD":2727,"ating":2728,"otion":2729,"key":2730,"ĠUnsupportedAppUsage":2731,"OK":2732,"ĠOP":2733,"IF":2734,"lector":2735,"arator":2736,"Ġhandler":2737,"ĠY":2738,"Ġenc":2739,"Ġconnection":2740,"VITY":2741,"jector":2742,"Each":2743,"utofill":2744,"ĠME":2745,"wo":2746,"AU":2747,"class":2748,"Ġui":2749,"ĠBinder":2750,"Ġattrs":2751,"ĠCOL":2752,"Non":2753,"COMP":2754,"SSAGE":2755,"Ġheader":2756,"Ġlabel":2757,"ĠmG":2758,"ĠUSER":2759,"Ġapply":2760,"oral":2761,"Env":2762,"ixel":2763,"UMN":2764,"Touch":2765,"ĠIterator":2766,"Ġresource":2767,"CTED":2768,"Bitmap":2769,"ACT":2770,"ĠAL":2771,"CONNE":2772,"Option":2773,"ETWORK":2774,"ĠSe":2775,"Ġjavaparser":2776,"Ġerr":2777,"Directory":2778,"Trace":2779,"Ġtop":2780,"Rep":2781,"Ġprefix":2782,"QUEST":2783,"null":2784,"Ġstyle":2785,"Invocation":2786,"Sdk":2787,"Ġsecond":2788,"Ġextra":2789,"hot":2790,"Pair":2791,"Bind":2792,"Ġrobolectric":2793,"Ġoptions":2794,"Ġpost":2795,"istory":2796,"STEM":2797,"Transition":2798,"ĠBuffer":2799,"ĠgetResources":2800,"Checked":2801,"IDE":2802,"Mod":2803,"Render":2804,"Latch":2805,"Menu":2806,"Ġdelete":2807,"Ġdex":2808,"Ġ30":2809,"Ġconvert":2810,"ĠInet":2811,"ning":2812,"VALID":2813,"LOCK":2814,"Surface":2815,"ABLED":2816,"WN":2817,"Job":2818,"Annotations":2819,"ByteArray":2820,"Sample":2821,"ĠmA":2822,"45":2823,"main":2824,"Database":2825,"Clock":2826,"ys":2827,"ĠPRO":2828,"FILE":2829,"Ġmodel":2830,"ersist":2831,"DEX":2832,"==":2833,"kip":2834,"rop":2835,"ĠParam":2836,"Connected":2837,"Ġcontrol":2838,"ĠUnicode":2839,"ĠTarget":2840,"Ġserial":2841,"igh":2842,"sert":2843,"ĠID":2844,"BER":2845,"Last":2846,"Delegate":2847,"Ġgithub":2848,"After":2849,"formation":2850,"quired":2851,"layback":2852,"Monitor":2853,"ounter":2854,"ie":2855,"mt":2856,"FoundException":2857,"Suggestion":2858,"ĠVERSION":2859,"fc":2860,"CAL":2861,"Ġcancel":2862,"Selector":2863,"Ġgl":2864,"ACTION":2865,"Open":2866,"ĠSH":2867,"Ġaddress":2868,"unk":2869,"Ġright":2870,"arm":2871,"Started":2872,"Permissions":2873,"ASE":2874,"Visitor":2875,"Script":2876,"79":2877,"Success":2878,"Ġaccess":2879,"Ġpo":2880,"ENG":2881,"ĠMO":2882,"Ġval":2883,"ĠViewGroup":2884,"Ġand":2885,"ĠEC":2886,"RES":2887,"ĠRecently":2888,"Constructor":2889,"mer":2890,"Elements":2891,"Matcher":2892,"ĠRetentionPolicy":2893,"Day":2894,"ĠmUser":2895,"Ġtable":2896,"Ġfinish":2897,"Scale":2898,"Tree":2899,"erator":2900,"OUND":2901,"Prefix":2902,"bm":2903,"CONDS":2904,"Cert":2905,"ĠTR":2906,"Ġne":2907,"Video":2908,"sum":2909,">\"":2910,"Ġobtain":2911,"orrect":2912,"ADD":2913,"Ġtesting":2914,"java":2915,"'t":2916,"TIMEOUT":2917,"ran":2918,"du":2919,"ARY":2920,"Capture":2921,"ential":2922,"Broadcast":2923,"Ġsetup":2924,"ĠDisplay":2925,"Background":2926,"ĠmI":2927,"ĠAccessibility":2928,"uid":2929,"Ġaccept":2930,"Sync":2931,"rid":2932,"ĠforEach":2933,"COL":2934,"Second":2935,"mark":2936,"ĠBigDecimal":2937,"ĠObjects":2938,"Preferences":2939,"ĠPrint":2940,"Ġthat":2941,"Full":2942,"Ġfragment":2943,"Ġdelegate":2944,"Ġind":2945,"ATOR":2946,"ĠAnim":2947,"Ġdirec":2948,"Progress":2949,"ĠgetActivity":2950,"GN":2951,"rypto":2952,"ANT":2953,"Protocol":2954,"Ġdate":2955,"ĠApplication":2956,"Static":2957,"TEXT":2958,"oin":2959,"Ġstats":2960,"mplate":2961,"AST":2962,"ĠOut":2963,"ĠStatus":2964,"Events":2965,"ĠAP":2966,"Ġ\".":2967,"Pull":2968,"TIFI":2969,"Callbacks":2970,"Raw":2971,"START":2972,"STRING":2973,"Tags":2974,"OperationException":2975,"ĠmLast":2976,"Ġ\"<":2977,"ĠName":2978,"ged":2979,"auncher":2980,"Parcel":2981,"gnore":2982,"52":2983,"Ġtmp":2984,"ench":2985,"NotFoundException":2986,"SHA":2987,"ious":2988,"Ġframe":2989,"Ġrule":2990,"LED":2991,"Tests":2992,"Ġencoded":2993,"Ġsq":2994,"eters":2995,"Items":2996,"ĠDeprecated":2997,"jection":2998,"42":2999,"FIN":3000,"Ġdescription":3001,"Ġuse":3002,"Ġmy":3003,"Car":3004,"Mem":3005,"Preview":3006,"ĠmListener":3007,"Ġcalling":3008,"ĠCharacter":3009,"Switch":3010,"Codec":3011,"ĠNumber":3012,"Ġhardware":3013,"Use":3014,"Ġimage":3015,"ĠCount":3016,"Ġreply":3017,"lapsed":3018,"Load":3019,"Period":3020,"Ġicon":3021,"MIN":3022,"ĠHashSet":3023,"Ġcanvas":3024,"ĠgetText":3025,"DIS":3026,"Delay":3027,"Finish":3028,"ELD":3029,"Transaction":3030,"Ġextension":3031,"ĠBitStream":3032,"ĠFor":3033,"Tracker":3034,"den":3035,"Instruction":3036,"ChangeListener":3037,"agger":3038,"ILI":3039,"ĠUtils":3040,"CALL":3041,"ĠShadow":3042,"Ġblock":3043,"\\\\":3044,"inary":3045,"ĠarrayOut":3046,"Ġmust":3047,"ĠAR":3048,"ĠLayoutParams":3049,"Ġsuccess":3050,"Ġrange":3051,"ĠmApp":3052,"Ġwriter":3053,"Ġwindow":3054,"ĠSY":3055,"Transport":3056,"otionEvent":3057,"ĠAtom":3058,"Ġlimit":3059,"xed":3060,"Current":3061,"ĠgetSystemService":3062,"Ġtimeout":3063,"Function":3064,"EC":3065,"Ġclazz":3066,"256":3067,"ITH":3068,"Ġcache":3069,"AV":3070,"BACK":3071,"ARD":3072,"Ġass":3073,"Are":3074,"Cursor":3075,"ĠError":3076,"Ġfailed":3077,"losed":3078,"Volume":3079,"ĠINPUT":3080,"rie":3081,"ĠUnsupportedOperationException":3082,"68":3083,"Ġshadow":3084,"Ġgwt":3085,"Ġed":3086,"ialer":3087,"02":3088,"CRE":3089,"NUM":3090,"ren":3091,"Ġ32":3092,"Paint":3093,"FFFF":3094,"Measure":3095,"Packet":3096,"Ġfiller":3097,"Ġsample":3098,"ixed":3099,"ĠInterrupted":3100,"Constant":3101,"Ġmain":3102,"uck":3103,"Link":3104,"ML":3105,"Subscription":3106,"MIS":3107,"ĠMS":3108,"Build":3109,"IST":3110,"//":3111,"queue":3112,"Ġscale":3113,"Ġrecord":3114,"Ġapplication":3115,"ĠDOM":3116,"PAR":3117,"Ġfound":3118,"Ġselection":3119,"Len":3120,"NOWN":3121,"xff":3122,"Ġtimes":3123,"OURCE":3124,"Ġdestroy":3125,"gment":3126,"md":3127,"Ver":3128,"Encode":3129,"gr":3130,"ĠsetOn":3131,"ĠIterable":3132,"enchmark":3133,"ĠSSL":3134,"ĠFragment":3135,"Ġreplace":3136,"ĠShort":3137,"ATURE":3138,"Document":3139,"Ġthread":3140,"Ġexample":3141,"UB":3142,"Rate":3143,"ade":3144,"Pref":3145,"Ġsplit":3146,"Ġit":3147,"PullParser":3148,"Nan":3149,"Ġtitle":3150,"ĠPath":3151,"ĠgetA":3152,"ĠmState":3153,"Ġclone":3154,"duc":3155,"ĠSmall":3156,"ĠGL":3157,"ĠgetRe":3158,"Url":3159,"CS":3160,"rin":3161,"icker":3162,"Ġstub":3163,"parse":3164,"NT":3165,"Ġlib":3166,"space":3167,"iron":3168,"Padding":3169,"ĠIms":3170,"guard":3171,"Ġreason":3172,"Aligned":3173,"ironment":3174,"INTER":3175,"ĠEx":3176,"ĠFI":3177,"ĠProcess":3178,"res":3179,"53":3180,"Limit":3181,"ĠSocket":3182,"Such":3183,"ĠgetDevice":3184,"ĠInput":3185,"Ġauth":3186,"ek":3187,"mitive":3188,"FIG":3189,"Ġgenerate":3190,"EXT":3191,"endingIntent":3192,"ĠLinked":3193,"ines":3194,"Bit":3195,"DIO":3196,"ĠGlobal":3197,"cs":3198,"04":3199,"ENGTH":3200,"afe":3201,"ffect":3202,"should":3203,"Ġelements":3204,"lude":3205,"Player":3206,"Ġtotal":3207,"ations":3208,"ĠInterruptedException":3209,"rap":3210,"iss":3211,"READ":3212,"Contract":3213,"elf":3214,"ĠDrawable":3215,"ĠJSONObject":3216,"Ġreport":3217,"Ġenable":3218,"oft":3219,"Columns":3220,"laxed":3221,"Ġpass":3222,"Ġframework":3223,"TimeMillis":3224,"INS":3225,"eral":3226,"ToString":3227,"Expr":3228,"yped":3229,"idi":3230,"app":3231,"ĠMain":3232,"Ġbitmap":3233,"esture":3234,"ĠSmallTest":3235,"Ġenabled":3236,"Ġfunction":3237,"ĠCO":3238,"Ġcapture":3239,"DER":3240,"ĠSecure":3241,"JUnit":3242,"Apps":3243,"Vector":3244,"Ġfill":3245,"ĠCap":3246,"74":3247,"ĠSession":3248,"Meta":3249,"acy":3250,"Codes":3251,"ĠMSG":3252,"69":3253,"ĠtestGet":3254,"aligned":3255,"lier":3256,"Owner":3257,"rinter":3258,"Search":3259,"ILITY":3260,"MISSION":3261,"ĠVI":3262,"TES":3263,"redential":3264,"ĠDocument":3265,"ĠgetIn":3266,"ĠJava":3267,"KNOWN":3268,"ĠassertSame":3269,"ĠResol":3270,"Ġtv":3271,"ness":3272,"Main":3273,"ended":3274,"lip":3275,"ĠNoSuch":3276,"Exact":3277,"OFF":3278,"GL":3279,"Ġone":3280,"comp":3281,"Ġresolve":3282,"ĠgetCurrent":3283,"Ġsystemui":3284,"Camera":3285,"ĠsetS":3286,"DEFAULT":3287,"inger":3288,"ope":3289,"ĠSurface":3290,"Ġtests":3291,"olver":3292,"data":3293,"ĠRUN":3294,"anaged":3295,"ĠAtomic":3296,"Connect":3297,"Unaligned":3298,"ĠgetId":3299,"MA":3300,"89":3301,"FLAG":3302,"Ġcur":3303,"icator":3304,"ng":3305,"ĠValue":3306,"ĠAnnotation":3307,"ape":3308,"ĠdecodePer":3309,"Convert":3310,"Ġrequire":3311,"Ġurl":3312,"lta":3313,"ĠSign":3314,"ĠXmlPullParser":3315,"Environment":3316,"Ġrelease":3317,"CONT":3318,"ĠmPreference":3319,"peated":3320,"ĠTestCase":3321,"PRI":3322,"=\\\"":3323,"Methods":3324,"ĠSecurity":3325,"Ġoriginal":3326,"ĠCursor":3327,"cont":3328,"Backup":3329,"ĠUi":3330,"ynam":3331,"Expression":3332,"Complete":3333,"wait":3334,"ĠRo":3335,"visioning":3336,"Ġinvocation":3337,"ARG":3338,"BE":3339,"Complet":3340,"ĠStream":3341,"51":3342,"ename":3343,"lecom":3344,"ero":3345,"ĠHe":3346,"Attr":3347,"Ġpref":3348,"sWith":3349,"Ar":3350,"Ġmod":3351,"ma":3352,"Ġibm":3353,"Random":3354,"Category":3355,"Ġ::":3356,"ucket":3357,"ynamic":3358,"Ġpop":3359,"precation":3360,"oord":3361,"Ġinvalid":3362,"ether":3363,"INE":3364,"Inflater":3365,"Ġ...":3366,"Ġcompute":3367,"ĠanyInt":3368,"TEST":3369,"ian":3370,"ĠdoReturn":3371,"SIBLE":3372,"ROL":3373,"Bits":3374,"ĠOptional":3375,"ĠAN":3376,"icate":3377,"enter":3378,"Should":3379,"Ġoff":3380,"ret":3381,"ĠPer":3382,"ĠContacts":3383,"ssible":3384,"ĠInstrumentation":3385,"Ġfactory":3386,"value":3387,"deprecation":3388,"Eng":3389,"Reason":3390,"method":3391,"ĠINPUTSIZE":3392,"ns":3393,"Ġdoc":3394,"Ġscript":3395,"utom":3396,"Ġdraw":3397,"nectivity":3398,"ĠKeyEvent":3399,"Right":3400,"ĠarrayIn":3401,"Serial":3402,"ĠCom":3403,"STATUS":3404,"acity":3405,"expected":3406,"sumer":3407,"Entries":3408,"ĠHttp":3409,"CY":3410,"achine":3411,"maining":3412,"Packages":3413,"Ġstack":3414,"sb":3415,"ĠRecentlyNonNull":3416,"Ġjob":3417,"Files":3418,"Region":3419,"Work":3420,"imum":3421,"://":3422,"ĠCOLUMN":3423,"ayer":3424,"bn":3425,"ĠCH":3426,"CHANGED":3427,"OC":3428,"ublicKey":3429,"Password":3430,"Admin":3431,"imension":3432,"ays":3433,"FIX":3434,"Ġexist":3435,"Ġversion":3436,"andard":3437,"ĠindexOf":3438,"LOAT":3439,"NONE":3440,"ĠCertificate":3441,"ĠMotionEvent":3442,"ĠEVENT":3443,"Encoding":3444,"Encoded":3445,"pol":3446,"not":3447,"Signature":3448,"ĠCONTENT":3449,"SUP":3450,"Headers":3451,"ĠgetChild":3452,"Formatter":3453,"Timestamp":3454,"Ġ200":3455,"Dest":3456,"Route":3457,"Ġ19":3458,"ĠITest":3459,"Ġwas":3460,"ĠDIS":3461,"Ġsubstring":3462,"67":3463,"register":3464,"Texture":3465,"Runnable":3466,"TING":3467,"Matrix":3468,"Ġmon":3469,"ĠVoid":3470,"Ġdispatch":3471,"versation":3472,"ward":3473,"Ġport":3474,"ĠmData":3475,"ACTIVITY":3476,"Alpha":3477,"Program":3478,"CODES":3479,"ĠTIME":3480,"ored":3481,"Ġjson":3482,"Ġdagger":3483,"latform":3484,"03":3485,"anguage":3486,"ĠConfiguration":3487,"Kind":3488,"mal":3489,"Supp":3490,"Ġup":3491,"Ret":3492,"Remote":3493,"connect":3494,"DateTime":3495,"Ġsuite":3496,"Ġ$":3497,"41":3498,"History":3499,"87":3500,"Ġindent":3501,"ĠmView":3502,"MPTY":3503,"pos":3504,"ĠaddAll":3505,"ĠcheckNotNull":3506,"Ġinject":3507,"nap":3508,"RIP":3509,"ification":3510,"Shared":3511,"THOD":3512,"Decoder":3513,"ATCH":3514,"Extras":3515,"Override":3516,"The":3517,"Ġinsert":3518,"Ġbundle":3519,"Ġ\":":3520,"ĠAccount":3521,"DownLatch":3522,"att":3523,"itions":3524,"ĠAU":3525,"irm":3526,"ulate":3527,"Idle":3528,"Remove":3529,"annot":3530,"ĠcharAt":3531,"cheme":3532,"Ġsql":3533,"ĠmE":3534,"REQUEST":3535,"http":3536,"iv":3537,"Engine":3538,"43":3539,"Expand":3540,"ĠInvocation":3541,"Ġbit":3542,"ĠhasNext":3543,"Draw":3544,"INDEX":3545,"}\"":3546,"Ġhead":3547,"Ġ11":3548,"Ġpa":3549,"Services":3550,"Auto":3551,"lected":3552,"ITE":3553,"ĠPattern":3554,"aa":3555,"Stop":3556,"dp":3557,"Ġfeature":3558,"Ġ|=":3559,"sTo":3560,"ĠEnum":3561,"ĠisTrue":3562,"asic":3563,"pth":3564,"SUB":3565,"Details":3566,"ere":3567,"DEVICE":3568,"lan":3569,"down":3570,"izable":3571,"PS":3572,"bers":3573,"Ġ\"(":3574,"moved":3575,"Machine":3576,"ĠRS":3577,"ymbols":3578,"hoto":3579,"Ġ42":3580,"Ġparameter":3581,"65":3582,"Accessibility":3583,"NUMBER":3584,"ĠCell":3585,"ĠcontainsKey":3586,"stra":3587,"ractor":3588,"Wait":3589,"FileDescriptor":3590,"Insets":3591,"start":3592,"aunch":3593,"rement":3594,"Ġaudio":3595,"reg":3596,"001000":3597,"Ġmem":3598,"ĠAd":3599,"ĠFormat":3600,"Ġdialog":3601,"tf":3602,"ookie":3603,"wer":3604,"MAN":3605,"Ġbottom":3606,"ĠButton":3607,"rigger":3608,"ĠTree":3609,"Looper":3610,"leep":3611,"ĠRUNTIME":3612,"vide":3613,"Shell":3614,"aml":3615,"ĠwriteInt":3616,"BG":3617,"ĠmContent":3618,"ĠEd":3619,"Ġlibcore":3620,"ĠgetPackageName":3621,"TRI":3622,"Ġimpl":3623,"ĠtestField":3624,"TimeZone":3625,"Equal":3626,"ĠsubId":3627,"Area":3628,"just":3629,"ĠgetContentResolver":3630,"ĠAs":3631,"Ġargument":3632,"istance":3633,"ĠResources":3634,"atcher":3635,"Ġpart":3636,"08":3637,"Sa":3638,"Qual":3639,"agn":3640,"ĠSparse":3641,"Arguments":3642,"ĠPair":3643,"MAX":3644,"PolicyManager":3645,"Ġduration":3646,"DED":3647,"aded":3648,"ferred":3649,"ĠPK":3650,"ĠImp":3651,"IRE":3652,"ze":3653,"ĠContentValues":3654,"Signal":3655,"ĠReply":3656,"Var":3657,"pcodes":3658,"ĠmTe":3659,"Ġapi":3660,"path":3661,"ĠMenu":3662,"LES":3663,"ĠTelephonyManager":3664,"esc":3665,"ĠgetT":3666,"Ġsignature":3667,"ableFuture":3668,"DATE":3669,"FE":3670,"rypt":3671,"SYSTEM":3672,"Ġnow":3673,"eep":3674,"ĠSQLException":3675,"ĠInetAddress":3676,"ĠCode":3677,"ĠIBinder":3678,"Ġrecei":3679,"oplayer":3680,"ĠLine":3681,"FR":3682,"Ġlevel":3683,"Private":3684,"Before":3685,"Possible":3686,"ĠParcelable":3687,"ĠPrec":3688,"ĠNon":3689,"ĠsetVisibility":3690,"Voice":3691,"ific":3692,"Ġanimation":3693,"Pixel":3694,"Ġawait":3695,"Ġexoplayer":3696,"Called":3697,"bugg":3698,"Bluetooth":3699,"ĠProvider":3700,"eer":3701,"pn":3702,"lementation":3703,";\\":3704,"VIEW":3705,"cp":3706,"Ġcause":3707,"ownload":3708,"Has":3709,"ĠPAR":3710,"Ġpattern":3711,"Cancel":3712,"Ġmove":3713,"ally":3714,"Select":3715,"TIFICATION":3716,"06":3717,"ĠDialog":3718,"Infos":3719,"ĠmKey":3720,"ĠCountDownLatch":3721,"Ġafter":3722,"Post":3723,"pre":3724,"Ġbegin":3725,"MASK":3726,"ĠFunction":3727,"ĠMulti":3728,"leton":3729,"rim":3730,"FORMAT":3731,"ĠGenerated":3732,"Msg":3733,"Power":3734,"Real":3735,"Ġdig":3736,"engine":3737,"SECONDS":3738,"icc":3739,"Entity":3740,"SIGN":3741,"Ġlauncher":3742,"Ġ\"[":3743,"Ġsocket":3744,"Messages":3745,"URATION":3746,"Space":3747,"Mask":3748,"Ġprofile":3749,"ĠgetF":3750,"Ġvalidate":3751,"ration":3752,"TextView":3753,"ĠGwt":3754,"ination":3755,"Install":3756,"bb":3757,"72":3758,"Ġmodule":3759,"Indented":3760,"ĠmN":3761,"oper":3762,"ush":3763,"ingleton":3764,"Ġscreen":3765,"ĠmCallback":3766,"Ġ22":3767,"Part":3768,"Ġbluetooth":3769,"Ġcontroller":3770,"Tester":3771,"ww":3772,"IndentedString":3773,"MM":3774,"ple":3775,"ATH":3776,"Temp":3777,"Resume":3778,"ĠDefault":3779,"Ġare":3780,"oop":3781,"Handsh":3782,"gl":3783,"Ġmatcher":3784,"Ġdst":3785,"URL":3786,"ĠManifest":3787,"ParameterSpec":3788,"ĠSI":3789,"ILLIS":3790,"cyc":3791,"ĠputExtra":3792,"ĠSerial":3793,"Ġnon":3794,"ĠkeySet":3795,"ĠnewBuilder":3796,"Allocation":3797,"Ġparcel":3798,"Ġrandom":3799,"JE":3800,"ĠAction":3801,"Views":3802,"ĠsetContent":3803,"Ġmenu":3804,"ĠStub":3805,"my":3806,"force":3807,"ĠgetNext":3808,"81":3809,"Rules":3810,"ĠResult":3811,"Digest":3812,"WITH":3813,"ibrary":3814,"erge":3815,"Ġdir":3816,"CAP":3817,"with":3818,"ct":3819,"ĠProto":3820,"EAR":3821,"NETWORK":3822,"overy":3823,"ĠBluetoothDevice":3824,"rono":3825,"icle":3826,"OO":3827,"Struc":3828,"ĠmSub":3829,"Ġautotest":3830,"Ġcontact":3831,"84":3832,"gency":3833,"LIST":3834,"Allowed":3835,"Debug":3836,"Ġactive":3837,"ASON":3838,"Recording":3839,"ĠAndroidJUnit":3840,"Ġiter":3841,"veloper":3842,"ĠgetBytes":3843,"polator":3844,"sage":3845,"Ready":3846,"ĠExecutor":3847,"Ġssl":3848,"Ġextras":3849,"lative":3850,"Ġ24":3851,"ments":3852,"ĠInstruction":3853,"Diff":3854,"Flag":3855,"lush":3856,"Ġcompat":3857,"stat":3858,"MI":3859,"flate":3860,"ĠmO":3861,"75":3862,"Ġ15":3863,"ners":3864,"Ġrecyc":3865,"anner":3866,"ipe":3867,"Collection":3868,"GER":3869,"ĠgetBoolean":3870,"literator":3871,"REEN":3872,"ability":3873,"Condition":3874,"Ġresults":3875,"Ġavailable":3876,"Ġfd":3877,"ArrayList":3878,"Calendar":3879,"Ġscan":3880,"Cell":3881,"CATE":3882,"Rotation":3883,"ĠgetTag":3884,"ĠURL":3885,"ENCE":3886,"Ġbound":3887,"print":3888,"Syn":3889,"ĠreadInt":3890,"NS":3891,"FAIL":3892,"atas":3893,"package":3894,"Ġskip":3895,"ĠSubscription":3896,"shot":3897,"Month":3898,"idden":3899,"Page":3900,"61":3901,"Delet":3902,"ĠAsser":3903,"MD":3904,"ĠtoIndentedString":3905,"STANCE":3906,"StackTrace":3907,"Ġsettingslib":3908,"ifiers":3909,"reator":3910,"ĠMy":3911,"Ġconnect":3912,"BC":3913,"straint":3914,"Ġselect":3915,"LOAD":3916,"ĠmOn":3917,"LENGTH":3918,"idate":3919,"SCRIP":3920,"ĠAT":3921,"Payload":3922,"oggle":3923,"ĠEMPTY":3924,"ling":3925,"ĠTemp":3926,"si":3927,"ĠPACKAGE":3928,"actor":3929,"ĠLogger":3930,"istics":3931,"Ġallow":3932,"Ġrs":3933,"ĠgetColumn":3934,"mergency":3935,"ĠMESSAGE":3936,"ĠULocale":3937,"Actions":3938,"Disabled":3939,"ĠParameter":3940,"eground":3941,"ĠParse":3942,"9999":3943,"ĠmMedia":3944,"ĠChannel":3945,"DOWN":3946,"ĠgetDisplay":3947,"ĠServer":3948,"napshot":3949,"Summary":3950,"ĠAttributeSet":3951,"ALLOW":3952,"Overlay":3953,"REG":3954,"EVENT":3955,"ĠinOrder":3956,"Ġhave":3957,"Async":3958,"Cause":3959,"Ġparameters":3960,"Ġentries":3961,"ĠPER":3962,"CI":3963,"ubble":3964,"ural":3965,"ĠWindowManager":3966,"Running":3967,"ceive":3968,"andidate":3969,"Ġunregister":3970,"cheduled":3971,"Ġalloc":3972,"ĠRES":3973,"Ġ60":3974,"Ġmay":3975,"ĠPRE":3976,"iteral":3977,"Ġenum":3978,"ĠDataType":3979,"ĠCapture":3980,"ĠgetData":3981,"ĠMODE":3982,"PK":3983,"Ġast":3984,"peed":3985,"Ġhel":3986,"100":3987,"Layer":3988,"CONFIG":3989,"lab":3990,"ĠBitStreamReader":3991,"ENABLED":3992,"FER":3993,"ĠDesc":3994,"imeType":3995,"ĠArgumentCaptor":3996,"ermin":3997,"TERN":3998,"Insn":3999,"Ġengine":4000,"ĠScan":4001,"ĠsetEnabled":4002,"1234":4003,"Ġbutton":4004,"Ġorder":4005,"reshold":4006,"eries":4007,"raction":4008,"ĠGu":4009,"73":4010,"options":4011,"ĠDec":4012,"viders":4013,"200":4014,"arge":4015,"Ġunit":4016,"Received":4017,"ternal":4018,"aging":4019,"Ġcontainer":4020,"ĠTimeZone":4021,"parator":4022,"Ġprevious":4023,"MILLIS":4024,"urrency":4025,"Sms":4026,"argin":4027,"ĠmDisplay":4028,"Save":4029,"ĠWifiConfiguration":4030,"Man":4031,"imer":4032,"ĠFilter":4033,"Ġ31":4034,"onditions":4035,"eak":4036,"TIVE":4037,"Parcelable":4038,"Parse":4039,"Ġadapter":4040,"ĠRandom":4041,"ĠBuffered":4042,"her":4043,"Ġ\"%":4044,"Ġlogger":4045,"ĠByteArrayOutputStream":4046,"Cipher":4047,"Xml":4048,"Ims":4049,"ĠBroadcast":4050,"ĠPreconditions":4051,"Sim":4052,"More":4053,"ĠCOM":4054,"Ġcell":4055,"ĠmCamera":4056,"IZ":4057,"ĠDATA":4058,"RESS":4059,"issing":4060,"ĠUT":4061,"Edge":4062,"Setup":4063,"Ġ40":4064,"Support":4065,"chor":4066,"Alias":4067,"ldr":4068,"Ġalgorithm":4069,"stream":4070,"ToMessage":4071,"stants":4072,"Ġperform":4073,"ĠRange":4074,"Ġremote":4075,"Ġholder":4076,"\\\"\"":4077,"ĠgetService":4078,"ĠIke":4079,"Ġdelta":4080,"Ġti":4081,"THER":4082,"Ġ50":4083,"ĠgetApplication":4084,"Ġver":4085,"card":4086,"Ġsupported":4087,"Exist":4088,"ĠerrorFound":4089,"mod":4090,"ĠImmutableSet":4091,"FFER":4092,"ĠSystemClock":4093,"ilation":4094,"Ignore":4095,"pare":4096,"TRAN":4097,"AILABLE":4098,"lish":4099,"ĠCommon":4100,"Ġmark":4101,"ĠFLOAT":4102,"ĠINVALID":4103,"arDown":4104,"Ġab":4105,"ĠgetPossible":4106,"ĠFake":4107,"Contacts":4108,"Destroy":4109,"DAY":4110,"ressed":4111,"INDOW":4112,"ĠDescri":4113,"Ġdet":4114,"avigation":4115,"Close":4116,"ĠIS":4117,"cat":4118,"sm":4119,"vity":4120,"chive":4121,"ĠCallback":4122,"buggee":4123,"ĠtoArray":4124,"rient":4125,"Ġmatches":4126,"Ġdebug":4127,"ĠPRI":4128,"irtual":4129,"SHORT":4130,"ls":4131,"Ġsort":4132,"itive":4133,"Ġinstall":4134,"inner":4135,"ping":4136,"ĠtearDown":4137,"FirstTags":4138,"62":4139,"Incomp":4140,"CR":4141,"Ġselected":4142,"olute":4143,"fd":4144,"ĠPendingIntent":4145,"Ġspan":4146,"Assert":4147,"Ip":4148,"IGHT":4149,"Calls":4150,"Ġthrown":4151,"ĠERROR":4152,"Year":4153,"ramm":4154,"StateChanged":4155,"ĠOption":4156,"ĠmClient":4157,"ĠReplyCodes":4158,"enc":4159,"lared":4160,"Ġfull":4161,"Ġtransport":4162,"VERSION":4163,"ĠgetPossibleFirstTags":4164,"ular":4165,"SSL":4166,"ĠUserManager":4167,"copy":4168,"rammar":4169,"ĠNAME":4170,"ObjectIdentifier":4171,"Ġtrace":4172,"ĠRequire":4173,"ORITY":4174,"GORY":4175,"Ġcrypto":4176,"ogn":4177,"SCREEN":4178,"boot":4179,"he":4180,"TestRunner":4181,"NEL":4182,"Ġdesc":4183,"Unknown":4184,"ĠRequest":4185,"Ġreg":4186,"Reset":4187,"Delta":4188,"Picker":4189,"etric":4190,"Ġchang":4191,"ĠRule":4192,"ĠOutputStream":4193,"ĠAPP":4194,"bsolute":4195,"rientation":4196,"AW":4197,"Conf":4198,"OutOf":4199,"EE":4200,"ĠsendMessage":4201,"itText":4202,"ATED":4203,"TIAL":4204,"Ġfoo":4205,"82":4206,"Ġreflect":4207,"Transform":4208,"Restrictions":4209,"Ġip":4210,"Ġover":4211,"RuntimeException":4212,"SPE":4213,"ĠResource":4214,"HashMap":4215,"ĠencodePer":4216,"Ġnever":4217,"Optional":4218,"ravity":4219,"ĠgetHeight":4220,"ERT":4221,"INFO":4222,"ĠencodedBytes":4223,"ĠPaint":4224,"ĠputInt":4225,"vok":4226,"ĠStringBuffer":4227,"BIT":4228,"ĠgetWidth":4229,"ĠCL":4230,"Finished":4231,"UNKNOWN":4232,"Ġdiff":4233,"RAY":4234,"Ġfuture":4235,"go":4236,"Carrier":4237,"ĠgetElement":4238,"Ġbinder":4239,"ĠEGL":4240,"Ġsurface":4241,"Ġexecutor":4242,"Sensor":4243,"0000000":4244,"ĠmCar":4245,"long":4246,"Java":4247,"Ġproperty":4248,"----":4249,"mode":4250,"ATIVE":4251,"Lite":4252,"ĠTRAN":4253,"Ab":4254,"63":4255,"ĠUnicodeBlock":4256,"Pending":4257,"lerView":4258,"Ġpriority":4259,"Ġsave":4260,"Ġiface":4261,"egative":4262,"ĠPrintWriter":4263,"ĠIntentFilter":4264,"ĠCONT":4265,"ĠInstrumentationRegistry":4266,"GHT":4267,"atible":4268,"arded":4269,"ĠAsync":4270,"ĠmLog":4271,"verse":4272,"Hex":4273,"essaging":4274,"Execution":4275,"service":4276,"ify":4277,"Nanos":4278,"ĠgetCount":4279,"Ġlaunch":4280,"ĠAD":4281,"Contents":4282,"Template":4283,"ĠappendVariable":4284,"ĠclassName":4285,"ĠRuntime":4286,"ĠappendVariableToMessage":4287,"Effect":4288,"Primitive":4289,"Init":4290,"ĠgetTest":4291,"Val":4292,"erification":4293,"IDEO":4294,"71":4295,"Devices":4296,"Requested":4297,"Ġvideo":4298,"ĠentrySet":4299,"ift":4300,"ĠNumberFormat":4301,"500":4302,"Agent":4303,"Ġtransform":4304,"pers":4305,"ĠmNotification":4306,"ClassName":4307,"ContactId":4308,"sub":4309,"Ġiden":4310,"ank":4311,"chedul":4312,"Single":4313,"irror":4314,"CONTENT":4315,"DR":4316,"Ġsleep":4317,"BR":4318,"OUP":4319,"Interaction":4320,"CLASS":4321,"Dispatch":4322,"MetaModel":4323,"Exc":4324,"ĠgetUser":4325,"TP":4326,"ĠPoint":4327,"ĠgetState":4328,"Ġtemporal":4329,"Enter":4330,"Listeners":4331,"DISP":4332,"icture":4333,"When":4334,"Ġ^":4335,"AIN":4336,"ĠConstants":4337,"ĠLooper":4338,"FIELD":4339,"GET":4340,"Chain":4341,"Ġpolicy":4342,"rong":4343,"Rat":4344,"Print":4345,"fe":4346,"ĠLayoutInflater":4347,"ca":4348,"ensity":4349,"ĠCALL":4350,"Week":4351,"Bottom":4352,"hs":4353,"External":4354,"Copy":4355,"Ġjoin":4356,"ĠcurrentTimeMillis":4357,"ĠmBack":4358,"ryption":4359,"Ġreference":4360,"Processor":4361,"Required":4362,"ĠDBG":4363,"Tab":4364,"Ġinstruction":4365,"ĠMeasure":4366,"ANNEL":4367,"Ġprogram":4368,"oriz":4369,"Self":4370,"Ġdoes":4371,"Word":4372,"utdown":4373,"Verifier":4374,"ĠZip":4375,"Solver":4376,"ĠFrame":4377,"ManagerService":4378,"ĠgetAction":4379,"000000":4380,"ĠUS":4381,"ĠwriteTo":4382,"Strength":4383,"luded":4384,"DIRE":4385,"VO":4386,"oaded":4387,"COND":4388,"Coord":4389,"ĠProg":4390,"CC":4391,"ĠRef":4392,"Ġconfiguration":4393,"Ġmetadata":4394,"Ġsync":4395,"Encoder":4396,"iction":4397,"ĠgetAll":4398,"ĠVISIBLE":4399,"Body":4400,"BI":4401,"Ġcb":4402,"Ġinitialize":4403,"MAL":4404,"PC":4405,"ech":4406,"Pop":4407,"ĠConnection":4408,"Completed":4409,"ium":4410,"Ġsegment":4411,"adi":4412,"ĠNonnull":4413,"screen":4414,"signed":4415,"Ġsip":4416,"FIL":4417,"Alarm":4418,"Theme":4419,"Caller":4420,"States":4421,"Ġdeveloper":4422,"dma":4423,"ĠClient":4424,"Multimap":4425,"Features":4426,"node":4427,"ĠNative":4428,"urve":4429,"Do":4430,"Fm":4431,"CallingIdentity":4432,"Ġmanager":4433,"nel":4434,"ĠmCol":4435,"AE":4436,"oci":4437,"BYTES":4438,"OutOfBounds":4439,"Hint":4440,"05":4441,"rip":4442,"Ġbl":4443,"Ġrestore":4444,"Children":4445,"Activ":4446,"Ġims":4447,"Ġattributes":4448,"ĠFE":4449,"SETTING":4450,"Bug":4451,"Ġdeveloperoptions":4452,"lang":4453,"Ġslot":4454,"Ġok":4455,"etch":4456,"char":4457,"Buf":4458,"ĠJUnit":4459,"Ġrot":4460,"ĠApplicationInfo":4461,"ĠTemporal":4462,"HO":4463,"Ġregion":4464,"ingerprint":4465,"onical":4466,"Ġwork":4467,"Ġbefore":4468,"rt":4469,"ĠBroadcastReceiver":4470,"Credential":4471,"ĠMILLI":4472,"Ġsimple":4473,"TimeMs":4474,"MPLE":4475,"Ġct":4476,"Registration":4477,"ĠSET":4478,"rm":4479,"greg":4480,"ined":4481,"ĠSIZE":4482,"NC":4483,"az":4484,"LOG":4485,"ways":4486,"Capability":4487,"Math":4488,"ulator":4489,"Ġsm":4490,"Ġdialer":4491,"ĠBattery":4492,"lex":4493,"REAM":4494,"Global":4495,"ĠVAL":4496,"CCESS":4497,"AsUser":4498,"allback":4499,"aker":4500,"ataset":4501,"rict":4502,"85":4503,"veInfo":4504,"ADER":4505,"ĠstartsWith":4506,"Ġreal":4507,"Ġnormal":4508,"ĠAnimator":4509,"Binding":4510,"ViewHolder":4511,"Incompatible":4512,"07":4513,"Ġmerge":4514,"Lookup":4515,"ĠtestSet":4516,"09":4517,"83":4518,"ĠContentResolver":4519,"Ġnan":4520,"Ġadmin":4521,"ranch":4522,"PORTED":4523,"ĠMod":4524,"eh":4525,"Ġhttp":4526,"RSA":4527,"ĠZone":4528,"ĠMET":4529,"Uuid":4530,"White":4531,"ĠDirec":4532,"ONTH":4533,"**":4534,"ĠnewInstance":4535,"Cast":4536,"ĠgetLong":4537,"ONENT":4538,"ĠBitSet":4539,"byte":4540,"Ġ14":4541,"ĠmList":4542,"ster":4543,"Ġtestng":4544,"LS":4545,"ĠEap":4546,"MESSAGE":4547,"Authent":4548,"uner":4549,"ERO":4550,"ĠReference":4551,"Final":4552,"ĠRESULT":4553,"Constraint":4554,"Ġcp":4555,"ĠRaw":4556,"ĠmPhone":4557,"ĠgetTarget":4558,"Ġrefresh":4559,"UI":4560,"valu":4561,"ĠmAudio":4562,"Ġflush":4563,"orizont":4564,"WORD":4565,"ĠmMax":4566,"ĠTv":4567,"DISPLAY":4568,"Counter":4569,"Wallpaper":4570,"ĠgetPackageManager":4571,"wk":4572,"Ġshared":4573,"ĠSystemApi":4574,"table":4575,"ĠSecurityException":4576,"ki":4577,"ĠmNetwork":4578,"eeded":4579,"ensure":4580,"Ġerrln":4581,"Ġrender":4582,"Chunk":4583,"ĠSQLite":4584,"ĠSTATUS":4585,"Ġoption":4586,"ich":4587,"ĠmAdapter":4588,"quare":4589,"Desc":4590,"cheduler":4591,"ĠgetSub":4592,"UTO":4593,"ĠRobolectric":4594,"ingMode":4595,"Ġwhat":4596,"Ġstyleable":4597,"rapped":4598,"low":4599,"ĠFileDescriptor":4600,"Direction":4601,"ĠAfter":4602,"ĠWIFI":4603,"ĠByteString":4604,"OutOfBoundsException":4605,"ffffffff":4606,"Ġensure":4607,"sec":4608,"ummy":4609,"ĠcompareTo":4610,"nt":4611,"Two":4612,"Ġtruth":4613,"ĠTruth":4614,"pendency":4615,"Trust":4616,"Ġdatabase":4617,"ĠJob":4618,"dmi":4619,"Ph":4620,"Ġfake":4621,"xc":4622,"00000":4623,"Slice":4624,"ardedBy":4625,"licant":4626,"AF":4627,"stalled":4628,"ĠLogUtil":4629,"ocused":4630,"Priority":4631,"IR":4632,"Ġqueue":4633,"ĠLONG":4634,"Recorder":4635,"avigable":4636,"ĠSignature":4637,"ĠisFalse":4638,"ĠSize":4639,"Ġtimestamp":4640,"Asset":4641,"ĠgetTime":4642,"ĠToken":4643,"Fmwk":4644,"org":4645,"Custom":4646,"ĠMatrix":4647,"Seek":4648,"Ġtransition":4649,"Handshake":4650,"ILED":4651,"Ġvol":4652,"Press":4653,"AAAAAAAA":4654,"inition":4655,"lem":4656,"Playback":4657,"ConfigManager":4658,"Mark":4659,"Ġ99":4660,"ĠgetParent":4661,"ĠNUM":4662,"ResId":4663,"ĠURI":4664,"ĠgetComponent":4665,"Foreground":4666,"Ġtypes":4667,"LINE":4668,"ĠPO":4669,"Ġalpha":4670,"Graph":4671,"ĠsetValue":4672,"orizontal":4673,"Score":4674,"Iface":4675,"ĠCipher":4676,"ĠTable":4677,"ĠmSession":4678,"Ġlookup":4679,"Ġbenchmark":4680,"Gesture":4681,"ĠtoByteArray":4682,"ĠComparator":4683,"ĠLe":4684,"95":4685,"PLAY":4686,"ulated":4687,"LONG":4688,"Ġinflate":4689,"ov":4690,"ĠGuardedBy":4691,"HAND":4692,"Ġsupp":4693,"Ġarguments":4694,"ĠSms":4695,"ĠMem":4696,"Ġsig":4697,"ĠSerializable":4698,"128":4699,"ĠHeader":4700,"ĠActivityManager":4701,"MAP":4702,"xd":4703,"scribe":4704,"ire":4705,"Ġevents":4706,"AQ":4707,"ĠIndex":4708,"ĠByteArrayInputStream":4709,"Play":4710,"Extractor":4711,"channel":4712,"xb":4713,"ĠgetDec":4714,"Ġrunners":4715,"Zero":4716,"ĠTestFmwk":4717,"ĠON":4718,"Ġkeys":4719,"Exactly":4720,"ĠArrayMap":4721,"ehicle":4722,"Mirror":4723,"AUDIO":4724,"5678":4725,"yclerView":4726,"Threshold":4727,"ross":4728,"Pred":4729,"match":4730,"Literal":4731,"Import":4732,"Security":4733,"swer":4734,"OpsManager":4735,"SCRIPTION":4736,"earch":4737,"ĠgetMethod":4738,"97":4739,"ĠSearch":4740,"Ġschedule":4741,"ABILITY":4742,"MB":4743,"ublish":4744,"xFF":4745,"Blocking":4746,"NewInstance":4747,"PL":4748,"ĠputString":4749,"omain":4750,"AIT":4751,"Ste":4752,"ĠgetItem":4753,"short":4754,"ĠExtension":4755,"ertDialog":4756,"ĠMATCH":4757,"00100":4758,"ĠcopyTo":4759,"Pin":4760,"ĠBack":4761,"Foo":4762,"AVAILABLE":4763,"Enable":4764,"ude":4765,"ĠonClick":4766,"Extended":4767,"ĠSUP":4768,"94":4769,"oftAp":4770,"Ġclean":4771,"Language":4772,",\"":4773,"Register":4774,"ose":4775,"DELAY":4776,"ĠSER":4777,"ĠNETWORK":4778,"ĠOnClickListener":4779,"Radio":4780,"Ġenforce":4781,"overage":4782,"info":4783,"ĠDis":4784,"Launch":4785,"Ġdocument":4786,"imp":4787,"Prop":4788,"Ġarraycopy":4789,"WID":4790,"ĠTyped":4791,"Ġ\"]\"":4792,"ĠisIn":4793,"Ġunknown":4794,"VID":4795,"user":4796,"perator":4797,"Classes":4798,"ĠMetrics":4799,"Ġbackup":4800,"PT":4801,"PERMISSION":4802,"Idx":4803,"settings":4804,"ĠSparseArray":4805,"GROUND":4806,"Prev":4807,"StateMachine":4808,"ĠgetPreference":4809,"ĠCarrier":4810,"Send":4811,"ĠArraySet":4812,"mount":4813,"iom":4814,"Ġelapsed":4815,"ĠLA":4816,"ĠCanvas":4817,"ĠCOMM":4818,"ĠStandard":4819,"util":4820,"eed":4821,"ĠBlock":4822,"Reg":4823,"acing":4824,"Obj":4825,"AKE":4826,"ĠIC":4827,"ĠcopyOf":4828,"ĠConstant":4829,"pri":4830,"Ġchange":4831,"Ġzone":4832,"ĠgetMax":4833,"Sizes":4834,"temp":4835,"ĠTag":4836,"Assist":4837,"ĠdefStyle":4838,"ĠRpc":4839,"ĠgetO":4840,"ifiable":4841,"eight":4842,"Band":4843,"Ġzz":4844,"ĠDEVICE":4845,"RESULT":4846,"inline":4847,"ĠgetE":4848,"Alloc":4849,"ĠShortcut":4850,"Injector":4851,"ĠModifier":4852,"ĠCheck":4853,"Shadow":4854,"Ġ\"_":4855,"Ġapk":4856,"URRE":4857,"Ġparsed":4858,"earable":4859,"TargetSdk":4860,"WP":4861,"ĠgetLast":4862,"ĠisValid":4863,"Points":4864,"pping":4865,"Ġev":4866,"ĠverifyResults":4867,"Times":4868,"CHE":4869,"Slot":4870,"ited":4871,"ĠMILLISECONDS":4872,"Ġ\"'":4873,"inator":4874,"Errors":4875,"MARY":4876,"ĠMockitoAnnotations":4877,"Ġlp":4878,"ĠmHas":4879,"Throws":4880,"DURATION":4881,"ĠFEATURE":4882,"vance":4883,"ĠToast":4884,"Groups":4885,"arLayout":4886,"ĠSequence":4887,"Delete":4888,"ĠgetAttribute":4889,"====":4890,"DING":4891,"Dump":4892,"PATH":4893,"Interval":4894,"DataSource":4895,"adius":4896,"ĠcontainsExactly":4897,"MOVE":4898,"Matchers":4899,"Stmt":4900,"ĠmInput":4901,"Indent":4902,"Subtype":4903,"Autom":4904,"ested":4905,"ORMAL":4906,"Checker":4907,"ĠMetadata":4908,"Initialized":4909,"ready":4910,"Capacity":4911,"ĠSTART":4912,"rinc":4913,"Watch":4914,"ĠStats":4915,"VATE":4916,"Ġsw":4917,"ĠContact":4918,"rincip":4919,"ĠassertNot":4920,"ertical":4921,"Fixed":4922,"WIFI":4923,"rincipal":4924,"so":4925,"92":4926,"ssu":4927,"ĠImplementation":4928,"Renderer":4929,"Ġchanged":4930,"Ġspy":4931,"cent":4932,"Ġmaybe":4933,"Ġwrap":4934,"nectivityManager":4935,"Removed":4936,"Curve":4937,"dir":4938,"ocity":4939,"ĠarrayInV":4940,"CONNECTED":4941,"reation":4942,"Ġ\")\"":4943,"GB":4944,"IFT":4945,"Realtime":4946,"ĠmFragment":4947,"AccountHandle":4948,"ĠRender":4949,"ĠmPending":4950,"ĠNOT":4951,"ĠVideo":4952,"Ġmonth":4953,"NotAvailable":4954,"Split":4955,"col":4956,"field":4957,"ĠUTF":4958,"requ":4959,"ĠExif":4960,"Ġidx":4961,"Ġsearch":4962,"CHAR":4963,"ĠLocation":4964,"Ġsi":4965,"Ġfilters":4966,"ĠgetLocal":4967,"ĠAuto":4968,"Ġremaining":4969,"lugin":4970,"ĠKEYCODE":4971,"ĠnewValue":4972,"Explicit":4973,"elocity":4974,"Added":4975,"IO":4976,"NULL":4977,"Ġconfigure":4978,"Ġbody":4979,"Ġallowed":4980,"Home":4981,"ĠDAY":4982,"sentation":4983,"Primary":4984,"()\"":4985,"REASON":4986,"ĠcreateS":4987,"ĠgetPath":4988,"ĠSensor":4989,"Objects":4990,"Ġfields":4991,"Sorted":4992,"COR":4993,"ChangedListener":4994,"DEN":4995,"off":4996,"Specific":4997,"ĠOpcodes":4998,"SITION":4999,"Ġpayload":5000,"ĠJson":5001,"Accessor":5002,"Ġdelay":5003,"Ġtrim":5004,"Ġzip":5005,"ĠAlgorithm":5006,"ique":5007,"ĠFOL":5008,"Android":5009,"Ġresources":5010,"DP":5011,"ĠAssertion":5012,"Ġ13":5013,"UST":5014,"Ġday":5015,"ĠAudioManager":5016,"Pause":5017,"etic":5018,"Ġrelaxed":5019,"ĠmBluetooth":5020,"Bad":5021,"ned":5022,"OB":5023,"Sink":5024,"ĠGLES":5025,"ssid":5026,"ĠFOR":5027,"Library":5028,"Ġcmd":5029,"Ġproxy":5030,"GEN":5031,"Needed":5032,"ĠSOURCE":5033,"Ġqual":5034,"endor":5035,"Ġcollection":5036,"Battery":5037,"ribution":5038,"Ġcompile":5039,"ĠmWindow":5040,"VIDER":5041,"Ġforce":5042,"modifiable":5043,"Ġlink":5044,"losing":5045,"Rpc":5046,"Ġyear":5047,"ToNewInstance":5048,"Ġcodec":5049,"FC":5050,"Under":5051,"ĠdecodePerAligned":5052,"ĠdecodePerUnaligned":5053,"ĠConcurrent":5054,"Ġmetrics":5055,"Clear":5056,"mali":5057,"TestSuite":5058,"EP":5059,"ĠUsb":5060,"Ġsink":5061,"Ġdx":5062,"anned":5063,"ĠProperty":5064,"192":5065,"Ġfiles":5066,"Ġtz":5067,"box":5068,"ĠTEXT":5069,"Ġfailure":5070,"rightness":5071,"xf":5072,"serial":5073,"JECT":5074,"Ġenter":5075,"ĠCommandNames":5076,"Exit":5077,"tml":5078,"ĠisEnabled":5079,"ĠsessionId":5080,"Implicit":5081,"ĠLauncher":5082,"Ġdomts":5083,"TLE":5084,"Ġpassword":5085,"ĠMode":5086,"Ġpush":5087,"ones":5088,"ĠResolved":5089,"Ġps":5090,"Ġdescriptor":5091,"noinline":5092,"Any":5093,"uffix":5094,"93":5095,"abc":5096,"TEGER":5097,"Ġsum":5098,"Mac":5099,"ĠTrace":5100,"Validator":5101,"Ġcountry":5102,"KeySpec":5103,"ĠmRec":5104,"ĠmNext":5105,"ĠJD":5106,"ĠPermission":5107,"kens":5108,"CLI":5109,"Compatible":5110,"Addr":5111,"SPON":5112,"SSID":5113,"ĠAUDIO":5114,"ĠCLog":5115,"Lines":5116,"quival":5117,"OVER":5118,"Updated":5119,"other":5120,"ents":5121,"Gen":5122,"ĠonRe":5123,"ĠItem":5124,"Ġdot":5125,"Ġentity":5126,"Scope":5127,"Scanner":5128,"ĠImageView":5129,"github":5130,"Ġaccessibility":5131,"ShellCommand":5132,"ĠstartTime":5133,"SES":5134,"ĠScript":5135,"Ġpaint":5136,"ĠmEvent":5137,"Ġalias":5138,"ĠChrono":5139,"return":5140,"Ratio":5141,"Ġsun":5142,"javaparser":5143,"Ġidentity":5144,"Done":5145,"Actual":5146,"ĠmStart":5147,"Ġallocate":5148,"flow":5149,"ĠDateFormat":5150,"ĠArguments":5151,"Ġrecycle":5152,"Nullable":5153,"ĠmTarget":5154,"ĠmText":5155,"ĠmDefault":5156,"Ġflag":5157,"ĠobtainMessage":5158,"ux":5159,"lural":5160,"Ġusage":5161,"ĠmConfig":5162,"tpServer":5163,"sFor":5164,"Transient":5165,"ĠgetG":5166,"ĠmPackageManager":5167,"FT":5168,"umbn":5169,"umbnail":5170,"TON":5171,"bine":5172,"tax":5173,"ĠSAX":5174,"AES":5175,"ĠgetWindow":5176,"Consumer":5177,"OWER":5178,"ĠCRE":5179,"ĠQ":5180,"ĠSYSTEM":5181,"ĠstartActivity":5182,"Ġprepare":5183,"ĠComplet":5184,"FileName":5185,"ĠPERMISSION":5186,"Big":5187,"ONLY":5188,"ĠmActive":5189,"FAILURE":5190,"host":5191,"Seconds":5192,"gen":5193,"METHOD":5194,"config":5195,"Ġvisible":5196,"SELE":5197,"ĠShared":5198,"NotAvailableException":5199,"ĠlogWriter":5200,"Ġprimary":5201,"Section":5202,"ĠmNum":5203,"Memory":5204,"tim":5205,"Ġprop":5206,"ĠSequenceComponent":5207,"ĠgetCalling":5208,"Spi":5209,"ĠIp":5210,"Ġexc":5211,"ĠcreateFrom":5212,"ASSWORD":5213,"ĠImmutableMap":5214,"acade":5215,"UTE":5216,"LETE":5217,"CHANGE":5218,"lash":5219,"Interpolator":5220,"91":5221,"Ġce":5222,"Download":5223,"ise":5224,"ĠgetInstrumentation":5225,"ORE":5226,"ĠparseInt":5227,"atile":5228,"PROFILE":5229,"annable":5230,"Ġcharset":5231,"rypted":5232,"Ġjf":5233,"Generic":5234,"armon":5235,"Ġdirectory":5236,"ĠFIELD":5237,"ĠFeature":5238,"Ġlogging":5239,"acked":5240,"ĠCache":5241,"ĠPower":5242,"oicemail":5243,"__":5244,"ebView":5245,"Ġtelecom":5246,"ĠRuntimeEnvironment":5247,"Ġcipher":5248,"rams":5249,"ĠGONE":5250,"Ġlanguage":5251,"sd":5252,"BAR":5253,"224":5254,"sume":5255,"aster":5256,"Country":5257,"Produc":5258,"Structure":5259,"ĠDeviceNotAvailableException":5260,"erv":5261,"akeLock":5262,"armony":5263,"/\"":5264,"Public":5265,"Pkg":5266,"Ġcondition":5267,"PREFIX":5268,"ĠisNull":5269,"Setter":5270,"LU":5271,"ager":5272,"oolbar":5273,"Created":5274,"Managed":5275,"Ġlifecycle":5276,"Ġbinding":5277,"Depth":5278,"ĠRSRuntimeException":5279,"ĠsQL":5280,"ful":5281,"run":5282,"Metric":5283,"ĠmoveTo":5284,"Ġpadding":5285,"scape":5286,"luster":5287,"Disc":5288,"ĠsetTitle":5289,"Move":5290,"ĠgetSimple":5291,"Ġinflater":5292,"TextBundle":5293,"NOTIFICATION":5294,"rad":5295,"ĠDateTime":5296,"Enums":5297,"direc":5298,"STALL":5299,"Shortcuts":5300,"BILITY":5301,"ref":5302,"report":5303,"osition":5304,"ĠMediaFormat":5305,"Atom":5306,"ĠmStatus":5307,"ĠexpectEquals":5308,"Ġplay":5309,"Ġinvalidate":5310,"Unexpected":5311,"Margin":5312,"SW":5313,"ĠCert":5314,"ii":5315,"uted":5316,"device":5317,"ĠGet":5318,"ĠFuture":5319,"allable":5320,"egin":5321,"Ġincrement":5322,"Ġcustom":5323,"rant":5324,"ĠInternal":5325,"UPDATE":5326,"PHONE":5327,"Ca":5328,"123":5329,"ersistable":5330,"Ġph":5331,"ĠXML":5332,"Apn":5333,"ĠMethodHandle":5334,"Nodes":5335,"Provisioning":5336,"Information":5337,"opt":5338,"Indicator":5339,"uffers":5340,"Apk":5341,"SEC":5342,"RT":5343,"formed":5344,"Ġ{\"":5345,"itude":5346,"ĠDevicePolicyManager":5347,"Ime":5348,"High":5349,"Lower":5350,"version":5351,"Ġ255":5352,"osite":5353,"Ġloader":5354,"FACE":5355,"ĠgetPackage":5356,"ĠdisplayId":5357,"pu":5358,"ĠmUi":5359,"PKG":5360,"peat":5361,"Ġkind":5362,"SHIFT":5363,"Ġconstant":5364,"IGN":5365,"Ġpreview":5366,"Ġobserver":5367,"Ġneed":5368,"Ġ~":5369,"ĠrawContactId":5370,"Ġreceiver":5371,"Step":5372,"ĠDescriptor":5373,"SETTINGS":5374,"ĠtestRun":5375,"FieldElement":5376,"Snapshot":5377,"man":5378,"Ġcaller":5379,"ROM":5380,"Tra":5381,"Ġ\"--":5382,"ied":5383,"ategy":5384,"OFFSET":5385,"DU":5386,"ICE":5387,"Termin":5388,"Dismiss":5389,"ĠUnicodeSet":5390,"Iter":5391,"Ġinputmethod":5392,"Debuggee":5393,"ĠCustom":5394,"ĠfileName":5395,"OG":5396,"LayoutParams":5397,"tl":5398,"ĠsendReply":5399,"Ġeap":5400,"LOCAL":5401,"Multiple":5402,"ĠTask":5403,"Keyboard":5404,"Closed":5405,"ĠAppOpsManager":5406,"VALUES":5407,"sid":5408,"roller":5409,"ĠPhoneNumber":5410,"lability":5411,"Frames":5412,"Ġseq":5413,"Fill":5414,"xml":5415,"Ġcldr":5416,"ĠgetIntent":5417,"ĠmMockDevice":5418,"Ġby":5419,"ĠINSTANCE":5420,"ĠRobolectricTestRunner":5421,"ĠLabel":5422,"ĠsetOnClickListener":5423,"Detector":5424,"Ġwhich":5425,"Ġscroll":5426,"IX":5427,"size":5428,"Ġpoll":5429,"ĠCharset":5430,"ĠTestUtils":5431,"Printer":5432,"Unlock":5433,"Ġfeatures":5434,"AlgorithmException":5435,"CATEGORY":5436,"Folder":5437,"Ġsf":5438,"ĠResolveInfo":5439,"import":5440,"ĠgetN":5441,"Ġconn":5442,"Orientation":5443,"iler":5444,"Suggestions":5445,"Ġowner":5446,"ates":5447,"ROW":5448,"Ġstatusbar":5449,"ĠcheckArgument":5450,"Ġdim":5451,"Ġwm":5452,"Ġabs":5453,"FAILED":5454,"TASK":5455,"Ġitems":5456,"ĠgetProperty":5457,"Ġmask":5458,"sic":5459,">\\":5460,"by":5461,"Ġvolume":5462,"ERA":5463,"Projection":5464,"Dex":5465,"MT":5466,"ĠSUB":5467,"obile":5468,"ĠFileOutputStream":5469,"ForUser":5470,"ĠKeyStore":5471,"phem":5472,"Ġexists":5473,"ĠextensionRegistry":5474,"ĠBU":5475,"vr":5476,"Utf":5477,"Ended":5478,"ĠNotificationManager":5479,"sa":5480,"ĠLevel":5481,"ĠJDWP":5482,"eta":5483,"CEI":5484,"bind":5485,"FailedException":5486,"ĠmChannel":5487,"Encryption":5488,"Ġ128":5489,"ĠParcelFileDescriptor":5490,"ĠDER":5491,"Ġpeek":5492,"Ġ\"/\"":5493,"ices":5494,"ĠLifecycle":5495,"BUFFER":5496,"ĠgetSimpleName":5497,"Ġnames":5498,"Http":5499,"index":5500,"ĠCAP":5501,"ous":5502,"PublicKey":5503,"sl":5504,"Ġ\"\\\"":5505,"UMENT":5506,"Db":5507,"Ġpid":5508,"Ġpending":5509,"Ġround":5510,"ĠFactory":5511,"Aware":5512,"ĠRes":5513,"SPACE":5514,"Ġ[\"":5515,"ĠmResolver":5516,"ĠLock":5517,"Ġrect":5518,"Ġmultimap":5519,"MEDI":5520,"Ġcalc":5521,"ĠGwtIncompatible":5522,"connected":5523,"Attach":5524,"Digits":5525,"econd":5526,"ĠHas":5527,"CONNECT":5528,"Delayed":5529,"Ġconstructor":5530,"Records":5531,"Aw":5532,"Ġautofill":5533,"Ġharmony":5534,"Segment":5535,"ĠAnimation":5536,"medi":5537,"Alg":5538,"ĠFOLLOW":5539,"Saver":5540,"Ġcharacter":5541,"ĠSubscriptionManager":5542,"ĠLinearLayout":5543,"Priv":5544,"ucce":5545,"Runtime":5546,"ĠNoSuchAlgorithmException":5547,"ĠmIcon":5548,"Ġsax":5549,"Verify":5550,"rupt":5551,"ITIAL":5552,"Ġ23":5553,"Incorrect":5554,"CUS":5555,"install":5556,"CD":5557,"ClassLoader":5558,"ĠWifiManager":5559,"Ġbenchmarks":5560,"ors":5561,"VEL":5562,"iometric":5563,"ĠMetric":5564,"ĠgetField":5565,"lator":5566,"aly":5567,"ĠgetExtension":5568,"Ġunicode":5569,"Ġhigh":5570,"Ġadap":5571,"ĠTH":5572,"VISION":5573,"PERTY":5574,"Ġreturned":5575,"ĠCONNE":5576,"Timer":5577,"late":5578,"uspend":5579,"Multiset":5580,"RS":5581,"ĠPo":5582,"Stamp":5583,"MPORT":5584,"STRU":5585,"ĠSwitch":5586,"icro":5587,"ACCOUNT":5588,"URRENT":5589,"Ġloc":5590,"SHOW":5591,"Ġdigest":5592,"GROUP":5593,"istic":5594,"ĠparseFrom":5595,"RST":5596,"FERENCE":5597,"KET":5598,"Hour":5599,"aming":5600,"RIGHT":5601,"rinsic":5602,"CONTACT":5603,"Ġmac":5604,"iling":5605,"ĠmaxTargetSdk":5606,"Ġretval":5607,"xa":5608,"ĠHT":5609,"ĠSorted":5610,"vis":5611,"Chars":5612,"FeatureProvider":5613,"Ġtracking":5614,"ĠcallingUid":5615,"ĠDialogInterface":5616,"IAL":5617,"ĠMETHOD":5618,"ĠCOMMAND":5619,"This":5620,"olog":5621,"Comment":5622,"ĠmConnection":5623,"df":5624,"OLD":5625,"Ġheaders":5626,"pm":5627,"Adjust":5628,"Strings":5629,"ensus":5630,"ĠCore":5631,"ĠUCharacter":5632,"Sin":5633,"Tile":5634,"UTF":5635,"eet":5636,"WIDTH":5637,"aN":5638,"ĠFileInputStream":5639,"PARE":5640,"ĠDownload":5641,"izard":5642,"Ġradio":5643,"content":5644,"CP":5645,"ĠSECONDS":5646,"coming":5647,"ily":5648,"Bucket":5649,"SPONSE":5650,"ĠBind":5651,"ersistableBundle":5652,"Ġtab":5653,"Ġcounter":5654,"ictionary":5655,"LIC":5656,"light":5657,"Ġchunk":5658,"Ġseek":5659,"river":5660,"FULL":5661,"UTTON":5662,"Ġdecoder":5663,"Forward":5664,"Other":5665,"TABLE":5666,"Ġinte":5667,"link":5668,"Ġresolver":5669,"CENT":5670,"NG":5671,"Ġ1024":5672,"MeasureSpec":5673,"ugh":5674,"GEST":5675,"COLOR":5676,"encies":5677,"Ġnano":5678,"Ġbits":5679,"Ġstorage":5680,"ASH":5681,"Ġcontacts":5682,"ĠTIMEOUT":5683,"Ġlat":5684,"Mocks":5685,"Ġmessaging":5686,"ĠmSurface":5687,"aries":5688,"Dynamic":5689,"FOCUS":5690,"707":5691,"Ġ\")":5692,"ĠSecP":5693,"SUPPORTED":5694,"Ġ'\\":5695,"Logging":5696,"ĠFIL":5697,"irc":5698,"MANAG":5699,"Ġword":5700,"Ġhide":5701,"ĠEND":5702,"bose":5703,"ReturnValue":5704,"ĠATTR":5705,"384":5706,"ront":5707,"ĠmDis":5708,"ĠMediaCodec":5709,"ridge":5710,"ĠCODE":5711,"requency":5712,"ĠSlice":5713,"Editor":5714,"nd":5715,"lephonyManager":5716,"ĠonStart":5717,"OUBLE":5718,"ĠBluetoothProfile":5719,"ĠXmlPullParserException":5720,"Mapping":5721,"Ġ\"@":5722,"ĠSTR":5723,"BufferException":5724,"ĠFAIL":5725,"Ġprogress":5726,"XY":5727,"Ġclosed":5728,"Ġroute":5729,"stricted":5730,"aring":5731,"ĠNONE":5732,"KeyStore":5733,"553":5734,"ĠREQUEST":5735,"ĠmImage":5736,"pass":5737,"ĠmId":5738,"Pid":5739,"ĠgetDeclared":5740,"ĠmName":5741,"AUTH":5742,"Trigger":5743,"Without":5744,"Ġbounds":5745,"NodeInfo":5746,"Ġdisable":5747,"VED":5748,"ĠStatusBar":5749,"</":5750,"Ġaddr":5751,"ane":5752,"ĠAuth":5753,"Simple":5754,"ĠPri":5755,"Ġinsn":5756,"Contains":5757,"ĠMatcher":5758,"Comparator":5759,"AMP":5760,"Decode":5761,"ariant":5762,"ĠHOUR":5763,"Converter":5764,"itional":5765,"ĠUserInfo":5766,"FtpServer":5767,"Ġbs":5768,"ĠmUserId":5769,"ĠIP":5770,"SocketFactory":5771,"ĠLinkedList":5772,"ĠMon":5773,"NEW":5774,"IA":5775,"Ġcategory":5776,"pr":5777,"Domain":5778,"Ġpi":5779,"ĠInject":5780,"Symbols":5781,"INPUT":5782,"Ġshortcut":5783,"Ġvolatile":5784,"xe":5785,"eric":5786,"ARRI":5787,"ĠcreateSized":5788,"ARRAY":5789,"DEFIN":5790,"vailability":5791,"ĠsetData":5792,"Cb":5793,"Drag":5794,"ĠHel":5795,"Ġpacket":5796,"Ġ500":5797,"ipient":5798,"Ġlogln":5799,"Users":5800,"KeyException":5801,"ĠStorage":5802,"Ġbut":5803,"CRY":5804,"ĠgetView":5805,"PLY":5806,"Ġbinary":5807,"Ġutils":5808,"Ġ17":5809,"ĠMore":5810,"INVALID":5811,"Ġperiod":5812,"MATCH":5813,"rate":5814,"0000000000000000":5815,"item":5816,"ĠrequireNonNull":5817,"ULE":5818,"ĠALLOW":5819,"ognition":5820,"SIBILITY":5821,"Ġftp":5822,"Direct":5823,"VIDEO":5824,"ĠuserHandle":5825,"FORE":5826,"Ġpoint":5827,"ĠSample":5828,"Shown":5829,"ĠrunOn":5830,"ĠintValue":5831,"ĠJavaFile":5832,"AK":5833,"ArrayEquals":5834,"Ġhex":5835,"Unsigned":5836,"ĠWeak":5837,"ĠAssertionError":5838,"Separator":5839,"Ġ21":5840,"ARRIER":5841,"ĠVector":5842,"Popup":5843,"Ġmatrix":5844,"Lat":5845,"ĠRadio":5846,"ĠOpen":5847,"ĠGET":5848,"ĠCollation":5849,"ĠNULL":5850,"rivateKey":5851,"ĠAlertDialog":5852,"Archive":5853,"ĠmSp":5854,"Tasks":5855,"ĠmSettings":5856,"ĠSource":5857,"DIAL":5858,"ILD":5859,"Presentation":5860,"Pixels":5861,"jected":5862,"Cannot":5863,"ĠgetSelected":5864,"Expanded":5865,"ĠArgumentMatchers":5866,"ĠsetDefault":5867,"Answer":5868,"ĠgetAbsolute":5869,"Upper":5870,"ĠModule":5871,"REST":5872,"Clean":5873,"ĠQU":5874,"ĠmSc":5875,"FloatFloat":5876,"Ġ\",\"":5877,"HEADER":5878,"Common":5879,"dis":5880,"Ġstore":5881,"Anchor":5882,"ĠNot":5883,"ethering":5884,"COLUMN":5885,"ology":5886,"Ġmeasure":5887,"Conversation":5888,"ĠCOMP":5889,"MY":5890,"bound":5891,"ResourceBundle":5892,"ĠReflection":5893,"AUTO":5894,"ĠmimeType":5895,"Dispatcher":5896,"OLU":5897,"ĠgetFile":5898,"Loaded":5899,"Ġfilename":5900,"LEMENT":5901,"Ġvisitor":5902,"bit":5903,"ismatch":5904,"Based":5905,"Ġcommons":5906,"Ġchannelz":5907,"UNCH":5908,"UiThread":5909,"Force":5910,"Ġrules":5911,"ADDRESS":5912,"ĠonResume":5913,"bd":5914,"ĠBl":5915,"Facade":5916,"Ġcalled":5917,"Ġsummary":5918,"(\"":5919,"ĠanyString":5920,"Ġencoding":5921,"ENS":5922,"ĠWork":5923,"xD":5924,"ĠtrackingBug":5925,"TRY":5926,"width":5927,"mediate":5928,"Ġ\"+":5929,"anges":5930,"ssuer":5931,"xF":5932,"ethrow":5933,"ĠACCOUNT":5934,"ĠPred":5935,"ĠFoo":5936,"RED":5937,"max":5938,"ACH":5939,"Repeated":5940,"OrBuilder":5941,"alth":5942,"chem":5943,"COMPONENT":5944,"ĠmManager":5945,"ĠgetActive":5946,"Ġsingleton":5947,"ĠgetR":5948,"ĠContactsContract":5949,"IND":5950,"ĠVehicle":5951,"Ġbar":5952,"ĠPackageInfo":5953,"Immutable":5954,"ĠSP":5955,"ĠBasic":5956,"Associ":5957,"RenderScript":5958,"GE":5959,"RC":5960,"ĠLists":5961,"ĠupdateState":5962,"FORM":5963,"DK":5964,"erent":5965,"Providers":5966,"ĠParseException":5967,"pect":5968,"ĠListener":5969,"Encod":5970,"Ġmultiply":5971,"CLU":5972,"Ġcandidate":5973,"pex":5974,"Ġreplay":5975,"Ġ25":5976,"RITE":5977,"Ġplatform":5978,"Refresh":5979,"BuilderFactory":5980,"Used":5981,"do":5982,"ĠAutofill":5983,"Ġ\\\"":5984,"Digit":5985,"ĠMAN":5986,"mbient":5987,"riginal":5988,"FRE":5989,"COMM":5990,"Ġtree":5991,"ATS":5992,"Ġcertificate":5993,"Hidden":5994,"ĠmIntent":5995,"Ġec":5996,"nss":5997,"prise":5998,"ĠGeneratedMessage":5999,"Ġcookie":6000,"Accept":6001,"Picture":6002,"Wri":6003,"ĠDex":6004,"NING":6005,"ene":6006,"wh":6007,"Upd":6008,"eration":6009,"Distance":6010,"Speed":6011,"Ġcannot":6012,"VersionUID":6013,"ĠgetI":6014,"default":6015,"Ġcontents":6016,"ĠLAY":6017,"oring":6018,"Ġprotocol":6019,"ĠWifiP":6020,"Ġsim":6021,"ĠmActivityRule":6022,"tifiers":6023,"SECOND":6024,"tag":6025,"ITEM":6026,"Previous":6027,"Ġike":6028,"notated":6029,"CRL":6030,"Dimension":6031,"Ġpeer":6032,"ĠinputStream":6033,"Ġ64":6034,"SPEC":6035,"ĠVALUE":6036,"uicc":6037,"Bg":6038,"ational":6039,"ĠExpression":6040,"Exceptions":6041,"Ġchannels":6042,"Ġshutdown":6043,"EEK":6044,"allery":6045,"ĠSpliterator":6046,"ĠinvocationRecord":6047,"ĠTE":6048,"Characteristics":6049,"ĠCreator":6050,"ĠMenuItem":6051,"ĠmCall":6052,"ĠLE":6053,"Allow":6054,"itable":6055,"TIVITY":6056,"Ġsquare":6057,"acer":6058,"Ġ6954":6059,"TestUtils":6060,"ĠassertArrayEquals":6061,"ĠFileNotFoundException":6062,"SQL":6063,"Ġinner":6064,"Until":6065,"Ġyaml":6066,"ĠhandleCommand":6067,"Factor":6068,"ATIC":6069,"rr":6070,"ĠapplicationInfo":6071,"ĠwriteToParcel":6072,"TA":6073,"Ġatom":6074,"anss":6075,"Ġdbg":6076,"HexString":6077,"Ġopenc":6078,"duce":6079,"ĠgetApplicationContext":6080,"Ġbranch":6081,"ĠUP":6082,"DO":6083,"ĠDuration":6084,"LOCATION":6085,"mess":6086,"ONT":6087,"Nano":6088,"Ġman":6089,"fs":6090,"Ġsame":6091,"Conference":6092,"MIT":6093,"Normal":6094,"Form":6095,"Ġsn":6096,"Ġ18":6097,"Ġprojection":6098,"ĠInputMethod":6099,"Autofill":6100,"Loop":6101,"ĠSip":6102,"ĠOs":6103,"ToDouble":6104,"rash":6105,"ĠisS":6106,"ails":6107,"Ġopencensus":6108,"ĠNotificationChannel":6109,"Scheme":6110,"edium":6111,"Keyguard":6112,"ĠmLayout":6113,"active":6114,"ĠmScroll":6115,"Low":6116,"format":6117,"Boot":6118,"CM":6119,"Ġrethrow":6120,"token":6121,"www":6122,"Ġtwo":6123,"Ġ28":6124,"net":6125,"ĠsetColor":6126,"ĠGeneral":6127,"ĠINTEGER":6128,"LUET":6129,"Ġsupports":6130,"OOTH":6131,"LUETOOTH":6132,"Dial":6133,"ĠsetC":6134,"CHANNEL":6135,"amily":6136,"ĠIcon":6137,"urbine":6138,"ĠSU":6139,"verti":6140,"LEVEL":6141,"Ġcarrier":6142,"ĠAUTH":6143,"Manifest":6144,"ae":6145,"icip":6146,"xC":6147,"Ġcs":6148,"Ġcached":6149,"ĠSC":6150,"angle":6151,"Ġauthority":6152,"uplic":6153,"Expect":6154,"Strategy":6155,"HalfHalf":6156,"Ġlower":6157,"ignment":6158,"IOException":6159,"vi":6160,"ĠdefaultValue":6161,"Symbol":6162,"Notifications":6163,"Ġ695":6164,"BuildInfo":6165,"aled":6166,"Identifiers":6167,"Leg":6168,"ĠICU":6169,"Notify":6170,"SITIVE":6171,"Decor":6172,"Translation":6173,"ĠSHORT":6174,"date":6175,"ean":6176,"Ġbattery":6177,"process":6178,"Ġcard":6179,"ĠserialVersionUID":6180,"Ġexisting":6181,"Release":6182,"STANT":6183,"*\"":6184,"ĠsetContentView":6185,"xE":6186,"Ġag":6187,"Ġctx":6188,"ĠALL":6189,"RECEI":6190,"ĠcontentType":6191,"ĠFileUtil":6192,"system":6193,"IGH":6194,"Inner":6195,"Ġ\"#":6196,"Elapsed":6197,"cd":6198,"Restore":6199,"Ġ\"}\"":6200,"Ġwallpaper":6201,"ĠZen":6202,"Uint":6203,"Prepar":6204,"FRAME":6205,"ĠFORMAT":6206,"Bot":6207,"Ġdone":6208,"TM":6209,"Ġchars":6210,"Fil":6211,"NumberOf":6212,"ULTI":6213,"Exponent":6214,"oom":6215,"reens":6216,"ĠnextInt":6217,"Ġdepth":6218,"scan":6219,"PROVIDER":6220,"ĠInstructionConstants":6221,"Ġsymbols":6222,"ĠmDe":6223,"Ġproperties":6224,"SIM":6225,"TS":6226,"ĠITestDevice":6227,"Ġmillis":6228,"Could":6229,"ROLL":6230,"new":6231,"Supplier":6232,"ĠPredicate":6233,"Launcher":6234,"WINDOW":6235,"ĠmPackage":6236,"ĠONE":6237,"ants":6238,"ĠAssertFailedException":6239,"Ġdown":6240,"CREATE":6241,"Definition":6242,"ĠExecution":6243,"SUCCESS":6244,"ĠSelection":6245,"ĠParameters":6246,"ĠisChecked":6247,"ĠUID":6248,"ĠCollector":6249,"ĠUnknown":6250,"ADATA":6251,"Ġbig":6252,"script":6253,"Ġrequested":6254,"ĠmResult":6255,"Ġadjust":6256,"512":6257,"ĠmSelected":6258,"ĠRIL":6259,"LICY":6260,"message":6261,"Ljava":6262,"Activities":6263,"WH":6264,"Preferred":6265,"Accounts":6266,"Join":6267,"Ġtemplate":6268,"ĠgetColor":6269,"ernel":6270,"Ġprinter":6271,"Ġ>>":6272,"Mix":6273,"Tip":6274,"chema":6275,"Lifecycle":6276,"ĠFiles":6277,"Ġslice":6278,"Ġconnected":6279,"ĠGwtCompatible":6280,"Ġdid":6281,"ACTIVE":6282,"?\"":6283,"ĠvalueAt":6284,"ABEL":6285,"Remaining":6286,"ARCH":6287,"Ġim":6288,"Partial":6289,"ĠTransform":6290,"FILTER":6291,"ENTATION":6292,"Ġbucket":6293,"Role":6294,"tc":6295,"Break":6296,"umb":6297,"Photo":6298,"Typed":6299,"Crypto":6300,"Ġnamespace":6301,"ĠmScreen":6302,"istog":6303,"peg":6304,"scii":6305,"Ġbackground":6306,"BOSE":6307,"gnored":6308,"ĠmType":6309,"Sw":6310,"Ġcould":6311,"ĠConsumer":6312,"Networks":6313,"ĠAdapter":6314,"Ġparts":6315,"ĠDOMTest":6316,"etime":6317,"ĠClassLoader":6318,"oose":6319,"ByName":6320,"Ġsensor":6321,"ĠBluetoothAdapter":6322,"alle":6323,"TITLE":6324,"ĠGravity":6325,"Paths":6326,"ĠNumberFormatException":6327,"ervlet":6328,"DataSet":6329,"Ġai":6330,"checked":6331,"lusive":6332,"Missing":6333,"ĠPass":6334,"Radius":6335,"ClassAnd":6336,"Manage":6337,"ĠGeneratedMessageV":6338,"ARI":6339,"elet":6340,"ysical":6341,"Ġfocus":6342,"Ġinjector":6343,"Ġhelper":6344,"cum":6345,"Statement":6346,"Dist":6347,"Ġbb":6348,"Ġoverride":6349,"Ġjar":6350,"Navigation":6351,"Schedule":6352,"VP":6353,"hand":6354,"level":6355,"1111":6356,"call":6357,"ĠListen":6358,"xB":6359,"ĠmRemote":6360,"Json":6361,"ĠDH":6362,"Least":6363,"INTENT":6364,"frame":6365,"Ġrpc":6366,"Encodable":6367,"ARGET":6368,"mitted":6369,"PROVISION":6370,"ĠgetDimension":6371,"gable":6372,"sIn":6373,"CES":6374,"SOURCE":6375,"ĠRequires":6376,"unused":6377,"ĠgetAbsolutePath":6378,"Ġchecked":6379,"Ġ29":6380,"ĠDecimal":6381,"cm":6382,"Ġ123":6383,"Zen":6384,"Ġarr":6385,"ĠresId":6386,"DeviceInfo":6387,"etrics":6388,"Ġ'\"":6389,"cn":6390,"req":6391,"Ġ101":6392,"Ptr":6393,"xx":6394,"Instrumentation":6395,"roke":6396,"Syntax":6397,"ĠIndexOutOfBoundsException":6398,"ulation":6399,"SocketAddress":6400,"Ġcomparator":6401,"ĠGR":6402,"IgnoreCase":6403,"ORDER":6404,"Automation":6405,"Relaxed":6406,"ĠNE":6407,"ĠIntDef":6408,"Ġcr":6409,"DEFINED":6410,"Principal":6411,"Ġinteger":6412,"ĠZERO":6413,"Ġextract":6414,"ClassAndNumber":6415,"Fraction":6416,"Ġexit":6417,"istogram":6418,"cts":6419,"ĠexecuteShellCommand":6420,"ĠfromClassAndNumber":6421,"Ring":6422,"ĠgetUn":6423,"GRANT":6424,"ALLOWED":6425,"voked":6426,"arable":6427,"ByteBuffer":6428,"Unable":6429,"CBC":6430,"allel":6431,"ffic":6432,"ĠNOTIFICATION":6433,"ĠMatch":6434,"Ġonly":6435,"Showing":6436,"Member":6437,"ĠInvalidKeyException":6438,"DialogFragment":6439,"ĠWINDOW":6440,"12345678":6441,"Ġchildren":6442,"static":6443,"DOM":6444,"ĠmPreview":6445,"Ġgen":6446,"ĠassertWith":6447,"Persist":6448,"Verification":6449,"Ike":6450,"lone":6451,"ĠelapsedRealtime":6452,"stim":6453,"ĠParameterized":6454,"ĠCLASS":6455,"ĠProgram":6456,"Ġgot":6457,"Ġhour":6458,"Filters":6459,"Ġoid":6460,"ollback":6461,"ĠSim":6462,"ood":6463,"CONNECTION":6464,"aj":6465,"xis":6466,"safe":6467,"Secondary":6468,"FINITY":6469,"hcp":6470,"Ġdismiss":6471,"ĠNavigable":6472,"ĠaddAction":6473,"Legacy":6474,"ĠmPackageName":6475,"Invoke":6476,"ĠControl":6477,"DISABLED":6478,"ĠCompletableFuture":6479,"SM":6480,"bytes":6481,"Ġam":6482,"loor":6483,"Ġunmodifiable":6484,"ĠtypeSolver":6485,"Replace":6486,"BASE":6487,"ĠmContentResolver":6488,"Dot":6489,"ServiceInfo":6490,"TERNAL":6491,"Ġanimator":6492,"Jar":6493,"ĠprintStackTrace":6494,"Executable":6495,"Warning":6496,"ota":6497,"Modified":6498,"opped":6499,"ĠisNotNull":6500,"Ġmeta":6501,"ĠencodePerUnaligned":6502,"going":6503,"ĠGroup":6504,"ĠRecyclerView":6505,"ĠencodePerAligned":6506,"ĠOFF":6507,"Ġclassfile":6508,"ĠAccessibilityNodeInfo":6509,"ĠGeneric":6510,"Channels":6511,"Confirm":6512,"Ġcenter":6513,"ĠMIME":6514,"oned":6515,"lain":6516,"ĠmTemp":6517,"Bl":6518,"agnost":6519,"Ġverifier":6520,"Sent":6521,"local":6522,"Ġhal":6523,"DateFormat":6524,"ĠgetStatus":6525,"Ġreq":6526,"ĠgetSource":6527,"IFIED":6528,"Explicitly":6529,"ĠInvalidProtocol":6530,"google":6531,"Ġjd":6532,"Ġcalendar":6533,"gra":6534,"Ġcompilation":6535,"Ġresolved":6536,"Voicemail":6537,"Ġcomment":6538,"gener":6539,"ĠfromPer":6540,"Secure":6541,"ssi":6542,"ĠJSONArray":6543,"ĠPARSER":6544,"CAST":6545,"Ġcf":6546,"AAA":6547,"Ġcurve":6548,"ĠunknownFields":6549,"ĠREAD":6550,"ENDED":6551,"ĠmUserManager":6552,"ĠAp":6553,"INK":6554,"Formats":6555,"Quality":6556,"HashCode":6557,"ION":6558,"tone":6559,"SIGNED":6560,"TED":6561,"Ġdirection":6562,"Ġsorted":6563,"Ġlines":6564,"Ġdownload":6565,"Ġdexlib":6566,"Alert":6567,"Ġmethods":6568,"AMERA":6569,"ĠINT":6570,"Headset":6571,"ĠCONTROL":6572,"tract":6573,"idl":6574,"ĠSIGN":6575,"ĠmLocal":6576,"SystemServer":6577,"ĠCREATOR":6578,"ĠCommandHandler":6579,"ceptor":6580,"Dataset":6581,"ilver":6582,"firm":6583,"ĠsetField":6584,"ĠTABLE":6585,"tten":6586,"tection":6587,"abilities":6588,"scrypt":6589,"ĠDatabase":6590,"Shader":6591,"ĠTransition":6592,"ĠResponse":6593,"Skip":6594,"example":6595,"ĠSYS":6596,"29553":6597,"Rows":6598,"BLOCK":6599,"ooser":6600,"ĠresultCode":6601,"Ġanimate":6602,"ĠonChanged":6603,"Ġreps":6604,"Ġ1707":6605,"ĠInvocationRecord":6606,"Ġdt":6607,"SubId":6608,"ĠgetCause":6609,"ĠgetNetwork":6610,"Transformation":6611,"Ġ170729553":6612,"ĠHE":6613,"ĠCONFIG":6614,"Ġaccounts":6615,"Gran":6616,"ĠElementType":6617,"ĠemptyList":6618,"Ġpair":6619,"ĠNat":6620,"component":6621,"Ġrequired":6622,"image":6623,"FFFFFFFF":6624,"Total":6625,"ĠmMin":6626,"Ġtransaction":6627,"ĠLocalDate":6628,"Ġ1234":6629,"state":6630,"Ġ\"=":6631,"Ġbroadcast":6632,"ĠINDEX":6633,"NA":6634,"ĠPH":6635,"ĠStatic":6636,"Ġchecker":6637,"chronizer":6638,"ENTI":6639,"Ġclick":6640,"ĠFail":6641,"Restriction":6642,"Uris":6643,"ĠgetEncoded":6644,"DIRECT":6645,"Fi":6646,"Ġvariable":6647,"ĠaddView":6648,"Ġplayer":6649,"ĠforClass":6650,"ĠOutput":6651,"Ġalready":6652,"PORTS":6653,"INFINITY":6654,"Hi":6655,"SdkVersion":6656,"UAL":6657,"ĠgetDrawable":6658,"Components":6659,"ĠcountDown":6660,"ĠonReceive":6661,"Ġans":6662,"CANCE":6663,"ĠgetError":6664,"Extensions":6665,"Ġtool":6666,"ĠFast":6667,"Ġpage":6668,"_\"":6669,"STREAM":6670,"CA":6671,"Ġoperation":6672,"uge":6673,"ĠScanResult":6674,"ListView":6675,"ĠmRequest":6676,"ĠremoveAll":6677,"ĠConstructor":6678,"sheet":6679,"ĠmSystem":6680,"SESSION":6681,"show":6682,"Ġns":6683,"Ġexpand":6684,"OLUME":6685,"ĠInvalidProtocolBufferException":6686,"ITCH":6687,"ĠgetApp":6688,"yy":6689,"ĠPKCS":6690,"Zip":6691,"Matches":6692,"ĠmNative":6693,"ĠmParent":6694,"uring":6695,"ection":6696,"Ġassume":6697,"Collector":6698,"Reporter":6699,"ĠftpClient":6700,"Rout":6701,"Ġ(\"":6702,"Instant":6703,"erson":6704,"rossProfile":6705,"Predicate":6706,"Ġouter":6707,"ĠExpected":6708,"ĠCMD":6709,"ĠmLooper":6710,"ĠgetChildAt":6711,"Platform":6712,"Ġreceived":6713,"ĠPart":6714,"Retry":6715,"button":6716,"ĠnewArrayList":6717,"ĠputAll":6718,"Indexable":6719,"ĠmTelephonyManager":6720,"Ġadaptor":6721,"PI":6722,"KeySet":6723,"MONTH":6724,"radient":6725,"Ġwearable":6726,"reenshot":6727,"ĠPersistableBundle":6728,"ru":6729,"orded":6730,"ĠBufferedReader":6731,"ursive":6732,"ĠSpannable":6733,"Ġ\".\"":6734,"ĠgetObject":6735,"ĠonDestroy":6736,"ĠVERBOSE":6737,"Interactions":6738,"Since":6739,"sence":6740,"gregation":6741,"DN":6742,"PrivateKey":6743,"ĠCaptureRequest":6744,"Creation":6745,"ĠsetChecked":6746,"Center":6747,"txt":6748,"Ġopcode":6749,"retKey":6750,"Updater":6751,"LAS":6752,"ĠsetVisible":6753,"IntArray":6754,"Ġ36":6755,"Ġopcodes":6756,"Ġ&=":6757,"IfNeeded":6758,"IMAGE":6759,"ĠVariable":6760,"DIR":6761,"Binary":6762,"Scheduler":6763,"ĠTestDescription":6764,"ĠPowerManager":6765,"ĠRO":6766,"Super":6767,"ĠMED":6768,"ĠSettingsEnums":6769,"Watcher":6770,"LICATION":6771,"ĠMeasureSpec":6772,"Begin":6773,"dog":6774,"InputMethod":6775,"ĠgetMin":6776,"Whitelist":6777,"ĠParser":6778,"ĠYEAR":6779,"LIMIT":6780,"ĠPKG":6781,"Ġca":6782,"Ġattach":6783,"ĠSAXException":6784,"ĠgetLog":6785,"ĠAdd":6786,"ORAGE":6787,"ĠequalsIgnoreCase":6788,"enders":6789,"Modes":6790,"ObjectIdentifiers":6791,"Ġcomplete":6792,"Ġformatter":6793,"bc":6794,"Ġfix":6795,"overable":6796,"YEAR":6797,"true":6798,"ĠtoHexString":6799,"Ġregex":6800,"Ġcommit":6801,"Always":6802,"ildcard":6803,"rity":6804,"XML":6805,"ĠmSt":6806,"ĠgetResource":6807,"ges":6808,"ote":6809,"ĠCst":6810,"Ġlatch":6811,"ĠWidget":6812,"Shift":6813,"OPTION":6814,"Illegal":6815,"Provision":6816,"ĠmRoot":6817,"ĠcreateFromParcel":6818,"ario":6819,"ĠMedium":6820,"TLS":6821,"Ġcalculate":6822,"ADDR":6823,"ATTERN":6824,"ctet":6825,"ĠSync":6826,"Ġconcat":6827,"EventListener":6828,"ĠSQLiteDatabase":6829,"invalid":6830,"Ġvar":6831,"ĠScheduled":6832,"ĠBY":6833,"ĠisLog":6834,"Emergency":6835,"LEG":6836,"AMETER":6837,"ĠZoneOffset":6838,"ĠmAction":6839,"Ġsingle":6840,"rase":6841,"ĠcomponentName":6842,"orld":6843,"Ġegl":6844,"ĠmSubscription":6845,"alc":6846,"Ġserializer":6847,"='":6848,"Unsupported":6849,"Struct":6850,"Cpu":6851,"enario":6852,"Negative":6853,"ĠIMPORT":6854,"Ġ2000":6855,"ĠdispatchAll":6856,"avi":6857,"Choice":6858,"Keep":6859,"Require":6860,"ĠRectF":6861,"ĠMediumTest":6862,"ĠCollectionFeature":6863,"ĠgetColumnIndex":6864,"Ġsy":6865,"ĠSharedPreferences":6866,"Thumbnail":6867,"WAIT":6868,"ĠStack":6869,"Ġcurr":6870,"ĠHdmi":6871,"pendencies":6872,"len":6873,"ĠCallable":6874,"Ġoptional":6875,"LEFT":6876,"ĠgetFirst":6877,"ĠBackup":6878,"ĠmTime":6879,"Ġtail":6880,"ĠSCRE":6881,"Tracking":6882,"STRUCTION":6883,"ĠSCREEN":6884,"Ġrepeated":6885,"Ġextractor":6886,"ĠanyLong":6887,"ĠscriptRelaxed":6888,"tition":6889,"MEDIA":6890,"served":6891,"ĠRegion":6892,"Clicked":6893,"Classifier":6894,"grade":6895,"Ġplus":6896,"ĠCoded":6897,"Put":6898,"cript":6899,"Hardware":6900,"ĠER":6901,"Ġproguard":6902,"Ġrotation":6903,"ĠverifyNo":6904,"STOP":6905,"FromSystemServer":6906,"Ġacquire":6907,"Ġunlock":6908,"grpc":6909,"Sender":6910,"Ġbad":6911,"oog":6912,"Ġclasses":6913,"ĠEAP":6914,"error":6915,"loader":6916,"ĠProxy":6917,"ĠRawContacts":6918,"param":6919,"ou":6920,"Ġexplicit":6921,"ĠDOMTestCase":6922,"ĠrethrowFromSystemServer":6923,"Colors":6924,"DocumentBuilderFactory":6925,"dle":6926,"ANSS":6927,"Attemp":6928,"Safe":6929,"Changes":6930,"ĠConnectivityManager":6931,"scriber":6932,"Ġeditor":6933,"mented":6934,"ĠmMessage":6935,"olve":6936,"ĠAND":6937,"ĠCondition":6938,"INGLE":6939,"avai":6940,"filter":6941,"Configs":6942,"ĠisAvailable":6943,"Ġmonitor":6944,"=%":6945,"ict":6946,"ĠTestSuite":6947,"inc":6948,"ĠLENGTH":6949,"ĠfieldId":6950,"Constraints":6951,"Ġ}\"":6952,"rit":6953,"Ġremoved":6954,"Ġopt":6955,"Ġdev":6956,"ĠCollectionSize":6957,"QUIRE":6958,"ĠSYSZ":6959,"Installer":6960,"Ġdisconnect":6961,"ĠmBackground":6962,"ĠUUID":6963,"OfWeek":6964,"Ġinclude":6965,"Loading":6966,"Positive":6967,"een":6968,"ĠgetInteger":6969,"ĠClazz":6970,"xA":6971,"ĠAtomicInteger":6972,"Ġdestination":6973,"ĠselectionArgs":6974,"RESTRI":6975,"Buffers":6976,"Sort":6977,"eded":6978,"xRestrictions":6979,"Strong":6980,"Than":6981,"ĠUNKNOWN":6982,"LL":6983,"hel":6984,"etter":6985,"ĠtextView":6986,"ANGE":6987,"ĠgetRaw":6988,"ĠNameNotFoundException":6989,"HER":6990,"Ġproc":6991,"Disable":6992,"vides":6993,"ALITY":6994,"ĠCompilation":6995,"write":6996,"ases":6997,"ĠgetX":6998,"Free":6999,"Ġba":7000,"Ġav":7001,"ĠARG":7002,"NORMAL":7003,"Spinner":7004,"ReplyCode":7005,"ĠSA":7006,"ĠInsets":7007,"VISIBLE":7008,"LOB":7009,"sUp":7010,"ientation":7011,"ĠgetStart":7012,"sired":7013,"Ġtm":7014,"Completion":7015,"ĠbyteBuffer":7016,"Ġdescribe":7017,"ĠDirectory":7018,"ĠsetMax":7019,"silver":7020,"ĠProtoOutputStream":7021,"Toggle":7022,"Ġbest":7023,"ĠwriteString":7024,"Cancelled":7025,"ĠNodeList":7026,"ĠisLoggable":7027,"delta":7028,"create":7029,"ĠreadString":7030,"ĠContentProvider":7031,"ĠCommonTree":7032,"OWN":7033,"Ġusing":7034,"ĠgetCom":7035,"available":7036,"Tap":7037,"Ġids":7038,"ĠdoTest":7039,"Ġ26":7040,"ĠPort":7041,"ĠmTask":7042,"ĠHost":7043,"ĠkeyCode":7044,"PTION":7045,"resentation":7046,"Focused":7047,"Ġwrapped":7048,"Ġkeep":7049,"enderscript":7050,"ĠClick":7051,"ressor":7052,"ĠConst":7053,"Ġperm":7054,"ĠRecentlyNullable":7055,"ĠgetNotification":7056,"ĠNetworkCapabilities":7057,"ĠtestHandle":7058,"HashSet":7059,"ĠCarrierConfigManager":7060,"ĠUsage":7061,"101":7062,"CHECK":7063,"zone":7064,"Include":7065,"POLICY":7066,"RESPONSE":7067,"ĠmIms":7068,"Ġpred":7069,"ĠgetSerial":7070,"Privile":7071,"Ġalt":7072,"ĠandReturn":7073,"Worker":7074,"Requests":7075,"FragmentManager":7076,"ĠTrack":7077,"Ġretrie":7078,"Sta":7079,"ĠVms":7080,"Prep":7081,"Bubble":7082,"ĠmU":7083,"utout":7084,"Alive":7085,"Share":7086,"amc":7087,"Ġcls":7088,"ĠListenableFuture":7089,"Live":7090,"Operator":7091,"Ġpopulate":7092,"Ġrhs":7093,"ĠcodePoint":7094,"ĠSdk":7095,"Ġdat":7096,"ĠinitMocks":7097,"Ġbool":7098,"Ġshift":7099,"Expandable":7100,"Ġrenderscript":7101,"MR":7102,"Helpers":7103,"ExplicitlySet":7104,"LA":7105,"ĠmResources":7106,"ĠSERVICE":7107,"ĠrunTest":7108,"ĠgetPri":7109,"ĠsetImage":7110,"enger":7111,"avior":7112,"ading":7113,"ĠrequestCode":7114,"ĠdefStyleAttr":7115,"wp":7116,"ategor":7117,"ListAdapter":7118,"pda":7119,"ĠActivityInfo":7120,"ening":7121,"Presenter":7122,"quivalent":7123,"ĠgetAddress":7124,"ka":7125,"less":7126,"ĠmHelper":7127,"ĠSpan":7128,"ĠPdu":7129,"ĠPreferenceScreen":7130,"dot":7131,"ĠPublicKey":7132,"Ġ256":7133,"Ġkeyboard":7134,"Restricted":7135,"ĠTreeMap":7136,"side":7137,"Alt":7138,"HANDLE":7139,"Beh":7140,"group":7141,"ĠanyObject":7142,"CLE":7143,"ĠSIP":7144,"ĠmLauncher":7145,"ajor":7146,"Ġoc":7147,"ĠgetPhone":7148,"ĠcheckState":7149,"ĠINTER":7150,"xture":7151,"ĠmBattery":7152,"Ġshadows":7153,"CLIENT":7154,"IZED":7155,"OS":7156,"ENTER":7157,"Ġtheme":7158,"ĠcopyFrom":7159,"ĠDISPLAY":7160,"atic":7161,"ĠMONTH":7162,"ĠisExplicitlySet":7163,"Ġseparator":7164,"PASSWORD":7165,"ilt":7166,"Ġlow":7167,"Amount":7168,"Ġscope":7169,"ĠmColor":7170,"GH":7171,"ĠPlayback":7172,"regor":7173,"regorian":7174,"Ep":7175,"POWER":7176,"Stage":7177,"ĠgetColumnPos":7178,"ĠOpcode":7179,"Ġpackages":7180,"utes":7181,"Usb":7182,"PARENT":7183,"Cached":7184,"Commands":7185,"EXP":7186,"uple":7187,"ernal":7188,"ĠECFieldElement":7189,"Ġsubscription":7190,"Ġsubtype":7191,"ĠCHAR":7192,"ĠmHost":7193,"Ġequal":7194,"anking":7195,"Ġdimen":7196,"THRE":7197,"ĠStrict":7198,"ĠDescriptors":7199,"Pager":7200,"orary":7201,"ĠEditText":7202,"stanti":7203,"ĠMaps":7204,"ĠmDatabase":7205,"ĠmethodName":7206,"DOC":7207,"apk":7208,"ĠactivityInfo":7209,"ircle":7210,"AccessException":7211,"Discovery":7212,"Fd":7213,"StateListener":7214,"ĠUserId":7215,"Backend":7216,"FEATURE":7217,"Doc":7218,"umented":7219,"ENAME":7220,"Ne":7221,"ItemSelected":7222,"Ġencoder":7223,"parent":7224,"Cec":7225,"ĠgetConfig":7226,"och":7227,"ISTER":7228,"Ġanswer":7229,"Req":7230,"Ġselector":7231,"TestUtil":7232,"ĠgetHost":7233,"ĠTypeToken":7234,"ĠcallingPackage":7235,"ĠmGroup":7236,"TimeUs":7237,"Ġsignal":7238,"tree":7239,"à¤":7240,"Thro":7241,"Ġ37":7242,"Ġedit":7243,"Virtual":7244,"Ġevalu":7245,"Counts":7246,"AndGet":7247,"Threads":7248,"Endpoint":7249,"Locales":7250,"framework":7251,"Ġwarn":7252,"ĠNullableDecl":7253,"Bal":7254,"LEN":7255,"Plan":7256,"ĠnewState":7257,"Esc":7258,"ĠTimeout":7259,"ALI":7260,"Ġdirect":7261,"ĠmShow":7262,"Ġsa":7263,"Inte":7264,"BYTE":7265,"Chip":7266,"Ġchrono":7267,"Seq":7268,"Numbers":7269,"ĠCOLOR":7270,"anonical":7271,"ĠaddListener":7272,"Av":7273,"BB":7274,"ĠshadowOf":7275,"Using":7276,"ĠStyle":7277,"ĠExecutable":7278,"label":7279,"ĠVolume":7280,"Inset":7281,"ĠmCached":7282,"Ġsuggestion":7283,"ĠclearCallingIdentity":7284,"Ġlooper":7285,"Ġruntime":7286,"Exists":7287,"Cookie":7288,"Ġms":7289,"Coverage":7290,"bum":7291,"ĠLOCAL":7292,"lli":7293,"Ġred":7294,"ĠgetMain":7295,"aged":7296,"ĠChecked":7297,"Ġnote":7298,"ĠCellInfo":7299,"ĠVar":7300,"rees":7301,"REMO":7302,"SERVER":7303,"Ġgenerator":7304,"CURRENT":7305,"ived":7306,"Ġ33":7307,"Hide":7308,"ĠgetEntry":7309,"ĠFR":7310,"bps":7311,"ĠmTitle":7312,"ĠgetEvent":7313,"ReportMessage":7314,"xer":7315,"otate":7316,"Ġthr":7317,"ListItem":7318,"Structured":7319,"atable":7320,"Ġmc":7321,"Ġpool":7322,"Preparer":7323,"ĠRequiresPermission":7324,"Cmd":7325,"Ġinsets":7326,"grity":7327,"Ġvm":7328,"Ġupdated":7329,"uplicate":7330,"ĠgetParameters":7331,"ĠAV":7332,"Ġerrors":7333,"INGER":7334,"ĠmProfile":7335,"FD":7336,"Ġ\"{":7337,"esNot":7338,"Mixin":7339,"Ġlayer":7340,"ifiedName":7341,"HIGH":7342,"Ġjpda":7343,"ĠpackageInfo":7344,"##":7345,"ENSOR":7346,"ĠCollectors":7347,"Ġut":7348,"ĠMac":7349,"ENSION":7350,"ĠmButton":7351,"ĠmBitmap":7352,"ĠmProvider":7353,"cep":7354,"ĠDIRE":7355,"UNSET":7356,"SCAN":7357,"iddle":7358,"ĠTestClass":7359,"Round":7360,"Ġvector":7361,"istor":7362,"Ġzero":7363,"SharedPreferences":7364,"Ġorientation":7365,"Queued":7366,"Ġdescending":7367,"ISH":7368,"Ġcapacity":7369,"StatsLog":7370,"Ġprefs":7371,"ĠSmali":7372,"Transfer":7373,"pad":7374,"PECTED":7375,"SessionId":7376,"float":7377,"STORAGE":7378,"cert":7379,"ĠfindPreference":7380,"Ġ35":7381,"ĠRegister":7382,"ĠHead":7383,"Vi":7384,"ĠgetTitle":7385,"ĠMidi":7386,"Ġdomain":7387,"sui":7388,"ving":7389,"HEIGHT":7390,"atest":7391,"Ġ48":7392,"ERIC":7393,"Ġcompatibility":7394,"Percent":7395,"Measurement":7396,"alt":7397,"ĠrestoreCallingIdentity":7398,"Invocations":7399,"ĠJsonRpc":7400,"ĠappInfo":7401,"ComponentName":7402,"ĠsetSummary":7403,"tern":7404,"aff":7405,"ĠExtended":7406,"Ġhome":7407,"URITY":7408,"Edit":7409,"Ġoverlay":7410,"Ġdistance":7411,"Ġscheme":7412,"ĠDynamic":7413,"Ġcolumns":7414,"BOOT":7415,"ĠmOut":7416,"ĠforName":7417,"CII":7418,"ĠBinding":7419,"ICON":7420,"IndexOf":7421,"Ġ80":7422,"ĠClassNotFoundException":7423,"SUBSCRIPTION":7424,"LowerCase":7425,"COM":7426,"ĠgetY":7427,"ĠREPLY":7428,"Prefs":7429,"Brightness":7430,"LD":7431,"limit":7432,"ĠisA":7433,"Controls":7434,"ĠEnvironment":7435,"ĠOffset":7436,"Light":7437,"ĠByteOrder":7438,"ĠOb":7439,"ĠmMockListener":7440,"ĠCHANNEL":7441,"Drop":7442,"ĠmInstrumentation":7443,"KEN":7444,"hing":7445,"ĠmWm":7446,"Ġmanaged":7447,"Ġ27":7448,"spot":7449,"Ġdisabled":7450,"Ġuptime":7451,"ĠEditor":7452,"INTERVAL":7453,"ExecutorService":7454,"SED":7455,"ĠmTag":7456,"Hello":7457,"PARATOR":7458,"Programs":7459,"Ġtouch":7460,"Ġmember":7461,"ĠmergeFrom":7462,"ollow":7463,"Ġgrammar":7464,"Ġadvance":7465,"ĠPolicy":7466,"GATIVE":7467,"ĠComparable":7468,"VOICE":7469,"CRYPT":7470,"input":7471,"Disconnected":7472,"ĠSEC":7473,"PHA":7474,"ĠInstant":7475,"Ġresolution":7476,"Tint":7477,"ERY":7478,"Ġrunnable":7479,"ĠmUid":7480,"ĠConversation":7481,"ĠDecimalFormat":7482,"Ġstep":7483,"ategories":7484,"ĠBidi":7485,"ĠInstall":7486,"leted":7487,"Quota":7488,"NotSupported":7489,"ĠReturn":7490,"AsString":7491,"TRIBU":7492,"MAC":7493,"media":7494,"ATTER":7495,"CTOR":7496,"...\"":7497,"ĠgetChildCount":7498,"Weight":7499,"Ġ116":7500,"EditText":7501,"ĠreplyText":7502,"TIC":7503,"TOP":7504,"ĠmReceiver":7505,"Serializer":7506,"ĠSTREAM":7507,"azy":7508,"double":7509,"Authentication":7510,"ritical":7511,"Relative":7512,"ToInt":7513,"Toast":7514,"MediaSource":7515,"INITIAL":7516,"Ġdocumentsui":7517,"ARK":7518,"Wrong":7519,"ĠsetType":7520,"ĠcreateTemp":7521,"Ġpermissions":7522,"Mgr":7523,"Ġmh":7524,"Ġdecl":7525,"ĠgetDefaultInstance":7526,"OID":7527,"ĠmBase":7528,"ĠerrorCode":7529,"Ġiv":7530,"Ġexpr":7531,"Ġ\"]":7532,"unnel":7533,"CODING":7534,"ĠinternalIndent":7535,"MISS":7536,"CESSIBILITY":7537,"800":7538,"Gatt":7539,"Ġstrings":7540,"los":7541,"ĠWallpaper":7542,"ĠassertWithMessage":7543,"FROM":7544,"ĠMms":7545,"ĠcreateRandom":7546,"ĠwaitForIdle":7547,"Ġdensity":7548,"Ġtexture":7549,"DSA":7550,"ACHE":7551,"SMS":7552,"ASCII":7553,"ĠBitmapFactory":7554,"Comb":7555,"Ġpower":7556,"Brow":7557,"command":7558,"ĠsetMessage":7559,"ĠKeyguard":7560,"Ġmime":7561,"Ġssid":7562,"ĠSingle":7563,"Ġsymbolsolver":7564,"Batch":7565,"acoc":7566,"Disconnect":7567,"MULTI":7568,"Updates":7569,"Ġ\"</":7570,"CUT":7571,"Ġgallery":7572,"ParameterException":7573,"DA":7574,"ĠmBuffer":7575,"Blocked":7576,"Ġ\":\"":7577,"LAYOUT":7578,"ysis":7579,"holder":7580,"ĠnewArray":7581,"avor":7582,"ĠTRANSP":7583,"alleng":7584,"Occ":7585,"Trie":7586,"ĠtestV":7587,"ĠExifInterface":7588,"ĠcouldBe":7589,"ronology":7590,"EXTRA":7591,"Ġtile":7592,"Specifier":7593,"ĠgetLine":7594,"ĠTelecom":7595,"status":7596,"acoco":7597,"POINT":7598,"ĠbitField":7599,"rgan":7600,"ĠgetPadding":7601,"ĠChild":7602,"DF":7603,"mLock":7604,"FY":7605,"Tech":7606,"Ġlhs":7607,"cer":7608,"ĠdoThrow":7609,"ĠPrivateKey":7610,"API":7611,"Ġasset":7612,"array":7613,"ĠgetCallingUid":7614,"InfoList":7615,"BlockingQueue":7616,"stimate":7617,"ĠoutputStream":7618,"ĠServiceState":7619,"Vertical":7620,"CAPABILITY":7621,"2001":7622,"GF":7623,"ĠcallId":7624,"ĠDebug":7625,"CONTROL":7626,"ĠMEDIA":7627,"Loc":7628,"SK":7629,"Ġco":7630,"TestActivity":7631,"Zones":7632,"Ġpdu":7633,"ĠgetVisibility":7634,"ĠAssertions":7635,"LEAN":7636,"ashboard":7637,"3333":7638,"Samples":7639,"Ġplayback":7640,"ĠDer":7641,"STAMP":7642,"ĠPHONE":7643,"ĠAsset":7644,"ĠconvertFloat":7645,"AndSet":7646,"Ġpointer":7647,"READY":7648,"ĠmListView":7649,"ĠSHOW":7650,"TRANS":7651,"234":7652,"ĠACTIVITY":7653,"ĠLinkedHashMap":7654,"ACCESS":7655,"ĠOVER":7656,"ĠmTmp":7657,"Roaming":7658,"Ġnormalize":7659,"ĠgetDescriptor":7660,"Ġnodes":7661,"ĠTreeSet":7662,"tex":7663,"ĠARRAY":7664,"ĠsetName":7665,"ĠshouldThrow":7666,"ĠSMS":7667,"chronous":7668,"Ġglobal":7669,"Ġapps":7670,"ĠAlarm":7671,"arse":7672,"ĠVerify":7673,"zip":7674,"Numeric":7675,"Fake":7676,"aint":7677,"cest":7678,"IDLE":7679,"ĠMessages":7680,"Ġdist":7681,"ĠOptions":7682,"ĠSeek":7683,"ĠEvents":7684,"ĠReferenceType":7685,"Tel":7686,"Increment":7687,"ĠCertificateException":7688,"RATE":7689,"ĠaddTest":7690,"Encrypted":7691,"ĠTrust":7692,"Dictionary":7693,"Ġcn":7694,"ĠBi":7695,"TestRule":7696,"ĠREASON":7697,"::":7698,"ĠApn":7699,"ĠRoot":7700,"ĠtestHandleCommand":7701,"ĠAr":7702,"pectRatio":7703,"ĠgetIndex":7704,"ĠOp":7705,"ĠgetUri":7706,"ĠDialer":7707,"Ġsecondary":7708,"ManagerInternal":7709,"ĠProperties":7710,"ores":7711,"321":7712,"Ġseed":7713,"ĠMediaStore":7714,"Suites":7715,"ĠgetPosition":7716,"Ġpk":7717,"ĠassertThrows":7718,"ĠmCap":7719,"PRIMARY":7720,"ĠmTextView":7721,"etween":7722,"Addresses":7723,"IMATION":7724,"Creator":7725,"Management":7726,"Ġsetting":7727,"ĠTypedValue":7728,"Ġder":7729,"Ġtrust":7730,"Ġspliterator":7731,"aaaa":7732,"ĠMETADATA":7733,"rain":7734,"ĠsetNext":7735,"Ġsl":7736,"arsh":7737,"ĠsetIs":7738,"Enterprise":7739,"Suffix":7740,"Meter":7741,"access":7742,"addr":7743,"UnderTest":7744,"DIALOG":7745,"Ġfree":7746,"ĠgetOffset":7747,"ĠEnumeration":7748,"ĠsetProperty":7749,"STATS":7750,"ĠPhoneAccountHandle":7751,"617":7752,"RAD":7753,"Ġmore":7754,"ĠgetCall":7755,"ga":7756,"ĠgetUserId":7757,"ALE":7758,"ĠWatch":7759,"ĠRecord":7760,"ĠExtensionRegistry":7761,"GO":7762,"tie":7763,"RECOR":7764,"ĠSETTING":7765,"Vendor":7766,"Ġlogd":7767,"ĠSTRING":7768,"ĠCertPath":7769,"ĠgetSp":7770,"Ġband":7771,"ĠCATE":7772,"ĠVersion":7773,"ĠgetTotal":7774,"Horizontal":7775,"Ġgrant":7776,"ĠTypedArray":7777,"Candidate":7778,"Ns":7779,"ĠmInfo":7780,"Ġproviders":7781,"ĠmInjector":7782,"ĠSECOND":7783,"BUTTON":7784,"ORI":7785,"REMOVE":7786,"ĠHTTP":7787,"USE":7788,"ĠcurrentThread":7789,"INTERN":7790,"Sound":7791,"Ġphoto":7792,"ĠSome":7793,"fin":7794,"td":7795,"SIVE":7796,"ROAD":7797,"SHOLD":7798,"ĠSUCCESS":7799,"Ġconversation":7800,"Ġwri":7801,"ĠonView":7802,"ĠTimestamp":7803,"RECEIVER":7804,"Ġnamed":7805,"ĠParsed":7806,"ĠSecureRandom":7807,"ĠWeakReference":7808,"Ġpixel":7809,"ALF":7810,"Sessions":7811,"ĠSearchIndexable":7812,"SPECIFIED":7813,"allenge":7814,"ĠgetSize":7815,"RAP":7816,"celer":7817,"Ġtrigger":7818,"Ġvoicemail":7819,"oblab":7820,"Den":7821,"Ġproduc":7822,"ĠRelative":7823,"ĠNamed":7824,"ifetime":7825,"LOCKED":7826,"Death":7827,"ĠexecSQL":7828,"Signing":7829,"moval":7830,"ĠmCan":7831,"Cla":7832,"ominator":7833,"ĠonActivity":7834,"ral":7835,"Notifier":7836,"ĠSHA":7837,"SeekBar":7838,"Ġactions":7839,"PROPERTY":7840,"iff":7841,"nc":7842,"ĠgetParcelable":7843,"check":7844,"Ġsms":7845,"Sq":7846,"ĠLoad":7847,"ĠPRIVATE":7848,"earance":7849,"Basic":7850,"ĠonPause":7851,"gration":7852,"erence":7853,"Ġsetter":7854,"FACT":7855,"UBLIC":7856,"agnostic":7857,"Ġdc":7858,"Ġenqueue":7859,"ĠgetCanonical":7860,"ĠFILE":7861,"icon":7862,"ĠFont":7863,"Authority":7864,"ĠmTouch":7865,"Ġ105":7866,"ĠDOMTestDocumentBuilderFactory":7867,"ĠgetConnection":7868,"ĠDeviceConfig":7869,"SignalStrength":7870,"Face":7871,"PA":7872,"ĠonBind":7873,"Ġ68":7874,"Tokens":7875,"ĠHex":7876,"ĠCALLING":7877,"GLE":7878,"ĠStatement":7879,"ĠAuthent":7880,"WRITE":7881,"ĠgetParameter":7882,"otspot":7883,"Fallback":7884,"Ġ300":7885,"noException":7886,"length":7887,"ssue":7888,"ĠgetSt":7889,"ĠisPresent":7890,"ENDING":7891,"Ġclock":7892,"ĠgetResult":7893,"ĠPlayer":7894,"ĠBASE":7895,"emap":7896,"ualCard":7897,"Overflow":7898,"ĠAccessibilityEvent":7899,"LAT":7900,"ĠsInstance":7901,"dm":7902,"ottie":7903,"ĠtestCase":7904,"ĠDescription":7905,"rpc":7906,"Ġwtf":7907,"permission":7908,"ĠerrorMessage":7909,"Mutable":7910,"avorite":7911,"ROADCAST":7912,"lm":7913,"web":7914,"Now":7915,"Ranges":7916,"Ġflat":7917,"Marker":7918,"Fast":7919,"ZONE":7920,"Ġneg":7921,"extra":7922,"ĠonStop":7923,"ĠSupplier":7924,"OPEN":7925,"Indices":7926,"ĠmOutput":7927,"ĠMutable":7928,"Ġchain":7929,"Ġsubtract":7930,"junit":7931,"ĠBy":7932,"ĠNAN":7933,"Deque":7934,"Ġsbn":7935,"empty":7936,"Subject":7937,"Ġweb":7938,"DEBUG":7939,"PRIVATE":7940,"VOKE":7941,"ĠRlog":7942,"ĠCurrency":7943,"ĠAsyncTask":7944,"ĠNEW":7945,"Ġexternal":7946,"Ġincorrect":7947,"ĠARM":7948,"Maker":7949,"Listing":7950,"ĠtestIs":7951,"Modifier":7952,"ĠresolveInfo":7953,"420":7954,"ĠLogNode":7955,"CHEME":7956,"has":7957,"RegionCode":7958,"El":7959,"Ġ110":7960,"ĠWAIT":7961,"LISH":7962,"mac":7963,"StringBuilder":7964,"ĠGrammar":7965,"Ġ90":7966,"Ġedge":7967,"Wake":7968,"Assign":7969,"Tx":7970,"Canvas":7971,"ird":7972,"Ġrop":7973,"Buttons":7974,"ĠOFFSET":7975,"LABEL":7976,"phone":7977,"Quick":7978,"SWITCH":7979,"ĠCATEGORY":7980,"POSITION":7981,"GU":7982,"TEMP":7983,"ĠnotNull":7984,"Endian":7985,"CB":7986,"Succe":7987,"iming":7988,"Ġwhere":7989,"ĠmPri":7990,"NON":7991,"TOM":7992,"ĠmDrawable":7993,"ĠIMPORTANCE":7994,"Ġri":7995,"staff":7996,"alysis":7997,"ĠTestable":7998,"Ġexceptions":7999,"db":8000,"ĠmUn":8001,"ĠserviceInfo":8002,"ATTERY":8003,"Ġips":8004,"ĠgetAvailable":8005,"onedDateTime":8006,"Front":8007,"ĠgetMeasure":8008,"irmware":8009,"GENCY":8010,"Px":8011,"Streams":8012,"lying":8013,"ĠJSONException":8014,"PatternUtils":8015,"ĠgetDimensionPixel":8016,"utex":8017,"ContentProvider":8018,"ten":8019,"Ġ111":8020,"AllTypes":8021,"posal":8022,"ĠonAnimation":8023,"TOKEN":8024,"Ġquick":8025,"MimeType":8026,"number":8027,"Ġuuid":8028,"Ġupper":8029,"ĠMember":8030,"pace":8031,"Ġgoog":8032,"Ġokhttp":8033,"ĠFramework":8034,"ured":8035,"Grid":8036,"Known":8037,"ingState":8038,"DIFI":8039,"Ġbug":8040,"FOREGROUND":8041,"Ġmut":8042,"ĠmValues":8043,"Ġcompress":8044,"DOCUMENT":8045,"ForType":8046,"Compare":8047,"ĠmDialog":8048,"ServerSocket":8049,"ding":8050,"Insert":8051,"Connectivity":8052,"Ġ120":8053,"ĠmSwitch":8054,"ĠACC":8055,"ibration":8056,"Zoom":8057,"CheckBox":8058,"1000":8059,"ARM":8060,"ĠImmutableSorted":8061,"Clip":8062,"ĠgetInvocation":8063,"ScanResult":8064,"dinal":8065,"ĠmProgress":8066,"Ġtx":8067,"IndexOutOfBoundsException":8068,"Ġci":8069,"sys":8070,"vm":8071,"ĠAnnotated":8072,"ĠnumberOf":8073,"ĠAtomicReference":8074,"ĠIcc":8075,"ĠRestricted":8076,"OrInterface":8077,"ĠADD":8078,"ĠNativeCrypto":8079,"Ġignore":8080,"Ġrunning":8081,"Ġtransient":8082,"public":8083,"Ġcc":8084,"ayers":8085,"ElementException":8086,"Recipient":8087,"ĠregisterReceiver":8088,"Proc":8089,"Ġlisteners":8090,"Ġmodifiers":8091,"Iso":8092,"ĠgetChannel":8093,"ĠApk":8094,"UxRestrictions":8095,"mTel":8096,"INSTANCE":8097,"iven":8098,"ĠmMain":8099,"ĠShortcutInfo":8100,"DLE":8101,"Ġtranslate":8102,"head":8103,"Ow":8104,"Ġcapabilities":8105,"PRES":8106,"kipped":8107,"VIG":8108,"les":8109,"ĠmEntry":8110,"ĠisSupported":8111,"allow":8112,"My":8113,"Ġregist":8114,"Tagging":8115,"JECTION":8116,"ĠgetArguments":8117,"MethodName":8118,"Ġretry":8119,"NotSupportedException":8120,"Ġrows":8121,"CARRIER":8122,"ĠgetRoot":8123,"FLOAT":8124,"Im":8125,"ĠmValue":8126,"ĠCLDR":8127,"ĠSdkConstant":8128,"ĠIden":8129,"ĠLarge":8130,"ĠTypeface":8131,"PhoneNumber":8132,"Fully":8133,"ĠChronoField":8134,"ignature":8135,"ĠUnit":8136,"ĠCancel":8137,"ĠmKeyguard":8138,"ĠmFirst":8139,"ĠputBoolean":8140,"Rtt":8141,"Ushort":8142,"Ġ34":8143,"APK":8144,"POS":8145,"zed":8146,"ĠBenchmark":8147,"ĠmAudioManager":8148,"264":8149,"Ġ59":8150,"OUTPUT":8151,"MoreInteractions":8152,"Ġused":8153,"codes":8154,"alformed":8155,"Ġcoord":8156,"ĠtestName":8157,"Ġservices":8158,"Pressed":8159,"PROCESS":8160,"EncodingException":8161,"bor":8162,"erarch":8163,"rest":8164,"ĠTransport":8165,"========":8166,"ĠmBLAS":8167,"struct":8168,"RUN":8169,"Props":8170,"CommandHandlerTest":8171,"Ġcerts":8172,"CERT":8173,"Ġfont":8174,"mpt":8175,"Intrinsic":8176,"Ġ45":8177,"Visual":8178,"ĠsetOption":8179,"ĠPOSITIVE":8180,"ĠmUse":8181,"ĠSoftAp":8182,"Health":8183,"ĠJar":8184,"Attached":8185,"Density":8186,"ResourceId":8187,"Ġ#":8188,"Ġcomb":8189,"ĠDump":8190,"TIES":8191,"ĠSyn":8192,"PROVISIONING":8193,"Ġspi":8194,"rrnoException":8195,"Ġends":8196,"Into":8197,"Waiting":8198,"Tool":8199,"\\\":":8200,"rupti":8201,"Sig":8202,"tn":8203,"ected":8204,"Parts":8205,"199":8206,"Rollback":8207,"PEG":8208,"pull":8209,"ERGENCY":8210,"Ġself":8211,"ĠErrnoException":8212,"ĠgetSummary":8213,"PR":8214,"ĠisImplicit":8215,"ĠSDK":8216,"Interceptor":8217,"Interfaces":8218,"DOUBLE":8219,"Ġmd":8220,"001001":8221,"erature":8222,"BufferSize":8223,"Resolution":8224,"Existing":8225,"GRANTED":8226,".'":8227,"BA":8228,"Deg":8229,"Optim":8230,"Ġreceive":8231,"Ġprovide":8232,"fail":8233,"ĠExecutionException":8234,"Ġcrop":8235,"002":8236,"ĠKeyboard":8237,"dr":8238,"ĠAg":8239,"ĠNORMAL":8240,"ĠScriptC":8241,"PATTERN":8242,"eof":8243,"ĠBreak":8244,"TouchEvent":8245,"kipping":8246,"ica":8247,"itory":8248,"Tv":8249,"ĠrunOnUiThread":8250,"Ġmp":8251,"rease":8252,"ĠinA":8253,"Protocols":8254,"auth":8255,"ĠOB":8256,"ĠReg":8257,"CLO":8258,"WakeLock":8259,"Ġclip":8260,"TOCOL":8261,"ĠgetBase":8262,"ĠECPoint":8263,"Behavior":8264,"ĠgetOr":8265,"INSTALL":8266,"Authenticator":8267,"rac":8268,"Ġblob":8269,"ĠSimpleDateFormat":8270,"ĠgetIdentifier":8271,"TD":8272,"ToTarget":8273,"ĠmSize":8274,"8888":8275,"aniti":8276,"ationException":8277,"ĠtoLowerCase":8278,"Ġactiv":8279,"ĠsetIcon":8280,"MBOL":8281,"Drm":8282,"offset":8283,"Ġrestric":8284,"ĠINFO":8285,"lane":8286,"Ġjdwp":8287,"num":8288,"Charsets":8289,"Ġadded":8290,"Equality":8291,"Cor":8292,"XX":8293,"ĠmListeners":8294,"ops":8295,"Ġloge":8296,"ĠfromIndex":8297,"ReplyTextBundle":8298,"Timed":8299,"Registered":8300,"CDMA":8301,"Ġignored":8302,"Shape":8303,"Phase":8304,"Aid":8305,"LINK":8306,"IDDEN":8307,"FFE":8308,"'\"":8309,"Finder":8310,"ĠLoader":8311,"StateController":8312,"generator":8313,"cur":8314,"Handlers":8315,"Ġoffsets":8316,"DH":8317,"ĠViewHolder":8318,"THRESHOLD":8319,"SCO":8320,"ĠVarHandle":8321,"alk":8322,"Ġnc":8323,"Ġfallback":8324,"ĠgetClient":8325,"Matching":8326,"Ġ56":8327,"ĠgetLogger":8328,"AppWidget":8329,"Targets":8330,"ĠNetworkStats":8331,"ĠgetComment":8332,"multi":8333,"ĠpackageManager":8334,"PRESS":8335,"ĠOr":8336,"Ġpin":8337,"Subscriptions":8338,"030":8339,"Scheduled":8340,"ĠTestData":8341,"ĠanyBoolean":8342,"ĠNoSuchElementException":8343,"ĠCONTACT":8344,"GIN":8345,"Peer":8346,"Containing":8347,"two":8348,"ĠChange":8349,"iases":8350,"ĠgetMetrics":8351,"Ġreverse":8352,"Tagged":8353,"BACKGROUND":8354,"ĠverifyNoMoreInteractions":8355,"AMS":8356,"TURE":8357,"ĠOf":8358,"Ġtokens":8359,"Adb":8360,"Ġ'.'":8361,"UNDEFINED":8362,"USED":8363,"ĠBlort":8364,"Ġ\"\\\"\"":8365,"Angle":8366,"Ġcodegen":8367,"ĠmVideo":8368,"ĠRoute":8369,"ĠgetMod":8370,"APPS":8371,"Ssid":8372,"Ġ\\":8373,"ĠmWidth":8374,"ĠcameraId":8375,"ParseException":8376,"notification":8377,"Ok":8378,"laceholder":8379,"Ġvts":8380,"Ġ\"$":8381,"ĠgetNode":8382,"ĠTheme":8383,"ĠeventType":8384,"ĠmDevicePolicyManager":8385,"Evalu":8386,"Ġbcel":8387,"Multip":8388,"ĠgetNum":8389,"ToS":8390,"ĠJavaParser":8391,"APE":8392,"147":8393,"ĠFrameLayout":8394,"wifi":8395,"Initialization":8396,"ĠExtensionRegistryLite":8397,"OME":8398,"Ġhi":8399,"ĠReal":8400,"WAY":8401,"way":8402,"ĠgetUid":8403,"ANY":8404,"ĠsendBroadcast":8405,"Ġobjects":8406,"Fingerprint":8407,"Shutdown":8408,"ĠCheckBox":8409,"color":8410,"lecode":8411,"Ġvisibility":8412,"ĠconvertView":8413,"result":8414,"ĠmError":8415,"Ġthan":8416,"icipant":8417,"Ġprec":8418,"ĠinB":8419,"VarHandle":8420,"REPORT":8421,"ttps":8422,"Ġalways":8423,"Versions":8424,"VOLUME":8425,"vided":8426,"OUCH":8427,"Ġenv":8428,"Ġsuffix":8429,"Ġrand":8430,"Unicode":8431,"ĠReader":8432,"Ġxpath":8433,"URLConnection":8434,"Dim":8435,"html":8436,"ĠREG":8437,"MSG":8438,"ĠInetSocketAddress":8439,"ĠStructured":8440,"ĠmAccount":8441,"Preset":8442,"emaph":8443,"ĠGROUP":8444,"ĠUserIdInt":8445,"losure":8446,"ĠgetOutput":8447,"ĠMtp":8448,"Ġrotate":8449,"erged":8450,"LIGHT":8451,"fixed":8452,"uggested":8453,"Eap":8454,"ĠCRL":8455,"olved":8456,"exp":8457,"Destroyed":8458,"ired":8459,"ĠsetState":8460,"tu":8461,"ĠSystemProperties":8462,"Vpn":8463,"Ġhostname":8464,"ĠgetLength":8465,"ĠClose":8466,"Ġsequence":8467,"ĠmWifiManager":8468,"jar":8469,"Ġpublish":8470,"ĠDTM":8471,"ĠFOC":8472,"ĠgetSupported":8473,"cumulator":8474,"Sets":8475,"Ġ97":8476,"lationSignal":8477,"ĠCameraCharacteristics":8478,"ĠRenderScript":8479,"summary":8480,"Ġfetch":8481,"ĠTab":8482,"SubscriptionId":8483,"ĠOver":8484,"RunUtil":8485,"DefaultValue":8486,"99999999":8487,"emaphore":8488,"reater":8489,"ĠIs":8490,"ĠonError":8491,"Namespace":8492,"mbed":8493,"SIC":8494,"ĠScroll":8495,"SYNC":8496,"Ġdp":8497,"ĠFAKE":8498,"TestData":8499,"ught":8500,"Ġblort":8501,"ĠAttributes":8502,"ĠPduHeaders":8503,"Gl":8504,"COMPLETE":8505,"ĠNaN":8506,"ĠUiThread":8507,"ĠendsWith":8508,"Ġsubmit":8509,"ĠSUPPORTS":8510,"Ġsquareup":8511,"ĠUiObject":8512,"Handshaker":8513,"amcrest":8514,"ĠisImplicitTagging":8515,"ĠbyteCount":8516,"LITER":8517,"ĠHandlerThread":8518,"ĠEmpty":8519,"AUSE":8520,"IgnoreReturnValue":8521,"VIGATION":8522,"Ġbox":8523,"Ġ\"\\\\":8524,"ĠStandardCharsets":8525,"Wizard":8526,"ĠRead":8527,"Retrie":8528,"ĠCAPABILITY":8529,"ĠAUTHORITY":8530,"BAND":8531,"Ġsound":8532,"KeyEvent":8533,"ĠPreferenceController":8534,"Connector":8535,"ĠProvisioning":8536,"Tracer":8537,"Timeline":8538,"ĠmMetrics":8539,"ĠFileSystem":8540,"Certificates":8541,"ĠValid":8542,"SEPARATOR":8543,"ĠDirection":8544,"manac":8545,"ĠmCallbacks":8546,"ĠgetLayout":8547,"ĠINSTRUCTION":8548,"anceled":8549,"Uchar":8550,"ĠMapFeature":8551,"ĠRcs":8552,"Attrs":8553,"Ġanchor":8554,"ĠLocalDateTime":8555,"ValueAs":8556,"COVER":8557,"ĠMediaPlayer":8558,"Divider":8559,"USTOM":8560,");\"":8561,"Ġrole":8562,"build":8563,"Execute":8564,"select":8565,"ĠClock":8566,"ĠGrid":8567,"ĠJSONString":8568,"ĠMINUTE":8569,"Dialer":8570,"alpha":8571,"ĠBinary":8572,"ACY":8573,"ĠAccountManager":8574,"verage":8575,"LAST":8576,"ĠPATH":8577,"Ġusb":8578,"full":8579,"oized":8580,"LIT":8581,"anted":8582,"SEND":8583,"ĠObjectAnimator":8584,"readsheet":8585,"ĠValueAnimator":8586,"essenger":8587,"ĠuptimeMillis":8588,"Correct":8589,"anging":8590,"Ġgeneric":8591,"ĠCanIgnoreReturnValue":8592,"ICK":8593,"Magn":8594,"Inject":8595,"Throwable":8596,"DIRECTION":8597,"Ġmissing":8598,"ĠNotificationEntry":8599,"ĠmTestDevice":8600,"cap":8601,"ĠmTop":8602,"very":8603,"ambd":8604,"sertion":8605,"APPLICATION":8606,"erarchy":8607,"Ġxsp":8608,"ĠphoneId":8609,"UpperCase":8610,"Ġsk":8611,"CallService":8612,"Compute":8613,"ĠSets":8614,"NetworkType":8615,"merica":8616,"Filename":8617,"update":8618,"Unchecked":8619,"ContentObserver":8620,"OptionsMenu":8621,"Ġsup":8622,"456":8623,"Sur":8624,"ĠIDevice":8625,"Ġapn":8626,"Implementation":8627,"Ġ109":8628,"overed":8629,"HOME":8630,"Abi":8631,"Family":8632,"Sum":8633,"vable":8634,"ĠgetAlgorithm":8635,"descriptor":8636,"Ġresume":8637,"OUS":8638,"OfMonth":8639,"akey":8640,"ĠListView":8641,"Importance":8642,"Cts":8643,"Ġjacoco":8644,"Configurations":8645,"istorical":8646,"Returned":8647,"xffff":8648,"SIST":8649,"HeadsUp":8650,"Velocity":8651,"ĠJDWPConstants":8652,"formance":8653,"akeyaml":8654,"Series":8655,"Ġhamcrest":8656,"MANAGED":8657,"Ġgooglecode":8658,"Ġstarted":8659,"ĠitemView":8660,"ĠSocketException":8661,"model":8662,"ĠReflectionHelpers":8663,"ĠgetDimensionPixelSize":8664,"400":8665,"Ġcv":8666,"ĠcodeAttribute":8667,"Nested":8668,"ĠSort":8669,"Ġtestutil":8670,"ĠcreateTest":8671,"opcodes":8672,"ĠmClock":8673,"->":8674,"application":8675,"visible":8676,"ĠcontactId":8677,"ĠSubscriptionInfo":8678,"ĠLargeTest":8679,"Dependency":8680,"ĠPKIX":8681,"vc":8682,"ĠtestConstructor":8683,"LOBAL":8684,"Ġ10000":8685,"upplicant":8686,"Ġinterfaces":8687,"PRIORITY":8688,"LAUNCH":8689,"Ġtake":8690,"ĠVoicemail":8691,"Ġatomic":8692,"Blob":8693,"ENCY":8694,"peri":8695,"first":8696,"Ġreflection":8697,"ĠmCount":8698,"ĠmAnimation":8699,"CANCEL":8700,"ĠFieldDescriptor":8701,"Ġ114":8702,"imited":8703,"ĠInterface":8704,"PhoneAccount":8705,"Cutout":8706,"Ġinstrumentation":8707,"Ġwrong":8708,"Ġoffer":8709,"Parsing":8710,"ĠCompat":8711,"DisplayName":8712,"FFECT":8713,"Ġlibrary":8714,"Ġformatted":8715,"ĠPointF":8716,"HOST":8717,"Granted":8718,"ĠFOCUS":8719,"CN":8720,"ĠsetAlpha":8721,"ForTest":8722,"ĠEnumSet":8723,"Aka":8724,"sState":8725,"RING":8726,"Too":8727,"ĠgetTop":8728,"ĠsetResult":8729,"ĠisConnected":8730,"Windows":8731,"Ġtoo":8732,"NODE":8733,"Bean":8734,"sr":8735,"Ġcanonical":8736,"boolean":8737,"Ġrr":8738,"ĠmInitial":8739,"ARED":8740,"ĠmFile":8741,"ĠInjector":8742,"ĠTestAllTypes":8743,"Advance":8744,"Ġminus":8745,"URN":8746,"Ġsolve":8747,"ĠNfc":8748,"ĠXPath":8749,"Passpoint":8750,"MANAGER":8751,"ĠsetG":8752,"ĠMIMETYPE":8753,"300":8754,"ely":8755,"Nothing":8756,"ĠgetTargetContext":8757,"Ġemail":8758,"ĠSurfaceControl":8759,"Ġfloor":8760,"Web":8761,"Ġsubject":8762,"Ġipsec":8763,"block":8764,"CodePoint":8765,"AccessorTable":8766,"WARE":8767,"ĠmPaint":8768,"uby":8769,"ĠsetTime":8770,"ĠrunWith":8771,"ĠsetMin":8772,"ĠgetSession":8773,"ĠINSTALL":8774,"interface":8775,"AlgorithmParameterException":8776,"WO":8777,"ĠROT":8778,"ĠTransformer":8779,"Pip":8780,"Ġtoggle":8781,"velop":8782,"AGMENT":8783,"trans":8784,"ĠLocalTime":8785,"Ġxmlpull":8786,"ADDING":8787,"ĠNavigableSet":8788,"air":8789,"ĠWAR":8790,"ĠmHeight":8791,"ĠgetAttributeValue":8792,"Bridge":8793,"UserManager":8794,"track":8795,"DISCONNECTED":8796,"America":8797,"ĠExpandable":8798,"Ġexif":8799,"Validation":8800,"ĠmTransport":8801,"ĠmSource":8802,"ULAR":8803,"ĠMultimap":8804,"uv":8805,"change":8806,"ĠLIST":8807,"ĠcreateMock":8808,"Perf":8809,"gnoring":8810,"ĠgetClassLoader":8811,"child":8812,"ĠIgnore":8813,"intent":8814,"Ġstatement":8815,"ĠOrder":8816,"ni":8817,"legacy":8818,"StartTime":8819,"KeyListener":8820,"ĠCalls":8821,"ĠDISALLOW":8822,"--------":8823,"OrSelf":8824,"ĠmPower":8825,"iet":8826,"InMillis":8827,"ĠIF":8828,"phrase":8829,"ĠLAYER":8830,"Connections":8831,"ĠisVisible":8832,"ĠgetCar":8833,"ĠisN":8834,"999":8835,"ĠsendToTarget":8836,"ĠmLeft":8837,"ĠIso":8838,"102":8839,"Processing":8840,"voker":8841,"Ġorigin":8842,"ĠMatchers":8843,"Ġ>>>":8844,"can":8845,"Ġimmutable":8846,"ĠSS":8847,"ĠFIRST":8848,"ĠassertNotEquals":8849,"vailabilityStatus":8850,"180":8851,"fb":8852,"Ġpress":8853,"ĠgetIcon":8854,"ITS":8855,"Ġmetric":8856,"WEEK":8857,"mart":8858,"periment":8859,"Chooser":8860,"Ġcreated":8861,"Ġinterval":8862,"zer":8863,"Ġeffect":8864,"ĠGraph":8865,"LTE":8866,"ĠVALID":8867,"output":8868,"AudioFocus":8869,"ĠAudioAttributes":8870,"ĠPREF":8871,"olated":8872,"init":8873,"Ġmanifest":8874,"Proposal":8875,"ĠdisplayPreference":8876,"Calc":8877,"isc":8878,"OTTOM":8879,"Assignable":8880,"ĠsetCommandHandler":8881,"ĠTestUtil":8882,"Ġlocales":8883,"PED":8884,"GPS":8885,"Ty":8886,"ĠAccessMode":8887,"255":8888,"Ġpersist":8889,"ROP":8890,"CASE":8891,"320":8892,"Installed":8893,"ĠTile":8894,"ALG":8895,"ĠoldValue":8896,"VM":8897,"ĠmChild":8898,"Ġfolder":8899,"Ġtransformation":8900,"Prec":8901,"SCALE":8902,"ĠACCESS":8903,"Packets":8904,"Incoming":8905,"ĠisSame":8906,"ĠgetID":8907,"ScanResults":8908,"ĠNUMBER":8909,"ReferenceType":8910,"ĠInvalidAlgorithmParameterException":8911,"ĠmBuilder":8912,"root":8913,"RESOURCE":8914,"****":8915,"audio":8916,"ounded":8917,"ĠtoMillis":8918,"ĠProgress":8919,"regorianCalendar":8920,"SUR":8921,"ĠMOD":8922,"Ġevaluate":8923,"Singleton":8924,"ĠsetAction":8925,"Protection":8926,"InvocationListener":8927,"ĠPeriod":8928,"ĠServerSocket":8929,"ĠmStatusBar":8930,"ĠBUFFER":8931,"arter":8932,"element":8933,"target":8934,"ĠRound":8935,"ĠVts":8936,"ĠmCur":8937,"Font":8938,"Stopped":8939,"Successful":8940,"ĠDO":8941,"Ġforward":8942,"Ġbeen":8943,"AccessMode":8944,"STARTED":8945,"ĠdescribeContents":8946,"dec":8947,"ĠCard":8948,"ĠoutState":8949,"ĠIpSec":8950,"ĠDo":8951,"ĠisUser":8952,"ĠNormal":8953,"ĠtestAdd":8954,"ĠOptionSetter":8955,"ven":8956,"only":8957,"Apex":8958,"ĠslotId":8959,"Telephony":8960,"Ġgenerated":8961,"Ġnormalized":8962,"Producer":8963,"LITERAL":8964,"ĠgetEnd":8965,"Ġmaximum":8966,"ĠCaptureResult":8967,"mask":8968,"ĠmProgram":8969,"Ġsnapshot":8970,"Ġtermin":8971,"ĠPROCESS":8972,"RANGE":8973,"buffer":8974,"Ġbr":8975,"ĠeventTime":8976,"Ġ>>>=":8977,"Try":8978,"WE":8979,"Ġplugin":8980,"Ġverification":8981,"ĠMethodType":8982,"ĠaddChild":8983,"ĠlastIndexOf":8984,"ĠExecutorService":8985,"Ġjca":8986,"ository":8987,"Hostname":8988,"ĠAndroidTestCase":8989,"Representation":8990,"/'":8991,"Ulong":8992,"Ġfixed":8993,"Profiles":8994,"ingtone":8995,"ĠonPreference":8996,"Signer":8997,"Author":8998,"CallSession":8999,"TYPES":9000,"ĠminSdk":9001,"Ġneeds":9002,"mock":9003,"relaxed":9004,"tests":9005,"Offsets":9006,"Saved":9007,"ĠHAND":9008,"ĠEXPECTED":9009,"direct":9010,"Ġordinal":9011,"ROT":9012,"ambda":9013,"Ġamount":9014,"Variables":9015,"ĠTRACE":9016,"ĠPRIORITY":9017,"ĠgetMeasured":9018,"ĠCollator":9019,"Ġrequires":9020,"REGISTER":9021,"ĠSortedSet":9022,"object":9023,"Strict":9024,"ĠmSecond":9025,"rog":9026,"Ġ46":9027,"USAGE":9028,"Quiet":9029,"ĠCached":9030,"ĠbyteArray":9031,"Validity":9032,"Fixture":9033,"Patch":9034,"[]":9035,"ĠNET":9036,"ĠgetClassName":9037,"Ġsnakeyaml":9038,"ĠFailure":9039,"ĠUpdate":9040,"Ġasync":9041,"Ġalarm":9042,"ĠYaml":9043,"INTERNAL":9044,"Poll":9045,"wd":9046,"Ġpreferred":9047,"CodecConfig":9048,"Router":9049,"Ġ53":9050,"sk":9051,"Ġfs":9052,"ĠDATE":9053,"lied":9054,"Apply":9055,"ĠpkgName":9056,"LiveData":9057,"Ġ{\\":9058,"EXTERNAL":9059,"ĠhandleMessage":9060,"ĠsingletonList":9061,"Old":9062,"dialog":9063,"BlockSize":9064,"AI":9065,"Ġwin":9066,"ĠTypeElement":9067,"ĠmTotal":9068,"Excluded":9069,"ĠPASSWORD":9070,"Ġhistory":9071,"ĠVIDEO":9072,"AccessPoint":9073,"preter":9074,"MAIN":9075,"ĠBL":9076,"inished":9077,"Modifiers":9078,"Side":9079,"ĠmOverlay":9080,"Composite":9081,"Ġturbine":9082,"ĠgetConfiguration":9083,"ERTIFI":9084,"Ġfiltered":9085,"ERTIFICATE":9086,"CACHE":9087,"Ġsent":9088,"ENER":9089,"CallingOrSelf":9090,"Ġreplacement":9091,"Cons":9092,"ĠgetLooper":9093,"ĠAudioFormat":9094,"Certs":9095,"ĠreplyTextBundle":9096,"ĠtestVFE":9097,"zen":9098,"FLAGS":9099,"ĠmCarrier":9100,"Frequency":9101,"ĠBACK":9102,"ĠCldr":9103,"Ġdrop":9104,"Ordered":9105,"Ġprocessing":9106,"ĠphoneNumber":9107,"Nav":9108,"Ġweek":9109,"ĠtestClass":9110,"Ġ'/'":9111,"Ġ;\\":9112,"ACTER":9113,"ĠkeyAt":9114,"ĠRawContact":9115,"ĠJavaFileObject":9116,"vik":9117,"Dns":9118,"Ġpause":9119,"ĠLAST":9120,"ĠnanoTime":9121,"Associated":9122,"ĠsetStyle":9123,"ĠIM":9124,"ĠVIEW":9125,"ĠUSAGE":9126,"SR":9127,"sample":9128,"alvik":9129,"last":9130,"files":9131,"ĠTRANSPORT":9132,"raft":9133,"ĠInitial":9134,"ĠgetIntExtra":9135,"FIRST":9136,"Ġthrowable":9137,"Abstract":9138,"UInt":9139,"adline":9140,"ENABLE":9141,"Ġextensions":9142,"EAP":9143,"ĠrunDevice":9144,"etails":9145,"msg":9146,"QUIRED":9147,"osed":9148,"ĠOR":9149,"Ġints":9150,"Compressed":9151,"Ġ\":\\":9152,"ovie":9153,"anese":9154,"Cycle":9155,"DB":9156,"Ġdr":9157,"StateList":9158,"OUTE":9159,"ĠmakeText":9160,"GGEST":9161,"day":9162,"celed":9163,"ĠsetAttribute":9164,"Focusable":9165,"attribute":9166,"ntk":9167,"Ġboot":9168,"ĠsetDuration":9169,"pg":9170,"Ġunique":9171,"Ġhelp":9172,"SELECT":9173,"ĠPrimitive":9174,"Driver":9175,"Ġ\\\"\"":9176,"ĠAUTO":9177,"ĠaddFlags":9178,"Ġ38":9179,"PREFERENCE":9180,"Guard":9181,"agram":9182,"apanese":9183,"Ġcleaner":9184,"bl":9185,"ĠgetH":9186,"QUALITY":9187,"MenuItem":9188,"Ġvelocity":9189,"ĠALI":9190,"iration":9191,"arly":9192,"ĠRSA":9193,"Specs":9194,"AspectRatio":9195,"COMMAND":9196,"Ġbaos":9197,"Ġnfc":9198,"ORITH":9199,"Appearance":9200,"ĠrequestId":9201,"ApiClient":9202,"ba":9203,"Ġinterrupt":9204,"110":9205,"false":9206,"ĠmStats":9207,"ĠAssist":9208,"ĠCts":9209,"Ġusername":9210,"Ġ127":9211,"ĠDat":9212,"TestHelper":9213,"GGER":9214,"fp":9215,"Ġsafe":9216,"Ġweight":9217,"ĠisDirectory":9218,"ĠAtomicBoolean":9219,"ĠmStorage":9220,"loud":9221,"Cluster":9222,"account":9223,"ĠTARGET":9224,"TestBase":9225,"Different":9226,"ĠAutoValue":9227,"FL":9228,"icu":9229,"Ġcst":9230,"Ġdesired":9231,"DataManager":9232,"Unique":9233,"THREAD":9234,"OrThrow":9235,"MetaData":9236,"ĠGesture":9237,"provisioning":9238,"ĠcreateTyped":9239,"ĠPROPERTY":9240,"SyntaxException":9241,"ĠmDelegate":9242,"Ġrat":9243,"StateChange":9244,"SCRIPT":9245,"Mo":9246,"ĠVCard":9247,"SystemFeature":9248,"Cdma":9249,"ĠFROM":9250,"ĠInputStreamReader":9251,"ĠFIN":9252,"MODIFI":9253,"Ġabsent":9254,"ĠmoveToNext":9255,"spec":9256,"ĠgetProvider":9257,"StatusBar":9258,"Ġdigit":9259,"ctetString":9260,"Browser":9261,"Layers":9262,"ĠDOUBLE":9263,"ĠAdapterView":9264,"ĠmVer":9265,"ĠMETA":9266,"andby":9267,"ĠonSuccess":9268,"Fetch":9269,"Ġtuner":9270,"ĠgetW":9271,"Ġwrapper":9272,"HEAD":9273,"quivalence":9274,"BigInteger":9275,"ĠdisplayName":9276,"IV":9277,"Lib":9278,"ĠmCon":9279,"Perm":9280,"Ġfmt":9281,"cepted":9282,"TRIBUTE":9283,"OPER":9284,"some":9285,"ĠSuggestion":9286,"ĠlongValue":9287,"ĠendTime":9288,"ĠActivityRecord":9289,"BroadcastReceiver":9290,"ĠInstance":9291,"failed":9292,"mmetric":9293,"SUM":9294,"STAND":9295,"ĠzOff":9296,"Members":9297,"Aff":9298,"metic":9299,"watch":9300,"Ġconscrypt":9301,"Email":9302,"ĠmSearch":9303,"ĠgetExtras":9304,"ĠTimer":9305,"ROID":9306,"Ġtags":9307,"FilePath":9308,"Ġmo":9309,"ĠSIM":9310,"Alm":9311,"Epoch":9312,"ĠsetOptionValue":9313,"source":9314,"ĠDig":9315,"ĠisActive":9316,"ĠNEGATIVE":9317,"><":9318,"Packed":9319,"ĠNON":9320,"TICAL":9321,"Adverti":9322,"ĠSwitchPreference":9323,"GMT":9324,"ĠDependency":9325,"BLUETOOTH":9326,"ĠBLUETOOTH":9327,"ĠaddTo":9328,"ĠPhoneAccount":9329,"CertPath":9330,"ainty":9331,"ĠelementList":9332,"Hours":9333,"ĠmEnd":9334,"ateway":9335,"ĠRAW":9336,"Ġiso":9337,"ĠUI":9338,"EncodedValue":9339,"ĠExifTag":9340,"ACHED":9341,"activity":9342,"Ġrelative":9343,"Ġtesttype":9344,"Intents":9345,"308":9346,"Ġexpression":9347,"Passed":9348,"ĠStruct":9349,"Uids":9350,"Ġdivide":9351,"ĠJavaFileObjects":9352,"peech":9353,"olid":9354,"ISO":9355,"Ġ400":9356,"Ġinst":9357,"entrant":9358,"368":9359,"Synchronizer":9360,"scanpos":9361,"Ġow":9362,"ĠmLogView":9363,"sable":9364,"odel":9365,"Resp":9366,"ALERT":9367,"ĠTables":9368,"ĠgetPreferenceKey":9369,"eleton":9370,"Provisioned":9371,"sw":9372,"Days":9373,"ĠMainActivity":9374,"video":9375,"amodel":9376,"():":9377,"Large":9378,"PADDING":9379,"ula":9380,"ADMIN":9381,"ĠXMP":9382,"Ġhandsh":9383,"Latency":9384,"Publish":9385,"ĠORI":9386,"Chronology":9387,"ĠgetAvailabilityStatus":9388,"Balance":9389,"ĠROTATION":9390,"Benchmark":9391,"this":9392,"Ġalts":9393,"ĠOPTION":9394,"Coords":9395,"oti":9396,"urer":9397,"Ġshare":9398,"NESS":9399,"PB":9400,"KeyPair":9401,"Resolved":9402,"ĠmVolume":9403,"II":9404,"ĠOperation":9405,"ĠBLOCK":9406,"ĠmFilter":9407,"ĠsetCurrent":9408,"Heap":9409,"mpling":9410,"ĠRow":9411,"ĠIterables":9412,"OBJECT":9413,"Unlocked":9414,"1234567890":9415,"Ġelem":9416,"Ġdrag":9417,"ĠLAUNCH":9418,"ĠPh":9419,"CONTIN":9420,"BILE":9421,"112":9422,"ĠOTHER":9423,"Enroll":9424,"Core":9425,"Tether":9426,"ĠgetFormat":9427,"LEASE":9428,"Assets":9429,"364":9430,"ĠmMenu":9431,"ATIONS":9432,"211":9433,"PendingIntent":9434,"Ġrenderer":9435,"iper":9436,"mergencyNumber":9437,"Exclude":9438,"Ġime":9439,"Ġadditional":9440,"ĠYear":9441,"ĠFormatter":9442,"UUID":9443,"ALSE":9444,"AndAssert":9445,"ĠAppMode":9446,"ĠmMockContext":9447,"ĠMathContext":9448,"ĠmSubId":9449,"Ġsin":9450,"WAKE":9451,"Ġmicro":9452,"Once":9453,"ĠcheckCompleted":9454,"hello":9455,"Utc":9456,"Ġemit":9457,"Ġlogical":9458,"AMING":9459,"HTTP":9460,"ĠmMediaPlayer":9461,"ĠDIR":9462,"rigin":9463,"ĠStatusBarNotification":9464,"MIME":9465,"ĠSECURITY":9466,"LIP":9467,"ĠApnSetting":9468,"enti":9469,"ĠPASS":9470,"ĠContentUris":9471,"CastException":9472,"INIT":9473,"ĠBlocking":9474,"Ġcrl":9475,"iter":9476,"ĠmAuto":9477,"fr":9478,"ĠSecretKey":9479,"ĠAsyncResult":9480,"Ġforeground":9481,"Ġtimeline":9482,"ĠSELE":9483,"PKCS":9484,"Hints":9485,"serialize":9486,"serve":9487,"ople":9488,"ALIAS":9489,"body":9490,"ĠJSONValue":9491,"720":9492,"ĠcheckVarHandle":9493,"ĠaccountType":9494,"ĠcheckVarHandleAccessMode":9495,"Ġdebuggee":9496,"Prepare":9497,"ampler":9498,"Flow":9499,"Ġunder":9500,"ReturnType":9501,"Ġden":9502,"Ġwatch":9503,"allet":9504,"Watchdog":9505,":\\":9506,"Lte":9507,"Rcs":9508,"Ġrepeat":9509,"Ġpresentation":9510,"UpdateListener":9511,"ĠImageFormat":9512,"pack":9513,"initial":9514,"ĠDFA":9515,"htable":9516,"Mobile":9517,"eris":9518,"Ġts":9519,"lapse":9520,"Ġmemoized":9521,"FieldBuilder":9522,"Resolve":9523,"Timing":9524,"Acquire":9525,"Icons":9526,"ĠIdentity":9527,"Ġmessages":9528,"ĠKeyProperties":9529,"ĠmLabel":9530,"Freq":9531,"ĠlistWith":9532,"ĠBluetoothMap":9533,"ĠPanel":9534,"ĠisInitialized":9535,"urrence":9536,"epler":9537,"Ġpassed":9538,"Asserts":9539,"ĠTvInput":9540,"ĠmFlags":9541,"MainThread":9542,"OICE":9543,"ĠEntity":9544,"tip":9545,"CallState":9546,"scale":9547,"ACKET":9548,"AppInfo":9549,"DisplayArea":9550,"Notif":9551,"ewrite":9552,"ĠNet":9553,"LoggingEnabled":9554,"Ġsym":9555,"CARD":9556,"ĠsetSelected":9557,"Additional":9558,"ĠmBinder":9559,"Ġsection":9560,"Disk":9561,"MinValue":9562,"antity":9563,"ĠPrintStream":9564,"po":9565,"Ġintern":9566,"160":9567,"Aggreg":9568,"Ġapplications":9569,"ĠgetHandler":9570,"ĠisTag":9571,"ĠInd":9572,"ĠmWork":9573,"ĠLAYOUT":9574,"ĠmExecutor":9575,"ĠTuner":9576,"ĠApi":9577,"ĠWINDOWING":9578,"-\"":9579,"CF":9580,"Ġuninstall":9581,"Included":9582,"Ġplural":9583,"Ġvoice":9584,"STY":9585,"ĠResolvedType":9586,"Product":9587,"TaggedObject":9588,"ĠClone":9589,"compat":9590,"MathVerifier":9591,"ĠCoreMathVerifier":9592,"rith":9593,"Paused":9594,"ĠKeyPair":9595,"xim":9596,"Ġfocused":9597,"Interrupt":9598,"PositionUs":9599,"ĠNAMESPACE":9600,"PrintWriter":9601,"cb":9602,"tx":9603,"ĠgetWifi":9604,"AudioState":9605,"from":9606,"enabled":9607,"Recovery":9608,"Ġcollector":9609,"CED":9610,"ĠSM":9611,"Ġhtml":9612,"ĠgetPort":9613,"profile":9614,"Repository":9615,"ĠConfigurationException":9616,"ĠmChildren":9617,"Ġescape":9618,"ĠisOptional":9619,"ĠCONNECTION":9620,"Ġconsume":9621,"Ġ67":9622,"AndVerify":9623,"Sources":9624,"ĠmRow":9625,"ReadOnly":9626,"Writable":9627,"Ġdynamic":9628,"annotation":9629,"ĠgetStringExtra":9630,"AAAAAAAAAAAAAAAA":9631,"rithmetic":9632,"Termination":9633,"ĠOpenSSL":9634,"velopment":9635,"ĠClassOrInterface":9636,"ĠmWifiMetrics":9637,"Linked":9638,"ĠMetricsEvent":9639,"Ġcredential":9640,"ĠgetQual":9641,"ĠsetUser":9642,"ĠBar":9643,"pended":9644,"Jobs":9645,"CKET":9646,"}\\":9647,"ĠLINE":9648,"PREF":9649,"Ġlatin":9650,"ĠmItem":9651,"Invoked":9652,"127":9653,"ĠWifiScanner":9654,"COMPLE":9655,"Supplicant":9656,"CAPTURE":9657,"Crash":9658,"non":9659,"Ġpriv":9660,"Streaming":9661,"ĠWeb":9662,"Rtl":9663,"Ġinline":9664,"Ġ5000":9665,"Ġlexer":9666,"ĠFILTER":9667,"Bi":9668,"GP":9669,"Neg":9670,"ĠmAll":9671,"RIDE":9672,"Ġalg":9673,"ĠZonedDateTime":9674,"Ġwill":9675,"RY":9676,"Tex":9677,"Ġpad":9678,"Ġ65":9679,"Logs":9680,"Recognition":9681,"bove":9682,"Ġtimer":9683,"ĠgetRow":9684,"ENU":9685,"Ġ39":9686,"Ġseconds":9687,"Ġsamples":9688,"ĠRSAP":9689,"ĠRandomAccess":9690,"na":9691,"pose":9692,"Ġmismatch":9693,"Ġtrie":9694,"Ġreboot":9695,"Ġanother":9696,"Ipv":9697,"EncodableVector":9698,"cestor":9699,"ATT":9700,"Accessible":9701,"phemeris":9702,"ĠAddress":9703,"Ġtc":9704,"ĠisAssignable":9705,"Outgoing":9706,"ĠMime":9707,"Within":9708,"ĠIllegalAccessException":9709,"Ġcapability":9710,"PSK":9711,"Der":9712,"ĠmHeader":9713,"entry":9714,"StringTo":9715,"Reboot":9716,"ĠPLAY":9717,"da":9718,"Ġconf":9719,"STATIC":9720,"lite":9721,"Oneof":9722,"Ġdetails":9723,"ĠmUri":9724,"DELETE":9725,"ĠmBLASData":9726,"Era":9727,"ĠINITIAL":9728,"ĠOne":9729,"IPv":9730,"Ġ\"//":9731,"ĠBiometric":9732,"576":9733,"CaptureSession":9734,"Ġmk":9735,"Ġvec":9736,"ĠBUTTON":9737,"ĠALLOWS":9738,"Axis":9739,"iding":9740,"Ġdummy":9741,"Ġtester":9742,"MED":9743,"ĠmScrollView":9744,"ĠlistWithRegionCode":9745,"url":9746,"DONE":9747,"Ġcu":9748,"ĠIo":9749,"ONY":9750,"DITION":9751,"Detection":9752,"HOUR":9753,"ĠmNew":9754,"contain":9755,"Ġ2012":9756,"ĠIPV":9757,"tableFuture":9758,"ĠgetHeader":9759,"Statistics":9760,"Ġident":9761,"ĠProtocol":9762,"Ordering":9763,"returns":9764,"ĠCompilationUnit":9765,"ManagedProfile":9766,"RAW":9767,"bing":9768,"DeviceManager":9769,"Appro":9770,"ĠColorSpace":9771,"Ġgo":9772,"throw":9773,"ĠEuicc":9774,"ĠWebView":9775,"Trusted":9776,"ĠSmsCb":9777,"Need":9778,"SINGLE":9779,"ĠshouldShow":9780,"Initializer":9781,"Crop":9782,"testConvert":9783,"ĠAccessPoint":9784,"alive":9785,"ecurity":9786,"CAMERA":9787,"ĠsetBackground":9788,"Ġ250":9789,"Adap":9790,"Ġcalls":9791,"Net":9792,"Rating":9793,"args":9794,"ĠsubMap":9795,"Enforce":9796,"cessary":9797,"ĠObjectInputStream":9798,"Ġpub":9799,"ĠdoubleValue":9800,"ĠDateUtils":9801,"limiter":9802,"Ascii":9803,"Mismatch":9804,"Ġmid":9805,"ingClass":9806,"ĠhasMore":9807,"567":9808,"Charset":9809,"Ġprimitive":9810,"Ġstruc":9811,"ĠgetDisplayName":9812,"bi":9813,"JK":9814,"Tethering":9815,"Hold":9816,"TransientException":9817,"ĠassumeTrue":9818,"erD":9819,"ĠgetNumber":9820,"ĠsetAdapter":9821,"ĠFULL":9822,"oped":9823,"pdu":9824,"mbedded":9825,"PASS":9826,"ko":9827,"ĠgetRequest":9828,"Ġhidden":9829,"ĠmCodec":9830,"ĠmGlobal":9831,"ĠscanResult":9832,"Ġ\"=\"":9833,"ĠINTENT":9834,"ĠcreateRandomAllocation":9835,"ĠgetDescription":9836,"InBackground":9837,"Ġgroups":9838,"Effects":9839,"Pinned":9840,"ĠVerifyError":9841,"Norm":9842,"Site":9843,"div":9844,"ĠDoc":9845,"ĠhasSystemFeature":9846,"IMUM":9847,"DatabaseHelper":9848,"ĠDateTimeFormatter":9849,"Estimate":9850,"RM":9851,"Ġnegative":9852,"ĠisNot":9853,"TestSuiteBuilder":9854,"Ġmutex":9855,"Probe":9856,"QUE":9857,"entral":9858,"ĠaNumber":9859,"ĠMemory":9860,"SecurityException":9861,"ĠmIndex":9862,"ĠmScript":9863,"Ġhint":9864,"ĠgetIntrinsic":9865,"ĠgetTimeZone":9866,"ĠStringWriter":9867,"strumented":9868,"IFICATION":9869,"RawContact":9870,"ĠITestInvocationListener":9871,"ĠmPopup":9872,"Ġks":9873,"ĠdoAnswer":9874,"168":9875,"ĠgetFloat":9876,"Ġvirtual":9877,"ĠreturnType":9878,"ĠdataProvider":9879,"000000000000000":9880,"ALGORITH":9881,"ĠHandshaker":9882,"Ġpartial":9883,"ĠENCODING":9884,"Ġspecified":9885,"Uce":9886,"Ġbidi":9887,"ĠonService":9888,"ĠAbstractPreferenceController":9889,"ArchiveEntry":9890,"Bssid":9891,"Standard":9892,"ĠgetGroup":9893,"ĠSelect":9894,"ĠImplements":9895,"DoesNot":9896,"tics":9897,"remove":9898,"ĠgetInputStream":9899,"SourceLines":9900,"ĠRecognition":9901,"ĠServiceManager":9902,"ĠZenMode":9903,"ĠreplyTextFor":9904,"BL":9905,"Eq":9906,"Mime":9907,"Ġdial":9908,"ĠwriteByte":9909,"UNAVAILABLE":9910,"Ġtools":9911,"apps":9912,"Instances":9913,"ĠmRender":9914,"TargetException":9915,"ProjectionMap":9916,"Tone":9917,"ĠSingleton":9918,"ViewController":9919,"ĠhasDefaultValue":9920,"ĠdataSource":9921,"Tokenizer":9922,"Dst":9923,"Ġinstant":9924,"PARAM":9925,"when":9926,"Plugin":9927,"mf":9928,"DataConnection":9929,"Maps":9930,"ĠHeadset":9931,"Ġsucce":9932,"ĠCARRIER":9933,"VARI":9934,"AtLeast":9935,"Ġbasic":9936,"ĠsetSystem":9937,"emp":9938,"ĠAt":9939,"ĠConcurrentHashMap":9940,"master":9941,"ĠmConnected":9942,"loser":9943,"ĠTypeMirror":9944,"TEXTURE":9945,"Association":9946,"130":9947,"Ġpow":9948,"arging":9949,"Ġ*=":9950,"Ġ103":9951,"Ġ108":9952,"ĠWifiNetwork":9953,"ea":9954,"ORD":9955,"OnScreen":9956,"FailCause":9957,"ĠgetComponentValue":9958,"ĠisTagImplicit":9959,"Src":9960,"Ġganss":9961,"Ġbd":9962,"ĠClassCastException":9963,"ĠRemoteViews":9964,"Ġfinished":9965,"ĠInvocationTargetException":9966,"submit":9967,"Sav":9968,"filing":9969,"hc":9970,"Dependencies":9971,"METER":9972,"ĠcreateBitmap":9973,"Ġconfigs":9974,"EXCE":9975,"ĠVtsReportMessage":9976,"SoftAp":9977,"ĠmStack":9978,"Ġicicle":9979,"ĠmRight":9980,"gmt":9981,"ERS":9982,"ConnectionException":9983,"ĠstubFtpServer":9984,"builder":9985,"adoc":9986,"ĠsetKey":9987,"avadoc":9988,"Ġusers":9989,"ELL":9990,"Ġ2008":9991,"Ġupstream":9992,"ĠgetApplicationInfo":9993,"ĠfromPerUnaligned":9994,"ole":9995,"ĠmShould":9996,"ĠSound":9997,"Ġtargets":9998,"DISABLE":9999,"ĠcreateTempFile":10000,"Small":10001,"ĠsetDevice":10002,"Ġ^=":10003,"ĠsetToNewInstance":10004,"ĠclientId":10005,"SYMBOL":10006,"ĠDisplayMetrics":10007,"ĠfromPerAligned":10008,"dType":10009,"Ġpname":10010,"Ġbec":10011,"ĠSENSOR":10012,"Starting":10013,"ĠnextElement":10014,"InputBuffer":10015,"EXCLU":10016,"ĠUiThreadTest":10017,"ĠWH":10018,"ĠComposite":10019,"ĠSortedMap":10020,"ĠTurbine":10021,"ĠUp":10022,"Ġcallbacks":10023,"WAYS":10024,"ounted":10025,"ATTR":10026,"ĠGregorianCalendar":10027,"UNDLE":10028,"Ġsecure":10029,"Ġtasks":10030,"Ġintegration":10031,"ĠgetAnnotation":10032,"ĠPosition":10033,"ByTag":10034,"TransientConnectionException":10035,"OTHER":10036,"jce":10037,"izing":10038,"Ġdelimiter":10039,"ĠInc":10040,"EventLogger":10041,"Ġpositive":10042,"Iterable":10043,"ROOT":10044,"Ġmultiset":10045,"Ġdefine":10046,"RegistrationInfo":10047,"ĠBatteryStats":10048,"ĠmUiBot":10049,"GA":10050,"event":10051,"Ġdf":10052,"ĠPhoto":10053,"ĠArrayUtils":10054,"360":10055,"ĠPARAMETER":10056,"Ġblue":10057,"();\"":10058,"licies":10059,"Ġsz":10060,"ĠRegisterSpec":10061,"'s":10062,"SENT":10063,"eople":10064,"ĠOk":10065,"Mapper":10066,"Spliterator":10067,"OLL":10068,"ĠTimeoutException":10069,"Availability":10070,"120":10071,"ĠWearable":10072,"phab":10073,"ĠSettableFuture":10074,"ĠAudioSystem":10075,"Ġauthent":10076,"Privileged":10077,"Gsm":10078,"fragment":10079,"ĠreadLong":10080,"ExternalStorage":10081,"ĠforSourceLines":10082,"Ġ'%":10083,"MaxValue":10084,"Art":10085,"ĠPREFIX":10086,"ĠAppModeFull":10087,"Organ":10088,"Ġexpecting":10089,"DBG":10090,"Ġspace":10091,"Routes":10092,"ĠgetMainLooper":10093,"CallingOrSelfPermission":10094,"bad":10095,"Ġmat":10096,"164":10097,"ĠbytesRead":10098,"FILL":10099,"ĠPPC":10100,"ĠbeginTransaction":10101,"Ġcontrollers":10102,"ĠPlaybackState":10103,"Ġextended":10104,"ĠLOCK":10105,"ĠmBackup":10106,"Vol":10107,"Initi":10108,"Ġlegacy":10109,"ĠmAlarm":10110,"ĠgetServer":10111,"ĠChunk":10112,"ĠSSLEngine":10113,"Formula":10114,"Listening":10115,"Ġ43":10116,"oogleApiClient":10117,"ĠmDut":10118,"ĠAbstractStub":10119,"CAN":10120,"omm":10121,"Si":10122,"ĠgetElements":10123,"TypeName":10124,"ĠtimeZone":10125,"AYLOAD":10126,"EMERGENCY":10127,"PlatformApi":10128,"EqualityGroup":10129,"ĠtestString":10130,"Ġalert":10131,"LTA":10132,"Micro":10133,"hash":10134,"Ġdy":10135,"ĠmWallpaper":10136,"Changing":10137,"Verbose":10138,"It":10139,"PIN":10140,"ĠmPosition":10141,"request":10142,"ĠGuid":10143,"ĠuserInfo":10144,"Mockito":10145,"ĠBluetoothCodecConfig":10146,"Ġcaptor":10147,"ertype":10148,"ĠCountry":10149,"ĠExecutors":10150,"ĠModel":10151,"Ġpanel":10152,"Ġem":10153,"ĠtoUpperCase":10154,"Ġ47":10155,"TEM":10156,"ĠmCursor":10157,"Capable":10158,"SessionCallback":10159,"Ġcleanup":10160,"ĠMessaging":10161,"ĠRop":10162,"ĠFork":10163,"ĠaddEqualityGroup":10164,"erDuff":10165,"Co":10166,"Inline":10167,"ĠDIAL":10168,"ĠECCurve":10169,"Ter":10170,"ĠtoIndex":10171,"Ġ\"'\"":10172,"ORIENTATION":10173,"ĠaddItem":10174,"ĠgetLabel":10175,"Destination":10176,"Playing":10177,"Ġbssid":10178,"ĠSeekBar":10179,"gers":10180,"eds":10181,"FOUND":10182,"enable":10183,"Ġfraction":10184,"ĠgetImage":10185,"ĠTra":10186,"Ġdpm":10187,"Altern":10188,"ĠMessageDigest":10189,"ĠDisconnect":10190,"010":10191,"Ġseries":10192,"Absent":10193,"220":10194,"Ġ44":10195,"TrustManager":10196,"Toolbar":10197,"ĠgetShort":10198,"ĠAnswer":10199,"Ġzen":10200,"ĠSpanned":10201,"ĠTelecomManager":10202,"curacy":10203,"MARK":10204,"Ġmean":10205,"Ġanaly":10206,"ĠShell":10207,"utomator":10208,"LAN":10209,"Ġ150":10210,"DataKind":10211,"ĠMethodHandles":10212,"Const":10213,"ĠtestInfo":10214,"ĠFileUtils":10215,"condition":10216,"ĠTRANS":10217,"Find":10218,"ism":10219,"ĠassertEqual":10220,"ponder":10221,"ĠAppWidget":10222,"Iteration":10223,"sign":10224,"work":10225,"strap":10226,"Ġfm":10227,"ĠcolumnIndex":10228,"ĠMacAddress":10229,"lmn":10230,"GRESS":10231,"[\"":10232,"sync":10233,"Ġhc":10234,"FieldSet":10235,"Ġwaiting":10236,"ĠemptySet":10237,"ĠmSelection":10238,"Ġops":10239,"ĠdeviceId":10240,"lusion":10241,"Transitions":10242,"ĠSPAN":10243,"ĠBound":10244,"Protected":10245,"Generated":10246,"ĠHashtable":10247,"display":10248,"Challenge":10249,"ĠArrayAdapter":10250,"ibrator":10251,"Viol":10252,"Ġhandshake":10253,"DV":10254,"ĠClip":10255,"ĠDi":10256,"Appended":10257,"ĠreadObject":10258,"ĠActivityTestRule":10259,"ĠmPrimary":10260,"sContract":10261,"ĠgetAnd":10262,"DES":10263,"Ġshape":10264,"Ġannot":10265,"ĠJP":10266,"SaveInstanceState":10267,"Ġjcajce":10268,"cu":10269,"ansion":10270,"NAMES":10271,"ĠNotificationCompat":10272,"Ġassist":10273,"riers":10274,"gorithms":10275,"ĠBluetoothGatt":10276,"SurfaceView":10277,"dn":10278,"Ġ112":10279,"ĠDrag":10280,"Specification":10281,"Fails":10282,"Ġthree":10283,"otype":10284,"Resize":10285,"ĠWorker":10286,"next":10287,"rozen":10288,"ective":10289,"ĠBad":10290,"uspended":10291,"Minus":10292,"ĠDOMException":10293,"plane":10294,"ĠsetTest":10295,"CHILD":10296,"ĠTransaction":10297,"atural":10298,"ENTIFI":10299,"ĠfieldNumber":10300,"Animations":10301,"tlr":10302,"Written":10303,"):":10304,"MAIL":10305,"ĠtestCreate":10306,"phemeral":10307,"Ġnist":10308,"Stroke":10309,"ĠBasePreferenceController":10310,"ĠmFrame":10311,"ĠtestRead":10312,"SEARCH":10313,"Ġ70":10314,"Help":10315,"Ġ98":10316,"CAR":10317,"lop":10318,"FormatException":10319,"Ġpredicate":10320,"Ġdh":10321,"ĠsetScale":10322,"ĠManaged":10323,"ĠClassName":10324,"ĠmLocation":10325,"555":10326,"rcp":10327,"FINISH":10328,"Wildcard":10329,"Ġparsing":10330,"Ġkeystore":10331,"ĠProduc":10332,"ASN":10333,"YX":10334,"Ġ\";":10335,"osure":10336,"PreferenceChangeListener":10337,"150":10338,"gb":10339,"TRIGGER":10340,"TARGET":10341,"ĠPrinter":10342,"akel":10343,"Ġ49":10344,"ĠProvides":10345,"ĠmDb":10346,"rogate":10347,"lices":10348,"ĠgetSelection":10349,"pkg":10350,"ĠmFocus":10351,"Strip":10352,"ced":10353,"Export":10354,"LF":10355,"ĠgetBounds":10356,"unknown":10357,"Ġhalf":10358,"580":10359,"Ġchoice":10360,"ĠmSensor":10361,"KEYS":10362,"testing":10363,"Ġtracker":10364,"ĠCAMERA":10365,"ĠaddOn":10366,"usage":10367,"emon":10368,"ĠCellBroadcast":10369,"BAD":10370,"job":10371,"Ġautom":10372,"ĠsetHas":10373,"111":10374,"header":10375,"ĠgetSerialNumber":10376,"ĠIConfiguration":10377,"FileSystem":10378,"ĠmEgl":10379,"Ġtestutils":10380,"akelock":10381,"Ġdevices":10382,"ĠTRUE":10383,"ĠgetOp":10384,"ĠCodec":10385,"ImageView":10386,"WebView":10387,"ygo":10388,"Ġgms":10389,"ĠgetTask":10390,"Ġwhite":10391,"ygote":10392,"tories":10393,"LString":10394,"Mms":10395,"ĠCLI":10396,"ĠPixel":10397,"ĠSparseIntArray":10398,"ĠCURRENT":10399,"ResolveInfo":10400,"ĠtaskId":10401,"BOARD":10402,"ĠMOCK":10403,"ivot":10404,"Persistent":10405,"ĠCategory":10406,"ĠSYNC":10407,"Ġ\"(\"":10408,"ĠprogramClass":10409,"ToSave":10410,"Recents":10411,"ĠreadLine":10412,"UNIT":10413,"ĠVehicleProperty":10414,"-'":10415,"ĠmUpdate":10416,"AAAB":10417,"6666":10418,"Modification":10419,"ĠSignal":10420,"ĠUsageStats":10421,"CLEAR":10422,"Ġ180":10423,"ĠSurfaceTexture":10424,"Ġbg":10425,"ĠstartIndex":10426,"GRAM":10427,"rants":10428,"Ġbt":10429,"Ġsigner":10430,"Ġaa":10431,"verted":10432,"ANIMATION":10433,"ooks":10434,"ĠForkJoin":10435,"totype":10436,"thetic":10437,"TIFY":10438,"549":10439,"ĠTransliterator":10440,"ĠsetDataPosition":10441,"NAVIGATION":10442,"Go":10443,"RULE":10444,"Ġloaded":10445,"ĠPayload":10446,"ServiceConnection":10447,"RTUAL":10448,"ĠPip":10449,"allowed":10450,"ANE":10451,"ĠchannelId":10452,"BluetoothDevice":10453,"ĠCorePlatformApi":10454,"ĠrunDeviceTests":10455,"ĠWriter":10456,"Ġ63":10457,"ĠmCell":10458,"Ġviews":10459,"Histogram":10460,"ITER":10461,"hi":10462,"ĠResolver":10463,"ĠREST":10464,"fff":10465,"While":10466,"ĠUNSIGNED":10467,"REMOTE":10468,"ĠJsonRpcProxy":10469,"ĠMsg":10470,"ĠreplyCode":10471,"Inv":10472,"Ġanalysis":10473,"ĠwriteLong":10474,"ĠmBound":10475,"definition":10476,"WARD":10477,"ZX":10478,"ĠRET":10479,"ĠPending":10480,"ĠArrayIndexOutOfBoundsException":10481,"ynchronous":10482,"ĠResourceBundle":10483,"Presence":10484,"ĠINVISIBLE":10485,"Ġmatching":10486,"Levels":10487,"Ġbacking":10488,"ĠCHE":10489,"eline":10490,"UTC":10491,"OutputBuffer":10492,"ĠSoftApConfiguration":10493,"Original":10494,"Pad":10495,"ĠmInterface":10496,"Recent":10497,"ĠremoveCallbacks":10498,"ĠAudioTrack":10499,"InvocationContext":10500,"à¸":10501,"Ġnullable":10502,"0001":10503,"UMMY":10504,"Ġcolors":10505,"Ġdigits":10506,"ĠQueue":10507,"atar":10508,"ĠgetInput":10509,"ĠUid":10510,"109":10511,"ĠgetMedia":10512,"Framework":10513,"Ġtw":10514,"Ġloop":10515,"ĠisM":10516,"ĠOPEN":10517,"ĠpostDelayed":10518,"Hz":10519,"atis":10520,"Ġstandard":10521,"ĠAB":10522,"ĠFA":10523,"Soft":10524,"uzz":10525,"ĠsetWidget":10526,"ĠisSystem":10527,"ALPHA":10528,"network":10529,"ĠLogging":10530,"Ġprime":10531,"Integrity":10532,"pManager":10533,"Ġdataset":10534,"ĠFixed":10535,"Ġ512":10536,"Ġcompiler":10537,"ĠSignatureException":10538,"NotificationChannel":10539,"ĠWindowState":10540,"PRINT":10541,"Between":10542,"Handover":10543,"ugmented":10544,"TRIC":10545,"GUARD":10546,"EK":10547,"NV":10548,"ead":10549,"Ġspeed":10550,"Ġ66":10551,"ĠmFake":10552,"ĠAVAILABLE":10553,"api":10554,"SessionStateMachine":10555,"Ġpoints":10556,"MYTEST":10557,"Thrott":10558,"MER":10559,"Square":10560,"ets":10561,"ĠCopy":10562,"MU":10563,"vb":10564,"Ġbot":10565,"ĠCbor":10566,"ToLong":10567,"RESET":10568,"UserHandle":10569,"testNative":10570,"losingFuture":10571,"Hierarchy":10572,"Vari":10573,"ĠWindowInsets":10574,"ISTR":10575,"LER":10576,"ĠisArray":10577,"DataType":10578,"Ġparallel":10579,"ĠmDraw":10580,"Ġmapping":10581,"Clients":10582,"Ġ694":10583,"versal":10584,"ĠUPDATE":10585,"ĠgetCode":10586,"ĠsetRe":10587,"ĠtestRemove":10588,"ĠasMap":10589,"ClickHandler":10590,"Labels":10591,"INTERFACE":10592,"ĠROOT":10593,"Canceled":10594,"range":10595,"ĠRED":10596,"ĠMediaMetadata":10597,"ĠInterpolator":10598,"ĠmNotificationManager":10599,"visor":10600,"Forwarding":10601,"BOUND":10602,"LP":10603,"hip":10604,"uilt":10605,"ĠmCache":10606,"MYTESTSTRING":10607,"STORE":10608,"104":10609,"ProfileOwner":10610,"ĠobjToSave":10611,"AFTER":10612,"Recursive":10613,"Ġthreads":10614,"SIGNATURE":10615,"CallLog":10616,"IFACE":10617,"uro":10618,"ĠPBE":10619,"TIMESTAMP":10620,"atisf":10621,"ĠSymbol":10622,"servable":10623,"ffective":10624,"Ġ54":10625,"''":10626,"Jo":10627,"Analy":10628,"ĠreadUnsigned":10629,"Ġgc":10630,"Ġ117":10631,"ĠDummy":10632,"Then":10633,"Ġ655":10634,"CharArray":10635,"ĠgetModifiers":10636,"BT":10637,"STAL":10638,"ĠDataSource":10639,"address":10640,"Ġflatten":10641,"Place":10642,"ĠArithmetic":10643,"Shard":10644,"CharSequence":10645,"Characteristic":10646,"Ġmarker":10647,"after":10648,"Ġbi":10649,"upant":10650,"Div":10651,"ĠAlgorithmParameterSpec":10652,"CONTACTS":10653,"Ġrb":10654,"description":10655,"Ġattemp":10656,"ĠCommandResult":10657,"ĠresourceId":10658,"UV":10659,"Ġface":10660,"Ġrad":10661,"DIAN":10662,"ANGU":10663,"Ġencryption":10664,"Ġnanos":10665,"ĠOsConstants":10666,"MV":10667,"Classification":10668,"LOT":10669,"FromString":10670,"EXTENSION":10671,"Ġabort":10672,"SELECTION":10673,"ANGUAGE":10674,"Rx":10675,"rans":10676,"ĠTLS":10677,"ĠtoList":10678,"LEPH":10679,"ĠgetSample":10680,"LEPHONY":10681,"RGB":10682,"ĠSW":10683,"ither":10684,"ĠReport":10685,"Secret":10686,"Ġglide":10687,"ĠgetRepeated":10688,"ĠmOriginal":10689,"Confirmation":10690,"ĠAuthenticator":10691,"ĠasBinder":10692,"Ġsignum":10693,"Closeable":10694,"ĠNormalizer":10695,"Flush":10696,"aemon":10697,"Ġpack":10698,"Ġgov":10699,"Ġantlr":10700,"ĠmWifiNative":10701,"ĠBYTE":10702,"HIDDEN":10703,"Ġ115":10704,"ĠsetDisplay":10705,"ĠputLong":10706,"client":10707,"Ġdrm":10708,"Connecting":10709,"finity":10710,"Via":10711,"ital":10712,"uest":10713,"Ġprops":10714,"Ġ96":10715,"RESTRICTION":10716,"Ġhit":10717,"HAS":10718,"place":10719,"ĠmMode":10720,"Ġinters":10721,"handle":10722,"ĠPorterDuff":10723,"Rssi":10724,"bla":10725,"ĠcheckError":10726,"ĠcurrentTime":10727,"Upstream":10728,"Dirs":10729,"Ġmms":10730,"ĠPORT":10731,"RET":10732,"AndWait":10733,"ĠcontainsAll":10734,"Operations":10735,"Serialization":10736,"eofence":10737,"ï¿":10738,"ĠHandshake":10739,"iautomator":10740,"166":10741,"ĠJPDA":10742,"urst":10743,"ĠPlural":10744,"ĠHal":10745,"ĠmyUserId":10746,"Activated":10747,"ĠTemporalField":10748,"Ġcorrect":10749,"ĠmScan":10750,"Ġless":10751,"Telecom":10752,"Breakpoint":10753,"Ġmutable":10754,"ĠBeta":10755,"Tracks":10756,"ĠServiceConnection":10757,"Ġnav":10758,"Ġlb":10759,"ensitive":10760,"560":10761,"ĠSTAND":10762,"ĠwithAppended":10763,"ĠRpcParameter":10764,"DIRECTORY":10765,"Ġcast":10766,"ĠclassLoader":10767,"ĠContentObserver":10768,"ĠMultiset":10769,"sole":10770,"oler":10771,"lemental":10772,"Ġinfos":10773,"ĠReturnType":10774,"ĠGANSS":10775,"ĠWEEK":10776,"7654":10777,"SUF":10778,"Ġopeng":10779,"ĠCameraDevice":10780,"NER":10781,"aW":10782,"Ġrx":10783,"ĠisInstance":10784,"REQUIRED":10785,"Spans":10786,"DurationMs":10787,"Ġmanagedprovisioning":10788,"ĠtestStarted":10789,"Interrupted":10790,"ĠMediaSession":10791,"176":10792,"ĠNotificationRecord":10793,"FRAGMENT":10794,"ĠHTML":10795,"EnterpriseConfig":10796,"ĠgetAttributes":10797,"Ġrew":10798,"TestDevice":10799,"ĠWID":10800,"ĠHALF":10801,"AppData":10802,"ĠatLeast":10803,"Ġ76":10804,"Ġexpi":10805,"CONTEXT":10806,"Subchannel":10807,"ĠEXT":10808,"arseArray":10809,"Dp":10810,"Follow":10811,"jo":10812,"udd":10813,"Ġpat":10814,"ATING":10815,"Ġclearsilver":10816,"types":10817,"ĠAlgorithmIdentifier":10818,"DebuggeeSynchronizer":10819,"ĠJPDADebuggeeSynchronizer":10820,"orer":10821,"Ġuiautomator":10822,"TypeData":10823,"etered":10824,"IES":10825,"PLEMENT":10826,"Variant":10827,"Ġdimension":10828,"ograph":10829,"Ġdependency":10830,"ĠxOff":10831,"ĠfilePath":10832,"UiAutomation":10833,"Ġhelpers":10834,"840":10835,"Ġcurrency":10836,"Ġequivalent":10837,"ĠSaved":10838,"Ġwear":10839,"Accumulator":10840,"consume":10841,"SHOT":10842,"ĠDisc":10843,"fw":10844,"pings":10845,"ĠLazy":10846,"ĠtestParse":10847,"Regex":10848,"ĠHelpers":10849,"ĠAutofillId":10850,"270":10851,"GCM":10852,"ĠviewHolder":10853,"Named":10854,"ĠEquals":10855,"ByType":10856,"ĠTimeline":10857,"ĠGuice":10858,"260":10859,"ĠSys":10860,"ĠCarUxRestrictions":10861,"ĠApplicationProvider":10862,"ĠForward":10863,"the":10864,"irplane":10865,"ConfigStore":10866,"ĠOrdering":10867,"Servlet":10868,"ĠmMatrix":10869,"ĠsubList":10870,"ĠSupport":10871,"ĠmExpected":10872,"ĠassertNo":10873,"ĠHorizontal":10874,"lug":10875,"ĠmSim":10876,"ĠPriority":10877,"ĠUnknownFieldSet":10878,"480":10879,"None":10880,"TimeoutException":10881,"ĠgetPreferenceScreen":10882,"case":10883,"ĠCallLog":10884,"ĠPRIMARY":10885,"pred":10886,"ĠgetVersion":10887,"Annotated":10888,"Ġbinarylog":10889,"STYLE":10890,"eness":10891,"Ġcor":10892,"ĠSEND":10893,"ĠfieldName":10894,"UnknownFields":10895,"TL":10896,"Ġart":10897,"768":10898,"ĠgetCanonicalName":10899,"Ġnl":10900,"Thumb":10901,"ĠnetworkId":10902,"ĠFAILURE":10903,"Ġfour":10904,"Ġconstraint":10905,"ĠNATIVE":10906,"ForResult":10907,"ĠCodedOutputStream":10908,"ĠsetActive":10909,"ĠtestWrite":10910,"Outer":10911,"Ġscore":10912,"TRACK":10913,"StaIface":10914,"ĠMODULE":10915,"Ġmkdir":10916,"Partition":10917,"KEEP":10918,"Portal":10919,"Sql":10920,"ĠCanned":10921,"ĠsetReplyTextBundle":10922,"ĠmBubble":10923,"Backed":10924,"ĠgetContentType":10925,"Credentials":10926,"APH":10927,"ĠCodedInputStream":10928,"EV":10929,"Was":10930,"USB":10931,"ĠUtility":10932,"BOX":10933,"ELEMENT":10934,"ĠtestRe":10935,"Scenario":10936,"Ġrecycler":10937,"ĠlaunchActivity":10938,"Ġul":10939,"invoke":10940,"Three":10941,"Special":10942,"ĠKeyFactory":10943,"ĠTypes":10944,"hz":10945,"wipe":10946,"Ġfactor":10947,"KeyManager":10948,"ĠonComplete":10949,"ListenerAdapter":10950,"Scal":10951,"SCAPE":10952,"Ġwithout":10953,"CHARACTER":10954,"sv":10955,"ĠgetThread":10956,"ĠgetAnnotations":10957,"ĠsetM":10958,"ĠWRITE":10959,"Returns":10960,"WD":10961,"Ġifd":10962,"ĠLanguage":10963,"REF":10964,"Ġsmall":10965,"Minimum":10966,",'":10967,"Ġissuer":10968,"Ġnone":10969,"ĠDal":10970,"RETRY":10971,"IDs":10972,"ICAL":10973,"mainder":10974,"Correc":10975,"Ġ\"[\"":10976,"ĠexplicitCast":10977,"Enforced":10978,"currency":10979,"ĠInfo":10980,"ĠProfile":10981,"ĠfromString":10982,"parser":10983,"Ġassoci":10984,"Plus":10985,"ValuePair":10986,"ĠexpectedExceptions":10987,"Ġminute":10988,"ĠlocalName":10989,"itz":10990,"ACCESSIBILITY":10991,"Ġsuppress":10992,"ĠPasspoint":10993,"dt":10994,"kbps":10995,"Example":10996,"ĠEOF":10997,"167":10998,"Blocks":10999,"IFD":11000,"ĠLinkedHashSet":11001,"Ġdifferent":11002,"00000001":11003,"IOD":11004,"DESCRIPTION":11005,"ĠmDrag":11006,"PERMISSIONS":11007,"baz":11008,"ĠmShadow":11009,"Ġsuspend":11010,"Ġtri":11011,"utation":11012,"verser":11013,"Ġdisp":11014,"ĠgetSurface":11015,"ISTORY":11016,"tmp":11017,"Ġinterrupted":11018,"Ġstarting":11019,"Ġunexpected":11020,"MOBILE":11021,"ĠmoveToFirst":11022,"113":11023,"NOTATION":11024,"ĠParsePosition":11025,"ĠSAMPLE":11026,"ĠALIGN":11027,"></":11028,"manager":11029,"ĠmOpen":11030,"Ġtd":11031,"Ġstmt":11032,"Ġconstruct":11033,"ĠtestEquals":11034,"Ġioe":11035,"Ġarchive":11036,"Spy":11037,"Subscriber":11038,"ĠPreview":11039,"ĠstatusBar":11040,"ĠmIke":11041,"Ġgreen":11042,"Reported":11043,"ĠStructuredName":11044,"attr":11045,"Ġjsilver":11046,"icipants":11047,"ĠsetComponent":11048,"ĠsetFlags":11049,"ĠContextualCard":11050,"Ġera":11051,"ĠparseLong":11052,"exception":11053,"PositiveButton":11054,"Suspend":11055,"ooled":11056,"ĠDSA":11057,"ĠUnsafe":11058,"CipherSuites":11059,"TOUCH":11060,"Ġinterpolator":11061,"riteria":11062,"ĠmTestInfo":11063,"ĠApplicationsState":11064,"CONFIGURATION":11065,"ĠADMIN":11066,"eedback":11067,"SECURE":11068,"password":11069,"ĠCOMPONENT":11070,"ĠCHECK":11071,"Bool":11072,"ĠgetLayoutParams":11073,"Rem":11074,"Enab":11075,"APER":11076,"ĠunmodifiableList":11077,"JSON":11078,"Push":11079,"sig":11080,"Ġsubtitle":11081,"ĠMediaSource":11082,"compressed":11083,"SHORTCUT":11084,"ĠMsgKey":11085,"icast":11086,"tech":11087,"Ġ160":11088,"ĠMAP":11089,"888":11090,"ENDOR":11091,"Selectable":11092,"Caption":11093,"wrap":11094,"Ġroll":11095,"ĠBOO":11096,"REN":11097,"Ġresp":11098,"Ġkeyguard":11099,"ĠRegist":11100,"Ġ57":11101,"Ġpresent":11102,"ĠglGet":11103,"values":11104,"Coordin":11105,"Mat":11106,"ĠCAN":11107,"ĠId":11108,"ĠMediaItem":11109,"EXTENDED":11110,"616":11111,"Boundary":11112,"Cards":11113,"ĠunregisterReceiver":11114,"Ġretrieve":11115,"YW":11116,"ĠTwo":11117,"ĠVDBG":11118,"MEM":11119,"Unavailable":11120,"Ġunused":11121,"PARAMETER":11122,"ConnectionService":11123,"ĠmPersist":11124,"Movement":11125,"ĠgetCarrier":11126,"rot":11127,"ĠequalTo":11128,"Exif":11129,"Parsed":11130,"lecting":11131,"Ġ102":11132,"ĠScheduledRecording":11133,"ĠSO":11134,"loaded":11135,"ĠKM":11136,"Prepared":11137,"SKIP":11138,"ĠPATHNAME":11139,"ĠDatagram":11140,"oard":11141,"Ġsmali":11142,"Ġvendor":11143,"ĠthrowIf":11144,"Ġcaliper":11145,"ĠSurfaceHolder":11146,"Qualifier":11147,"ĠsipStack":11148,"certainty":11149,"ĠmessageId":11150,"OFT":11151,"Ġ{}\"":11152,"ident":11153,"SIL":11154,"atal":11155,"EMPTY":11156,"ĠASS":11157,"ĠRewrite":11158,"BUCKET":11159,"ĠSerialization":11160,"ĠgetItemId":11161,"Bag":11162,"mas":11163,"ForUid":11164,"ĠmWifiConfigManager":11165,"Ġsuitebuilder":11166,"bbb":11167,"Metered":11168,"Else":11169,"ĠgetMetricsCategory":11170,"ĠDisconnectCause":11171,"car":11172,"query":11173,"Caps":11174,"304":11175,"ibrate":11176,"avorites":11177,"EF":11178,"ually":11179,"ĠmApplication":11180,"Ġsr":11181,"Ġdays":11182,"204":11183,"EXEC":11184,"VideoCall":11185,"ĠTHREAD":11186,"arshall":11187,"bluetooth":11188,"seud":11189,"edi":11190,"ĠConfirm":11191,"avigationBar":11192,"avigableMap":11193,"now":11194,"ĠUResourceBundle":11195,"Overrides":11196,"ĠForwarding":11197,"ropped":11198,"ĠVirtual":11199,"SIG":11200,"ĠgetLocation":11201,"ĠNotify":11202,"ĠSSLSocket":11203,"Sl":11204,"Ġep":11205,"CELL":11206,"Ġmatched":11207,"literal":11208,"263":11209,"ARENT":11210,"650":11211,"qp":11212,"etAddress":11213,"Ġsynchronizer":11214,"ymmetric":11215,"EmptyMessage":11216,"Ġ\"-\"":11217,"Em":11218,"Letter":11219,"sim":11220,"ense":11221,"ĠinArray":11222,"ĠgetValues":11223,"Handling":11224,"UserInfo":11225,"ributed":11226,"IZATION":11227,"GESTURE":11228,"Ġagent":11229,"ordedProgram":11230,"ĠBOOLEAN":11231,"022":11232,"Fade":11233,"dc":11234,"aque":11235,"lv":11236,"ĠsetInput":11237,"TypeSolver":11238,"Deleted":11239,"ĠUnsupportedEncodingException":11240,"Generate":11241,"controller":11242,"Automatic":11243,"ĠQuery":11244,"ĠDvr":11245,"ĠANY":11246,"Ġreferenced":11247,"ĠStorageManager":11248,"ssion":11249,"Ġidle":11250,"ĠgetSignature":11251,"GLOBAL":11252,"Some":11253,"ĠDagger":11254,"iform":11255,"CTURE":11256,"ĠENG":11257,"Mgmt":11258,"Ġlo":11259,"Append":11260,"ĠincX":11261,"Ġdisc":11262,"IPS":11263,"ĠareAll":11264,"ĠZoneId":11265,"IllegalArgumentException":11266,"cr":11267,"Dev":11268,"arms":11269,"ĠMark":11270,"Ġ52":11271,"RADIO":11272,"WAR":11273,"ĠmPath":11274,"ĠmToken":11275,"ĠBIND":11276,"ĠisDone":11277,"ĠObjectOutputStream":11278,"Styled":11279,"Ġlabels":11280,"ĠTargetApi":11281,"ARGE":11282,"154":11283,"ids":11284,"LICE":11285,"Subclass":11286,"ĠbufferSize":11287,"ĠwidthMeasureSpec":11288,"br":11289,"Ġoo":11290,"Ġfos":11291,"ittle":11292,"ĠkeyStore":11293,"ĠMissing":11294,"DEST":11295,"ĠWRAP":11296,"AllMessages":11297,"ĠmDest":11298,"Ġexpanded":11299,"ĠSSID":11300,"132":11301,"acklist":11302,"ĠDhcp":11303,"anged":11304,"ForPackage":11305,"Getter":11306,".\\":11307,"ĠtestM":11308,"Tran":11309,"ĠkeyType":11310,"ĠmTab":11311,"ĠMainThread":11312,"etry":11313,"ĠMMS":11314,"ĠTestApp":11315,"Ġwho":11316,"ĠMeasureUnit":11317,"ĠArgumentsFloatFloat":11318,"ĠmWmState":11319,"lin":11320,"ratch":11321,"ĠgetStackTrace":11322,"ĠBitmapDrawable":11323,"Conflic":11324,"ĠZipEntry":11325,"Injection":11326,"124":11327,"ĠSetup":11328,"Ġasm":11329,"ĠsessionInfo":11330,"Ġiterable":11331,"ĠisG":11332,"Ġhilt":11333,"ĠcontentValues":11334,"ĠasInterface":11335,"Initialize":11336,"SaRecord":11337,"ognized":11338,"ooseLock":11339,"ĠNANO":11340,"Quietly":11341,"Icc":11342,"ĠsService":11343,"Ġreturns":11344,"Ġli":11345,"Ġklass":11346,"ECParameters":11347,"ĠPointer":11348,"ĠHdmiCec":11349,"116":11350,"2000":11351,"EFFECT":11352,"ef":11353,"ison":11354,"ĠsetTarget":11355,"ĠcreateNew":11356,"ingerMode":11357,"Coordinator":11358,"JOB":11359,"ActionBar":11360,"ĠLocalServices":11361,"ĠinvokeExact":11362,"ZenMode":11363,"urope":11364,"237":11365,"Html":11366,"Tri":11367,"ooze":11368,"ĠTestSSL":11369,"Parallel":11370,"BITS":11371,"ĠtoBuilder":11372,"Ġchrom":11373,"ĠParsing":11374,"144":11375,"VERS":11376,"232":11377,"Aliases":11378,"ĠGl":11379,"ĠmSummary":11380,"563":11381,"ĠintentFilter":11382,"FIXED":11383,"ĠmExtras":11384,"ĠgetStack":11385,"ĠonSaveInstanceState":11386,"CODEC":11387,"provider":11388,"ĠFragmentManager":11389,"Ġhad":11390,"ACCE":11391,"ĠremoveMessages":11392,"Clickable":11393,"ĠwithField":11394,"Reflection":11395,"IMS":11396,"QP":11397,"ĠFingerprint":11398,"Ġprovisioning":11399,"ĠmPm":11400,"Ġdecoded":11401,"ĠmFull":11402,"ĠTETHER":11403,"Hmac":11404,"Lifetime":11405,"Ġraf":11406,"ĠWifiMetrics":11407,"Ġmemory":11408,"Ġverbose":11409,"ĠArchive":11410,"ĠExp":11411,"Ġme":11412,"ĠmAccessibility":11413,"UNSPECIFIED":11414,"ĠmBottom":11415,"Bitrate":11416,"ENTIFIER":11417,"ĠgetNative":11418,"Alignment":11419,"ĠNetworkRequest":11420,"SUGGEST":11421,"Ġprocessor":11422,"ĠimageView":11423,"CountryCode":11424,"nology":11425,"Ġinstalled":11426,"ĠVer":11427,"ASURE":11428,"Animating":11429,"ĠLinkProperties":11430,"ĠKeyStoreException":11431,"ĠDIRECT":11432,"ĠSETTINGS":11433,"Schema":11434,"Animated":11435,"Opt":11436,"Ġdns":11437,"Ġdep":11438,"ĠGO":11439,"ĠmPadding":11440,"Ġminimum":11441,"ĠUiDevice":11442,"239":11443,"pa":11444,"storage":11445,"ĠCounter":11446,"Already":11447,"Ġ41":11448,"PeriodId":11449,"ĠAlarmManager":11450,"424":11451,"Tuner":11452,"Ġcmp":11453,"ĠmContact":11454,"Ġdalvik":11455,"Ġpreload":11456,"Ġopts":11457,"Attempt":11458,"ALGORITHM":11459,"SV":11460,"UTES":11461,"ĠCredential":11462,"NetworkInfo":11463,"ĠgetStringArray":11464,"CUR":11465,"Gain":11466,"GSM":11467,"aption":11468,"ĠmPassword":11469,"ulus":11470,"ĠSend":11471,"ĠIme":11472,"Upgrade":11473,"Replier":11474,"BROADCAST":11475,"Complex":11476,"Ġ55":11477,"RecyclerView":11478,"ItemInfo":11479,"ĠonCreateView":11480,"Resumed":11481,"ĠRewriteRule":11482,"bly":11483,"ĠgetList":11484,"AGED":11485,"ErrorException":11486,"ĠmLifecycle":11487,"NEXT":11488,"ĠPresubmit":11489,"265":11490,"Assistant":11491,"CONTINUE":11492,"GV":11493,"Ġstd":11494,"ĠMask":11495,"Varint":11496,"Adjustment":11497,"Calculator":11498,"GATE":11499,"ĠmUsb":11500,"Ġnorm":11501,"ips":11502,"RESTRICTED":11503,"RU":11504,"etd":11505,"rough":11506,"ĠsetN":11507,"DEF":11508,"lies":11509,"108":11510,"GRAPH":11511,"Switcher":11512,"gAlloc":11513,"Ġta":11514,"Ġbump":11515,"Ġrest":11516,"ĠsetId":11517,"UNI":11518,"UsageStats":11519,"Ġregistered":11520,"ĠENABLE":11521,"Ġpkcs":11522,"Ġmv":11523,"ĠsetSelection":11524,"ALARM":11525,"ĠgetSbn":11526,"Ġtransfer":11527,"ALLP":11528,"ĠClickHandler":11529,"InProgress":11530,"ĠtestEnded":11531,"CHED":11532,"105":11533,"UMB":11534,"ĠNetworkInfo":11535,"Hw":11536,"Stored":11537,"ĠgetScroll":11538,"ĠIfd":11539,"ĠInOrder":11540,"Ġpartition":11541,"ĠisF":11542,"ĠtoASN":11543,"Subtitle":11544,"Arr":11545,"econds":11546,"scripting":11547,"Sil":11548,"Tick":11549,"arison":11550,"UNCTION":11551,"Registrants":11552,"duced":11553,"Ġ'-'":11554,"Translate":11555,"Ġtranslation":11556,"ĠCharBuffer":11557,"ĠFastMath":11558,"ll":11559,"lated":11560,"ãĥ":11561,"ĠinValue":11562,"ENDIAN":11563,"anning":11564,"ACITY":11565,"ĠGnss":11566,"CharacterIterator":11567,"ĠtransitionTo":11568,"ĠSCAN":11569,"656":11570,"Hotspot":11571,"Sn":11572,"ĠisDevice":11573,"ĠSTATIC":11574,"Identification":11575,"Ġretain":11576,"Ġobjectweb":11577,"Ġexclude":11578,"ĠgetQualifiedName":11579,"rary":11580,"Ġflip":11581,"ĠFocus":11582,"RIL":11583,"ĠgetCertificate":11584,"ĠdexFile":11585,"Invisible":11586,"ĠTO":11587,"ĠSoft":11588,"ADJ":11589,"Ġtimezone":11590,"ĠAtomicLong":11591,"Sk":11592,"ĠDOWN":11593,"ĠaddHeader":11594,"ĠrequestFocus":11595,"TreeObserver":11596,"ĠARGB":11597,"Terminated":11598,"ximity":11599,"WATCH":11600,"ĠExt":11601,"ĠPUBLIC":11602,"ĠgetCell":11603,"ĠmWifiInfo":11604,"ĠHttpURLConnection":11605,"CRYPTION":11606,"Precision":11607,"ALLPAPER":11608,"SCHEME":11609,"Ġcla":11610,"ĠsetLength":11611,"ĠBubble":11612,"ĠTestInformation":11613,"achable":11614,"Ġtoolbar":11615,"ĠMin":11616,"Ġformats":11617,"QUERY":11618,"ĠSocketAddress":11619,"ĠNoSuchMethod":11620,"ĠHelper":11621,"ĠOverlay":11622,"ĠArithmeticException":11623,"ĠmPrevious":11624,"Ġfast":11625,"ĠdefStyleRes":11626,"HostException":11627,"HARD":11628,"Ġmcc":11629,"ĠmRunning":11630,"ĠROUND":11631,"Ġws":11632,"ĠElem":11633,"CONST":11634,"Ġ72":11635,"ĠFragmentActivity":11636,"ĠgetRemote":11637,"ï¿¿":11638,"vnd":11639,"Ġtuple":11640,"Ġ124":11641,"ables":11642,"Bypass":11643,"ĠRESPONSE":11644,"PropertyMetaModel":11645,"SAMPLE":11646,"ĠISO":11647,"Bandwidth":11648,"Ġfrequency":11649,"Attribution":11650,"ĠgetRequired":11651,"CONNECTING":11652,"filtered":11653,"Consume":11654,"ĠDocumentBuilder":11655,"ĠRadioButton":11656,"Ġmany":11657,"CUSTOM":11658,"Ġ\";\\":11659,"ĠIRemote":11660,"ĠassertAll":11661,"ĠFill":11662,"ĠWire":11663,"Functions":11664,"Whitespace":11665,"ĠmCancel":11666,"134":11667,"LATE":11668,"NR":11669,"ĠgetConstructor":11670,"fake":11671,"ĠREPORT":11672,"336":11673,"ĠgetLocale":11674,"Ifd":11675,"ĠrawContact":11676,"ette":11677,"Standby":11678,"ĠLaunch":11679,"Processes":11680,"shouldReturn":11681,"DOWNLOAD":11682,"second":11683,"ĠtestRunStarted":11684,"ĠRecording":11685,"aidl":11686,"ĠmQueue":11687,"Ġinvoker":11688,"ĠpublicKey":11689,"ĠCLO":11690,"ĠPOWER":11691,"ĠAPK":11692,"Vr":11693,"inu":11694,"Ġranges":11695,"avac":11696,"ĠPool":11697,"ĠstringValue":11698,"ĠMOVE":11699,"ĠLEFT":11700,"Ġdatamodel":11701,"ĠtestOn":11702,"ANS":11703,"ĠAPI":11704,"rego":11705,"DENTIAL":11706,"ĠFILENAME":11707,"Hub":11708,"ider":11709,"ĠsetPackage":11710,"Shade":11711,"ĠEdit":11712,"RepeatedField":11713,"ĠSomeArgs":11714,"void":11715,"Ġrm":11716,"Expiration":11717,"Ġimg":11718,"Sip":11719,"ĠmX":11720,"uri":11721,"ĠTOP":11722,"ĠDay":11723,"Ġstates":11724,"578":11725,"ĠALLOWED":11726,"WHEN":11727,"ruptibly":11728,"ĠDigest":11729,"dump":11730,"ĠTHE":11731,"565":11732,"140":11733,"Ġoptim":11734,":'":11735,"TV":11736,"ĠmForeground":11737,"endMode":11738,"ĠHistory":11739,"Ġlocked":11740,"CALLBACK":11741,"ĠLinkedBlockingQueue":11742,"Ġexcluded":11743,"Swipe":11744,"ĠMalformed":11745,"ĠLineNumber":11746,"ĠassertNotSame":11747,"Ġ240":11748,"ĠSERVER":11749,"++":11750,"Plural":11751,"Ġbubble":11752,"ĠMan":11753,"ENSI":11754,"Patterns":11755,"Ġpopulated":11756,"ĠFunctionType":11757,"ĠRoundingMode":11758,"Ġstructure":11759,"Ġ176":11760,"TestString":11761,"ĠcheckConvert":11762,"ĠXSL":11763,"ĠmRadio":11764,"ĠrunOnMain":11765,"Ġbumptech":11766,"session":11767,"ĠSplit":11768,"Ġsqrt":11769,"ENTITY":11770,"etadata":11771,"ĠLeg":11772,"STRE":11773,"Ġserialize":11774,"ĠCONNECT":11775,"ĠFrameworkStatsLog":11776,"GANSS":11777,"Ġaf":11778,"ĠSINGLE":11779,"ĠBO":11780,"ĠcontentResolver":11781,"ĠCarUi":11782,"ĠverifyResultsConvert":11783,"[@":11784,"Ġgiven":11785,"Ġprintf":11786,"PERIOD":11787,"ĠSpinner":11788,"racted":11789,"ker":11790,"ĠSeg":11791,"ĠJapanese":11792,"structed":11793,"Ġincall":11794,"Ġidentifier":11795,"Ġ220":11796,"EntrySet":11797,"ĠSQLState":11798,"=\\\"\"":11799,"Ġwarning":11800,"ptic":11801,"PREVIEW":11802,"ĠAggregation":11803,"Slop":11804,"rand":11805,"uman":11806,"uffle":11807,"ĠuserManager":11808,"ĠImsFeature":11809,"GHZ":11810,"InBytes":11811,"ĠCreate":11812,"Ġliteral":11813,"ĠINVOKE":11814,"ĠmTv":11815,"Ġgrid":11816,"ĠDateTimeException":11817,"hat":11818,"Prob":11819,"DeviceState":11820,"125":11821,"ĠlistView":11822,"ĠgetDeclaredMethod":11823,"ĠhexStringTo":11824,"Ġradix":11825,"ĠgetFragmentManager":11826,"ulticast":11827,"Tables":11828,"ĠUNI":11829,"ĠTouch":11830,"lev":11831,"Concurrent":11832,"Declared":11833,"Ġready":11834,"106":11835,"IB":11836,"QQ":11837,"zh":11838,"Ġter":11839,"ĠgetParams":11840,"Ġ144":11841,"Uncertainty":11842,"ĠqueryIntent":11843,"Ġdoesn":11844,"Ġdeclar":11845,"BATTERY":11846,"Clone":11847,"Categories":11848,"reating":11849,"Ġvariant":11850,"Ġ199":11851,"ĠassertHas":11852,"ĠonKey":11853,"566":11854,"PoolExecutor":11855,"oted":11856,"REE":11857,"Ġdecomp":11858,"ĠawaitTermination":11859,"LIPOP":11860,"Dpi":11861,"PENDING":11862,"Ġgesture":11863,"ĠAppEntry":11864,"222":11865,"Descend":11866,"Cleaner":11867,"ĠClickEvent":11868,"ĠStart":11869,"GRA":11870,"ĠEventLog":11871,"ĠAlgorithmParameters":11872,"aringAid":11873,"Necessary":11874,"ĠAbstractStubCommandHandler":11875,"ZZ":11876,"auge":11877,"ĠgetDuration":11878,"Words":11879,"ĠArgumentsHalfHalf":11880,"stack":11881,"ĠCellIdentity":11882,"ĠPhoneNumberUtils":11883,"ĠEditorInfo":11884,"CMD":11885,"ĠBT":11886,"ĠDUMMY":11887,"ĠcreateWith":11888,"AppOps":11889,"ĠputParcelable":11890,"Ġunbind":11891,"000000000000":11892,"Modify":11893,"Ġafe":11894,"ĠASC":11895,"ĠLOL":11896,"EventCallback":11897,"OUNDS":11898,"ĠprocessAllMessages":11899,"ĠNavigableMap":11900,"ĠLOLLIPOP":11901,"216":11902,"Ġsymbol":11903,"EventHandler":11904,"ConnectionState":11905,"ĠBytes":11906,"Ġexponent":11907,"Ġ__":11908,"Died":11909,"ĠExo":11910,"SIGNAL":11911,"Ġarea":11912,"ĠmOrientation":11913,"Callable":11914,"ĠgetAudio":11915,"Arrays":11916,"Ġloading":11917,"ĠgetAs":11918,"ĠonDraw":11919,"Policies":11920,"ĠserverSocket":11921,"ĠheightMeasureSpec":11922,"ĠcountryCode":11923,"OWNER":11924,"ĠSegment":11925,"BSSID":11926,"Europe":11927,"ĠgetByte":11928,"ĠScale":11929,"Ġmultiple":11930,"ĠTvContract":11931,"ĠUnknownHostException":11932,"atisfied":11933,"Escape":11934,"ĠUScript":11935,"blem":11936,"Decoded":11937,"ĠmVoice":11938,"Ġ\"=>":11939,"254":11940,"Cos":11941,"ĠPL":11942,"ManagerFactory":11943,"testation":11944,"ĠproviderId":11945,"Badge":11946,"Through":11947,"Ġsucceeded":11948,"DNS":11949,"OctetString":11950,"ĠappWidget":11951,"ServiceImpl":11952,"Ġfilterfw":11953,"ĠCertificateFactory":11954,"SPEED":11955,"HIDE":11956,"Ġsdk":11957,"Ġlook":11958,"Ġ234":11959,"ĠresBytes":11960,"ĠVoice":11961,"ĠmMon":11962,"ĠJoin":11963,"Playlist":11964,"eros":11965,"ĠmRun":11966,"ClassDefinition":11967,"ĠgetSupport":11968,"DisplayId":11969,"ĠendIndex":11970,"Ġ>>=":11971,"OST":11972,"{\"":11973,"ĠmParams":11974,"Ġsmal":11975,"Ġawt":11976,"Ġexport":11977,"ĠfieldFlags":11978,"akeup":11979,"ĠDataOutputStream":11980,"Ġqb":11981,"ĠprocessName":11982,"Ġcomponents":11983,"ĠImport":11984,"TRANSITION":11985,"uo":11986,"Ġfi":11987,"Ġinsertion":11988,"Ġbos":11989,"ĠThrow":11990,"ĠgetBuild":11991,"157":11992,"AAC":11993,"step":11994,"Ġconference":11995,"SessionInfo":11996,"ReasonInfo":11997,"Flash":11998,"ĠRunning":11999,"Interactive":12000,"Ġnotif":12001,"Generation":12002,"ISTRATION":12003,"irplaneMode":12004,"menu":12005,"enum":12006,"ĠCD":12007,"Ġconsumer":12008,"Chat":12009,"LEEP":12010,"PROGRESS":12011,"ĠLOCATION":12012,"Modules":12013,"ĠModifierKey":12014,"FREE":12015,"137":12016,"TONE":12017,"uel":12018,"ĠmBundle":12019,"POST":12020,"ĠphoneAccountHandle":12021,"ĠDecoder":12022,"ĠDalv":12023,"left":12024,"ĠgetToken":12025,"ĠInline":12026,"Collation":12027,"ĠrootView":12028,"ĠHeaderField":12029,"ĠVolumeInfo":12030,"phabet":12031,"Dpp":12032,"finished":12033,"Conversion":12034,"003":12035,"ĠROUTE":12036,"ounce":12037,"ĠGrpc":12038,"Screenshot":12039,"arning":12040,"PHAB":12041,"ShellPermission":12042,"Authorization":12043,"BiMap":12044,"ĠmY":12045,"ĠVM":12046,"ĠMockResponse":12047,"Offer":12048,"Segments":12049,"ISE":12050,"ZERO":12051,"ĠmItems":12052,"ĠonChange":12053,"Images":12054,"ĠIntRange":12055,"ĠMonth":12056,"Ġds":12057,"ĠaddPreference":12058,"ActionMode":12059,"WindowManager":12060,"ĠOffsetDateTime":12061,"Weak":12062,"Decision":12063,"Ġadj":12064,"Physical":12065,"ĠTransformerException":12066,"Elem":12067,"ym":12068,"SERT":12069,"flated":12070,"ĠComment":12071,"ĠCompletion":12072,"SCRIPTOR":12073,"Af":12074,"Grant":12075,"wise":12076,"Ġvh":12077,"ĠImpl":12078,"three":12079,"129":12080,"PROJECTION":12081,"ĠMethodDescriptor":12082,"ECDSA":12083,"resource":12084,"ĠmUicc":12085,"ĠCloseable":12086,"ĠhasSize":12087,"serialized":12088,"ĠgetOrCreate":12089,"Surrogate":12090,"138":12091,"Biometric":12092,"IE":12093,"Ġnested":12094,"aped":12095,"004":12096,"Compatibility":12097,"Ġencrypted":12098,"ĠconvertTo":12099,"Ġimmediate":12100,"Ġplaceholder":12101,"Ġradius":12102,"mem":12103,"Ġarch":12104,"Ġscanner":12105,"648":12106,"333":12107,"ĠnativeGet":12108,"Catch":12109,"EDED":12110,"Rotate":12111,"https":12112,"Ġnv":12113,"ĠgetResponse":12114,"Ġthreshold":12115,"ĠStrings":12116,"versed":12117,"ĠtestUpdate":12118,"owner":12119,"Ġicc":12120,"Edges":12121,"SetupError":12122,"KeySpecException":12123,"Dummy":12124,"INTEGER":12125,"STACK":12126,"DIG":12127,"ĠScope":12128,"Ġ168":12129,"ĠlayoutParams":12130,"156":12131,"reement":12132,"ĠengineGet":12133,"Propag":12134,"BIN":12135,"HR":12136,"anion":12137,"Ġcos":12138,"Ġdvr":12139,"ĠisCancelled":12140,"ĠFALSE":12141,"ĠGrego":12142,"izedSize":12143,"ĠmTile":12144,"Swap":12145,"ĠgetSpan":12146,"reaseIndent":12147,"657":12148,"ĠmThread":12149,"ĠpreferenceKey":12150,"ĠMonitor":12151,"ashboardFragment":12152,"ĠmEnabled":12153,"StringValue":12154,"ĠisRe":12155,"OrEmpty":12156,"Dirty":12157,"Origin":12158,"PU":12159,"Tls":12160,"ĠIO":12161,"rolled":12162,"DESC":12163,"ĠmBroadcast":12164,"Ġsender":12165,"590":12166,"ĠPARAM":12167,"ĠgetSubscription":12168,"Traffic":12169,"ĠHorizontalPanel":12170,"ough":12171,"Ġfade":12172,"Scene":12173,"Ġ73":12174,"Subtree":12175,"-----":12176,"idence":12177,"ĠgetFilter":12178,"ĠBAND":12179,"Ġ83":12180,"tivePortal":12181,"Ġquote":12182,"Aggregation":12183,"Ġconverter":12184,"ĠIMAGE":12185,"Motion":12186,"WLAN":12187,"ĠToggle":12188,"ĠsetLayoutParams":12189,"ĠConnect":12190,"ĠAttr":12191,"ĠBYTES":12192,"Technology":12193,"ĠWHITE":12194,"Floor":12195,"switch":12196,"Ġinset":12197,"ĠoutArray":12198,"Utility":12199,"348":12200,"ĠCONSTANT":12201,"ĠInetAddresses":12202,"Descending":12203,"ĠgetPrimary":12204,"gAllocIn":12205,"HD":12206,"Ġgravity":12207,"ĠonUser":12208,"Keepalive":12209,"inned":12210,"Prompt":12211,"ĠEmail":12212,"Spacing":12213,"BACKUP":12214,"src":12215,"Ġrestart":12216,"ĠsetView":12217,"Ġwritten":12218,"cf":12219,"ĠActive":12220,"2048":12221,"Detached":12222,"Ġallows":12223,"AlwaysOn":12224,"ĠCertPathValidator":12225,"ittleEndian":12226,"214":12227,"517":12228,"ĠsetProgress":12229,"ĠPage":12230,"ĠIWifi":12231,"ĠisStatic":12232,"PROXY":12233,"ĠmDisplayContent":12234,"height":12235,"ĠmTexture":12236,"Deprecated":12237,"ĠActionBar":12238,"ĠCompatibility":12239,"Ġcd":12240,"riend":12241,"ĠisOpen":12242,"ĠUnsigned":12243,"240":12244,"Ġcandidates":12245,"CrossProfile":12246,"Ġgreater":12247,"ĠsetX":12248,"ĠInCall":12249,"ĠTestResult":12250,"Ġ51":12251,"640":12252,"708":12253,"ĠblockSize":12254,"impl":12255,"Ġscene":12256,"ĠmPlayer":12257,"Ġ126":12258,"APPING":12259,"WriteLock":12260,"Ġenterprise":12261,"ĠPreferenceControllerMixin":12262,"Ġopengl":12263,"ĠmNo":12264,"ShellPermissionIdentity":12265,"orView":12266,"Ġlottie":12267,"ĠOK":12268,"ĠsetTag":12269,"IndexProvider":12270,"Outline":12271,"NetworkSuggestions":12272,"ĠmaxSize":12273,"OKUP":12274,"Cue":12275,"Ġpick":12276,"ĠpendingIntent":12277,"Ġstage":12278,"ĠsetButton":12279,"ĠUicc":12280,"ENTRY":12281,"OrNull":12282,"ĠClassConstants":12283,"resolved":12284,"tz":12285,"Ġinv":12286,"ĠtypeName":12287,"Validate":12288,"ĠLinkAddress":12289,"preference":12290,"ĠTestApi":12291,"perand":12292,"ĠdoNothing":12293,"ĠmWait":12294,"Ġmathtest":12295,"ĠDISABLED":12296,"Months":12297,"NumberOfInvocations":12298,"Ġrtt":12299,"ĠsetStatus":12300,"ĠGame":12301,"ProviderException":12302,"ĠScreen":12303,"ĠmBluetoothAdapter":12304,"ĠSIGNED":12305,"Pdu":12306,"oser":12307,"window":12308,"ĠSafe":12309,"DataElement":12310,"Ġkeyword":12311,"ĠReentrant":12312,"ROSS":12313,"ĠMediaRoute":12314,"FORCE":12315,"SurfaceTexture":12316,"DC":12317,"elow":12318,"ĠcreateInjector":12319,"Ġ78":12320,"position":12321,"ĠBackground":12322,"ationalNumber":12323,"xfc":12324,"Ġcue":12325,"Ġtyped":12326,"Ġtran":12327,"172":12328,"Blocklist":12329,"ICRO":12330,"ĠeditText":12331,"Ġannotated":12332,"822":12333,"IPE":12334,"Ts":12335,"Wrap":12336,"before":12337,"widget":12338,"à¥":12339,"ĠnewConfig":12340,"005":12341,"ĠtestData":12342,"RELEASE":12343,"Precondition":12344,"ĠkeySize":12345,"206":12346,"ĠActivityTask":12347,"SCROLL":12348,"issed":12349,"Temperature":12350,"ĠQUERY":12351,"Denominator":12352,"Ġplugins":12353,"ĠonPreferenceChange":12354,"RUP":12355,"ĠmEnable":12356,"Ġmajor":12357,"ileged":12358,"159":12359,"olling":12360,"ĠDocumentsContract":12361,"Ġcbor":12362,"Ġsegments":12363,"ancer":12364,"Stride":12365,"ĠmDet":12366,"ĠelementAt":12367,"Ġmodules":12368,"Ġphysical":12369,"EXCEPTION":12370,"fps":12371,"insn":12372,"AndValue":12373,"ĠAbstractModule":12374,"ĠIntBuffer":12375,"ĠIndent":12376,"Ġmidi":12377,"ĠSemaphore":12378,"ĠPop":12379,"ĠNan":12380,"Ġhold":12381,"ather":12382,"Declarator":12383,"ĠColorStateList":12384,"ĠsimpleMethod":12385,"ĠEapSim":12386,"ĠUplo":12387,"ĠObjectStream":12388,"Ġcompleted":12389,"Ġdisk":12390,"ĠInvalidKeySpecException":12391,"ibraries":12392,"Ġchanges":12393,"ĠDIRECTION":12394,"gpp":12395,"Ġ\"|":12396,"Ġoperator":12397,"REPLY":12398,"Atan":12399,"ĠgetSubject":12400,"ĠgetErrorCode":12401,"AttachedTo":12402,"Enabler":12403,"EqualTo":12404,"ĠCoder":12405,"DayOfWeek":12406,"Footer":12407,"Combination":12408,"STANDARD":12409,"Circle":12410,"Ġcycle":12411,"Ġscheduler":12412,"ĠUntil":12413,"Expansion":12414,"ĠChannels":12415,"Both":12416,"ĠhasMoreElements":12417,"auto":12418,"pf":12419,"ĠgetMap":12420,"Ġasc":12421,"PackageInfo":12422,"Intercept":12423,"PACKAGES":12424,"PARAMS":12425,"ĠAdb":12426,"ORIZ":12427,"ĠIntStream":12428,"WIDGET":12429,"ĠBreakIterator":12430,"Ġnatural":12431,"ĠgetEnabled":12432,"Ġresize":12433,"WithIOException":12434,"126":12435,"ĠasSet":12436,"internal":12437,"Ġcallable":12438,"ĠmOld":12439,"ĠVideoProfile":12440,"DPAD":12441,"10000":12442,"Ġperson":12443,"ĠOUT":12444,"esis":12445,"ordered":12446,"policy":12447,"play":12448,"ĠgetMem":12449,"ĠPassword":12450,"ĠNoSuchMethodException":12451,"Ignoring":12452,"ĠprivateKey":12453,"Ġchromium":12454,"document":12455,"ĠLABEL":12456,"Ġ58":12457,"ĠmSync":12458,"ĠEXP":12459,"Ġdexgen":12460,"Documents":12461,"ĠGeneralName":12462,"ĠDIG":12463,"Ġchoose":12464,"ĠHAS":12465,"ĠtypeBuilder":12466,"ĠmBar":12467,"ĠmethodType":12468,"Links":12469,"incorrect":12470,"139":12471,"OES":12472,"instance":12473,"ĠaddAlgorithm":12474,"ĠInte":12475,"ContextMenu":12476,"Seen":12477,"117":12478,"ĠinputId":12479,"ĠKind":12480,"Ġrecorder":12481,"FACTOR":12482,"EB":12483,"Ġsome":12484,"ĠNested":12485,"Ġreading":12486,"Handled":12487,"DataKinds":12488,"CERTIFICATE":12489,"ah":12490,"327":12491,"Ġ104":12492,"ĠtargetSdkVersion":12493,"376":12494,"Overview":12495,"ĠwaitForIdleSync":12496,"RESU":12497,"ĠsendEmptyMessage":12498,"ĠDataUsage":12499,"ĠTargetSetupError":12500,"ĠmIp":12501,"Ġsqlite":12502,"Ġnegate":12503,"STALLED":12504,"Jpeg":12505,"Ġsyntax":12506,"ĠCompound":12507,"ĠgetCamera":12508,"earer":12509,"Ġspecial":12510,"Ġordered":12511,"Escrow":12512,"CLOSE":12513,"Issuer":12514,"Ġduring":12515,"ĠsetD":12516,"Seed":12517,"ugreport":12518,"ĠmediaSource":12519,"Locator":12520,"ĠImmutableSortedSet":12521,"ĠStackTrace":12522,"ĠtestInvoke":12523,"MET":12524,"ABC":12525,"ĠDateFormatSymbols":12526,"ĠRandomAccessFile":12527,"location":12528,"ĠsReplier":12529,"ĠDop":12530,"Ġ','":12531,"ProviderInfo":12532,"Starts":12533,"WHITE":12534,"521":12535,"ĠmFeature":12536,"moving":12537,"ĠACCESSIBILITY":12538,"ĠmGrid":12539,"ĠsampleRate":12540,"control":12541,"ĠUTC":12542,"ĠMatrixCursor":12543,"ĠHEADER":12544,"cal":12545,"ertion":12546,"Ġskipped":12547,"ĠtestB":12548,"ĠlastModified":12549,"Postal":12550,"ĠgetExtensionComponents":12551,"ĠLegacy":12552,"Upon":12553,"alone":12554,"Ġ\"*":12555,"ril":12556,"ĠsetUse":12557,"Ack":12558,"ĠreadFrom":12559,"DIC":12560,"208":12561,"Ġpercent":12562,"Ġuris":12563,"Ġleast":12564,"AudioMode":12565,"Commit":12566,"ĠDAYS":12567,"Ringtone":12568,"ĠgetObjectAt":12569,"ĠMimeTypes":12570,"ĠFAILED":12571,"SUGGESTION":12572,"Currency":12573,"Ssl":12574,"Ġfinalize":12575,"Ġsubchannel":12576,"ĠmRect":12577,"ĠheadSet":12578,"TRANSP":12579,"ĠRecognitionException":12580,"IMPORT":12581,"Ġpacked":12582,"ĠgetSharedPreferences":12583,"activ":12584,"ĠPackageInstaller":12585,"rete":12586,"Ġupgrade":12587,"OnWrite":12588,"ĠdoFinal":12589,"ĠverifyOne":12590,"StorageInfo":12591,"ICC":12592,"lank":12593,"Ġtransformer":12594,"uting":12595,"ĠsetExpected":12596,"OTA":12597,"Minutes":12598,"Fullscreen":12599,"ĠEditable":12600,"Immediate":12601,"Kernel":12602,"Ġfingerprint":12603,"ModeManager":12604,"HearingAid":12605,"LIBR":12606,"ĠNoSuchProviderException":12607,"Exclusive":12608,"ĠgetPackageInfo":12609,"ĠExecutableElement":12610,"Ġactivities":12611,"ĠtypeParameters":12612,"Ġ75":12613,"ĠparameterIndex":12614,"ĠDecode":12615,"ĠpRS":12616,"ĠRPC":12617,"ĠcheckPermission":12618,"ĠreadByte":12619,"StatusChanged":12620,"SETUP":12621,"CIAL":12622,"ãģ":12623,"Ġcnt":12624,"reference":12625,"Ġsha":12626,"TextChanged":12627,"Exposure":12628,"Checksum":12629,"ĠCommandPacket":12630,"ĠonBindViewHolder":12631,"Degrees":12632,"Ambient":12633,"NED":12634,"Opp":12635,"PM":12636,"Removal":12637,"ĠkeySpec":12638,"ĠasType":12639,"ĠMethodDeclaration":12640,"608":12641,"elete":12642,"Ġbecause":12643,"Cach":12644,"ĠmObserver":12645,"urnal":12646,"sha":12647,"QUENCE":12648,"ĠWIDTH":12649,"riendly":12650,"233":12651,"Have":12652,"lim":12653,"ĠmElement":12654,"309":12655,"ĠRECOR":12656,"Quantity":12657,"AnnotationsAttribute":12658,"Dimensions":12659,"Normally":12660,"136":12661,"HA":12662,"ĠPriv":12663,"LET":12664,"UserState":12665,"Ġseen":12666,"BitString":12667,"ĠReferenceEntry":12668,"Ge":12669,"Ignored":12670,"Tuple":12671,"ĠmShortcut":12672,"Ġsys":12673,"Ġreduce":12674,"ExceptionHandler":12675,"DEP":12676,"103":12677,"ĠTypeLiteral":12678,"ĠsortOrder":12679,"Privacy":12680,"Ġbugreport":12681,"flags":12682,"ĠmRes":12683,"ĠsetP":12684,"Ġdeli":12685,"Tracing":12686,"ĠmServer":12687,"Delimited":12688,"ĠreplaceAll":12689,"agnification":12690,"ĠUnittest":12691,"ĠdebuggeeWrapper":12692,"Gradient":12693,"Receive":12694,"ĠcheckNative":12695,"ĠinputBuffer":12696,"504":12697,"MediaPlayer":12698,"ĠImsCall":12699,"Ġswap":12700,"uxer":12701,"Preconditions":12702,"module":12703,"part":12704,"ĠmAvailable":12705,"ĠisDefault":12706,"107":12707,"170":12708,"ĠgetFlags":12709,"ĠCENTER":12710,"ĠRIGHT":12711,"Ġ88":12712,"207":12713,"ĠTextClassifier":12714,"ĠendTag":12715,"Readable":12716,"ĠContentCapture":12717,"ĠCommonDataKinds":12718,"Clause":12719,"top":12720,"Ġge":12721,"ĠTER":12722,"ĠSGN":12723,"ĠClassSymbol":12724,"Serializable":12725,"COMING":12726,"ĠsetNextValueAs":12727,"RECORD":12728,"omaly":12729,"ĠIBuildInfo":12730,"extension":12731,"Ġscal":12732,"Specified":12733,"296":12734,"spect":12735,"IPHER":12736,"Ġinitialized":12737,"ĠENABLED":12738,"IED":12739,"usic":12740,"ĠreadFully":12741,"Ġhandled":12742,"ĠTypeVariable":12743,"ĠSERIAL":12744,"GENERIC":12745,"Ġderived":12746,"Border":12747,"NI":12748,"normal":12749,"ĠmAnimator":12750,"Ġduplicate":12751,"META":12752,"ModeEnabled":12753,"ISupplicant":12754,"come":12755,"ivider":12756,"xffffffff":12757,"ĠgetProfile":12758,"InCall":12759,"ĠstartService":12760,"PreferenceFragment":12761,"Ġ77":12762,"ĠmWakeLock":12763,"ĠTextBox":12764,"OptionsItemSelected":12765,"ĠServiceInfo":12766,"Agreement":12767,"ĠmGesture":12768,"ORIZONT":12769,"negative":12770,"ĠmAdd":12771,"Ġschema":12772,"ulk":12773,"ĠCrypto":12774,"mous":12775,"InstanceAs":12776,"ĠRuleBased":12777,"219":12778,"GING":12779,"Pipe":12780,"page":12781,"Ġpicture":12782,"ĠmTrack":12783,"Ġappro":12784,"ĠgetBundle":12785,"SPLIT":12786,"ImsService":12787,"ĠtestRunEnded":12788,"ĠSGNL":12789,"334":12790,"DHE":12791,"ne":12792,"Ġie":12793,"Ġ230":12794,"ĠIterators":12795,"BEFORE":12796,"ĠJDWPCommands":12797,"ĠRouteInfo":12798,"332":12799,"Branch":12800,"MAG":12801,"PAGE":12802,"PAUSE":12803,"suite":12804,"ugle":12805,"Staged":12806,"ĠAF":12807,"ĠmDown":12808,"ĠendKey":12809,"ĠMediaRecorder":12810,"ĠLocalized":12811,"Hover":12812,"Look":12813,"Tail":12814,"VENDOR":12815,"rule":12816,"ĠQu":12817,"ili":12818,"Logged":12819,"ĠSubject":12820,"ĠPROTOCOL":12821,"Many":12822,"Ġcheckerframework":12823,"Ġsel":12824,"ĠmMockI":12825,"MANY":12826,"maries":12827,"Ġdue":12828,"ĠDrm":12829,"ĠRestric":12830,"actions":12831,"ĠNetworkRegistrationInfo":12832,"ĠmCapture":12833,"Abs":12834,"cdma":12835,"Ġnullness":12836,"Ġconfirm":12837,"ĠtestResult":12838,"ALWAYS":12839,"Ġ360":12840,"open":12841,"Ġscaled":12842,"ĠofFloat":12843,"ĠmLaunch":12844,"ĠXmlSerializer":12845,"laintext":12846,"ĠvmMirror":12847,"TestClass":12848,"Permitted":12849,"ĠActivityStack":12850,"ĠwaitUntil":12851,"ĠCarriers":12852,"ĠifaceName":12853,"ĠgetBackground":12854,"ĠInstrumented":12855,"ĠWIRE":12856,"FileChannel":12857,"Ġunsafe":12858,"119":12859,"ĠSupplicant":12860,"ĠgetLanguage":12861,"Defin":12862,"ĠhexStringToByteArray":12863,"464":12864,"bap":12865,"ĠCookie":12866,"Ġlarge":12867,"Scorer":12868,"TECH":12869,"FIRM":12870,"Adj":12871,"ĠUnix":12872,"179":12873,"EXIST":12874,"Assistance":12875,"230":12876,"Ġ\">\"":12877,"Ġwalk":12878,"WithNull":12879,"ĠwriteObject":12880,"ĠWifiNative":12881,"TrackInfo":12882,"ĠloadClass":12883,"FOO":12884,"Ġstrength":12885,">>":12886,"Lambda":12887,"ĠgetRegister":12888,"ĠForm":12889,"DataException":12890,"Ġshader":12891,"NavigationBar":12892,"155":12893,"680":12894,"kit":12895,"strip":12896,"ĠmModule":12897,"WindowContainer":12898,"ĠWifiInfo":12899,"CheckedChangeListener":12900,"ĠverifyResultsNative":12901,"ĠStat":12902,"ĠmAl":12903,"ĠTool":12904,"Ġchip":12905,"Compressor":12906,"respon":12907,"stop":12908,"ĠgetAdapter":12909,"Compound":12910,"Ġ':'":12911,"Thrown":12912,"SHIFTED":12913,"Adjuster":12914,"Ġix":12915,"ĠmProcess":12916,"decess":12917,"Ġlight":12918,"ĠConnectivity":12919,"ĠmRo":12920,"onymous":12921,"ĠverifyOneDataElement":12922,"UMP":12923,"syn":12924,"ĠTethering":12925,"ĠsetListener":12926,"ĠaddTestSuite":12927,"ĠmSign":12928,"ĠgetScheme":12929,"ĠsubSet":12930,"ScreenOn":12931,"Ġcodepoint":12932,"USERS":12933,"DQ":12934,"Ġ122":12935,"ĠisRunning":12936,"ĠmCustom":12937,"ĠmapField":12938,"ĠchildCount":12939,"Ġpopup":12940,"SerialNumber":12941,"Difference":12942,"oraryFolder":12943,"ĠMaskEnum":12944,"Lazy":12945,"ĠVOICE":12946,"TETHER":12947,"ĠmBuild":12948,"Ġ91":12949,"ĠmapEntry":12950,"408":12951,"PROTOCOL":12952,"ĠSSLContext":12953,"SYMBOLS":12954,"Good":12955,"oap":12956,"tities":12957,"andalone":12958,"ĠInner":12959,"Algorithms":12960,"ĠListPreference":12961,"tified":12962,"158":12963,"UBLISH":12964,"ĠCodeAttribute":12965,"ĠperformClick":12966,"ĠpriorityStr":12967,"Ġcharacters":12968,"534":12969,"ĠmQ":12970,"Ġvertical":12971,"ĠsetInterpolator":12972,"ĠFull":12973,"ĠappContext":12974,"ĠVerification":12975,"ROGATE":12976,"Diagnostic":12977,"ICU":12978,"BEGIN":12979,"FERRED":12980,"FINGER":12981,"Pane":12982,"ĠmScale":12983,"Ġticker":12984,"dest":12985,"Ġdrain":12986,"timeout":12987,"AAE":12988,"connection":12989,"TargetPreparer":12990,"Drawing":12991,"OVERLAY":12992,"Ġrestriction":12993,"330":12994,"nb":12995,"Ġmerged":12996,"ĠassertInt":12997,"ĠmCommand":12998,"ILL":12999,"InstrumentationTestCase":13000,"METADATA":13001,"PUBLIC":13002,"ĠtoCharArray":13003,"Ġuses":13004,"Ġdetail":13005,"MULTIP":13006,"Duplicate":13007,"mul":13008,"ĠstaticData":13009,"ViewModel":13010,"8859":13011,"Ġvalidation":13012,"olden":13013,"ĠJobStatus":13014,"ĠSpannableStringBuilder":13015,"xFFFF":13016,"Ġinverse":13017,"ĠgetVideo":13018,"edAction":13019,"ĠAmbient":13020,"502":13021,"InputManager":13022,"886":13023,"LOCALE":13024,"COLUMNS":13025,"Func":13026,"LT":13027,"Ġservlet":13028,"ĠAnal":13029,"ĠLayer":13030,"Ġcoll":13031,"ĠTypeSolver":13032,"ĠgetComponentName":13033,"CompositeCommandHandler":13034,"ORIZONTAL":13035,"Ctx":13036,"ĠmPackages":13037,"search":13038,"Keyframe":13039,"ĠexpectedValue":13040,"508":13041,"ĠmDo":13042,"ĠmPh":13043,"ĠActivityInstrumentationTestCase":13044,"Impression":13045,"Ġrecording":13046,"ĠtailSet":13047,"ĠPrivate":13048,"Detected":13049,"ĠTEMP":13050,"Held":13051,"Me":13052,"ĠSeries":13053,"ĠMON":13054,"ĠBE":13055,"INCLU":13056,"387":13057,"ĠwifiConfiguration":13058,"ĠAndroidManifest":13059,"Maximum":13060,"ĠdeleteFile":13061,"SECONDARY":13062,".*":13063,"Tw":13064,"esting":13065,"ĠRB":13066,"ĠFace":13067,"Party":13068,"ĠonCall":13069,"ĠbytesTo":13070,"ĠphoneUtil":13071,"ĠrealRun":13072,"ĠHOURS":13073,"container":13074,"InOrder":13075,"Almanac":13076,"Scaled":13077,"Collator":13078,"EWITH":13079,"ĠbinarySearch":13080,"ĠMANAGE":13081,"Decorator":13082,"olerance":13083,"arshaller":13084,"HZ":13085,"hist":13086,"unexpected":13087,"ĠonTouchEvent":13088,"Ġshard":13089,"ĠtagName":13090,"POSE":13091,"ĠSpec":13092,"ĠSuite":13093,"Ġ190":13094,"ĠLive":13095,"ĠVpn":13096,"ĠArrayDeque":13097,"MessageLite":13098,"NetworkCallback":13099,"ĠmLine":13100,"LongArray":13101,"148":13102,"icky":13103,"PACKET":13104,"Ġpsi":13105,"ĠgetDouble":13106,"ViewId":13107,"ClassDeclaration":13108,"ROAMING":13109,"ĠLAUNCHER":13110,"zy":13111,"ĠtestLog":13112,"loy":13113,"ĠonOptionsItemSelected":13114,"Applications":13115,"FULLSCREEN":13116,"PBEWITH":13117,"Ev":13118,"WS":13119,"ros":13120,"ĠmBlock":13121,"ĠinternalGet":13122,"ĠcloseQuietly":13123,"ĠjobId":13124,"Alternative":13125,"Ġbuffers":13126,"Conn":13127,"ĠISupplicant":13128,"OND":13129,"ĠmMulti":13130,"ĠuserState":13131,"Ġtokenizer":13132,"ĠENGLISH":13133,"212":13134,"Io":13135,"areness":13136,"istent":13137,"ĠassertContains":13138,"ĠmCard":13139,"AccountType":13140,"Ġencrypt":13141,"ARIES":13142,"ĠmSubscriptionManager":13143,"MmTel":13144,"final":13145,"SIP":13146,"Ġsep":13147,"Holders":13148,"Inclusive":13149,"ĠParcelUuid":13150,"ĠSavedState":13151,"600":13152,"BUNDLE":13153,"Sleep":13154,"ĠsetPositiveButton":13155,"ĠBATTERY":13156,"NetworkSpecifier":13157,"IfAbsent":13158,"ridden":13159,"CurrentUser":13160,"Regular":13161,"ĠResTable":13162,"Ġcharacteristics":13163,"ĠIndenting":13164,"280":13165,"Zeros":13166,"ĠExtractor":13167,"Ġsaniti":13168,"trl":13169,"Where":13170,"ĠmClientCallback":13171,"ĠRenderer":13172,"DRange":13173,"Pss":13174,"pattern":13175,"ĠgetFileDescriptor":13176,"ĠLogDataType":13177,"ĠmDuration":13178,"AMIC":13179,"ĠALPHA":13180,"ĠChronoUnit":13181,"ĠSAVE":13182,"7654321":13183,"vrcp":13184,"Ġ113":13185,"ibling":13186,"ĠnotifyAll":13187,"Ġlatency":13188,"ĠGeneralSecurityException":13189,"Ġrename":13190,"Ġdeg":13191,"Ġ87":13192,"Ġ89":13193,"340":13194,"earing":13195,"parcel":13196,"338":13197,"ĠtimeoutMs":13198,"rontend":13199,"ĠNotNull":13200,"BgNV":13201,"ĠContextMenu":13202,"ĠdeviceName":13203,"149":13204,"ĠstreamId":13205,"Ġutc":13206,"uddhist":13207,"Ġpull":13208,"Ġnr":13209,"ĠgetTrack":13210,"Ġdevelopment":13211,"ValuesHolder":13212,"Units":13213,"370":13214,"Numerator":13215,"ĠCOMPLE":13216,"Ġratio":13217,"299":13218,"otive":13219,"ĠmPre":13220,"Ġfr":13221,"ĠisClosed":13222,"Working":13223,"+\"":13224,"432":13225,"Skipping":13226,"ĠMIPS":13227,"ClassRunner":13228,"ĠpackageNames":13229,"390":13230,"ĠTRANSI":13231,"Ġcpu":13232,"LiteralExpr":13233,"ByTagName":13234,"Ġsizes":13235,"ĠverifyNumberOfInvocations":13236,"ĠDataClass":13237,"337":13238,"ĠCipherSuite":13239,"380":13240,"Did":13241,"ha":13242,"ĠEncoded":13243,"Ġcluster":13244,"Ġmoblab":13245,"PEAT":13246,"118":13247,"Editable":13248,"ĠtimeoutMillis":13249,"Cleanup":13250,"ĠSynchronized":13251,"Pick":13252,"wide":13253,"}'":13254,"Ġgps":13255,"Ġdict":13256,"ĠtestN":13257,"SubMap":13258,"ĠPackageSetting":13259,"ĠColorDrawable":13260,"Digests":13261,"ĠgetParcelableExtra":13262,"238":13263,"DD":13264,"ĠgetConstant":13265,"ometh":13266,"ĠsetError":13267,"ĠaddCallback":13268,"ĠSTATS":13269,"ĠTemporalAccessor":13270,"ĠWARN":13271,"omething":13272,"zero":13273,"ĠgetSettings":13274,"ĠSES":13275,"ĠBLE":13276,"ContentResolver":13277,"169":13278,"ufact":13279,"141":13280,"ĠSESSION":13281,"Mig":13282,"ĠgetFull":13283,"rah":13284,"ĠsetSize":13285,"ĠtestId":13286,"LockUtils":13287,"ĠParsable":13288,"ConfigurationChanged":13289,"226":13290,"Periodic":13291,"ECB":13292,"ĠUsbManager":13293,"ĠmetaData":13294,"ĠCLIENT":13295,"Ġaid":13296,"ĠSPE":13297,"Charging":13298,"ĠorElse":13299,"OfYear":13300,"Comments":13301,"Routing":13302,"ĠScrollView":13303,"Li":13304,"Vec":13305,"Ġangle":13306,"rem":13307,"verify":13308,"ĠMASK":13309,"FieldMap":13310,"ĠSEARCH":13311,"BOOL":13312,"ĠrefreshUi":13313,"PLACE":13314,"Gnss":13315,"Ġmm":13316,"Red":13317,"Ġjpeg":13318,"Ġ1001000":13319,"ĠonAttach":13320,"ROWS":13321,"ĠWorkerThread":13322,"During":13323,"Fib":13324,"ĠgetLeft":13325,"ĠFP":13326,"ĠwifiInfo":13327,"ĠRole":13328,"Signatures":13329,"COVERY":13330,"send":13331,"ura":13332,"ĠSCHEME":13333,"Ġthird":13334,"apt":13335,"ĠBROADCAST":13336,"ĠisWifi":13337,"Servers":13338,"Ġtrail":13339,"Bindings":13340,"ĠIDLE":13341,"herited":13342,"Transformer":13343,"Replacement":13344,"ĠStrictMath":13345,"356":13346,"Ġbatch":13347,"ĠsetHeader":13348,"ĠtestNo":13349,"ToDeath":13350,"Ġ2001000":13351,"athRecipient":13352,"Ġ3001000":13353,"Ġ4001000":13354,"Ġ5001000":13355,"Ġ6001000":13356,"TEL":13357,"ĠexpectedResult":13358,"Ġ8001000":13359,"Ġ7001000":13360,"507":13361,"378":13362,"BooleanArray":13363,"DISMISS":13364,"TRIE":13365,"CLICK":13366,"Ġrecyclerview":13367,"Lw":13368,"days":13369,"Ġstrict":13370,"ĠClosed":13371,"ĠPI":13372,"ĠXmlUtils":13373,"AVA":13374,"ĠImsReasonInfo":13375,"ĠDIALOG":13376,"Ġ136":13377,"ĠsetStart":13378,"ĠsetAuto":13379,"UserRestriction":13380,"Ġ62":13381,"ĠParent":13382,"ĠnodeArrayList":13383,"ĠFieldPosition":13384,"FINAL":13385,"iometrics":13386,"Distribution":13387,"188":13388,"Ġvehicle":13389,"Ġhw":13390,"ĠUSE":13391,"345":13392,"ĠCOMMA":13393,"020":13394,"bf":13395,"ĠgetLock":13396,"Inflate":13397,"Ġemergency":13398,"Accuracy":13399,"Ġ224":13400,"TimeZones":13401,"Ġancestor":13402,"Attrib":13403,"ĠAlert":13404,"ĠmInstall":13405,"ĠITestNG":13406,"ĠrecyclerView":13407,"Iterations":13408,"ĠmSecondary":13409,"Kepler":13410,"ĠEndpoint":13411,"ĠmForce":13412,"ĠbooleanValue":13413,"ĠmSample":13414,"ĠnumBytes":13415,"ENDAR":13416,"AttachedToWindow":13417,"654":13418,"ZIP":13419,"ĠmHeadset":13420,"Ġesc":13421,"ĠPack":13422,"ĠonPost":13423,"198":13424,"etermin":13425,"ĠmBackend":13426,"Prediction":13427,"ToSpeech":13428,"rew":13429,"utter":13430,"Ġ3000":13431,"328":13432,"ImplBase":13433,"Bitmask":13434,"PlaybackState":13435,"locale":13436,"ermal":13437,"ĠmMap":13438,"ĠmModel":13439,"ĠSn":13440,"Ġ184":13441,"ĠsetBounds":13442,"LogProto":13443,"178":13444,"ĠCameraCaptureSession":13445,"ĠWifiConfigurationTestUtil":13446,"IncompatibleException":13447,"ĠDOMTestIncompatibleException":13448,"aaaaaaaa":13449,"ĠisAssignableFrom":13450,"loyee":13451,"8000":13452,"ci":13453,"Ġgatt":13454,"ĠgetShadow":13455,"Ġprovided":13456,"WindowInsets":13457,"ACTIONS":13458,"RadioButton":13459,"ĠrunWithCaller":13460,"Ġty":13461,"Ġinto":13462,"ĠCOUNT":13463,"ĠmPlay":13464,"ĠExample":13465,"Regions":13466,"ĠBufferedInputStream":13467,"Ġair":13468,"ĠMULTI":13469,"iveMode":13470,"ByteChannel":13471,"Ġendpoint":13472,"Ġmodifier":13473,"Atomic":13474,"ĠVALUES":13475,"ĠFRAME":13476,"',":13477,"DY":13478,"LANGUAGE":13479,"eigh":13480,"xFFFFFFFF":13481,"ĠmAllow":13482,"Ġfis":13483,"ContentValues":13484,"ĠWifiAware":13485,"184":13486,"374":13487,"ĠPreferenceManager":13488,"ĠErrors":13489,"ĠenforceCallingOrSelfPermission":13490,"236":13491,"257":13492,"696":13493,":%":13494,"Ġpr":13495,"lam":13496,"Ġll":13497,"Ġrem":13498,"ĠRout":13499,"ĠHi":13500,"ldml":13501,"secure":13502,"Important":13503,"ĠSdkConstantType":13504,"ĠisNaN":13505,"ĠClassOrInterfaceDeclaration":13506,"MUSIC":13507,"gy":13508,"ĠgetAsString":13509,"ĠsetE":13510,"Ġpresence":13511,"ĠCacheBuilder":13512,"bitrary":13513,"StaNetwork":13514,"Ġform":13515,"ĠEF":13516,"ĠonFinish":13517,"METRIC":13518,"ElementValue":13519,"Leading":13520,"ĠCallAudioState":13521,"contacts":13522,"OPTIONS":13523,"SUFFIX":13524,"Ġ(%":13525,"Ġtrunc":13526,"ayment":13527,"ĠDataInputStream":13528,"ognizer":13529,"315":13530,"NET":13531,"leared":13532,"ĠmDescription":13533,"resent":13534,"Starter":13535,"ĠNEXT":13536,"Ġxy":13537,"506":13538,"QueryParameter":13539,"HERE":13540,"Ġocc":13541,"Evaluator":13542,"ĠisSameInstanceAs":13543,"blah":13544,"ĠNotifyManager":13545,"Hit":13546,"ĠReq":13547,"irect":13548,"Ġsources":13549,"ĠJobInfo":13550,"ĠcleanUp":13551,"OVERRIDE":13552,"ĠDownloads":13553,"Gu":13554,"bin":13555,"tist":13556,"ĠmContainer":13557,"ĠgetOwner":13558,"ERE":13559,"ForValue":13560,"WithMaps":13561,"DIFF":13562,"Ġzf":13563,"CODED":13564,"IpAddress":13565,"GOING":13566,"ãĤ":13567,"ĠmExpanded":13568,"Ġhorizontal":13569,"upertype":13570,"Acceler":13571,"Indexes":13572,"Logic":13573,"ĠfindObject":13574,"Ġbean":13575,"ĠTexture":13576,"540":13577,"190":13578,"SettingsProto":13579,"ĠWireFormat":13580,"Cl":13581,"DAT":13582,"ky":13583,"sList":13584,"Ġbridge":13585,"ĠStringReader":13586,"ĠPlatform":13587,"THE":13588,"Uptime":13589,"ĠCarProperty":13590,"Pairs":13591,"ĠITestResult":13592,"123456789":13593,"params":13594,"Ġrollback":13595,"288":13596,"524":13597,"Ġtls":13598,"ĠSUN":13599,"Ġhere":13600,"NORE":13601,"BackStack":13602,"186":13603,"ĠZEN":13604,"278":13605,"MON":13606,"ĠgetV":13607,"RICT":13608,"347":13609,"DisplayInfo":13610,"547":13611,"NGTH":13612,"Signed":13613,"SENSOR":13614,"Ġcreator":13615,"debug":13616,"ĠonDevice":13617,"background":13618,"ĠWrite":13619,"ĠHtml":13620,"TECTION":13621,"Lease":13622,"QUAL":13623,"ĠZONE":13624,"ĠgetBitmap":13625,"287":13626,"MID":13627,"rar":13628,"ĠmApn":13629,"Ġscheduled":13630,"ĠinMinValue":13631,"ĠinMaxValue":13632,"ceiver":13633,"146":13634,"ĠAbstractTest":13635,"Clamp":13636,"Feedback":13637,"Ġincoming":13638,"ĠgetConnected":13639,"Ġ226":13640,"usc":13641,"ĠKernel":13642,"174":13643,"399":13644,"Ġcid":13645,"ĠmPro":13646,"ĠmShared":13647,"Ġfreq":13648,"Ġrate":13649,"ROY":13650,"ĠnextToken":13651,"145":13652,"Rectangle":13653,"Ġmodified":13654,"DexFile":13655,"Datasets":13656,"MotionEvent":13657,"INSTALLED":13658,"ResourceParser":13659,"ĠCoderResult":13660,"nn":13661,"Ġdeleted":13662,"UserData":13663,"ĠDisplayContent":13664,"ĠcellInfo":13665,"ĠFeatureFactory":13666,"ĠIsoType":13667,"Cal":13668,"custom":13669,"ĠgetMode":13670,"Ġthumbnail":13671,"ĠMoblab":13672,"Ġ232":13673,"NotIn":13674,"ĠregisterFor":13675,"ĠqualifiedName":13676,"Sipper":13677,"429":13678,"HEX":13679,"Lo":13680,"arrow":13681,"ingDetails":13682,"lav":13683,"006":13684,"ĠPrincipal":13685,"CommandSet":13686,"Ġdecimal":13687,"ĠDataProvider":13688,"Ġ192":13689,"ĠAUDIOFOCUS":13690,"CANCELED":13691,"ENSITY":13692,"Ġbm":13693,"Ġminutes":13694,"ĠUNSUPPORTED":13695,"RIGHTNESS":13696,"REMOVED":13697,"ĠvectorX":13698,"World":13699,"cache":13700,"sInfo":13701,"uts":13702,"ĠsetBody":13703,"ATTRIBUTE":13704,"ĠgetPublic":13705,"ReplyText":13706,"Ġnstant":13707,"Ġ\"&":13708,"ĠprintJob":13709,"ĠfileSystem":13710,"Encrypt":13711,"Ġpaths":13712,"ĠparameterName":13713,"ĠmCollector":13714,"AUTHENTI":13715,"ĠContentProviderOperation":13716,"ĠIfdId":13717,
[...]
